<?xml version="1.0"?>
<MethodSetup Method="BDT::BDT">
  <GeneralInfo>
    <Info name="TMVA Release" value="4.2.0 [262656]"/>
    <Info name="ROOT Release" value="5.34/25 [336409]"/>
    <Info name="Training events" value="68324"/>
    <Info name="Analysis type" value="Classification"/>
  </GeneralInfo>
  <Options>
    <Option name="V" modified="Yes">False</Option>
    <Option name="H" modified="Yes">False</Option>
    <Option name="NTrees" modified="Yes">400</Option>
    <Option name="MaxDepth" modified="Yes">4</Option>
    <Option name="MinNodeSize" modified="Yes">4.0%</Option>
    <Option name="nCuts" modified="Yes">40</Option>
    <Option name="BoostType" modified="Yes">Grad</Option>
    <Option name="UseBaggedBoost" modified="Yes">True</Option>
    <Option name="Shrinkage" modified="Yes">1.000000e-01</Option>
    <Option name="BaggedSampleFraction" modified="Yes">5.000000e-01</Option>
    <Option name="SeparationType" modified="Yes">giniindex</Option>
    <Option name="VerbosityLevel" modified="No">Default</Option>
    <Option name="VarTransform" modified="No">None</Option>
    <Option name="CreateMVAPdfs" modified="No">False</Option>
    <Option name="IgnoreNegWeightsInTraining" modified="No">False</Option>
    <Option name="AdaBoostR2Loss" modified="No">quadratic</Option>
    <Option name="AdaBoostBeta" modified="No">5.000000e-01</Option>
    <Option name="UseRandomisedTrees" modified="No">False</Option>
    <Option name="UseNvars" modified="No">3</Option>
    <Option name="UsePoissonNvars" modified="No">True</Option>
    <Option name="UseYesNoLeaf" modified="No">True</Option>
    <Option name="NegWeightTreatment" modified="No">ignorenegweightsintraining</Option>
    <Option name="Css" modified="No">1.000000e+00</Option>
    <Option name="Cts_sb" modified="No">1.000000e+00</Option>
    <Option name="Ctb_ss" modified="No">1.000000e+00</Option>
    <Option name="Cbb" modified="No">1.000000e+00</Option>
    <Option name="NodePurityLimit" modified="No">5.000000e-01</Option>
    <Option name="DoBoostMonitor" modified="No">False</Option>
    <Option name="UseFisherCuts" modified="No">False</Option>
    <Option name="MinLinCorrForFisher" modified="No">8.000000e-01</Option>
    <Option name="UseExclusiveVars" modified="No">False</Option>
    <Option name="DoPreselection" modified="No">False</Option>
    <Option name="SigToBkgFraction" modified="No">1.000000e+00</Option>
    <Option name="PruneMethod" modified="No">nopruning</Option>
    <Option name="PruneStrength" modified="No">0.000000e+00</Option>
    <Option name="PruningValFraction" modified="No">5.000000e-01</Option>
    <Option name="nEventsMin" modified="No">0</Option>
    <Option name="UseBaggedGrad" modified="No">False</Option>
    <Option name="GradBaggingFraction" modified="No">5.000000e-01</Option>
    <Option name="UseNTrainEvents" modified="No">0</Option>
    <Option name="NNodesMax" modified="No">0</Option>
  </Options>
  <Variables NVar="7">
    <Variable VarIndex="0" Expression="MET" Label="MET" Title="MET" Unit="" Internal="MET" Type="F" Min="100000.15625" Max="299987.84375"/>
    <Variable VarIndex="1" Expression="MT" Label="MT" Title="MT" Unit="" Internal="MT" Type="F" Min="90000.296875" Max="299915.375"/>
    <Variable VarIndex="2" Expression="dMT200" Label="dMT200" Title="dMT200" Unit="" Internal="dMT200" Type="F" Min="-39989.3125" Max="99908.453125"/>
    <Variable VarIndex="3" Expression="m_tophad" Label="m_tophad" Title="m_tophad" Unit="" Internal="m_tophad" Type="F" Min="60291.09375" Max="299925.96875"/>
    <Variable VarIndex="4" Expression="m_toplep200" Label="m_toplep200" Title="m_toplep200" Unit="" Internal="m_toplep200" Type="F" Min="100003.796875" Max="499990.28125"/>
    <Variable VarIndex="5" Expression="dphi_lep_nu200" Label="dphi_lep_nu200" Title="dphi_lep_nu200" Unit="" Internal="dphi_lep_nu200" Type="F" Min="0.00271308072843" Max="3.14158201218"/>
    <Variable VarIndex="6" Expression="dphi_rjet_lep" Label="dphi_rjet_lep" Title="dphi_rjet_lep" Unit="" Internal="dphi_rjet_lep" Type="F" Min="1.59103801707e-05" Max="3.1415643692"/>
  </Variables>
  <Spectators NSpec="0"/>
  <Classes NClass="2">
    <Class Name="Signal" Index="0"/>
    <Class Name="Background" Index="1"/>
  </Classes>
  <Transformations NTransformations="0"/>
  <MVAPdfs/>
  <Weights NTrees="400" AnalysisType="1">
    <BinaryTree type="DecisionTree" boostWeight="1.0" itree="0">
      <Node pos="s" depth="0" NCoef="0" IVar="2" Cut="11123.8" cType="1" res="-0.00444397" purity="0.495556" nType="0">
        <Node pos="l" depth="1" NCoef="0" IVar="0" Cut="168275" cType="1" res="-0.0567092" purity="0.443291" nType="0">
          <Node pos="l" depth="2" NCoef="0" IVar="2" Cut="1151.2" cType="1" res="-0.0780425" purity="0.421957" nType="0">
            <Node pos="l" depth="3" NCoef="0" IVar="4" Cut="366744" cType="1" res="-0.115709" purity="0.384291" nType="0">
              <Node pos="l" depth="4" NCoef="0" IVar="-1" Cut="0" cType="1" res="-0.00560735" purity="0.397528" nType="-99"/>
              <Node pos="r" depth="4" NCoef="0" IVar="-1" Cut="0" cType="1" res="-0.0128605" purity="0.302935" nType="-99"/>
            </Node>
            <Node pos="r" depth="3" NCoef="0" IVar="4" Cut="246846" cType="1" res="-0.0255376" purity="0.474462" nType="0">
              <Node pos="l" depth="4" NCoef="0" IVar="-1" Cut="0" cType="1" res="-0.000289693" purity="0.493638" nType="-99"/>
              <Node pos="r" depth="4" NCoef="0" IVar="-1" Cut="0" cType="1" res="-0.00287508" purity="0.440565" nType="-99"/>
            </Node>
          </Node>
          <Node pos="r" depth="2" NCoef="0" IVar="6" Cut="2.06887" cType="1" res="0.00943361" purity="0.509434" nType="0">
            <Node pos="l" depth="3" NCoef="0" IVar="-1" Cut="0" cType="1" res="-0.00218853" purity="0.455202" nType="-99"/>
            <Node pos="r" depth="3" NCoef="0" IVar="1" Cut="110390" cType="1" res="0.0418561" purity="0.541856" nType="0">
              <Node pos="l" depth="4" NCoef="0" IVar="-1" Cut="0" cType="1" res="-0.00098993" purity="0.478764" nType="-99"/>
              <Node pos="r" depth="4" NCoef="0" IVar="-1" Cut="0" cType="1" res="0.00457933" purity="0.618776" nType="-99"/>
            </Node>
          </Node>
        </Node>
        <Node pos="r" depth="1" NCoef="0" IVar="0" Cut="139002" cType="1" res="0.114161" purity="0.614161" nType="0">
          <Node pos="l" depth="2" NCoef="0" IVar="6" Cut="1.22109" cType="1" res="0.0635006" purity="0.563501" nType="0">
            <Node pos="l" depth="3" NCoef="0" IVar="-1" Cut="0" cType="1" res="0.00114716" purity="0.526332" nType="-99"/>
            <Node pos="r" depth="3" NCoef="0" IVar="-1" Cut="0" cType="1" res="0.00438245" purity="0.613516" nType="-99"/>
          </Node>
          <Node pos="r" depth="2" NCoef="0" IVar="2" Cut="15445.4" cType="1" res="0.171146" purity="0.671146" nType="0">
            <Node pos="l" depth="3" NCoef="0" IVar="-1" Cut="0" cType="1" res="0.00426564" purity="0.610973" nType="-99"/>
            <Node pos="r" depth="3" NCoef="0" IVar="3" Cut="164302" cType="1" res="0.201538" purity="0.701538" nType="0">
              <Node pos="l" depth="4" NCoef="0" IVar="-1" Cut="0" cType="1" res="0.00786036" purity="0.742382" nType="-99"/>
              <Node pos="r" depth="4" NCoef="0" IVar="-1" Cut="0" cType="1" res="0.00565664" purity="0.655025" nType="-99"/>
            </Node>
          </Node>
        </Node>
      </Node>
    </BinaryTree>
    <BinaryTree type="DecisionTree" boostWeight="1.0" itree="1">
      <Node pos="s" depth="0" NCoef="0" IVar="2" Cut="7600.64" cType="1" res="-0.00401227" purity="0.49542" nType="0">
        <Node pos="l" depth="1" NCoef="0" IVar="0" Cut="134117" cType="1" res="-0.0596333" purity="0.438519" nType="0">
          <Node pos="l" depth="2" NCoef="0" IVar="4" Cut="336655" cType="1" res="-0.0955571" purity="0.402037" nType="0">
            <Node pos="l" depth="3" NCoef="0" IVar="2" Cut="1798.98" cType="1" res="-0.0766388" purity="0.421312" nType="0">
              <Node pos="l" depth="4" NCoef="0" IVar="-1" Cut="0" cType="1" res="-0.00569052" purity="0.393208" nType="-99"/>
              <Node pos="r" depth="4" NCoef="0" IVar="-1" Cut="0" cType="1" res="-0.000495676" purity="0.488802" nType="-99"/>
            </Node>
            <Node pos="r" depth="3" NCoef="0" IVar="-1" Cut="0" cType="1" res="-0.013398" purity="0.297408" nType="-99"/>
          </Node>
          <Node pos="r" depth="2" NCoef="0" IVar="1" Cut="105362" cType="1" res="-0.0210614" purity="0.477689" nType="0">
            <Node pos="l" depth="3" NCoef="0" IVar="4" Cut="227472" cType="1" res="-0.0645604" purity="0.434055" nType="0">
              <Node pos="l" depth="4" NCoef="0" IVar="-1" Cut="0" cType="1" res="-0.00104228" purity="0.476584" nType="-99"/>
              <Node pos="r" depth="4" NCoef="0" IVar="-1" Cut="0" cType="1" res="-0.007972" purity="0.363823" nType="-99"/>
            </Node>
            <Node pos="r" depth="3" NCoef="0" IVar="2" Cut="-5102.16" cType="1" res="0.0158723" purity="0.514738" nType="0">
              <Node pos="l" depth="4" NCoef="0" IVar="-1" Cut="0" cType="1" res="-0.00187499" purity="0.459793" nType="-99"/>
              <Node pos="r" depth="4" NCoef="0" IVar="-1" Cut="0" cType="1" res="0.00176621" purity="0.541273" nType="-99"/>
            </Node>
          </Node>
        </Node>
        <Node pos="r" depth="1" NCoef="0" IVar="4" Cut="217009" cType="1" res="0.0807996" purity="0.582184" nType="0">
          <Node pos="l" depth="2" NCoef="0" IVar="2" Cut="14037.3" cType="1" res="0.132216" purity="0.633667" nType="0">
            <Node pos="l" depth="3" NCoef="0" IVar="-1" Cut="0" cType="1" res="0.00270809" purity="0.567449" nType="-99"/>
            <Node pos="r" depth="3" NCoef="0" IVar="-1" Cut="0" cType="1" res="0.00661579" purity="0.682272" nType="-99"/>
          </Node>
          <Node pos="r" depth="2" NCoef="0" IVar="6" Cut="1.21915" cType="1" res="0.0210669" purity="0.522374" nType="0">
            <Node pos="l" depth="3" NCoef="0" IVar="5" Cut="2.16525" cType="1" res="-0.0460643" purity="0.454886" nType="0">
              <Node pos="l" depth="4" NCoef="0" IVar="-1" Cut="0" cType="1" res="-0.00475949" purity="0.410794" nType="-99"/>
              <Node pos="r" depth="4" NCoef="0" IVar="-1" Cut="0" cType="1" res="0.000269244" purity="0.506921" nType="-99"/>
            </Node>
            <Node pos="r" depth="3" NCoef="0" IVar="2" Cut="14324.6" cType="1" res="0.0902753" purity="0.59195" nType="0">
              <Node pos="l" depth="4" NCoef="0" IVar="-1" Cut="0" cType="1" res="0.00106083" purity="0.524252" nType="-99"/>
              <Node pos="r" depth="4" NCoef="0" IVar="-1" Cut="0" cType="1" res="0.00558611" purity="0.648212" nType="-99"/>
            </Node>
          </Node>
        </Node>
      </Node>
    </BinaryTree>
    <BinaryTree type="DecisionTree" boostWeight="1.0" itree="2">
      <Node pos="s" depth="0" NCoef="0" IVar="2" Cut="11192.8" cType="1" res="-0.00392333" purity="0.49498" nType="0">
        <Node pos="l" depth="1" NCoef="0" IVar="0" Cut="182900" cType="1" res="-0.0494165" purity="0.44749" nType="0">
          <Node pos="l" depth="2" NCoef="0" IVar="4" Cut="335377" cType="1" res="-0.0731171" purity="0.423191" nType="0">
            <Node pos="l" depth="3" NCoef="0" IVar="2" Cut="7446.23" cType="1" res="-0.0562457" purity="0.440836" nType="0">
              <Node pos="l" depth="4" NCoef="0" IVar="-1" Cut="0" cType="1" res="-0.00366765" purity="0.425224" nType="-99"/>
              <Node pos="r" depth="4" NCoef="0" IVar="-1" Cut="0" cType="1" res="0.00103373" purity="0.523979" nType="-99"/>
            </Node>
            <Node pos="r" depth="3" NCoef="0" IVar="0" Cut="132306" cType="1" res="-0.155275" purity="0.337269" nType="0">
              <Node pos="l" depth="4" NCoef="0" IVar="-1" Cut="0" cType="1" res="-0.0159923" purity="0.267195" nType="-99"/>
              <Node pos="r" depth="4" NCoef="0" IVar="-1" Cut="0" cType="1" res="-0.00430556" purity="0.412133" nType="-99"/>
            </Node>
          </Node>
          <Node pos="r" depth="2" NCoef="0" IVar="4" Cut="197807" cType="1" res="0.0522647" purity="0.551735" nType="0">
            <Node pos="l" depth="3" NCoef="0" IVar="-1" Cut="0" cType="1" res="0.00458827" purity="0.628722" nType="-99"/>
            <Node pos="r" depth="3" NCoef="0" IVar="3" Cut="174294" cType="1" res="0.00755889" purity="0.506867" nType="0">
              <Node pos="l" depth="4" NCoef="0" IVar="-1" Cut="0" cType="1" res="-0.00199308" purity="0.459889" nType="-99"/>
              <Node pos="r" depth="4" NCoef="0" IVar="-1" Cut="0" cType="1" res="0.00223915" purity="0.555343" nType="-99"/>
            </Node>
          </Node>
        </Node>
        <Node pos="r" depth="1" NCoef="0" IVar="0" Cut="114609" cType="1" res="0.105602" purity="0.609314" nType="0">
          <Node pos="l" depth="2" NCoef="0" IVar="-1" Cut="0" cType="1" res="0.000961947" purity="0.524487" nType="-99"/>
          <Node pos="r" depth="2" NCoef="0" IVar="4" Cut="304875" cType="1" res="0.13383" purity="0.637914" nType="0">
            <Node pos="l" depth="3" NCoef="0" IVar="3" Cut="161681" cType="1" res="0.159156" purity="0.663504" nType="0">
              <Node pos="l" depth="4" NCoef="0" IVar="-1" Cut="0" cType="1" res="0.0067055" purity="0.69703" nType="-99"/>
              <Node pos="r" depth="4" NCoef="0" IVar="-1" Cut="0" cType="1" res="0.0050534" purity="0.634826" nType="-99"/>
            </Node>
            <Node pos="r" depth="3" NCoef="0" IVar="-1" Cut="0" cType="1" res="0.00183855" purity="0.548062" nType="-99"/>
          </Node>
        </Node>
      </Node>
    </BinaryTree>
    <BinaryTree type="DecisionTree" boostWeight="1.0" itree="3">
      <Node pos="s" depth="0" NCoef="0" IVar="2" Cut="11088.2" cType="1" res="-0.00659185" purity="0.491736" nType="0">
        <Node pos="l" depth="1" NCoef="0" IVar="0" Cut="134139" cType="1" res="-0.0518203" purity="0.443384" nType="0">
          <Node pos="l" depth="2" NCoef="0" IVar="0" Cut="106663" cType="1" res="-0.0919572" purity="0.400971" nType="0">
            <Node pos="l" depth="3" NCoef="0" IVar="-1" Cut="0" cType="1" res="-0.0111964" purity="0.320282" nType="-99"/>
            <Node pos="r" depth="3" NCoef="0" IVar="4" Cut="324212" cType="1" res="-0.0671344" purity="0.425806" nType="0">
              <Node pos="l" depth="4" NCoef="0" IVar="-1" Cut="0" cType="1" res="-0.00221064" purity="0.449607" nType="-99"/>
              <Node pos="r" depth="4" NCoef="0" IVar="-1" Cut="0" cType="1" res="-0.0110788" purity="0.311944" nType="-99"/>
            </Node>
          </Node>
          <Node pos="r" depth="2" NCoef="0" IVar="1" Cut="110482" cType="1" res="-0.010481" purity="0.487066" nType="0">
            <Node pos="l" depth="3" NCoef="0" IVar="2" Cut="-3857.79" cType="1" res="-0.0433937" purity="0.453358" nType="0">
              <Node pos="l" depth="4" NCoef="0" IVar="-1" Cut="0" cType="1" res="-0.00652714" purity="0.376752" nType="-99"/>
              <Node pos="r" depth="4" NCoef="0" IVar="-1" Cut="0" cType="1" res="-0.000689401" purity="0.48271" nType="-99"/>
            </Node>
            <Node pos="r" depth="3" NCoef="0" IVar="0" Cut="186711" cType="1" res="0.0257439" purity="0.524167" nType="0">
              <Node pos="l" depth="4" NCoef="0" IVar="-1" Cut="0" cType="1" res="-4.7352e-05" purity="0.495935" nType="-99"/>
              <Node pos="r" depth="4" NCoef="0" IVar="-1" Cut="0" cType="1" res="0.00328352" purity="0.583205" nType="-99"/>
            </Node>
          </Node>
        </Node>
        <Node pos="r" depth="1" NCoef="0" IVar="6" Cut="1.04046" cType="1" res="0.0985522" purity="0.604143" nType="0">
          <Node pos="l" depth="2" NCoef="0" IVar="4" Cut="227300" cType="1" res="0.0294398" purity="0.533102" nType="0">
            <Node pos="l" depth="3" NCoef="0" IVar="-1" Cut="0" cType="1" res="0.0034511" purity="0.591207" nType="-99"/>
            <Node pos="r" depth="3" NCoef="0" IVar="-1" Cut="0" cType="1" res="-0.00136848" purity="0.471792" nType="-99"/>
          </Node>
          <Node pos="r" depth="2" NCoef="0" IVar="0" Cut="163447" cType="1" res="0.144895" purity="0.651778" nType="0">
            <Node pos="l" depth="3" NCoef="0" IVar="3" Cut="168571" cType="1" res="0.102411" purity="0.608669" nType="0">
              <Node pos="l" depth="4" NCoef="0" IVar="-1" Cut="0" cType="1" res="0.00470211" purity="0.627252" nType="-99"/>
              <Node pos="r" depth="4" NCoef="0" IVar="-1" Cut="0" cType="1" res="0.0033316" purity="0.588369" nType="-99"/>
            </Node>
            <Node pos="r" depth="3" NCoef="0" IVar="-1" Cut="0" cType="1" res="0.00733264" purity="0.722982" nType="-99"/>
          </Node>
        </Node>
      </Node>
    </BinaryTree>
    <BinaryTree type="DecisionTree" boostWeight="1.0" itree="4">
      <Node pos="s" depth="0" NCoef="0" IVar="2" Cut="11088.2" cType="1" res="0.000863866" purity="0.49872" nType="0">
        <Node pos="l" depth="1" NCoef="0" IVar="2" Cut="-1370.28" cType="1" res="-0.0488263" purity="0.444797" nType="0">
          <Node pos="l" depth="2" NCoef="0" IVar="0" Cut="177817" cType="1" res="-0.100348" purity="0.390152" nType="0">
            <Node pos="l" depth="3" NCoef="0" IVar="1" Cut="110376" cType="1" res="-0.11847" purity="0.370442" nType="0">
              <Node pos="l" depth="4" NCoef="0" IVar="-1" Cut="0" cType="1" res="-0.0097776" purity="0.333466" nType="-99"/>
              <Node pos="r" depth="4" NCoef="0" IVar="-1" Cut="0" cType="1" res="-0.00453762" purity="0.40382" nType="-99"/>
            </Node>
            <Node pos="r" depth="3" NCoef="0" IVar="-1" Cut="0" cType="1" res="-0.000203214" purity="0.494274" nType="-99"/>
          </Node>
          <Node pos="r" depth="2" NCoef="0" IVar="1" Cut="100235" cType="1" res="-0.00933347" purity="0.486685" nType="0">
            <Node pos="l" depth="3" NCoef="0" IVar="0" Cut="139028" cType="1" res="-0.0708759" purity="0.424497" nType="0">
              <Node pos="l" depth="4" NCoef="0" IVar="-1" Cut="0" cType="1" res="-0.00629735" purity="0.377396" nType="-99"/>
              <Node pos="r" depth="4" NCoef="0" IVar="-1" Cut="0" cType="1" res="-0.00127545" purity="0.470223" nType="-99"/>
            </Node>
            <Node pos="r" depth="3" NCoef="0" IVar="0" Cut="134111" cType="1" res="0.0179682" purity="0.514273" nType="0">
              <Node pos="l" depth="4" NCoef="0" IVar="-1" Cut="0" cType="1" res="-0.000966564" purity="0.472212" nType="-99"/>
              <Node pos="r" depth="4" NCoef="0" IVar="-1" Cut="0" cType="1" res="0.00222639" purity="0.551245" nType="-99"/>
            </Node>
          </Node>
        </Node>
        <Node pos="r" depth="1" NCoef="0" IVar="6" Cut="1.05153" cType="1" res="0.114762" purity="0.622318" nType="0">
          <Node pos="l" depth="2" NCoef="0" IVar="4" Cut="227012" cType="1" res="0.046502" purity="0.550947" nType="0">
            <Node pos="l" depth="3" NCoef="0" IVar="-1" Cut="0" cType="1" res="0.00387515" purity="0.602392" nType="-99"/>
            <Node pos="r" depth="3" NCoef="0" IVar="-1" Cut="0" cType="1" res="-0.000395357" purity="0.492337" nType="-99"/>
          </Node>
          <Node pos="r" depth="2" NCoef="0" IVar="0" Cut="153631" cType="1" res="0.158811" purity="0.668374" nType="0">
            <Node pos="l" depth="3" NCoef="0" IVar="-1" Cut="0" cType="1" res="0.00422828" purity="0.619272" nType="-99"/>
            <Node pos="r" depth="3" NCoef="0" IVar="-1" Cut="0" cType="1" res="0.00748779" purity="0.726594" nType="-99"/>
          </Node>
        </Node>
      </Node>
    </BinaryTree>
    <BinaryTree type="DecisionTree" boostWeight="1.0" itree="5">
      <Node pos="s" depth="0" NCoef="0" IVar="2" Cut="11200.6" cType="1" res="0.0102938" purity="0.507846" nType="0">
        <Node pos="l" depth="1" NCoef="0" IVar="4" Cut="304998" cType="1" res="-0.0458286" purity="0.446078" nType="0">
          <Node pos="l" depth="2" NCoef="0" IVar="2" Cut="-1276.66" cType="1" res="-0.028842" purity="0.464469" nType="0">
            <Node pos="l" depth="3" NCoef="0" IVar="5" Cut="1.02137" cType="1" res="-0.0653036" purity="0.423682" nType="0">
              <Node pos="l" depth="4" NCoef="0" IVar="-1" Cut="0" cType="1" res="-0.00863633" purity="0.338796" nType="-99"/>
              <Node pos="r" depth="4" NCoef="0" IVar="-1" Cut="0" cType="1" res="-0.00223331" purity="0.443035" nType="-99"/>
            </Node>
            <Node pos="r" depth="3" NCoef="0" IVar="4" Cut="245230" cType="1" res="-0.00233624" purity="0.494119" nType="0">
              <Node pos="l" depth="4" NCoef="0" IVar="-1" Cut="0" cType="1" res="0.000504652" purity="0.50809" nType="-99"/>
              <Node pos="r" depth="4" NCoef="0" IVar="-1" Cut="0" cType="1" res="-0.00283979" purity="0.438912" nType="-99"/>
            </Node>
          </Node>
          <Node pos="r" depth="2" NCoef="0" IVar="0" Cut="134130" cType="1" res="-0.0977215" purity="0.389893" nType="0">
            <Node pos="l" depth="3" NCoef="0" IVar="-1" Cut="0" cType="1" res="-0.0098432" purity="0.319242" nType="-99"/>
            <Node pos="r" depth="3" NCoef="0" IVar="0" Cut="162441" cType="1" res="-0.0507794" purity="0.443965" nType="0">
              <Node pos="l" depth="4" NCoef="0" IVar="-1" Cut="0" cType="1" res="0.000664523" purity="0.506492" nType="-99"/>
              <Node pos="r" depth="4" NCoef="0" IVar="-1" Cut="0" cType="1" res="-0.00620135" purity="0.388578" nType="-99"/>
            </Node>
          </Node>
        </Node>
        <Node pos="r" depth="1" NCoef="0" IVar="0" Cut="139006" cType="1" res="0.131626" purity="0.641385" nType="0">
          <Node pos="l" depth="2" NCoef="0" IVar="4" Cut="208003" cType="1" res="0.0606083" purity="0.567936" nType="0">
            <Node pos="l" depth="3" NCoef="0" IVar="-1" Cut="0" cType="1" res="0.00443724" purity="0.62288" nType="-99"/>
            <Node pos="r" depth="3" NCoef="0" IVar="-1" Cut="0" cType="1" res="-0.000290609" purity="0.498081" nType="-99"/>
          </Node>
          <Node pos="r" depth="2" NCoef="0" IVar="6" Cut="1.12897" cType="1" res="0.202075" purity="0.714244" nType="0">
            <Node pos="l" depth="3" NCoef="0" IVar="-1" Cut="0" cType="1" res="0.00463038" purity="0.637555" nType="-99"/>
            <Node pos="r" depth="3" NCoef="0" IVar="1" Cut="110308" cType="1" res="0.234169" purity="0.748493" nType="0">
              <Node pos="l" depth="4" NCoef="0" IVar="-1" Cut="0" cType="1" res="0.00688964" purity="0.708313" nType="-99"/>
              <Node pos="r" depth="4" NCoef="0" IVar="-1" Cut="0" cType="1" res="0.00852958" purity="0.77946" nType="-99"/>
            </Node>
          </Node>
        </Node>
      </Node>
    </BinaryTree>
    <BinaryTree type="DecisionTree" boostWeight="1.0" itree="6">
      <Node pos="s" depth="0" NCoef="0" IVar="2" Cut="11123.8" cType="1" res="0.00640857" purity="0.503176" nType="0">
        <Node pos="l" depth="1" NCoef="0" IVar="0" Cut="178027" cType="1" res="-0.0334474" purity="0.457164" nType="0">
          <Node pos="l" depth="2" NCoef="0" IVar="4" Cut="285770" cType="1" res="-0.0511609" purity="0.437504" nType="0">
            <Node pos="l" depth="3" NCoef="0" IVar="2" Cut="7384.58" cType="1" res="-0.0291327" purity="0.462223" nType="0">
              <Node pos="l" depth="4" NCoef="0" IVar="-1" Cut="0" cType="1" res="-0.00228261" purity="0.443943" nType="-99"/>
              <Node pos="r" depth="4" NCoef="0" IVar="-1" Cut="0" cType="1" res="0.00227909" purity="0.554225" nType="-99"/>
            </Node>
            <Node pos="r" depth="3" NCoef="0" IVar="0" Cut="115215" cType="1" res="-0.106854" purity="0.375009" nType="0">
              <Node pos="l" depth="4" NCoef="0" IVar="-1" Cut="0" cType="1" res="-0.0107924" purity="0.306463" nType="-99"/>
              <Node pos="r" depth="4" NCoef="0" IVar="-1" Cut="0" cType="1" res="-0.00409743" purity="0.405022" nType="-99"/>
            </Node>
          </Node>
          <Node pos="r" depth="2" NCoef="0" IVar="3" Cut="165910" cType="1" res="0.0366872" purity="0.535007" nType="0">
            <Node pos="l" depth="3" NCoef="0" IVar="-1" Cut="0" cType="1" res="-0.000269454" purity="0.491811" nType="-99"/>
            <Node pos="r" depth="3" NCoef="0" IVar="2" Cut="2441.03" cType="1" res="0.0660028" purity="0.564759" nType="0">
              <Node pos="l" depth="4" NCoef="0" IVar="-1" Cut="0" cType="1" res="0.0013041" purity="0.529049" nType="-99"/>
              <Node pos="r" depth="4" NCoef="0" IVar="-1" Cut="0" cType="1" res="0.00406505" purity="0.603672" nType="-99"/>
            </Node>
          </Node>
        </Node>
        <Node pos="r" depth="1" NCoef="0" IVar="4" Cut="216970" cType="1" res="0.101893" purity="0.613407" nType="0">
          <Node pos="l" depth="2" NCoef="0" IVar="1" Cut="105622" cType="1" res="0.135661" purity="0.649838" nType="0">
            <Node pos="l" depth="3" NCoef="0" IVar="-1" Cut="0" cType="1" res="0.00311587" purity="0.590526" nType="-99"/>
            <Node pos="r" depth="3" NCoef="0" IVar="-1" Cut="0" cType="1" res="0.00631265" purity="0.687337" nType="-99"/>
          </Node>
          <Node pos="r" depth="2" NCoef="0" IVar="6" Cut="1.05152" cType="1" res="0.0624684" purity="0.570874" nType="0">
            <Node pos="l" depth="3" NCoef="0" IVar="-1" Cut="0" cType="1" res="-3.51429e-05" purity="0.501209" nType="-99"/>
            <Node pos="r" depth="3" NCoef="0" IVar="-1" Cut="0" cType="1" res="0.00448558" purity="0.630765" nType="-99"/>
          </Node>
        </Node>
      </Node>
    </BinaryTree>
    <BinaryTree type="DecisionTree" boostWeight="1.0" itree="7">
      <Node pos="s" depth="0" NCoef="0" IVar="2" Cut="7780.66" cType="1" res="0.00819286" purity="0.505064" nType="0">
        <Node pos="l" depth="1" NCoef="0" IVar="2" Cut="-6201.64" cType="1" res="-0.0408631" purity="0.447569" nType="0">
          <Node pos="l" depth="2" NCoef="0" IVar="1" Cut="115588" cType="1" res="-0.0915181" purity="0.391377" nType="0">
            <Node pos="l" depth="3" NCoef="0" IVar="5" Cut="1.10199" cType="1" res="-0.127129" purity="0.355209" nType="0">
              <Node pos="l" depth="4" NCoef="0" IVar="-1" Cut="0" cType="1" res="-0.00294773" purity="0.423099" nType="-99"/>
              <Node pos="r" depth="4" NCoef="0" IVar="-1" Cut="0" cType="1" res="-0.0111372" purity="0.311194" nType="-99"/>
            </Node>
            <Node pos="r" depth="3" NCoef="0" IVar="6" Cut="2.72717" cType="1" res="-0.0487526" purity="0.434813" nType="0">
              <Node pos="l" depth="4" NCoef="0" IVar="-1" Cut="0" cType="1" res="-0.00392491" purity="0.407938" nType="-99"/>
              <Node pos="r" depth="4" NCoef="0" IVar="-1" Cut="0" cType="1" res="-0.00116966" purity="0.460611" nType="-99"/>
            </Node>
          </Node>
          <Node pos="r" depth="2" NCoef="0" IVar="1" Cut="100206" cType="1" res="-0.0184467" purity="0.472435" nType="0">
            <Node pos="l" depth="3" NCoef="0" IVar="6" Cut="2.06865" cType="1" res="-0.0746923" purity="0.414578" nType="0">
              <Node pos="l" depth="4" NCoef="0" IVar="-1" Cut="0" cType="1" res="-0.0079552" purity="0.352658" nType="-99"/>
              <Node pos="r" depth="4" NCoef="0" IVar="-1" Cut="0" cType="1" res="-0.00161495" purity="0.455692" nType="-99"/>
            </Node>
            <Node pos="r" depth="3" NCoef="0" IVar="0" Cut="114631" cType="1" res="0.00859037" purity="0.500246" nType="0">
              <Node pos="l" depth="4" NCoef="0" IVar="-1" Cut="0" cType="1" res="-0.00329679" purity="0.418658" nType="-99"/>
              <Node pos="r" depth="4" NCoef="0" IVar="-1" Cut="0" cType="1" res="0.00137365" purity="0.525878" nType="-99"/>
            </Node>
          </Node>
        </Node>
        <Node pos="r" depth="1" NCoef="0" IVar="6" Cut="1.05838" cType="1" res="0.0850298" purity="0.595119" nType="0">
          <Node pos="l" depth="2" NCoef="0" IVar="4" Cut="207975" cType="1" res="0.015307" purity="0.520993" nType="0">
            <Node pos="l" depth="3" NCoef="0" IVar="-1" Cut="0" cType="1" res="0.0035452" purity="0.602133" nType="-99"/>
            <Node pos="r" depth="3" NCoef="0" IVar="-1" Cut="0" cType="1" res="-0.00260052" purity="0.448321" nType="-99"/>
          </Node>
          <Node pos="r" depth="2" NCoef="0" IVar="2" Cut="12268.1" cType="1" res="0.128459" purity="0.641291" nType="0">
            <Node pos="l" depth="3" NCoef="0" IVar="-1" Cut="0" cType="1" res="0.00221802" purity="0.55555" nType="-99"/>
            <Node pos="r" depth="3" NCoef="0" IVar="0" Cut="178046" cType="1" res="0.163604" purity="0.68132" nType="0">
              <Node pos="l" depth="4" NCoef="0" IVar="-1" Cut="0" cType="1" res="0.00510637" purity="0.650391" nType="-99"/>
              <Node pos="r" depth="4" NCoef="0" IVar="-1" Cut="0" cType="1" res="0.00772262" purity="0.752111" nType="-99"/>
            </Node>
          </Node>
        </Node>
      </Node>
    </BinaryTree>
    <BinaryTree type="DecisionTree" boostWeight="1.0" itree="8">
      <Node pos="s" depth="0" NCoef="0" IVar="2" Cut="4277.83" cType="1" res="0.0016851" purity="0.498055" nType="0">
        <Node pos="l" depth="1" NCoef="0" IVar="0" Cut="134093" cType="1" res="-0.0591163" purity="0.426336" nType="0">
          <Node pos="l" depth="2" NCoef="0" IVar="4" Cut="238744" cType="1" res="-0.0972414" purity="0.382324" nType="0">
            <Node pos="l" depth="3" NCoef="0" IVar="5" Cut="1.54439" cType="1" res="-0.0710514" purity="0.413141" nType="0">
              <Node pos="l" depth="4" NCoef="0" IVar="-1" Cut="0" cType="1" res="-0.00570638" purity="0.3792" nType="-99"/>
              <Node pos="r" depth="4" NCoef="0" IVar="-1" Cut="0" cType="1" res="-0.00200768" purity="0.444887" nType="-99"/>
            </Node>
            <Node pos="r" depth="3" NCoef="0" IVar="3" Cut="170624" cType="1" res="-0.127524" purity="0.346692" nType="0">
              <Node pos="l" depth="4" NCoef="0" IVar="-1" Cut="0" cType="1" res="-0.0103815" purity="0.3099" nType="-99"/>
              <Node pos="r" depth="4" NCoef="0" IVar="-1" Cut="0" cType="1" res="-0.00513857" purity="0.381253" nType="-99"/>
            </Node>
          </Node>
          <Node pos="r" depth="2" NCoef="0" IVar="6" Cut="1.83959" cType="1" res="-0.0174516" purity="0.474434" nType="0">
            <Node pos="l" depth="3" NCoef="0" IVar="-1" Cut="0" cType="1" res="-0.0040086" purity="0.410275" nType="-99"/>
            <Node pos="r" depth="3" NCoef="0" IVar="3" Cut="148127" cType="1" res="0.00309197" purity="0.494955" nType="0">
              <Node pos="l" depth="4" NCoef="0" IVar="-1" Cut="0" cType="1" res="0.00280995" purity="0.559314" nType="-99"/>
              <Node pos="r" depth="4" NCoef="0" IVar="-1" Cut="0" cType="1" res="-0.000877286" purity="0.473385" nType="-99"/>
            </Node>
          </Node>
        </Node>
        <Node pos="r" depth="1" NCoef="0" IVar="2" Cut="18230.9" cType="1" res="0.0620832" purity="0.569298" nType="0">
          <Node pos="l" depth="2" NCoef="0" IVar="4" Cut="246340" cType="1" res="0.0310952" purity="0.534401" nType="0">
            <Node pos="l" depth="3" NCoef="0" IVar="4" Cut="164224" cType="1" res="0.0577034" purity="0.563292" nType="0">
              <Node pos="l" depth="4" NCoef="0" IVar="-1" Cut="0" cType="1" res="-0.000235344" purity="0.501311" nType="-99"/>
              <Node pos="r" depth="4" NCoef="0" IVar="-1" Cut="0" cType="1" res="0.00313161" purity="0.583686" nType="-99"/>
            </Node>
            <Node pos="r" depth="3" NCoef="0" IVar="0" Cut="139022" cType="1" res="-0.0176585" purity="0.481464" nType="0">
              <Node pos="l" depth="4" NCoef="0" IVar="-1" Cut="0" cType="1" res="-0.00448885" purity="0.408653" nType="-99"/>
              <Node pos="r" depth="4" NCoef="0" IVar="-1" Cut="0" cType="1" res="0.00125021" purity="0.533527" nType="-99"/>
            </Node>
          </Node>
          <Node pos="r" depth="2" NCoef="0" IVar="4" Cut="208513" cType="1" res="0.132559" purity="0.648666" nType="0">
            <Node pos="l" depth="3" NCoef="0" IVar="-1" Cut="0" cType="1" res="0.00659091" purity="0.706559" nType="-99"/>
            <Node pos="r" depth="3" NCoef="0" IVar="-1" Cut="0" cType="1" res="0.00302348" purity="0.586926" nType="-99"/>
          </Node>
        </Node>
      </Node>
    </BinaryTree>
    <BinaryTree type="DecisionTree" boostWeight="1.0" itree="9">
      <Node pos="s" depth="0" NCoef="0" IVar="2" Cut="11116" cType="1" res="0.00831624" purity="0.504812" nType="0">
        <Node pos="l" depth="1" NCoef="0" IVar="4" Cut="246325" cType="1" res="-0.0385915" purity="0.448723" nType="0">
          <Node pos="l" depth="2" NCoef="0" IVar="2" Cut="7374.42" cType="1" res="-0.00832359" purity="0.482668" nType="0">
            <Node pos="l" depth="3" NCoef="0" IVar="0" Cut="124363" cType="1" res="-0.0258195" purity="0.462598" nType="0">
              <Node pos="l" depth="4" NCoef="0" IVar="-1" Cut="0" cType="1" res="-0.0031681" purity="0.423815" nType="-99"/>
              <Node pos="r" depth="4" NCoef="0" IVar="-1" Cut="0" cType="1" res="-6.20415e-05" purity="0.490473" nType="-99"/>
            </Node>
            <Node pos="r" depth="3" NCoef="0" IVar="-1" Cut="0" cType="1" res="0.00296938" purity="0.576256" nType="-99"/>
          </Node>
          <Node pos="r" depth="2" NCoef="0" IVar="0" Cut="114636" cType="1" res="-0.0804451" purity="0.401786" nType="0">
            <Node pos="l" depth="3" NCoef="0" IVar="-1" Cut="0" cType="1" res="-0.0100362" purity="0.315908" nType="-99"/>
            <Node pos="r" depth="3" NCoef="0" IVar="2" Cut="-3844.68" cType="1" res="-0.0550622" purity="0.43152" nType="0">
              <Node pos="l" depth="4" NCoef="0" IVar="-1" Cut="0" cType="1" res="-0.00541029" purity="0.383018" nType="-99"/>
              <Node pos="r" depth="4" NCoef="0" IVar="-1" Cut="0" cType="1" res="-0.00132863" purity="0.462561" nType="-99"/>
            </Node>
          </Node>
        </Node>
        <Node pos="r" depth="1" NCoef="0" IVar="6" Cut="1.12897" cType="1" res="0.114073" purity="0.631269" nType="0">
          <Node pos="l" depth="2" NCoef="0" IVar="4" Cut="217053" cType="1" res="0.0515506" purity="0.561983" nType="0">
            <Node pos="l" depth="3" NCoef="0" IVar="-1" Cut="0" cType="1" res="0.00400607" purity="0.622375" nType="-99"/>
            <Node pos="r" depth="3" NCoef="0" IVar="-1" Cut="0" cType="1" res="-0.000114275" purity="0.499852" nType="-99"/>
          </Node>
          <Node pos="r" depth="2" NCoef="0" IVar="0" Cut="153656" cType="1" res="0.161722" purity="0.684073" nType="0">
            <Node pos="l" depth="3" NCoef="0" IVar="-1" Cut="0" cType="1" res="0.00410437" purity="0.624287" nType="-99"/>
            <Node pos="r" depth="3" NCoef="0" IVar="-1" Cut="0" cType="1" res="0.0073712" purity="0.747225" nType="-99"/>
          </Node>
        </Node>
      </Node>
    </BinaryTree>
    <BinaryTree type="DecisionTree" boostWeight="1.0" itree="10">
      <Node pos="s" depth="0" NCoef="0" IVar="2" Cut="17947.3" cType="1" res="0.00863369" purity="0.504475" nType="0">
        <Node pos="l" depth="1" NCoef="0" IVar="2" Cut="2410.12" cType="1" res="-0.0204797" purity="0.470388" nType="0">
          <Node pos="l" depth="2" NCoef="0" IVar="0" Cut="178025" cType="1" res="-0.0554185" purity="0.425563" nType="0">
            <Node pos="l" depth="3" NCoef="0" IVar="1" Cut="110376" cType="1" res="-0.069966" purity="0.40795" nType="0">
              <Node pos="l" depth="4" NCoef="0" IVar="-1" Cut="0" cType="1" res="-0.00577979" purity="0.376573" nType="-99"/>
              <Node pos="r" depth="4" NCoef="0" IVar="-1" Cut="0" cType="1" res="-0.00196032" purity="0.438922" nType="-99"/>
            </Node>
            <Node pos="r" depth="3" NCoef="0" IVar="-1" Cut="0" cType="1" res="0.00053137" purity="0.507319" nType="-99"/>
          </Node>
          <Node pos="r" depth="2" NCoef="0" IVar="4" Cut="353654" cType="1" res="0.0184532" purity="0.520338" nType="0">
            <Node pos="l" depth="3" NCoef="0" IVar="0" Cut="114636" cType="1" res="0.0298492" purity="0.533005" nType="0">
              <Node pos="l" depth="4" NCoef="0" IVar="-1" Cut="0" cType="1" res="-0.00117428" purity="0.471541" nType="-99"/>
              <Node pos="r" depth="4" NCoef="0" IVar="-1" Cut="0" cType="1" res="0.00200434" purity="0.553414" nType="-99"/>
            </Node>
            <Node pos="r" depth="3" NCoef="0" IVar="-1" Cut="0" cType="1" res="-0.00302622" purity="0.435005" nType="-99"/>
          </Node>
        </Node>
        <Node pos="r" depth="1" NCoef="0" IVar="6" Cut="1.33792" cType="1" res="0.150667" purity="0.670774" nType="0">
          <Node pos="l" depth="2" NCoef="0" IVar="-1" Cut="0" cType="1" res="0.00398015" purity="0.620085" nType="-99"/>
          <Node pos="r" depth="2" NCoef="0" IVar="-1" Cut="0" cType="1" res="0.00690594" purity="0.729803" nType="-99"/>
        </Node>
      </Node>
    </BinaryTree>
    <BinaryTree type="DecisionTree" boostWeight="1.0" itree="11">
      <Node pos="s" depth="0" NCoef="0" IVar="2" Cut="11095.9" cType="1" res="-0.000118798" purity="0.495716" nType="0">
        <Node pos="l" depth="1" NCoef="0" IVar="0" Cut="139014" cType="1" res="-0.0399962" purity="0.445384" nType="0">
          <Node pos="l" depth="2" NCoef="0" IVar="4" Cut="207838" cType="1" res="-0.0680332" purity="0.410649" nType="0">
            <Node pos="l" depth="3" NCoef="0" IVar="3" Cut="164187" cType="1" res="-0.0182762" purity="0.467891" nType="0">
              <Node pos="l" depth="4" NCoef="0" IVar="-1" Cut="0" cType="1" res="0.00149669" purity="0.520099" nType="-99"/>
              <Node pos="r" depth="4" NCoef="0" IVar="-1" Cut="0" cType="1" res="-0.00310573" purity="0.425747" nType="-99"/>
            </Node>
            <Node pos="r" depth="3" NCoef="0" IVar="2" Cut="-1372.06" cType="1" res="-0.101549" purity="0.372091" nType="0">
              <Node pos="l" depth="4" NCoef="0" IVar="-1" Cut="0" cType="1" res="-0.00754303" purity="0.345001" nType="-99"/>
              <Node pos="r" depth="4" NCoef="0" IVar="-1" Cut="0" cType="1" res="-0.00389971" purity="0.406836" nType="-99"/>
            </Node>
          </Node>
          <Node pos="r" depth="2" NCoef="0" IVar="0" Cut="205758" cType="1" res="-0.00494756" purity="0.488807" nType="0">
            <Node pos="l" depth="3" NCoef="0" IVar="5" Cut="0.957707" cType="1" res="-0.0225596" purity="0.469255" nType="0">
              <Node pos="l" depth="4" NCoef="0" IVar="-1" Cut="0" cType="1" res="-0.0047832" purity="0.40271" nType="-99"/>
              <Node pos="r" depth="4" NCoef="0" IVar="-1" Cut="0" cType="1" res="-0.000119228" purity="0.489669" nType="-99"/>
            </Node>
            <Node pos="r" depth="3" NCoef="0" IVar="-1" Cut="0" cType="1" res="0.00196523" purity="0.545951" nType="-99"/>
          </Node>
        </Node>
        <Node pos="r" depth="1" NCoef="0" IVar="6" Cut="1.04639" cType="1" res="0.0935319" purity="0.613918" nType="0">
          <Node pos="l" depth="2" NCoef="0" IVar="4" Cut="227028" cType="1" res="0.0380213" purity="0.54978" nType="0">
            <Node pos="l" depth="3" NCoef="0" IVar="-1" Cut="0" cType="1" res="0.00360277" purity="0.612019" nType="-99"/>
            <Node pos="r" depth="3" NCoef="0" IVar="-1" Cut="0" cType="1" res="-0.0010807" purity="0.478804" nType="-99"/>
          </Node>
          <Node pos="r" depth="2" NCoef="0" IVar="0" Cut="173131" cType="1" res="0.131085" purity="0.657307" nType="0">
            <Node pos="l" depth="3" NCoef="0" IVar="4" Cut="216500" cType="1" res="0.099166" purity="0.622504" nType="0">
              <Node pos="l" depth="4" NCoef="0" IVar="-1" Cut="0" cType="1" res="0.00497601" purity="0.659102" nType="-99"/>
              <Node pos="r" depth="4" NCoef="0" IVar="-1" Cut="0" cType="1" res="0.00186952" purity="0.56494" nType="-99"/>
            </Node>
            <Node pos="r" depth="3" NCoef="0" IVar="-1" Cut="0" cType="1" res="0.00657808" purity="0.724568" nType="-99"/>
          </Node>
        </Node>
      </Node>
    </BinaryTree>
    <BinaryTree type="DecisionTree" boostWeight="1.0" itree="12">
      <Node pos="s" depth="0" NCoef="0" IVar="2" Cut="14604.9" cType="1" res="-0.00511481" purity="0.489801" nType="0">
        <Node pos="l" depth="1" NCoef="0" IVar="4" Cut="363518" cType="1" res="-0.0326906" purity="0.454629" nType="0">
          <Node pos="l" depth="2" NCoef="0" IVar="0" Cut="124386" cType="1" res="-0.0193818" purity="0.469573" nType="0">
            <Node pos="l" depth="3" NCoef="0" IVar="4" Cut="223639" cType="1" res="-0.0559201" purity="0.424988" nType="0">
              <Node pos="l" depth="4" NCoef="0" IVar="-1" Cut="0" cType="1" res="-0.00439971" purity="0.406034" nType="-99"/>
              <Node pos="r" depth="4" NCoef="0" IVar="-1" Cut="0" cType="1" res="-0.00136069" purity="0.446045" nType="-99"/>
            </Node>
            <Node pos="r" depth="3" NCoef="0" IVar="2" Cut="-6700.64" cType="1" res="0.00668013" purity="0.501375" nType="0">
              <Node pos="l" depth="4" NCoef="0" IVar="-1" Cut="0" cType="1" res="-0.00260606" purity="0.428902" nType="-99"/>
              <Node pos="r" depth="4" NCoef="0" IVar="-1" Cut="0" cType="1" res="0.000902613" purity="0.518518" nType="-99"/>
            </Node>
          </Node>
          <Node pos="r" depth="2" NCoef="0" IVar="2" Cut="31.6695" cType="1" res="-0.125136" purity="0.350826" nType="0">
            <Node pos="l" depth="3" NCoef="0" IVar="-1" Cut="0" cType="1" res="-0.0115915" purity="0.29631" nType="-99"/>
            <Node pos="r" depth="3" NCoef="0" IVar="-1" Cut="0" cType="1" res="-0.00412101" purity="0.40756" nType="-99"/>
          </Node>
        </Node>
        <Node pos="r" depth="1" NCoef="0" IVar="0" Cut="143900" cType="1" res="0.0978118" purity="0.621082" nType="0">
          <Node pos="l" depth="2" NCoef="0" IVar="4" Cut="227461" cType="1" res="0.0433576" purity="0.561967" nType="0">
            <Node pos="l" depth="3" NCoef="0" IVar="-1" Cut="0" cType="1" res="0.00305328" purity="0.600475" nType="-99"/>
            <Node pos="r" depth="3" NCoef="0" IVar="-1" Cut="0" cType="1" res="-0.000220643" purity="0.504065" nType="-99"/>
          </Node>
          <Node pos="r" depth="2" NCoef="0" IVar="6" Cut="1.5494" cType="1" res="0.169041" purity="0.698408" nType="0">
            <Node pos="l" depth="3" NCoef="0" IVar="-1" Cut="0" cType="1" res="0.0047838" purity="0.65253" nType="-99"/>
            <Node pos="r" depth="3" NCoef="0" IVar="-1" Cut="0" cType="1" res="0.00701093" purity="0.747096" nType="-99"/>
          </Node>
        </Node>
      </Node>
    </BinaryTree>
    <BinaryTree type="DecisionTree" boostWeight="1.0" itree="13">
      <Node pos="s" depth="0" NCoef="0" IVar="2" Cut="14604.9" cType="1" res="0.012535" purity="0.507456" nType="0">
        <Node pos="l" depth="1" NCoef="0" IVar="0" Cut="139014" cType="1" res="-0.0124923" purity="0.473873" nType="0">
          <Node pos="l" depth="2" NCoef="0" IVar="2" Cut="6616.62" cType="1" res="-0.0385119" purity="0.440058" nType="0">
            <Node pos="l" depth="3" NCoef="0" IVar="5" Cut="1.14853" cType="1" res="-0.0551831" purity="0.415826" nType="0">
              <Node pos="l" depth="4" NCoef="0" IVar="-1" Cut="0" cType="1" res="-0.000681485" purity="0.455492" nType="-99"/>
              <Node pos="r" depth="4" NCoef="0" IVar="-1" Cut="0" cType="1" res="-0.00354438" purity="0.405558" nType="-99"/>
            </Node>
            <Node pos="r" depth="3" NCoef="0" IVar="0" Cut="115231" cType="1" res="0.00751669" purity="0.506962" nType="0">
              <Node pos="l" depth="4" NCoef="0" IVar="-1" Cut="0" cType="1" res="-0.00160173" purity="0.461893" nType="-99"/>
              <Node pos="r" depth="4" NCoef="0" IVar="-1" Cut="0" cType="1" res="0.0018437" purity="0.546293" nType="-99"/>
            </Node>
          </Node>
          <Node pos="r" depth="2" NCoef="0" IVar="2" Cut="-5370.8" cType="1" res="0.0191554" purity="0.515001" nType="0">
            <Node pos="l" depth="3" NCoef="0" IVar="-1" Cut="0" cType="1" res="-0.00203309" purity="0.442076" nType="-99"/>
            <Node pos="r" depth="3" NCoef="0" IVar="1" Cut="105361" cType="1" res="0.0352074" purity="0.534684" nType="0">
              <Node pos="l" depth="4" NCoef="0" IVar="-1" Cut="0" cType="1" res="-0.00036805" purity="0.487769" nType="-99"/>
              <Node pos="r" depth="4" NCoef="0" IVar="-1" Cut="0" cType="1" res="0.00265286" purity="0.569407" nType="-99"/>
            </Node>
          </Node>
        </Node>
        <Node pos="r" depth="1" NCoef="0" IVar="0" Cut="153674" cType="1" res="0.103287" purity="0.629234" nType="0">
          <Node pos="l" depth="2" NCoef="0" IVar="4" Cut="226863" cType="1" res="0.0526753" purity="0.573765" nType="0">
            <Node pos="l" depth="3" NCoef="0" IVar="-1" Cut="0" cType="1" res="0.00336245" purity="0.613375" nType="-99"/>
            <Node pos="r" depth="3" NCoef="0" IVar="-1" Cut="0" cType="1" res="-6.86064e-05" purity="0.509111" nType="-99"/>
          </Node>
          <Node pos="r" depth="2" NCoef="0" IVar="-1" Cut="0" cType="1" res="0.00640182" purity="0.721976" nType="-99"/>
        </Node>
      </Node>
    </BinaryTree>
    <BinaryTree type="DecisionTree" boostWeight="1.0" itree="14">
      <Node pos="s" depth="0" NCoef="0" IVar="2" Cut="18024.3" cType="1" res="0.00316901" purity="0.498254" nType="0">
        <Node pos="l" depth="1" NCoef="0" IVar="2" Cut="2462.31" cType="1" res="-0.0223419" purity="0.46609" nType="0">
          <Node pos="l" depth="2" NCoef="0" IVar="5" Cut="2.25104" cType="1" res="-0.0575744" purity="0.417679" nType="0">
            <Node pos="l" depth="3" NCoef="0" IVar="1" Cut="95117.7" cType="1" res="-0.0444866" purity="0.431333" nType="0">
              <Node pos="l" depth="4" NCoef="0" IVar="-1" Cut="0" cType="1" res="-0.00464798" purity="0.387935" nType="-99"/>
              <Node pos="r" depth="4" NCoef="0" IVar="-1" Cut="0" cType="1" res="-0.0016593" purity="0.442799" nType="-99"/>
            </Node>
            <Node pos="r" depth="3" NCoef="0" IVar="-1" Cut="0" cType="1" res="-0.00774098" purity="0.342505" nType="-99"/>
          </Node>
          <Node pos="r" depth="2" NCoef="0" IVar="4" Cut="246546" cType="1" res="0.0154176" purity="0.517974" nType="0">
            <Node pos="l" depth="3" NCoef="0" IVar="0" Cut="124396" cType="1" res="0.0421952" purity="0.549184" nType="0">
              <Node pos="l" depth="4" NCoef="0" IVar="-1" Cut="0" cType="1" res="0.000170166" purity="0.505057" nType="-99"/>
              <Node pos="r" depth="4" NCoef="0" IVar="-1" Cut="0" cType="1" res="0.00266742" purity="0.578073" nType="-99"/>
            </Node>
            <Node pos="r" depth="3" NCoef="0" IVar="6" Cut="1.13253" cType="1" res="-0.0339836" purity="0.460396" nType="0">
              <Node pos="l" depth="4" NCoef="0" IVar="-1" Cut="0" cType="1" res="-0.00524344" purity="0.390089" nType="-99"/>
              <Node pos="r" depth="4" NCoef="0" IVar="-1" Cut="0" cType="1" res="0.000383846" purity="0.506526" nType="-99"/>
            </Node>
          </Node>
        </Node>
        <Node pos="r" depth="1" NCoef="0" IVar="0" Cut="139016" cType="1" res="0.1278" purity="0.655389" nType="0">
          <Node pos="l" depth="2" NCoef="0" IVar="-1" Cut="0" cType="1" res="0.00339552" purity="0.606257" nType="-99"/>
          <Node pos="r" depth="2" NCoef="0" IVar="-1" Cut="0" cType="1" res="0.00616836" purity="0.714907" nType="-99"/>
        </Node>
      </Node>
    </BinaryTree>
    <BinaryTree type="DecisionTree" boostWeight="1.0" itree="15">
      <Node pos="s" depth="0" NCoef="0" IVar="2" Cut="11124.8" cType="1" res="0.0163041" purity="0.511093" nType="0">
        <Node pos="l" depth="1" NCoef="0" IVar="0" Cut="114631" cType="1" res="-0.0185831" purity="0.462865" nType="0">
          <Node pos="l" depth="2" NCoef="0" IVar="4" Cut="294659" cType="1" res="-0.0751759" purity="0.393708" nType="0">
            <Node pos="l" depth="3" NCoef="0" IVar="6" Cut="2.22154" cType="1" res="-0.0468693" purity="0.427698" nType="0">
              <Node pos="l" depth="4" NCoef="0" IVar="-1" Cut="0" cType="1" res="-0.00390842" purity="0.407198" nType="-99"/>
              <Node pos="r" depth="4" NCoef="0" IVar="-1" Cut="0" cType="1" res="-0.000851663" purity="0.451366" nType="-99"/>
            </Node>
            <Node pos="r" depth="3" NCoef="0" IVar="-1" Cut="0" cType="1" res="-0.0125815" purity="0.271597" nType="-99"/>
          </Node>
          <Node pos="r" depth="2" NCoef="0" IVar="0" Cut="191467" cType="1" res="0.00130915" purity="0.487174" nType="0">
            <Node pos="l" depth="3" NCoef="0" IVar="3" Cut="142118" cType="1" res="-0.0107471" purity="0.471951" nType="0">
              <Node pos="l" depth="4" NCoef="0" IVar="-1" Cut="0" cType="1" res="0.000968076" purity="0.503765" nType="-99"/>
              <Node pos="r" depth="4" NCoef="0" IVar="-1" Cut="0" cType="1" res="-0.000909894" purity="0.463882" nType="-99"/>
            </Node>
            <Node pos="r" depth="3" NCoef="0" IVar="6" Cut="2.14515" cType="1" res="0.0493575" purity="0.547843" nType="0">
              <Node pos="l" depth="4" NCoef="0" IVar="-1" Cut="0" cType="1" res="0.00041316" purity="0.508275" nType="-99"/>
              <Node pos="r" depth="4" NCoef="0" IVar="-1" Cut="0" cType="1" res="0.00303981" purity="0.575079" nType="-99"/>
            </Node>
          </Node>
        </Node>
        <Node pos="r" depth="1" NCoef="0" IVar="5" Cut="2.22327" cType="1" res="0.0975534" purity="0.623413" nType="0">
          <Node pos="l" depth="2" NCoef="0" IVar="0" Cut="143875" cType="1" res="0.118775" purity="0.646645" nType="0">
            <Node pos="l" depth="3" NCoef="0" IVar="4" Cut="207537" cType="1" res="0.0690896" purity="0.59008" nType="0">
              <Node pos="l" depth="4" NCoef="0" IVar="-1" Cut="0" cType="1" res="0.00454822" purity="0.648354" nType="-99"/>
              <Node pos="r" depth="4" NCoef="0" IVar="-1" Cut="0" cType="1" res="-0.000135184" purity="0.508026" nType="-99"/>
            </Node>
            <Node pos="r" depth="3" NCoef="0" IVar="2" Cut="19766.8" cType="1" res="0.176308" purity="0.712143" nType="0">
              <Node pos="l" depth="4" NCoef="0" IVar="-1" Cut="0" cType="1" res="0.00460524" purity="0.655492" nType="-99"/>
              <Node pos="r" depth="4" NCoef="0" IVar="-1" Cut="0" cType="1" res="0.00737953" purity="0.773122" nType="-99"/>
            </Node>
          </Node>
          <Node pos="r" depth="2" NCoef="0" IVar="-1" Cut="0" cType="1" res="-0.00072295" purity="0.499263" nType="-99"/>
        </Node>
      </Node>
    </BinaryTree>
    <BinaryTree type="DecisionTree" boostWeight="1.0" itree="16">
      <Node pos="s" depth="0" NCoef="0" IVar="2" Cut="7738.82" cType="1" res="0.00809757" purity="0.502564" nType="0">
        <Node pos="l" depth="1" NCoef="0" IVar="0" Cut="104876" cType="1" res="-0.0277178" purity="0.450442" nType="0">
          <Node pos="l" depth="2" NCoef="0" IVar="-1" Cut="0" cType="1" res="-0.00733905" purity="0.339476" nType="-99"/>
          <Node pos="r" depth="2" NCoef="0" IVar="1" Cut="100232" cType="1" res="-0.0184312" purity="0.461544" nType="0">
            <Node pos="l" depth="3" NCoef="0" IVar="4" Cut="246409" cType="1" res="-0.0609588" purity="0.416571" nType="0">
              <Node pos="l" depth="4" NCoef="0" IVar="-1" Cut="0" cType="1" res="-0.00155229" purity="0.449286" nType="-99"/>
              <Node pos="r" depth="4" NCoef="0" IVar="-1" Cut="0" cType="1" res="-0.00792735" purity="0.338281" nType="-99"/>
            </Node>
            <Node pos="r" depth="3" NCoef="0" IVar="6" Cut="2.6817" cType="1" res="0.00113741" purity="0.482237" nType="0">
              <Node pos="l" depth="4" NCoef="0" IVar="-1" Cut="0" cType="1" res="0.000854522" purity="0.502004" nType="-99"/>
              <Node pos="r" depth="4" NCoef="0" IVar="-1" Cut="0" cType="1" res="-0.00268735" purity="0.424151" nType="-99"/>
            </Node>
          </Node>
        </Node>
        <Node pos="r" depth="1" NCoef="0" IVar="1" Cut="166582" cType="1" res="0.0644895" purity="0.584631" nType="0">
          <Node pos="l" depth="2" NCoef="0" IVar="2" Cut="12229" cType="1" res="0.081918" purity="0.602847" nType="0">
            <Node pos="l" depth="3" NCoef="0" IVar="6" Cut="1.47146" cType="1" res="0.0342358" purity="0.537621" nType="0">
              <Node pos="l" depth="4" NCoef="0" IVar="-1" Cut="0" cType="1" res="0.00247908" purity="0.562008" nType="-99"/>
              <Node pos="r" depth="4" NCoef="0" IVar="-1" Cut="0" cType="1" res="0.000169913" purity="0.509948" nType="-99"/>
            </Node>
            <Node pos="r" depth="3" NCoef="0" IVar="0" Cut="124368" cType="1" res="0.104618" purity="0.6339" nType="0">
              <Node pos="l" depth="4" NCoef="0" IVar="-1" Cut="0" cType="1" res="0.0024127" purity="0.579371" nType="-99"/>
              <Node pos="r" depth="4" NCoef="0" IVar="-1" Cut="0" cType="1" res="0.00507799" purity="0.672288" nType="-99"/>
            </Node>
          </Node>
          <Node pos="r" depth="2" NCoef="0" IVar="-1" Cut="0" cType="1" res="-0.00279643" purity="0.454623" nType="-99"/>
        </Node>
      </Node>
    </BinaryTree>
    <BinaryTree type="DecisionTree" boostWeight="1.0" itree="17">
      <Node pos="s" depth="0" NCoef="0" IVar="2" Cut="10854.3" cType="1" res="0.00239219" purity="0.497135" nType="0">
        <Node pos="l" depth="1" NCoef="0" IVar="2" Cut="2175.53" cType="1" res="-0.0390882" purity="0.440646" nType="0">
          <Node pos="l" depth="2" NCoef="0" IVar="6" Cut="2.0693" cType="1" res="-0.0600712" purity="0.411546" nType="0">
            <Node pos="l" depth="3" NCoef="0" IVar="0" Cut="119457" cType="1" res="-0.106247" purity="0.36444" nType="0">
              <Node pos="l" depth="4" NCoef="0" IVar="-1" Cut="0" cType="1" res="-0.00897961" purity="0.320845" nType="-99"/>
              <Node pos="r" depth="4" NCoef="0" IVar="-1" Cut="0" cType="1" res="-0.00472644" purity="0.390144" nType="-99"/>
            </Node>
            <Node pos="r" depth="3" NCoef="0" IVar="1" Cut="110469" cType="1" res="-0.0414364" purity="0.430556" nType="0">
              <Node pos="l" depth="4" NCoef="0" IVar="-1" Cut="0" cType="1" res="-0.00414947" purity="0.393712" nType="-99"/>
              <Node pos="r" depth="4" NCoef="0" IVar="-1" Cut="0" cType="1" res="-0.000290737" purity="0.467343" nType="-99"/>
            </Node>
          </Node>
          <Node pos="r" depth="2" NCoef="0" IVar="3" Cut="171678" cType="1" res="-0.0055977" purity="0.487091" nType="0">
            <Node pos="l" depth="3" NCoef="0" IVar="4" Cut="247066" cType="1" res="0.027382" purity="0.519968" nType="0">
              <Node pos="l" depth="4" NCoef="0" IVar="-1" Cut="0" cType="1" res="0.00211557" purity="0.549765" nType="-99"/>
              <Node pos="r" depth="4" NCoef="0" IVar="-1" Cut="0" cType="1" res="-0.000710454" purity="0.468306" nType="-99"/>
            </Node>
            <Node pos="r" depth="3" NCoef="0" IVar="0" Cut="153605" cType="1" res="-0.0469441" purity="0.445874" nType="0">
              <Node pos="l" depth="4" NCoef="0" IVar="-1" Cut="0" cType="1" res="-0.00380962" purity="0.413027" nType="-99"/>
              <Node pos="r" depth="4" NCoef="0" IVar="-1" Cut="0" cType="1" res="-6.83823e-05" purity="0.500832" nType="-99"/>
            </Node>
          </Node>
        </Node>
        <Node pos="r" depth="1" NCoef="0" IVar="0" Cut="114638" cType="1" res="0.0941959" purity="0.622155" nType="0">
          <Node pos="l" depth="2" NCoef="0" IVar="-1" Cut="0" cType="1" res="0.000808577" purity="0.535821" nType="-99"/>
          <Node pos="r" depth="2" NCoef="0" IVar="6" Cut="0.704181" cType="1" res="0.11837" purity="0.649829" nType="0">
            <Node pos="l" depth="3" NCoef="0" IVar="-1" Cut="0" cType="1" res="0.000770173" purity="0.534738" nType="-99"/>
            <Node pos="r" depth="3" NCoef="0" IVar="3" Cut="171817" cType="1" res="0.146204" purity="0.681721" nType="0">
              <Node pos="l" depth="4" NCoef="0" IVar="-1" Cut="0" cType="1" res="0.00611238" purity="0.710225" nType="-99"/>
              <Node pos="r" depth="4" NCoef="0" IVar="-1" Cut="0" cType="1" res="0.00389381" purity="0.638473" nType="-99"/>
            </Node>
          </Node>
        </Node>
      </Node>
    </BinaryTree>
    <BinaryTree type="DecisionTree" boostWeight="1.0" itree="18">
      <Node pos="s" depth="0" NCoef="0" IVar="2" Cut="14523.1" cType="1" res="-0.00071627" purity="0.49392" nType="0">
        <Node pos="l" depth="1" NCoef="0" IVar="2" Cut="2555.6" cType="1" res="-0.0280199" purity="0.455374" nType="0">
          <Node pos="l" depth="2" NCoef="0" IVar="0" Cut="129248" cType="1" res="-0.0585354" purity="0.411993" nType="0">
            <Node pos="l" depth="3" NCoef="0" IVar="5" Cut="1.32662" cType="1" res="-0.0970911" purity="0.361781" nType="0">
              <Node pos="l" depth="4" NCoef="0" IVar="-1" Cut="0" cType="1" res="-0.00227114" purity="0.414735" nType="-99"/>
              <Node pos="r" depth="4" NCoef="0" IVar="-1" Cut="0" cType="1" res="-0.00756919" purity="0.337967" nType="-99"/>
            </Node>
            <Node pos="r" depth="3" NCoef="0" IVar="1" Cut="105347" cType="1" res="-0.0225794" purity="0.458819" nType="0">
              <Node pos="l" depth="4" NCoef="0" IVar="-1" Cut="0" cType="1" res="-0.00559796" purity="0.376937" nType="-99"/>
              <Node pos="r" depth="4" NCoef="0" IVar="-1" Cut="0" cType="1" res="0.00143572" purity="0.518007" nType="-99"/>
            </Node>
          </Node>
          <Node pos="r" depth="2" NCoef="0" IVar="4" Cut="276051" cType="1" res="0.0106671" purity="0.510371" nType="0">
            <Node pos="l" depth="3" NCoef="0" IVar="0" Cut="143895" cType="1" res="0.0342584" purity="0.537917" nType="0">
              <Node pos="l" depth="4" NCoef="0" IVar="-1" Cut="0" cType="1" res="0.000304874" purity="0.505058" nType="-99"/>
              <Node pos="r" depth="4" NCoef="0" IVar="-1" Cut="0" cType="1" res="0.00284252" purity="0.58321" nType="-99"/>
            </Node>
            <Node pos="r" depth="3" NCoef="0" IVar="2" Cut="6934.18" cType="1" res="-0.0537885" purity="0.435112" nType="0">
              <Node pos="l" depth="4" NCoef="0" IVar="-1" Cut="0" cType="1" res="0.000690611" purity="0.496474" nType="-99"/>
              <Node pos="r" depth="4" NCoef="0" IVar="-1" Cut="0" cType="1" res="-0.00708131" purity="0.37569" nType="-99"/>
            </Node>
          </Node>
        </Node>
        <Node pos="r" depth="1" NCoef="0" IVar="6" Cut="1.10393" cType="1" res="0.0946395" purity="0.628542" nType="0">
          <Node pos="l" depth="2" NCoef="0" IVar="-1" Cut="0" cType="1" res="0.00130484" purity="0.551267" nType="-99"/>
          <Node pos="r" depth="2" NCoef="0" IVar="1" Cut="110304" cType="1" res="0.139267" purity="0.682413" nType="0">
            <Node pos="l" depth="3" NCoef="0" IVar="-1" Cut="0" cType="1" res="0.00241925" purity="0.601729" nType="-99"/>
            <Node pos="r" depth="3" NCoef="0" IVar="-1" Cut="0" cType="1" res="0.00663779" purity="0.744299" nType="-99"/>
          </Node>
        </Node>
      </Node>
    </BinaryTree>
    <BinaryTree type="DecisionTree" boostWeight="1.0" itree="19">
      <Node pos="s" depth="0" NCoef="0" IVar="2" Cut="14604.9" cType="1" res="0.0171929" purity="0.511281" nType="0">
        <Node pos="l" depth="1" NCoef="0" IVar="2" Cut="1286.61" cType="1" res="-0.01026" purity="0.47185" nType="0">
          <Node pos="l" depth="2" NCoef="0" IVar="4" Cut="170883" cType="1" res="-0.0476974" purity="0.419284" nType="0">
            <Node pos="l" depth="3" NCoef="0" IVar="-1" Cut="0" cType="1" res="0.00193959" purity="0.517309" nType="-99"/>
            <Node pos="r" depth="3" NCoef="0" IVar="1" Cut="110469" cType="1" res="-0.0613258" purity="0.404677" nType="0">
              <Node pos="l" depth="4" NCoef="0" IVar="-1" Cut="0" cType="1" res="-0.00527882" purity="0.370088" nType="-99"/>
              <Node pos="r" depth="4" NCoef="0" IVar="-1" Cut="0" cType="1" res="-0.00168657" purity="0.435919" nType="-99"/>
            </Node>
          </Node>
          <Node pos="r" depth="2" NCoef="0" IVar="4" Cut="246872" cType="1" res="0.0274081" purity="0.52474" nType="0">
            <Node pos="l" depth="3" NCoef="0" IVar="3" Cut="148174" cType="1" res="0.0555792" purity="0.55857" nType="0">
              <Node pos="l" depth="4" NCoef="0" IVar="-1" Cut="0" cType="1" res="-0.000541678" purity="0.492477" nType="-99"/>
              <Node pos="r" depth="4" NCoef="0" IVar="-1" Cut="0" cType="1" res="0.00280492" purity="0.574074" nType="-99"/>
            </Node>
            <Node pos="r" depth="3" NCoef="0" IVar="3" Cut="154273" cType="1" res="-0.0218859" purity="0.465545" nType="0">
              <Node pos="l" depth="4" NCoef="0" IVar="-1" Cut="0" cType="1" res="0.00270105" purity="0.551673" nType="-99"/>
              <Node pos="r" depth="4" NCoef="0" IVar="-1" Cut="0" cType="1" res="-0.00347769" purity="0.420919" nType="-99"/>
            </Node>
          </Node>
        </Node>
        <Node pos="r" depth="1" NCoef="0" IVar="4" Cut="178029" cType="1" res="0.111742" purity="0.647085" nType="0">
          <Node pos="l" depth="2" NCoef="0" IVar="-1" Cut="0" cType="1" res="0.00630341" purity="0.724913" nType="-99"/>
          <Node pos="r" depth="2" NCoef="0" IVar="0" Cut="173038" cType="1" res="0.0713479" purity="0.602034" nType="0">
            <Node pos="l" depth="3" NCoef="0" IVar="4" Cut="272250" cType="1" res="0.0324725" purity="0.557868" nType="0">
              <Node pos="l" depth="4" NCoef="0" IVar="-1" Cut="0" cType="1" res="0.00258252" purity="0.593697" nType="-99"/>
              <Node pos="r" depth="4" NCoef="0" IVar="-1" Cut="0" cType="1" res="-0.000579739" purity="0.504407" nType="-99"/>
            </Node>
            <Node pos="r" depth="3" NCoef="0" IVar="-1" Cut="0" cType="1" res="0.00604525" purity="0.717086" nType="-99"/>
          </Node>
        </Node>
      </Node>
    </BinaryTree>
    <BinaryTree type="DecisionTree" boostWeight="1.0" itree="20">
      <Node pos="s" depth="0" NCoef="0" IVar="2" Cut="7722.58" cType="1" res="0.00038457" purity="0.494174" nType="0">
        <Node pos="l" depth="1" NCoef="0" IVar="1" Cut="110466" cType="1" res="-0.0392895" purity="0.434394" nType="0">
          <Node pos="l" depth="2" NCoef="0" IVar="4" Cut="207364" cType="1" res="-0.064315" purity="0.407201" nType="0">
            <Node pos="l" depth="3" NCoef="0" IVar="6" Cut="1.68793" cType="1" res="-0.0293519" purity="0.449416" nType="0">
              <Node pos="l" depth="4" NCoef="0" IVar="-1" Cut="0" cType="1" res="-0.00577232" purity="0.374963" nType="-99"/>
              <Node pos="r" depth="4" NCoef="0" IVar="-1" Cut="0" cType="1" res="-2.05961e-05" purity="0.478047" nType="-99"/>
            </Node>
            <Node pos="r" depth="3" NCoef="0" IVar="2" Cut="-6236.32" cType="1" res="-0.100195" purity="0.363878" nType="0">
              <Node pos="l" depth="4" NCoef="0" IVar="-1" Cut="0" cType="1" res="-0.0111394" purity="0.290332" nType="-99"/>
              <Node pos="r" depth="4" NCoef="0" IVar="-1" Cut="0" cType="1" res="-0.00372555" purity="0.399558" nType="-99"/>
            </Node>
          </Node>
          <Node pos="r" depth="2" NCoef="0" IVar="5" Cut="2.60508" cType="1" res="-0.0125967" purity="0.4634" nType="0">
            <Node pos="l" depth="3" NCoef="0" IVar="5" Cut="1.25639" cType="1" res="0.00436029" purity="0.482136" nType="0">
              <Node pos="l" depth="4" NCoef="0" IVar="-1" Cut="0" cType="1" res="-0.0018172" purity="0.448932" nType="-99"/>
              <Node pos="r" depth="4" NCoef="0" IVar="-1" Cut="0" cType="1" res="0.000756724" purity="0.491776" nType="-99"/>
            </Node>
            <Node pos="r" depth="3" NCoef="0" IVar="-1" Cut="0" cType="1" res="-0.00504962" purity="0.377066" nType="-99"/>
          </Node>
        </Node>
        <Node pos="r" depth="1" NCoef="0" IVar="6" Cut="1.07583" cType="1" res="0.0613811" purity="0.586081" nType="0">
          <Node pos="l" depth="2" NCoef="0" IVar="4" Cut="256668" cType="1" res="0.00386308" purity="0.518509" nType="0">
            <Node pos="l" depth="3" NCoef="0" IVar="-1" Cut="0" cType="1" res="0.00231991" purity="0.579639" nType="-99"/>
            <Node pos="r" depth="3" NCoef="0" IVar="-1" Cut="0" cType="1" res="-0.00539533" purity="0.397193" nType="-99"/>
          </Node>
          <Node pos="r" depth="2" NCoef="0" IVar="2" Cut="23429.6" cType="1" res="0.0991646" purity="0.630469" nType="0">
            <Node pos="l" depth="3" NCoef="0" IVar="6" Cut="1.66701" cType="1" res="0.0742743" purity="0.599891" nType="0">
              <Node pos="l" depth="4" NCoef="0" IVar="-1" Cut="0" cType="1" res="0.00462479" purity="0.647483" nType="-99"/>
              <Node pos="r" depth="4" NCoef="0" IVar="-1" Cut="0" cType="1" res="0.00136269" purity="0.556513" nType="-99"/>
            </Node>
            <Node pos="r" depth="3" NCoef="0" IVar="-1" Cut="0" cType="1" res="0.00625269" purity="0.727537" nType="-99"/>
          </Node>
        </Node>
      </Node>
    </BinaryTree>
    <BinaryTree type="DecisionTree" boostWeight="1.0" itree="21">
      <Node pos="s" depth="0" NCoef="0" IVar="2" Cut="11200.6" cType="1" res="0.00170168" purity="0.495524" nType="0">
        <Node pos="l" depth="1" NCoef="0" IVar="0" Cut="114634" cType="1" res="-0.034949" purity="0.441318" nType="0">
          <Node pos="l" depth="2" NCoef="0" IVar="1" Cut="100138" cType="1" res="-0.084627" purity="0.374079" nType="0">
            <Node pos="l" depth="3" NCoef="0" IVar="-1" Cut="0" cType="1" res="-0.00103942" purity="0.437169" nType="-99"/>
            <Node pos="r" depth="3" NCoef="0" IVar="1" Cut="124217" cType="1" res="-0.115255" purity="0.343793" nType="0">
              <Node pos="l" depth="4" NCoef="0" IVar="-1" Cut="0" cType="1" res="-0.0105951" purity="0.306312" nType="-99"/>
              <Node pos="r" depth="4" NCoef="0" IVar="-1" Cut="0" cType="1" res="-0.00328813" purity="0.393574" nType="-99"/>
            </Node>
          </Node>
          <Node pos="r" depth="2" NCoef="0" IVar="2" Cut="8703.72" cType="1" res="-0.0174551" purity="0.464996" nType="0">
            <Node pos="l" depth="3" NCoef="0" IVar="6" Cut="0.613064" cType="1" res="-0.0265205" purity="0.453269" nType="0">
              <Node pos="l" depth="4" NCoef="0" IVar="-1" Cut="0" cType="1" res="0.00160695" purity="0.523384" nType="-99"/>
              <Node pos="r" depth="4" NCoef="0" IVar="-1" Cut="0" cType="1" res="-0.00175458" purity="0.444084" nType="-99"/>
            </Node>
            <Node pos="r" depth="3" NCoef="0" IVar="-1" Cut="0" cType="1" res="0.00231845" purity="0.56092" nType="-99"/>
          </Node>
        </Node>
        <Node pos="r" depth="1" NCoef="0" IVar="0" Cut="114637" cType="1" res="0.0857853" purity="0.619883" nType="0">
          <Node pos="l" depth="2" NCoef="0" IVar="-1" Cut="0" cType="1" res="0.000874104" purity="0.541635" nType="-99"/>
          <Node pos="r" depth="2" NCoef="0" IVar="2" Cut="17676.6" cType="1" res="0.106735" purity="0.644789" nType="0">
            <Node pos="l" depth="3" NCoef="0" IVar="5" Cut="1.3168" cType="1" res="0.0638847" purity="0.594393" nType="0">
              <Node pos="l" depth="4" NCoef="0" IVar="-1" Cut="0" cType="1" res="0.000113342" purity="0.539455" nType="-99"/>
              <Node pos="r" depth="4" NCoef="0" IVar="-1" Cut="0" cType="1" res="0.00417673" purity="0.633565" nType="-99"/>
            </Node>
            <Node pos="r" depth="3" NCoef="0" IVar="6" Cut="1.40831" cType="1" res="0.139546" purity="0.683378" nType="0">
              <Node pos="l" depth="4" NCoef="0" IVar="-1" Cut="0" cType="1" res="0.003851" purity="0.638227" nType="-99"/>
              <Node pos="r" depth="4" NCoef="0" IVar="-1" Cut="0" cType="1" res="0.00616197" purity="0.73607" nType="-99"/>
            </Node>
          </Node>
        </Node>
      </Node>
    </BinaryTree>
    <BinaryTree type="DecisionTree" boostWeight="1.0" itree="22">
      <Node pos="s" depth="0" NCoef="0" IVar="2" Cut="14555.4" cType="1" res="0.00902846" purity="0.501648" nType="0">
        <Node pos="l" depth="1" NCoef="0" IVar="0" Cut="182902" cType="1" res="-0.0155006" purity="0.464567" nType="0">
          <Node pos="l" depth="2" NCoef="0" IVar="4" Cut="256110" cType="1" res="-0.0295226" purity="0.446447" nType="0">
            <Node pos="l" depth="3" NCoef="0" IVar="2" Cut="-2723.39" cType="1" res="-0.00461823" purity="0.479011" nType="0">
              <Node pos="l" depth="4" NCoef="0" IVar="-1" Cut="0" cType="1" res="-0.00324964" purity="0.401419" nType="-99"/>
              <Node pos="r" depth="4" NCoef="0" IVar="-1" Cut="0" cType="1" res="0.000913404" purity="0.514142" nType="-99"/>
            </Node>
            <Node pos="r" depth="3" NCoef="0" IVar="2" Cut="-12046.6" cType="1" res="-0.0723575" purity="0.390436" nType="0">
              <Node pos="l" depth="4" NCoef="0" IVar="-1" Cut="0" cType="1" res="-0.00960451" purity="0.30188" nType="-99"/>
              <Node pos="r" depth="4" NCoef="0" IVar="-1" Cut="0" cType="1" res="-0.00291137" purity="0.410799" nType="-99"/>
            </Node>
          </Node>
          <Node pos="r" depth="2" NCoef="0" IVar="1" Cut="100238" cType="1" res="0.0479415" purity="0.546553" nType="0">
            <Node pos="l" depth="3" NCoef="0" IVar="-1" Cut="0" cType="1" res="0.000496577" purity="0.502601" nType="-99"/>
            <Node pos="r" depth="3" NCoef="0" IVar="4" Cut="252225" cType="1" res="0.0679499" purity="0.570588" nType="0">
              <Node pos="l" depth="4" NCoef="0" IVar="-1" Cut="0" cType="1" res="0.00378313" purity="0.606805" nType="-99"/>
              <Node pos="r" depth="4" NCoef="0" IVar="-1" Cut="0" cType="1" res="0.00173457" purity="0.538179" nType="-99"/>
            </Node>
          </Node>
        </Node>
        <Node pos="r" depth="1" NCoef="0" IVar="0" Cut="129238" cType="1" res="0.0990746" purity="0.637774" nType="0">
          <Node pos="l" depth="2" NCoef="0" IVar="-1" Cut="0" cType="1" res="0.00223139" purity="0.583719" nType="-99"/>
          <Node pos="r" depth="2" NCoef="0" IVar="4" Cut="256292" cType="1" res="0.134806" purity="0.681139" nType="0">
            <Node pos="l" depth="3" NCoef="0" IVar="-1" Cut="0" cType="1" res="0.00554388" purity="0.709758" nType="-99"/>
            <Node pos="r" depth="3" NCoef="0" IVar="-1" Cut="0" cType="1" res="0.00362955" purity="0.633833" nType="-99"/>
          </Node>
        </Node>
      </Node>
    </BinaryTree>
    <BinaryTree type="DecisionTree" boostWeight="1.0" itree="23">
      <Node pos="s" depth="0" NCoef="0" IVar="2" Cut="17905.7" cType="1" res="0.00940336" purity="0.501935" nType="0">
        <Node pos="l" depth="1" NCoef="0" IVar="2" Cut="-7508.16" cType="1" res="-0.0119696" purity="0.470643" nType="0">
          <Node pos="l" depth="2" NCoef="0" IVar="3" Cut="175220" cType="1" res="-0.0762745" purity="0.377753" nType="0">
            <Node pos="l" depth="3" NCoef="0" IVar="3" Cut="144638" cType="1" res="-0.0982602" purity="0.356675" nType="0">
              <Node pos="l" depth="4" NCoef="0" IVar="-1" Cut="0" cType="1" res="-0.00235805" purity="0.413066" nType="-99"/>
              <Node pos="r" depth="4" NCoef="0" IVar="-1" Cut="0" cType="1" res="-0.00918459" purity="0.311839" nType="-99"/>
            </Node>
            <Node pos="r" depth="3" NCoef="0" IVar="-1" Cut="0" cType="1" res="-0.00240824" purity="0.408713" nType="-99"/>
          </Node>
          <Node pos="r" depth="2" NCoef="0" IVar="1" Cut="95120.2" cType="1" res="0.00342452" purity="0.49288" nType="0">
            <Node pos="l" depth="3" NCoef="0" IVar="6" Cut="1.9142" cType="1" res="-0.0566435" purity="0.425879" nType="0">
              <Node pos="l" depth="4" NCoef="0" IVar="-1" Cut="0" cType="1" res="-0.00451641" purity="0.403691" nType="-99"/>
              <Node pos="r" depth="4" NCoef="0" IVar="-1" Cut="0" cType="1" res="-0.00180108" purity="0.44337" nType="-99"/>
            </Node>
            <Node pos="r" depth="3" NCoef="0" IVar="4" Cut="265908" cType="1" res="0.0149154" purity="0.505697" nType="0">
              <Node pos="l" depth="4" NCoef="0" IVar="-1" Cut="0" cType="1" res="0.00152782" purity="0.532889" nType="-99"/>
              <Node pos="r" depth="4" NCoef="0" IVar="-1" Cut="0" cType="1" res="-0.00123658" purity="0.452998" nType="-99"/>
            </Node>
          </Node>
        </Node>
        <Node pos="r" depth="1" NCoef="0" IVar="0" Cut="148753" cType="1" res="0.120406" purity="0.664453" nType="0">
          <Node pos="l" depth="2" NCoef="0" IVar="-1" Cut="0" cType="1" res="0.00294324" purity="0.609689" nType="-99"/>
          <Node pos="r" depth="2" NCoef="0" IVar="-1" Cut="0" cType="1" res="0.00631517" purity="0.743831" nType="-99"/>
        </Node>
      </Node>
    </BinaryTree>
    <BinaryTree type="DecisionTree" boostWeight="1.0" itree="24">
      <Node pos="s" depth="0" NCoef="0" IVar="2" Cut="956.375" cType="1" res="0.00581464" purity="0.499108" nType="0">
        <Node pos="l" depth="1" NCoef="0" IVar="0" Cut="182679" cType="1" res="-0.0545435" purity="0.40609" nType="0">
          <Node pos="l" depth="2" NCoef="0" IVar="4" Cut="232057" cType="1" res="-0.0698915" purity="0.386009" nType="0">
            <Node pos="l" depth="3" NCoef="0" IVar="4" Cut="186551" cType="1" res="-0.105192" purity="0.358245" nType="0">
              <Node pos="l" depth="4" NCoef="0" IVar="-1" Cut="0" cType="1" res="-0.00296234" purity="0.410805" nType="-99"/>
              <Node pos="r" depth="4" NCoef="0" IVar="-1" Cut="0" cType="1" res="-0.00990786" purity="0.312354" nType="-99"/>
            </Node>
            <Node pos="r" depth="3" NCoef="0" IVar="2" Cut="-12027.4" cType="1" res="-0.0421223" purity="0.407849" nType="0">
              <Node pos="l" depth="4" NCoef="0" IVar="-1" Cut="0" cType="1" res="-0.00570412" purity="0.347914" nType="-99"/>
              <Node pos="r" depth="4" NCoef="0" IVar="-1" Cut="0" cType="1" res="-0.000790496" purity="0.437666" nType="-99"/>
            </Node>
          </Node>
          <Node pos="r" depth="2" NCoef="0" IVar="-1" Cut="0" cType="1" res="0.00113088" purity="0.513341" nType="-99"/>
        </Node>
        <Node pos="r" depth="1" NCoef="0" IVar="4" Cut="246407" cType="1" res="0.0427158" purity="0.555976" nType="0">
          <Node pos="l" depth="2" NCoef="0" IVar="1" Cut="103383" cType="1" res="0.0708984" purity="0.591242" nType="0">
            <Node pos="l" depth="3" NCoef="0" IVar="0" Cut="143864" cType="1" res="0.0302102" purity="0.542599" nType="0">
              <Node pos="l" depth="4" NCoef="0" IVar="-1" Cut="0" cType="1" res="0.000417416" purity="0.516376" nType="-99"/>
              <Node pos="r" depth="4" NCoef="0" IVar="-1" Cut="0" cType="1" res="0.00235697" purity="0.577775" nType="-99"/>
            </Node>
            <Node pos="r" depth="3" NCoef="0" IVar="2" Cut="12910.9" cType="1" res="0.0967718" purity="0.622173" nType="0">
              <Node pos="l" depth="4" NCoef="0" IVar="-1" Cut="0" cType="1" res="0.0021895" purity="0.557963" nType="-99"/>
              <Node pos="r" depth="4" NCoef="0" IVar="-1" Cut="0" cType="1" res="0.00518699" purity="0.690658" nType="-99"/>
            </Node>
          </Node>
          <Node pos="r" depth="2" NCoef="0" IVar="6" Cut="1.08279" cType="1" res="-0.00787242" purity="0.492674" nType="0">
            <Node pos="l" depth="3" NCoef="0" IVar="4" Cut="320753" cType="1" res="-0.0743399" purity="0.415861" nType="0">
              <Node pos="l" depth="4" NCoef="0" IVar="-1" Cut="0" cType="1" res="-0.00718533" purity="0.365236" nType="-99"/>
              <Node pos="r" depth="4" NCoef="0" IVar="-1" Cut="0" cType="1" res="-0.00124495" purity="0.461667" nType="-99"/>
            </Node>
            <Node pos="r" depth="3" NCoef="0" IVar="2" Cut="14886.4" cType="1" res="0.0349366" purity="0.542145" nType="0">
              <Node pos="l" depth="4" NCoef="0" IVar="-1" Cut="0" cType="1" res="-0.000633363" purity="0.474395" nType="-99"/>
              <Node pos="r" depth="4" NCoef="0" IVar="-1" Cut="0" cType="1" res="0.00508089" purity="0.691499" nType="-99"/>
            </Node>
          </Node>
        </Node>
      </Node>
    </BinaryTree>
    <BinaryTree type="DecisionTree" boostWeight="1.0" itree="25">
      <Node pos="s" depth="0" NCoef="0" IVar="2" Cut="14617.5" cType="1" res="0.0123979" purity="0.505189" nType="0">
        <Node pos="l" depth="1" NCoef="0" IVar="2" Cut="7958.65" cType="1" res="-0.0129503" purity="0.464906" nType="0">
          <Node pos="l" depth="2" NCoef="0" IVar="1" Cut="171859" cType="1" res="-0.0263564" purity="0.442129" nType="0">
            <Node pos="l" depth="3" NCoef="0" IVar="4" Cut="334831" cType="1" res="-0.0329094" purity="0.435485" nType="0">
              <Node pos="l" depth="4" NCoef="0" IVar="-1" Cut="0" cType="1" res="-0.00101131" purity="0.45063" nType="-99"/>
              <Node pos="r" depth="4" NCoef="0" IVar="-1" Cut="0" cType="1" res="-0.00558336" purity="0.354945" nType="-99"/>
            </Node>
            <Node pos="r" depth="3" NCoef="0" IVar="-1" Cut="0" cType="1" res="0.00136677" purity="0.500655" nType="-99"/>
          </Node>
          <Node pos="r" depth="2" NCoef="0" IVar="3" Cut="184299" cType="1" res="0.0343024" purity="0.545189" nType="0">
            <Node pos="l" depth="3" NCoef="0" IVar="3" Cut="151741" cType="1" res="0.0514915" purity="0.563485" nType="0">
              <Node pos="l" depth="4" NCoef="0" IVar="-1" Cut="0" cType="1" res="-0.000772141" purity="0.494172" nType="-99"/>
              <Node pos="r" depth="4" NCoef="0" IVar="-1" Cut="0" cType="1" res="0.00328557" purity="0.596479" nType="-99"/>
            </Node>
            <Node pos="r" depth="3" NCoef="0" IVar="-1" Cut="0" cType="1" res="-0.000856853" purity="0.4895" nType="-99"/>
          </Node>
        </Node>
        <Node pos="r" depth="1" NCoef="0" IVar="0" Cut="139025" cType="1" res="0.100837" purity="0.645736" nType="0">
          <Node pos="l" depth="2" NCoef="0" IVar="4" Cut="217522" cType="1" res="0.0462201" purity="0.579677" nType="0">
            <Node pos="l" depth="3" NCoef="0" IVar="-1" Cut="0" cType="1" res="0.00316935" purity="0.62524" nType="-99"/>
            <Node pos="r" depth="3" NCoef="0" IVar="-1" Cut="0" cType="1" res="-2.39197e-05" purity="0.516617" nType="-99"/>
          </Node>
          <Node pos="r" depth="2" NCoef="0" IVar="4" Cut="236796" cType="1" res="0.157783" purity="0.714613" nType="0">
            <Node pos="l" depth="3" NCoef="0" IVar="-1" Cut="0" cType="1" res="0.006728" purity="0.770152" nType="-99"/>
            <Node pos="r" depth="3" NCoef="0" IVar="-1" Cut="0" cType="1" res="0.00332605" purity="0.634424" nType="-99"/>
          </Node>
        </Node>
      </Node>
    </BinaryTree>
    <BinaryTree type="DecisionTree" boostWeight="1.0" itree="26">
      <Node pos="s" depth="0" NCoef="0" IVar="2" Cut="7789.76" cType="1" res="-0.00814972" purity="0.483424" nType="0">
        <Node pos="l" depth="1" NCoef="0" IVar="1" Cut="110462" cType="1" res="-0.0379437" purity="0.429444" nType="0">
          <Node pos="l" depth="2" NCoef="0" IVar="3" Cut="199956" cType="1" res="-0.0626181" purity="0.401357" nType="0">
            <Node pos="l" depth="3" NCoef="0" IVar="4" Cut="198176" cType="1" res="-0.0759196" purity="0.388527" nType="0">
              <Node pos="l" depth="4" NCoef="0" IVar="-1" Cut="0" cType="1" res="-0.00196353" purity="0.436809" nType="-99"/>
              <Node pos="r" depth="4" NCoef="0" IVar="-1" Cut="0" cType="1" res="-0.00660087" purity="0.348172" nType="-99"/>
            </Node>
            <Node pos="r" depth="3" NCoef="0" IVar="-1" Cut="0" cType="1" res="0.000313215" purity="0.468439" nType="-99"/>
          </Node>
          <Node pos="r" depth="2" NCoef="0" IVar="0" Cut="163404" cType="1" res="-0.0115169" purity="0.459526" nType="0">
            <Node pos="l" depth="3" NCoef="0" IVar="5" Cut="2.29633" cType="1" res="-0.031317" purity="0.431907" nType="0">
              <Node pos="l" depth="4" NCoef="0" IVar="-1" Cut="0" cType="1" res="-0.000469739" purity="0.455876" nType="-99"/>
              <Node pos="r" depth="4" NCoef="0" IVar="-1" Cut="0" cType="1" res="-0.00437453" purity="0.379808" nType="-99"/>
            </Node>
            <Node pos="r" depth="3" NCoef="0" IVar="-1" Cut="0" cType="1" res="0.00205966" purity="0.542605" nType="-99"/>
          </Node>
        </Node>
        <Node pos="r" depth="1" NCoef="0" IVar="0" Cut="182922" cType="1" res="0.0391564" purity="0.569131" nType="0">
          <Node pos="l" depth="2" NCoef="0" IVar="4" Cut="324714" cType="1" res="0.0227098" purity="0.548975" nType="0">
            <Node pos="l" depth="3" NCoef="0" IVar="2" Cut="19012.1" cType="1" res="0.0362066" purity="0.565576" nType="0">
              <Node pos="l" depth="4" NCoef="0" IVar="-1" Cut="0" cType="1" res="0.000688934" purity="0.535132" nType="-99"/>
              <Node pos="r" depth="4" NCoef="0" IVar="-1" Cut="0" cType="1" res="0.0029066" purity="0.619233" nType="-99"/>
            </Node>
            <Node pos="r" depth="3" NCoef="0" IVar="-1" Cut="0" cType="1" res="-0.00249851" purity="0.456363" nType="-99"/>
          </Node>
          <Node pos="r" depth="2" NCoef="0" IVar="-1" Cut="0" cType="1" res="0.00392695" purity="0.648183" nType="-99"/>
        </Node>
      </Node>
    </BinaryTree>
    <BinaryTree type="DecisionTree" boostWeight="1.0" itree="27">
      <Node pos="s" depth="0" NCoef="0" IVar="2" Cut="7629.78" cType="1" res="0.00724651" purity="0.499186" nType="0">
        <Node pos="l" depth="1" NCoef="0" IVar="0" Cut="134141" cType="1" res="-0.0273426" purity="0.439864" nType="0">
          <Node pos="l" depth="2" NCoef="0" IVar="4" Cut="199689" cType="1" res="-0.062436" purity="0.390508" nType="0">
            <Node pos="l" depth="3" NCoef="0" IVar="4" Cut="173704" cType="1" res="-0.0239084" purity="0.442794" nType="0">
              <Node pos="l" depth="4" NCoef="0" IVar="-1" Cut="0" cType="1" res="-0.000622693" purity="0.455524" nType="-99"/>
              <Node pos="r" depth="4" NCoef="0" IVar="-1" Cut="0" cType="1" res="-0.00179565" purity="0.429905" nType="-99"/>
            </Node>
            <Node pos="r" depth="3" NCoef="0" IVar="3" Cut="187807" cType="1" res="-0.0811466" purity="0.365116" nType="0">
              <Node pos="l" depth="4" NCoef="0" IVar="-1" Cut="0" cType="1" res="-0.00621429" purity="0.344784" nType="-99"/>
              <Node pos="r" depth="4" NCoef="0" IVar="-1" Cut="0" cType="1" res="-0.00159416" purity="0.416291" nType="-99"/>
            </Node>
          </Node>
          <Node pos="r" depth="2" NCoef="0" IVar="1" Cut="105360" cType="1" res="0.0082504" purity="0.489923" nType="0">
            <Node pos="l" depth="3" NCoef="0" IVar="4" Cut="207429" cType="1" res="-0.0345355" purity="0.438828" nType="0">
              <Node pos="l" depth="4" NCoef="0" IVar="-1" Cut="0" cType="1" res="0.000320998" purity="0.489804" nType="-99"/>
              <Node pos="r" depth="4" NCoef="0" IVar="-1" Cut="0" cType="1" res="-0.00459293" purity="0.380356" nType="-99"/>
            </Node>
            <Node pos="r" depth="3" NCoef="0" IVar="3" Cut="175639" cType="1" res="0.0419412" purity="0.530157" nType="0">
              <Node pos="l" depth="4" NCoef="0" IVar="-1" Cut="0" cType="1" res="0.00282432" purity="0.555455" nType="-99"/>
              <Node pos="r" depth="4" NCoef="0" IVar="-1" Cut="0" cType="1" res="0.000215635" purity="0.49299" nType="-99"/>
            </Node>
          </Node>
        </Node>
        <Node pos="r" depth="1" NCoef="0" IVar="0" Cut="109751" cType="1" res="0.0614079" purity="0.592076" nType="0">
          <Node pos="l" depth="2" NCoef="0" IVar="-1" Cut="0" cType="1" res="-0.00244915" purity="0.466912" nType="-99"/>
          <Node pos="r" depth="2" NCoef="0" IVar="1" Cut="161306" cType="1" res="0.0813905" purity="0.614611" nType="0">
            <Node pos="l" depth="3" NCoef="0" IVar="1" Cut="109125" cType="1" res="0.0957281" purity="0.630221" nType="0">
              <Node pos="l" depth="4" NCoef="0" IVar="-1" Cut="0" cType="1" res="0.00223504" purity="0.587618" nType="-99"/>
              <Node pos="r" depth="4" NCoef="0" IVar="-1" Cut="0" cType="1" res="0.00475922" purity="0.667632" nType="-99"/>
            </Node>
            <Node pos="r" depth="3" NCoef="0" IVar="-1" Cut="0" cType="1" res="8.84365e-05" purity="0.52824" nType="-99"/>
          </Node>
        </Node>
      </Node>
    </BinaryTree>
    <BinaryTree type="DecisionTree" boostWeight="1.0" itree="28">
      <Node pos="s" depth="0" NCoef="0" IVar="2" Cut="11116" cType="1" res="0.000884133" purity="0.492814" nType="0">
        <Node pos="l" depth="1" NCoef="0" IVar="0" Cut="178026" cType="1" res="-0.0282788" purity="0.442324" nType="0">
          <Node pos="l" depth="2" NCoef="0" IVar="3" Cut="213208" cType="1" res="-0.047787" purity="0.416791" nType="0">
            <Node pos="l" depth="3" NCoef="0" IVar="2" Cut="4883.29" cType="1" res="-0.0566555" purity="0.40797" nType="0">
              <Node pos="l" depth="4" NCoef="0" IVar="-1" Cut="0" cType="1" res="-0.00409659" purity="0.38206" nType="-99"/>
              <Node pos="r" depth="4" NCoef="0" IVar="-1" Cut="0" cType="1" res="-0.000375809" purity="0.483354" nType="-99"/>
            </Node>
            <Node pos="r" depth="3" NCoef="0" IVar="-1" Cut="0" cType="1" res="0.00135" purity="0.493894" nType="-99"/>
          </Node>
          <Node pos="r" depth="2" NCoef="0" IVar="5" Cut="0.985354" cType="1" res="0.0458664" purity="0.539367" nType="0">
            <Node pos="l" depth="3" NCoef="0" IVar="-1" Cut="0" cType="1" res="0.00033052" purity="0.497752" nType="-99"/>
            <Node pos="r" depth="3" NCoef="0" IVar="1" Cut="120701" cType="1" res="0.0743454" purity="0.570168" nType="0">
              <Node pos="l" depth="4" NCoef="0" IVar="-1" Cut="0" cType="1" res="0.00346919" purity="0.576797" nType="-99"/>
              <Node pos="r" depth="4" NCoef="0" IVar="-1" Cut="0" cType="1" res="0.00258249" purity="0.563915" nType="-99"/>
            </Node>
          </Node>
        </Node>
        <Node pos="r" depth="1" NCoef="0" IVar="0" Cut="114625" cType="1" res="0.0690308" purity="0.610798" nType="0">
          <Node pos="l" depth="2" NCoef="0" IVar="-1" Cut="0" cType="1" res="0.000123654" purity="0.528145" nType="-99"/>
          <Node pos="r" depth="2" NCoef="0" IVar="6" Cut="0.705634" cType="1" res="0.0911185" purity="0.638364" nType="0">
            <Node pos="l" depth="3" NCoef="0" IVar="-1" Cut="0" cType="1" res="0.000430928" purity="0.536277" nType="-99"/>
            <Node pos="r" depth="3" NCoef="0" IVar="1" Cut="110409" cType="1" res="0.114225" purity="0.667488" nType="0">
              <Node pos="l" depth="4" NCoef="0" IVar="-1" Cut="0" cType="1" res="0.00280016" purity="0.622895" nType="-99"/>
              <Node pos="r" depth="4" NCoef="0" IVar="-1" Cut="0" cType="1" res="0.00517119" purity="0.701076" nType="-99"/>
            </Node>
          </Node>
        </Node>
      </Node>
    </BinaryTree>
    <BinaryTree type="DecisionTree" boostWeight="1.0" itree="29">
      <Node pos="s" depth="0" NCoef="0" IVar="2" Cut="18038" cType="1" res="0.00684293" purity="0.498094" nType="0">
        <Node pos="l" depth="1" NCoef="0" IVar="4" Cut="217072" cType="1" res="-0.0108233" purity="0.468922" nType="0">
          <Node pos="l" depth="2" NCoef="0" IVar="2" Cut="9578.58" cType="1" res="0.0214843" purity="0.513429" nType="0">
            <Node pos="l" depth="3" NCoef="0" IVar="2" Cut="4766.79" cType="1" res="0.00394392" purity="0.480181" nType="0">
              <Node pos="l" depth="4" NCoef="0" IVar="-1" Cut="0" cType="1" res="0.00106744" purity="0.492431" nType="-99"/>
              <Node pos="r" depth="4" NCoef="0" IVar="-1" Cut="0" cType="1" res="-0.00316574" purity="0.438987" nType="-99"/>
            </Node>
            <Node pos="r" depth="3" NCoef="0" IVar="-1" Cut="0" cType="1" res="0.00276099" purity="0.607419" nType="-99"/>
          </Node>
          <Node pos="r" depth="2" NCoef="0" IVar="2" Cut="-7421.68" cType="1" res="-0.0381983" purity="0.431211" nType="0">
            <Node pos="l" depth="3" NCoef="0" IVar="3" Cut="166474" cType="1" res="-0.0954672" purity="0.345533" nType="0">
              <Node pos="l" depth="4" NCoef="0" IVar="-1" Cut="0" cType="1" res="-0.0119695" purity="0.277327" nType="-99"/>
              <Node pos="r" depth="4" NCoef="0" IVar="-1" Cut="0" cType="1" res="-0.00232939" purity="0.399173" nType="-99"/>
            </Node>
            <Node pos="r" depth="3" NCoef="0" IVar="6" Cut="0.536354" cType="1" res="-0.0201712" purity="0.45818" nType="0">
              <Node pos="l" depth="4" NCoef="0" IVar="-1" Cut="0" cType="1" res="-0.00543971" purity="0.383418" nType="-99"/>
              <Node pos="r" depth="4" NCoef="0" IVar="-1" Cut="0" cType="1" res="-0.000431056" purity="0.469049" nType="-99"/>
            </Node>
          </Node>
        </Node>
        <Node pos="r" depth="1" NCoef="0" IVar="2" Cut="32017.1" cType="1" res="0.09944" purity="0.650995" nType="0">
          <Node pos="l" depth="2" NCoef="0" IVar="0" Cut="148658" cType="1" res="0.069777" purity="0.621009" nType="0">
            <Node pos="l" depth="3" NCoef="0" IVar="-1" Cut="0" cType="1" res="0.00166054" purity="0.58023" nType="-99"/>
            <Node pos="r" depth="3" NCoef="0" IVar="-1" Cut="0" cType="1" res="0.00417928" purity="0.6819" nType="-99"/>
          </Node>
          <Node pos="r" depth="2" NCoef="0" IVar="-1" Cut="0" cType="1" res="0.00541459" purity="0.709083" nType="-99"/>
        </Node>
      </Node>
    </BinaryTree>
    <BinaryTree type="DecisionTree" boostWeight="1.0" itree="30">
      <Node pos="s" depth="0" NCoef="0" IVar="2" Cut="10846.5" cType="1" res="-0.000136684" purity="0.491491" nType="0">
        <Node pos="l" depth="1" NCoef="0" IVar="0" Cut="139020" cType="1" res="-0.0283612" purity="0.440562" nType="0">
          <Node pos="l" depth="2" NCoef="0" IVar="4" Cut="284949" cType="1" res="-0.0535445" purity="0.402095" nType="0">
            <Node pos="l" depth="3" NCoef="0" IVar="1" Cut="110775" cType="1" res="-0.0343417" purity="0.430534" nType="0">
              <Node pos="l" depth="4" NCoef="0" IVar="-1" Cut="0" cType="1" res="-0.00327975" purity="0.400353" nType="-99"/>
              <Node pos="r" depth="4" NCoef="0" IVar="-1" Cut="0" cType="1" res="9.60242e-05" purity="0.471223" nType="-99"/>
            </Node>
            <Node pos="r" depth="3" NCoef="0" IVar="6" Cut="2.45188" cType="1" res="-0.102676" purity="0.329333" nType="0">
              <Node pos="l" depth="4" NCoef="0" IVar="-1" Cut="0" cType="1" res="-0.00487883" purity="0.354489" nType="-99"/>
              <Node pos="r" depth="4" NCoef="0" IVar="-1" Cut="0" cType="1" res="-0.00939582" purity="0.291568" nType="-99"/>
            </Node>
          </Node>
          <Node pos="r" depth="2" NCoef="0" IVar="2" Cut="-6513.79" cType="1" res="0.00296594" purity="0.488412" nType="0">
            <Node pos="l" depth="3" NCoef="0" IVar="-1" Cut="0" cType="1" res="-0.00279516" purity="0.411619" nType="-99"/>
            <Node pos="r" depth="3" NCoef="0" IVar="6" Cut="2.06889" cType="1" res="0.0169658" purity="0.508098" nType="0">
              <Node pos="l" depth="4" NCoef="0" IVar="-1" Cut="0" cType="1" res="-0.00105699" purity="0.470171" nType="-99"/>
              <Node pos="r" depth="4" NCoef="0" IVar="-1" Cut="0" cType="1" res="0.00211657" purity="0.540087" nType="-99"/>
            </Node>
          </Node>
        </Node>
        <Node pos="r" depth="1" NCoef="0" IVar="1" Cut="161482" cType="1" res="0.0638333" purity="0.606922" nType="0">
          <Node pos="l" depth="2" NCoef="0" IVar="1" Cut="110927" cType="1" res="0.0810202" purity="0.62686" nType="0">
            <Node pos="l" depth="3" NCoef="0" IVar="2" Cut="15147.3" cType="1" res="0.0446169" purity="0.589423" nType="0">
              <Node pos="l" depth="4" NCoef="0" IVar="-1" Cut="0" cType="1" res="-0.000129898" purity="0.526577" nType="-99"/>
              <Node pos="r" depth="4" NCoef="0" IVar="-1" Cut="0" cType="1" res="0.002724" purity="0.621958" nType="-99"/>
            </Node>
            <Node pos="r" depth="3" NCoef="0" IVar="0" Cut="138899" cType="1" res="0.115702" purity="0.662527" nType="0">
              <Node pos="l" depth="4" NCoef="0" IVar="-1" Cut="0" cType="1" res="0.00338946" purity="0.618685" nType="-99"/>
              <Node pos="r" depth="4" NCoef="0" IVar="-1" Cut="0" cType="1" res="0.00544051" purity="0.716524" nType="-99"/>
            </Node>
          </Node>
          <Node pos="r" depth="2" NCoef="0" IVar="-1" Cut="0" cType="1" res="-0.00157643" purity="0.491333" nType="-99"/>
        </Node>
      </Node>
    </BinaryTree>
    <BinaryTree type="DecisionTree" boostWeight="1.0" itree="31">
      <Node pos="s" depth="0" NCoef="0" IVar="2" Cut="14617.5" cType="1" res="0.00718084" purity="0.497722" nType="0">
        <Node pos="l" depth="1" NCoef="0" IVar="5" Cut="2.72316" cType="1" res="-0.0120154" purity="0.461605" nType="0">
          <Node pos="l" depth="2" NCoef="0" IVar="1" Cut="115586" cType="1" res="-0.00607896" purity="0.467959" nType="0">
            <Node pos="l" depth="3" NCoef="0" IVar="4" Cut="198186" cType="1" res="-0.023227" purity="0.448084" nType="0">
              <Node pos="l" depth="4" NCoef="0" IVar="-1" Cut="0" cType="1" res="0.000404413" purity="0.494797" nType="-99"/>
              <Node pos="r" depth="4" NCoef="0" IVar="-1" Cut="0" cType="1" res="-0.0026602" purity="0.40965" nType="-99"/>
            </Node>
            <Node pos="r" depth="3" NCoef="0" IVar="6" Cut="1.99179" cType="1" res="0.0234976" purity="0.502239" nType="0">
              <Node pos="l" depth="4" NCoef="0" IVar="-1" Cut="0" cType="1" res="-0.00102308" purity="0.469642" nType="-99"/>
              <Node pos="r" depth="4" NCoef="0" IVar="-1" Cut="0" cType="1" res="0.00258637" purity="0.528735" nType="-99"/>
            </Node>
          </Node>
          <Node pos="r" depth="2" NCoef="0" IVar="-1" Cut="0" cType="1" res="-0.00503189" purity="0.378183" nType="-99"/>
        </Node>
        <Node pos="r" depth="1" NCoef="0" IVar="0" Cut="119511" cType="1" res="0.0768718" purity="0.628843" nType="0">
          <Node pos="l" depth="2" NCoef="0" IVar="-1" Cut="0" cType="1" res="-0.000711572" purity="0.51902" nType="-99"/>
          <Node pos="r" depth="2" NCoef="0" IVar="0" Cut="189948" cType="1" res="0.114138" purity="0.673159" nType="0">
            <Node pos="l" depth="3" NCoef="0" IVar="4" Cut="236464" cType="1" res="0.0936172" purity="0.648303" nType="0">
              <Node pos="l" depth="4" NCoef="0" IVar="-1" Cut="0" cType="1" res="0.00414316" purity="0.677328" nType="-99"/>
              <Node pos="r" depth="4" NCoef="0" IVar="-1" Cut="0" cType="1" res="0.00248749" purity="0.604416" nType="-99"/>
            </Node>
            <Node pos="r" depth="3" NCoef="0" IVar="-1" Cut="0" cType="1" res="0.0058239" purity="0.741519" nType="-99"/>
          </Node>
        </Node>
      </Node>
    </BinaryTree>
    <BinaryTree type="DecisionTree" boostWeight="1.0" itree="32">
      <Node pos="s" depth="0" NCoef="0" IVar="2" Cut="10985.4" cType="1" res="0.00708239" purity="0.498823" nType="0">
        <Node pos="l" depth="1" NCoef="0" IVar="0" Cut="178026" cType="1" res="-0.0233298" purity="0.444673" nType="0">
          <Node pos="l" depth="2" NCoef="0" IVar="4" Cut="256767" cType="1" res="-0.0396101" purity="0.421774" nType="0">
            <Node pos="l" depth="3" NCoef="0" IVar="2" Cut="-11379.3" cType="1" res="-0.0154089" purity="0.455547" nType="0">
              <Node pos="l" depth="4" NCoef="0" IVar="-1" Cut="0" cType="1" res="-0.00852135" purity="0.311897" nType="-99"/>
              <Node pos="r" depth="4" NCoef="0" IVar="-1" Cut="0" cType="1" res="2.38661e-05" purity="0.475224" nType="-99"/>
            </Node>
            <Node pos="r" depth="3" NCoef="0" IVar="1" Cut="110468" cType="1" res="-0.0810621" purity="0.363926" nType="0">
              <Node pos="l" depth="4" NCoef="0" IVar="-1" Cut="0" cType="1" res="-0.0108038" purity="0.28092" nType="-99"/>
              <Node pos="r" depth="4" NCoef="0" IVar="-1" Cut="0" cType="1" res="-0.00243695" purity="0.405348" nType="-99"/>
            </Node>
          </Node>
          <Node pos="r" depth="2" NCoef="0" IVar="6" Cut="2.52844" cType="1" res="0.041025" purity="0.535194" nType="0">
            <Node pos="l" depth="3" NCoef="0" IVar="0" Cut="204791" cType="1" res="-0.00145485" purity="0.496436" nType="0">
              <Node pos="l" depth="4" NCoef="0" IVar="-1" Cut="0" cType="1" res="0.00156713" purity="0.534053" nType="-99"/>
              <Node pos="r" depth="4" NCoef="0" IVar="-1" Cut="0" cType="1" res="-0.00198736" purity="0.458669" nType="-99"/>
            </Node>
            <Node pos="r" depth="3" NCoef="0" IVar="-1" Cut="0" cType="1" res="0.00377466" purity="0.588673" nType="-99"/>
          </Node>
        </Node>
        <Node pos="r" depth="1" NCoef="0" IVar="0" Cut="173132" cType="1" res="0.0754126" purity="0.620486" nType="0">
          <Node pos="l" depth="2" NCoef="0" IVar="3" Cut="142015" cType="1" res="0.0538028" purity="0.59214" nType="0">
            <Node pos="l" depth="3" NCoef="0" IVar="-1" Cut="0" cType="1" res="-0.00014312" purity="0.53328" nType="-99"/>
            <Node pos="r" depth="3" NCoef="0" IVar="3" Cut="184313" cType="1" res="0.0693012" purity="0.608137" nType="0">
              <Node pos="l" depth="4" NCoef="0" IVar="-1" Cut="0" cType="1" res="0.00339193" purity="0.628583" nType="-99"/>
              <Node pos="r" depth="4" NCoef="0" IVar="-1" Cut="0" cType="1" res="0.000879269" purity="0.554391" nType="-99"/>
            </Node>
          </Node>
          <Node pos="r" depth="2" NCoef="0" IVar="-1" Cut="0" cType="1" res="0.00487148" purity="0.700563" nType="-99"/>
        </Node>
      </Node>
    </BinaryTree>
    <BinaryTree type="DecisionTree" boostWeight="1.0" itree="33">
      <Node pos="s" depth="0" NCoef="0" IVar="2" Cut="14500.8" cType="1" res="0.0105638" purity="0.502257" nType="0">
        <Node pos="l" depth="1" NCoef="0" IVar="0" Cut="236540" cType="1" res="-0.00966402" purity="0.463961" nType="0">
          <Node pos="l" depth="2" NCoef="0" IVar="4" Cut="324413" cType="1" res="-0.0153684" purity="0.456383" nType="0">
            <Node pos="l" depth="3" NCoef="0" IVar="6" Cut="2.60504" cType="1" res="-0.00321457" purity="0.473676" nType="0">
              <Node pos="l" depth="4" NCoef="0" IVar="-1" Cut="0" cType="1" res="0.000432246" purity="0.49273" nType="-99"/>
              <Node pos="r" depth="4" NCoef="0" IVar="-1" Cut="0" cType="1" res="-0.00236368" purity="0.411571" nType="-99"/>
            </Node>
            <Node pos="r" depth="3" NCoef="0" IVar="0" Cut="129960" cType="1" res="-0.0643329" purity="0.386715" nType="0">
              <Node pos="l" depth="4" NCoef="0" IVar="-1" Cut="0" cType="1" res="-0.00931086" purity="0.288936" nType="-99"/>
              <Node pos="r" depth="4" NCoef="0" IVar="-1" Cut="0" cType="1" res="-0.00110415" purity="0.446715" nType="-99"/>
            </Node>
          </Node>
          <Node pos="r" depth="2" NCoef="0" IVar="-1" Cut="0" cType="1" res="0.00340023" purity="0.58744" nType="-99"/>
        </Node>
        <Node pos="r" depth="1" NCoef="0" IVar="0" Cut="173169" cType="1" res="0.0819356" purity="0.637381" nType="0">
          <Node pos="l" depth="2" NCoef="0" IVar="2" Cut="24802.1" cType="1" res="0.0523907" purity="0.600397" nType="0">
            <Node pos="l" depth="3" NCoef="0" IVar="-1" Cut="0" cType="1" res="0.000392865" purity="0.553845" nType="-99"/>
            <Node pos="r" depth="3" NCoef="0" IVar="-1" Cut="0" cType="1" res="0.00403697" purity="0.658045" nType="-99"/>
          </Node>
          <Node pos="r" depth="2" NCoef="0" IVar="-1" Cut="0" cType="1" res="0.00576553" purity="0.740579" nType="-99"/>
        </Node>
      </Node>
    </BinaryTree>
    <BinaryTree type="DecisionTree" boostWeight="1.0" itree="34">
      <Node pos="s" depth="0" NCoef="0" IVar="2" Cut="14604.9" cType="1" res="0.0120382" purity="0.503952" nType="0">
        <Node pos="l" depth="1" NCoef="0" IVar="0" Cut="178026" cType="1" res="-0.0106306" purity="0.462446" nType="0">
          <Node pos="l" depth="2" NCoef="0" IVar="2" Cut="2624.7" cType="1" res="-0.0212788" purity="0.444825" nType="0">
            <Node pos="l" depth="3" NCoef="0" IVar="6" Cut="1.9937" cType="1" res="-0.0422882" purity="0.403363" nType="0">
              <Node pos="l" depth="4" NCoef="0" IVar="-1" Cut="0" cType="1" res="-0.00464886" purity="0.364624" nType="-99"/>
              <Node pos="r" depth="4" NCoef="0" IVar="-1" Cut="0" cType="1" res="-0.00139837" purity="0.418925" nType="-99"/>
            </Node>
            <Node pos="r" depth="3" NCoef="0" IVar="4" Cut="246864" cType="1" res="0.00769823" purity="0.50201" nType="0">
              <Node pos="l" depth="4" NCoef="0" IVar="-1" Cut="0" cType="1" res="0.00115861" purity="0.531978" nType="-99"/>
              <Node pos="r" depth="4" NCoef="0" IVar="-1" Cut="0" cType="1" res="-0.00157457" purity="0.441264" nType="-99"/>
            </Node>
          </Node>
          <Node pos="r" depth="2" NCoef="0" IVar="6" Cut="1.68577" cType="1" res="0.0313994" purity="0.531999" nType="0">
            <Node pos="l" depth="3" NCoef="0" IVar="-1" Cut="0" cType="1" res="-0.000864299" purity="0.48323" nType="-99"/>
            <Node pos="r" depth="3" NCoef="0" IVar="1" Cut="105352" cType="1" res="0.0512182" purity="0.551367" nType="0">
              <Node pos="l" depth="4" NCoef="0" IVar="-1" Cut="0" cType="1" res="0.000679521" purity="0.509604" nType="-99"/>
              <Node pos="r" depth="4" NCoef="0" IVar="-1" Cut="0" cType="1" res="0.00351642" purity="0.592182" nType="-99"/>
            </Node>
          </Node>
        </Node>
        <Node pos="r" depth="1" NCoef="0" IVar="0" Cut="119511" cType="1" res="0.0919082" purity="0.650193" nType="0">
          <Node pos="l" depth="2" NCoef="0" IVar="-1" Cut="0" cType="1" res="0.000907712" purity="0.558411" nType="-99"/>
          <Node pos="r" depth="2" NCoef="0" IVar="4" Cut="256096" cType="1" res="0.120878" purity="0.687707" nType="0">
            <Node pos="l" depth="3" NCoef="0" IVar="-1" Cut="0" cType="1" res="0.00508145" purity="0.718555" nType="-99"/>
            <Node pos="r" depth="3" NCoef="0" IVar="-1" Cut="0" cType="1" res="0.0027826" purity="0.626377" nType="-99"/>
          </Node>
        </Node>
      </Node>
    </BinaryTree>
    <BinaryTree type="DecisionTree" boostWeight="1.0" itree="35">
      <Node pos="s" depth="0" NCoef="0" IVar="2" Cut="7744.28" cType="1" res="0.00355705" purity="0.49496" nType="0">
        <Node pos="l" depth="1" NCoef="0" IVar="4" Cut="343982" cType="1" res="-0.0308555" purity="0.429761" nType="0">
          <Node pos="l" depth="2" NCoef="0" IVar="2" Cut="1923.79" cType="1" res="-0.0197144" purity="0.445024" nType="0">
            <Node pos="l" depth="3" NCoef="0" IVar="3" Cut="187120" cType="1" res="-0.0339941" purity="0.420765" nType="0">
              <Node pos="l" depth="4" NCoef="0" IVar="-1" Cut="0" cType="1" res="-0.00247075" purity="0.407621" nType="-99"/>
              <Node pos="r" depth="4" NCoef="0" IVar="-1" Cut="0" cType="1" res="-0.000141973" purity="0.455155" nType="-99"/>
            </Node>
            <Node pos="r" depth="3" NCoef="0" IVar="5" Cut="1.34579" cType="1" res="0.0101892" purity="0.495827" nType="0">
              <Node pos="l" depth="4" NCoef="0" IVar="-1" Cut="0" cType="1" res="0.00165109" purity="0.53143" nType="-99"/>
              <Node pos="r" depth="4" NCoef="0" IVar="-1" Cut="0" cType="1" res="-0.00110883" purity="0.458521" nType="-99"/>
            </Node>
          </Node>
          <Node pos="r" depth="2" NCoef="0" IVar="0" Cut="143884" cType="1" res="-0.0822987" purity="0.359281" nType="0">
            <Node pos="l" depth="3" NCoef="0" IVar="-1" Cut="0" cType="1" res="-0.00961114" purity="0.276407" nType="-99"/>
            <Node pos="r" depth="3" NCoef="0" IVar="-1" Cut="0" cType="1" res="-0.00128203" purity="0.444586" nType="-99"/>
          </Node>
        </Node>
        <Node pos="r" depth="1" NCoef="0" IVar="6" Cut="1.1308" cType="1" res="0.0552067" purity="0.592818" nType="0">
          <Node pos="l" depth="2" NCoef="0" IVar="0" Cut="143880" cType="1" res="0.0101695" purity="0.534812" nType="0">
            <Node pos="l" depth="3" NCoef="0" IVar="4" Cut="229511" cType="1" res="-0.0184183" purity="0.502611" nType="0">
              <Node pos="l" depth="4" NCoef="0" IVar="-1" Cut="0" cType="1" res="0.00055652" purity="0.550757" nType="-99"/>
              <Node pos="r" depth="4" NCoef="0" IVar="-1" Cut="0" cType="1" res="-0.00349118" purity="0.42694" nType="-99"/>
            </Node>
            <Node pos="r" depth="3" NCoef="0" IVar="-1" Cut="0" cType="1" res="0.0028765" purity="0.605098" nType="-99"/>
          </Node>
          <Node pos="r" depth="2" NCoef="0" IVar="2" Cut="21210.5" cType="1" res="0.0892607" purity="0.636678" nType="0">
            <Node pos="l" depth="3" NCoef="0" IVar="1" Cut="105350" cType="1" res="0.0647818" purity="0.599462" nType="0">
              <Node pos="l" depth="4" NCoef="0" IVar="-1" Cut="0" cType="1" res="0.0010167" purity="0.552689" nType="-99"/>
              <Node pos="r" depth="4" NCoef="0" IVar="-1" Cut="0" cType="1" res="0.00363931" purity="0.631907" nType="-99"/>
            </Node>
            <Node pos="r" depth="3" NCoef="0" IVar="-1" Cut="0" cType="1" res="0.00524292" purity="0.724478" nType="-99"/>
          </Node>
        </Node>
      </Node>
    </BinaryTree>
    <BinaryTree type="DecisionTree" boostWeight="1.0" itree="36">
      <Node pos="s" depth="0" NCoef="0" IVar="2" Cut="17956.4" cType="1" res="0.00443571" purity="0.496269" nType="0">
        <Node pos="l" depth="1" NCoef="0" IVar="4" Cut="256071" cType="1" res="-0.01338" purity="0.463979" nType="0">
          <Node pos="l" depth="2" NCoef="0" IVar="2" Cut="6661.82" cType="1" res="0.0079235" purity="0.49588" nType="0">
            <Node pos="l" depth="3" NCoef="0" IVar="4" Cut="206598" cType="1" res="-0.0128165" purity="0.454398" nType="0">
              <Node pos="l" depth="4" NCoef="0" IVar="-1" Cut="0" cType="1" res="0.000463768" purity="0.481672" nType="-99"/>
              <Node pos="r" depth="4" NCoef="0" IVar="-1" Cut="0" cType="1" res="-0.00273224" purity="0.407969" nType="-99"/>
            </Node>
            <Node pos="r" depth="3" NCoef="0" IVar="4" Cut="183736" cType="1" res="0.0464588" purity="0.572954" nType="0">
              <Node pos="l" depth="4" NCoef="0" IVar="-1" Cut="0" cType="1" res="0.000471893" purity="0.541364" nType="-99"/>
              <Node pos="r" depth="4" NCoef="0" IVar="-1" Cut="0" cType="1" res="0.00301474" purity="0.598969" nType="-99"/>
            </Node>
          </Node>
          <Node pos="r" depth="2" NCoef="0" IVar="0" Cut="114627" cType="1" res="-0.049492" purity="0.409903" nType="0">
            <Node pos="l" depth="3" NCoef="0" IVar="-1" Cut="0" cType="1" res="-0.00669425" purity="0.319817" nType="-99"/>
            <Node pos="r" depth="3" NCoef="0" IVar="1" Cut="105362" cType="1" res="-0.0324888" purity="0.437525" nType="0">
              <Node pos="l" depth="4" NCoef="0" IVar="-1" Cut="0" cType="1" res="-0.00393095" purity="0.380145" nType="-99"/>
              <Node pos="r" depth="4" NCoef="0" IVar="-1" Cut="0" cType="1" res="-0.000797232" purity="0.462342" nType="-99"/>
            </Node>
          </Node>
        </Node>
        <Node pos="r" depth="1" NCoef="0" IVar="0" Cut="168121" cType="1" res="0.091118" purity="0.653375" nType="0">
          <Node pos="l" depth="2" NCoef="0" IVar="1" Cut="115548" cType="1" res="0.0604575" purity="0.613506" nType="0">
            <Node pos="l" depth="3" NCoef="0" IVar="-1" Cut="0" cType="1" res="0.000197397" purity="0.560755" nType="-99"/>
            <Node pos="r" depth="3" NCoef="0" IVar="-1" Cut="0" cType="1" res="0.00378205" purity="0.651909" nType="-99"/>
          </Node>
          <Node pos="r" depth="2" NCoef="0" IVar="-1" Cut="0" cType="1" res="0.00580794" purity="0.7553" nType="-99"/>
        </Node>
      </Node>
    </BinaryTree>
    <BinaryTree type="DecisionTree" boostWeight="1.0" itree="37">
      <Node pos="s" depth="0" NCoef="0" IVar="2" Cut="10852.9" cType="1" res="0.00316087" purity="0.49304" nType="0">
        <Node pos="l" depth="1" NCoef="0" IVar="4" Cut="373527" cType="1" res="-0.0234627" purity="0.440092" nType="0">
          <Node pos="l" depth="2" NCoef="0" IVar="1" Cut="115498" cType="1" res="-0.0157942" purity="0.450704" nType="0">
            <Node pos="l" depth="3" NCoef="0" IVar="2" Cut="-12703.9" cType="1" res="-0.0326625" purity="0.431147" nType="0">
              <Node pos="l" depth="4" NCoef="0" IVar="-1" Cut="0" cType="1" res="-0.0098424" purity="0.288482" nType="-99"/>
              <Node pos="r" depth="4" NCoef="0" IVar="-1" Cut="0" cType="1" res="-0.00099505" purity="0.44846" nType="-99"/>
            </Node>
            <Node pos="r" depth="3" NCoef="0" IVar="5" Cut="2.01095" cType="1" res="0.0105091" purity="0.4812" nType="0">
              <Node pos="l" depth="4" NCoef="0" IVar="-1" Cut="0" cType="1" res="0.00210758" purity="0.526105" nType="-99"/>
              <Node pos="r" depth="4" NCoef="0" IVar="-1" Cut="0" cType="1" res="-0.00218941" purity="0.421297" nType="-99"/>
            </Node>
          </Node>
          <Node pos="r" depth="2" NCoef="0" IVar="4" Cut="422899" cType="1" res="-0.0806014" purity="0.361021" nType="0">
            <Node pos="l" depth="3" NCoef="0" IVar="-1" Cut="0" cType="1" res="-0.00677273" purity="0.330249" nType="-99"/>
            <Node pos="r" depth="3" NCoef="0" IVar="-1" Cut="0" cType="1" res="-0.00275234" purity="0.39179" nType="-99"/>
          </Node>
        </Node>
        <Node pos="r" depth="1" NCoef="0" IVar="0" Cut="124380" cType="1" res="0.0637031" purity="0.613444" nType="0">
          <Node pos="l" depth="2" NCoef="0" IVar="1" Cut="114874" cType="1" res="0.0183797" purity="0.551511" nType="0">
            <Node pos="l" depth="3" NCoef="0" IVar="-1" Cut="0" cType="1" res="-0.00106626" purity="0.51229" nType="-99"/>
            <Node pos="r" depth="3" NCoef="0" IVar="-1" Cut="0" cType="1" res="0.00225566" purity="0.587634" nType="-99"/>
          </Node>
          <Node pos="r" depth="2" NCoef="0" IVar="6" Cut="0.837569" cType="1" res="0.0901769" purity="0.64962" nType="0">
            <Node pos="l" depth="3" NCoef="0" IVar="-1" Cut="0" cType="1" res="0.00154369" purity="0.571893" nType="-99"/>
            <Node pos="r" depth="3" NCoef="0" IVar="1" Cut="110267" cType="1" res="0.107813" purity="0.676378" nType="0">
              <Node pos="l" depth="4" NCoef="0" IVar="-1" Cut="0" cType="1" res="0.00279566" purity="0.634699" nType="-99"/>
              <Node pos="r" depth="4" NCoef="0" IVar="-1" Cut="0" cType="1" res="0.00486664" purity="0.708796" nType="-99"/>
            </Node>
          </Node>
        </Node>
      </Node>
    </BinaryTree>
    <BinaryTree type="DecisionTree" boostWeight="1.0" itree="38">
      <Node pos="s" depth="0" NCoef="0" IVar="2" Cut="7780.66" cType="1" res="0.00473398" purity="0.4954" nType="0">
        <Node pos="l" depth="1" NCoef="0" IVar="4" Cut="246521" cType="1" res="-0.0238649" purity="0.434743" nType="0">
          <Node pos="l" depth="2" NCoef="0" IVar="1" Cut="115669" cType="1" res="-0.00269936" purity="0.466904" nType="0">
            <Node pos="l" depth="3" NCoef="0" IVar="2" Cut="-8314.54" cType="1" res="-0.0230356" purity="0.443348" nType="0">
              <Node pos="l" depth="4" NCoef="0" IVar="-1" Cut="0" cType="1" res="-0.00551663" purity="0.347372" nType="-99"/>
              <Node pos="r" depth="4" NCoef="0" IVar="-1" Cut="0" cType="1" res="-0.000340694" purity="0.465748" nType="-99"/>
            </Node>
            <Node pos="r" depth="3" NCoef="0" IVar="-1" Cut="0" cType="1" res="0.00216843" purity="0.528127" nType="-99"/>
          </Node>
          <Node pos="r" depth="2" NCoef="0" IVar="4" Cut="283606" cType="1" res="-0.0517625" purity="0.392353" nType="0">
            <Node pos="l" depth="3" NCoef="0" IVar="-1" Cut="0" cType="1" res="-0.00945345" purity="0.310038" nType="-99"/>
            <Node pos="r" depth="3" NCoef="0" IVar="0" Cut="134137" cType="1" res="-0.0234517" purity="0.417881" nType="0">
              <Node pos="l" depth="4" NCoef="0" IVar="-1" Cut="0" cType="1" res="-0.00380301" purity="0.347759" nType="-99"/>
              <Node pos="r" depth="4" NCoef="0" IVar="-1" Cut="0" cType="1" res="0.000473045" purity="0.476294" nType="-99"/>
            </Node>
          </Node>
        </Node>
        <Node pos="r" depth="1" NCoef="0" IVar="0" Cut="182876" cType="1" res="0.0483287" purity="0.587861" nType="0">
          <Node pos="l" depth="2" NCoef="0" IVar="4" Cut="197642" cType="1" res="0.0290228" purity="0.562457" nType="0">
            <Node pos="l" depth="3" NCoef="0" IVar="6" Cut="1.20418" cType="1" res="0.0786557" purity="0.62636" nType="0">
              <Node pos="l" depth="4" NCoef="0" IVar="-1" Cut="0" cType="1" res="0.00211242" purity="0.596126" nType="-99"/>
              <Node pos="r" depth="4" NCoef="0" IVar="-1" Cut="0" cType="1" res="0.00379398" purity="0.650656" nType="-99"/>
            </Node>
            <Node pos="r" depth="3" NCoef="0" IVar="4" Cut="300973" cType="1" res="-0.0161734" purity="0.504267" nType="0">
              <Node pos="l" depth="4" NCoef="0" IVar="-1" Cut="0" cType="1" res="0.000334492" purity="0.534581" nType="-99"/>
              <Node pos="r" depth="4" NCoef="0" IVar="-1" Cut="0" cType="1" res="-0.00327506" purity="0.443201" nType="-99"/>
            </Node>
          </Node>
          <Node pos="r" depth="2" NCoef="0" IVar="6" Cut="1.55488" cType="1" res="0.120171" purity="0.682396" nType="0">
            <Node pos="l" depth="3" NCoef="0" IVar="-1" Cut="0" cType="1" res="0.0052301" purity="0.703527" nType="-99"/>
            <Node pos="r" depth="3" NCoef="0" IVar="-1" Cut="0" cType="1" res="0.00340117" purity="0.660718" nType="-99"/>
          </Node>
        </Node>
      </Node>
    </BinaryTree>
    <BinaryTree type="DecisionTree" boostWeight="1.0" itree="39">
      <Node pos="s" depth="0" NCoef="0" IVar="2" Cut="11116" cType="1" res="0.00570116" purity="0.496536" nType="0">
        <Node pos="l" depth="1" NCoef="0" IVar="5" Cut="2.72274" cType="1" res="-0.0194137" purity="0.443888" nType="0">
          <Node pos="l" depth="2" NCoef="0" IVar="6" Cut="2.68157" cType="1" res="-0.0123041" purity="0.451812" nType="0">
            <Node pos="l" depth="3" NCoef="0" IVar="3" Cut="182686" cType="1" res="0.000612323" purity="0.470507" nType="0">
              <Node pos="l" depth="4" NCoef="0" IVar="-1" Cut="0" cType="1" res="0.000799219" purity="0.487179" nType="-99"/>
              <Node pos="r" depth="4" NCoef="0" IVar="-1" Cut="0" cType="1" res="-0.0021089" purity="0.428559" nType="-99"/>
            </Node>
            <Node pos="r" depth="3" NCoef="0" IVar="1" Cut="99703.7" cType="1" res="-0.0535143" purity="0.392165" nType="0">
              <Node pos="l" depth="4" NCoef="0" IVar="-1" Cut="0" cType="1" res="0.000295738" purity="0.44727" nType="-99"/>
              <Node pos="r" depth="4" NCoef="0" IVar="-1" Cut="0" cType="1" res="-0.00537807" purity="0.358382" nType="-99"/>
            </Node>
          </Node>
          <Node pos="r" depth="2" NCoef="0" IVar="-1" Cut="0" cType="1" res="-0.00748501" purity="0.331381" nType="-99"/>
        </Node>
        <Node pos="r" depth="1" NCoef="0" IVar="0" Cut="139035" cType="1" res="0.0629989" purity="0.616647" nType="0">
          <Node pos="l" depth="2" NCoef="0" IVar="2" Cut="21828.4" cType="1" res="0.0194731" purity="0.55771" nType="0">
            <Node pos="l" depth="3" NCoef="0" IVar="-1" Cut="0" cType="1" res="-0.000707688" purity="0.515495" nType="-99"/>
            <Node pos="r" depth="3" NCoef="0" IVar="-1" Cut="0" cType="1" res="0.00279455" purity="0.620068" nType="-99"/>
          </Node>
          <Node pos="r" depth="2" NCoef="0" IVar="2" Cut="15437.6" cType="1" res="0.108385" purity="0.678104" nType="0">
            <Node pos="l" depth="3" NCoef="0" IVar="-1" Cut="0" cType="1" res="0.00207671" purity="0.594105" nType="-99"/>
            <Node pos="r" depth="3" NCoef="0" IVar="2" Cut="23661.5" cType="1" res="0.136117" purity="0.717584" nType="0">
              <Node pos="l" depth="4" NCoef="0" IVar="-1" Cut="0" cType="1" res="0.00373254" purity="0.679177" nType="-99"/>
              <Node pos="r" depth="4" NCoef="0" IVar="-1" Cut="0" cType="1" res="0.00553399" purity="0.7544" nType="-99"/>
            </Node>
          </Node>
        </Node>
      </Node>
    </BinaryTree>
    <BinaryTree type="DecisionTree" boostWeight="1.0" itree="40">
      <Node pos="s" depth="0" NCoef="0" IVar="6" Cut="2.75827" cType="1" res="0.00983162" purity="0.499457" nType="0">
        <Node pos="l" depth="1" NCoef="0" IVar="2" Cut="21365" cType="1" res="0.0242817" purity="0.521021" nType="0">
          <Node pos="l" depth="2" NCoef="0" IVar="0" Cut="207311" cType="1" res="0.0141539" purity="0.500103" nType="0">
            <Node pos="l" depth="3" NCoef="0" IVar="0" Cut="105231" cType="1" res="0.00613864" purity="0.48786" nType="0">
              <Node pos="l" depth="4" NCoef="0" IVar="-1" Cut="0" cType="1" res="-0.00331084" purity="0.396556" nType="-99"/>
              <Node pos="r" depth="4" NCoef="0" IVar="-1" Cut="0" cType="1" res="0.000634792" purity="0.498843" nType="-99"/>
            </Node>
            <Node pos="r" depth="3" NCoef="0" IVar="6" Cut="2.08556" cType="1" res="0.0793244" purity="0.59965" nType="0">
              <Node pos="l" depth="4" NCoef="0" IVar="-1" Cut="0" cType="1" res="0.000771978" purity="0.545743" nType="-99"/>
              <Node pos="r" depth="4" NCoef="0" IVar="-1" Cut="0" cType="1" res="0.00521006" purity="0.654182" nType="-99"/>
            </Node>
          </Node>
          <Node pos="r" depth="2" NCoef="0" IVar="4" Cut="227461" cType="1" res="0.0898031" purity="0.656349" nType="0">
            <Node pos="l" depth="3" NCoef="0" IVar="-1" Cut="0" cType="1" res="0.00453253" purity="0.698753" nType="-99"/>
            <Node pos="r" depth="3" NCoef="0" IVar="-1" Cut="0" cType="1" res="0.00179689" purity="0.596151" nType="-99"/>
          </Node>
        </Node>
        <Node pos="r" depth="1" NCoef="0" IVar="1" Cut="105179" cType="1" res="-0.0882289" purity="0.353123" nType="0">
          <Node pos="l" depth="2" NCoef="0" IVar="-1" Cut="0" cType="1" res="-0.00282081" purity="0.388158" nType="-99"/>
          <Node pos="r" depth="2" NCoef="0" IVar="-1" Cut="0" cType="1" res="-0.00825207" purity="0.316634" nType="-99"/>
        </Node>
      </Node>
    </BinaryTree>
    <BinaryTree type="DecisionTree" boostWeight="1.0" itree="41">
      <Node pos="s" depth="0" NCoef="0" IVar="2" Cut="11124.8" cType="1" res="0.0117615" purity="0.501021" nType="0">
        <Node pos="l" depth="1" NCoef="0" IVar="0" Cut="124373" cType="1" res="-0.00812958" purity="0.453624" nType="0">
          <Node pos="l" depth="2" NCoef="0" IVar="2" Cut="6143.76" cType="1" res="-0.0354509" purity="0.406367" nType="0">
            <Node pos="l" depth="3" NCoef="0" IVar="6" Cut="2.83478" cType="1" res="-0.0504413" purity="0.381209" nType="0">
              <Node pos="l" depth="4" NCoef="0" IVar="-1" Cut="0" cType="1" res="-0.00213779" purity="0.397375" nType="-99"/>
              <Node pos="r" depth="4" NCoef="0" IVar="-1" Cut="0" cType="1" res="-0.00708816" purity="0.306345" nType="-99"/>
            </Node>
            <Node pos="r" depth="3" NCoef="0" IVar="-1" Cut="0" cType="1" res="0.00112189" purity="0.508071" nType="-99"/>
          </Node>
          <Node pos="r" depth="2" NCoef="0" IVar="1" Cut="100234" cType="1" res="0.0100033" purity="0.484988" nType="0">
            <Node pos="l" depth="3" NCoef="0" IVar="3" Cut="175736" cType="1" res="-0.0264129" purity="0.440229" nType="0">
              <Node pos="l" depth="4" NCoef="0" IVar="-1" Cut="0" cType="1" res="-0.00358831" purity="0.398469" nType="-99"/>
              <Node pos="r" depth="4" NCoef="0" IVar="-1" Cut="0" cType="1" res="0.00108682" purity="0.491397" nType="-99"/>
            </Node>
            <Node pos="r" depth="3" NCoef="0" IVar="3" Cut="136996" cType="1" res="0.0281318" purity="0.507269" nType="0">
              <Node pos="l" depth="4" NCoef="0" IVar="-1" Cut="0" cType="1" res="0.00331577" purity="0.564831" nType="-99"/>
              <Node pos="r" depth="4" NCoef="0" IVar="-1" Cut="0" cType="1" res="0.000752156" purity="0.495321" nType="-99"/>
            </Node>
          </Node>
        </Node>
        <Node pos="r" depth="1" NCoef="0" IVar="6" Cut="0.768306" cType="1" res="0.0591742" purity="0.613998" nType="0">
          <Node pos="l" depth="2" NCoef="0" IVar="-1" Cut="0" cType="1" res="-0.000505296" purity="0.518421" nType="-99"/>
          <Node pos="r" depth="2" NCoef="0" IVar="2" Cut="19766.8" cType="1" res="0.0866434" purity="0.65112" nType="0">
            <Node pos="l" depth="3" NCoef="0" IVar="1" Cut="115377" cType="1" res="0.0543679" purity="0.605811" nType="0">
              <Node pos="l" depth="4" NCoef="0" IVar="-1" Cut="0" cType="1" res="0.00313651" purity="0.633169" nType="-99"/>
              <Node pos="r" depth="4" NCoef="0" IVar="-1" Cut="0" cType="1" res="0.00040105" purity="0.562839" nType="-99"/>
            </Node>
            <Node pos="r" depth="3" NCoef="0" IVar="-1" Cut="0" cType="1" res="0.0045095" purity="0.703798" nType="-99"/>
          </Node>
        </Node>
      </Node>
    </BinaryTree>
    <BinaryTree type="DecisionTree" boostWeight="1.0" itree="42">
      <Node pos="s" depth="0" NCoef="0" IVar="2" Cut="7465.53" cType="1" res="0.0161678" purity="0.506487" nType="0">
        <Node pos="l" depth="1" NCoef="0" IVar="4" Cut="334450" cType="1" res="-0.00854964" purity="0.445993" nType="0">
          <Node pos="l" depth="2" NCoef="0" IVar="4" Cut="283158" cType="1" res="0.000243339" purity="0.460117" nType="0">
            <Node pos="l" depth="3" NCoef="0" IVar="4" Cut="256462" cType="1" res="-0.0140522" purity="0.448554" nType="0">
              <Node pos="l" depth="4" NCoef="0" IVar="-1" Cut="0" cType="1" res="-0.00022304" purity="0.460257" nType="-99"/>
              <Node pos="r" depth="4" NCoef="0" IVar="-1" Cut="0" cType="1" res="-0.00505715" purity="0.359046" nType="-99"/>
            </Node>
            <Node pos="r" depth="3" NCoef="0" IVar="4" Cut="309421" cType="1" res="0.065022" purity="0.512514" nType="0">
              <Node pos="l" depth="4" NCoef="0" IVar="-1" Cut="0" cType="1" res="0.00197871" purity="0.490391" nType="-99"/>
              <Node pos="r" depth="4" NCoef="0" IVar="-1" Cut="0" cType="1" res="0.00367572" purity="0.537947" nType="-99"/>
            </Node>
          </Node>
          <Node pos="r" depth="2" NCoef="0" IVar="0" Cut="129275" cType="1" res="-0.0440368" purity="0.38899" nType="0">
            <Node pos="l" depth="3" NCoef="0" IVar="-1" Cut="0" cType="1" res="-0.00725337" purity="0.288966" nType="-99"/>
            <Node pos="r" depth="3" NCoef="0" IVar="-1" Cut="0" cType="1" res="-0.000480983" purity="0.447892" nType="-99"/>
          </Node>
        </Node>
        <Node pos="r" depth="1" NCoef="0" IVar="4" Cut="295087" cType="1" res="0.0523254" purity="0.594981" nType="0">
          <Node pos="l" depth="2" NCoef="0" IVar="0" Cut="187758" cType="1" res="0.0709443" purity="0.619213" nType="0">
            <Node pos="l" depth="3" NCoef="0" IVar="1" Cut="124457" cType="1" res="0.0578883" purity="0.599972" nType="0">
              <Node pos="l" depth="4" NCoef="0" IVar="-1" Cut="0" cType="1" res="0.00173796" purity="0.582736" nType="-99"/>
              <Node pos="r" depth="4" NCoef="0" IVar="-1" Cut="0" cType="1" res="0.00341311" purity="0.632673" nType="-99"/>
            </Node>
            <Node pos="r" depth="3" NCoef="0" IVar="-1" Cut="0" cType="1" res="0.004845" purity="0.71048" nType="-99"/>
          </Node>
          <Node pos="r" depth="2" NCoef="0" IVar="6" Cut="1.29086" cType="1" res="-0.015948" purity="0.506125" nType="0">
            <Node pos="l" depth="3" NCoef="0" IVar="-1" Cut="0" cType="1" res="-0.00391144" purity="0.427196" nType="-99"/>
            <Node pos="r" depth="3" NCoef="0" IVar="-1" Cut="0" cType="1" res="0.00214237" purity="0.593171" nType="-99"/>
          </Node>
        </Node>
      </Node>
    </BinaryTree>
    <BinaryTree type="DecisionTree" boostWeight="1.0" itree="43">
      <Node pos="s" depth="0" NCoef="0" IVar="2" Cut="14612.4" cType="1" res="0.0133322" purity="0.504221" nType="0">
        <Node pos="l" depth="1" NCoef="0" IVar="4" Cut="334128" cType="1" res="-0.0075153" purity="0.461426" nType="0">
          <Node pos="l" depth="2" NCoef="0" IVar="5" Cut="0.831497" cType="1" res="0.00272745" purity="0.477672" nType="0">
            <Node pos="l" depth="3" NCoef="0" IVar="-1" Cut="0" cType="1" res="-0.00312729" purity="0.42823" nType="-99"/>
            <Node pos="r" depth="3" NCoef="0" IVar="3" Cut="130521" cType="1" res="0.00968963" purity="0.482899" nType="0">
              <Node pos="l" depth="4" NCoef="0" IVar="-1" Cut="0" cType="1" res="-0.00209563" purity="0.426629" nType="-99"/>
              <Node pos="r" depth="4" NCoef="0" IVar="-1" Cut="0" cType="1" res="0.000740253" purity="0.489921" nType="-99"/>
            </Node>
          </Node>
          <Node pos="r" depth="2" NCoef="0" IVar="0" Cut="134136" cType="1" res="-0.0532264" purity="0.388924" nType="0">
            <Node pos="l" depth="3" NCoef="0" IVar="-1" Cut="0" cType="1" res="-0.0085654" purity="0.28178" nType="-99"/>
            <Node pos="r" depth="3" NCoef="0" IVar="6" Cut="2.29862" cType="1" res="-0.0104437" purity="0.458648" nType="0">
              <Node pos="l" depth="4" NCoef="0" IVar="-1" Cut="0" cType="1" res="-0.00202766" purity="0.433617" nType="-99"/>
              <Node pos="r" depth="4" NCoef="0" IVar="-1" Cut="0" cType="1" res="0.00104182" purity="0.487405" nType="-99"/>
            </Node>
          </Node>
        </Node>
        <Node pos="r" depth="1" NCoef="0" IVar="0" Cut="129215" cType="1" res="0.0843906" purity="0.650087" nType="0">
          <Node pos="l" depth="2" NCoef="0" IVar="-1" Cut="0" cType="1" res="0.000794116" purity="0.564677" nType="-99"/>
          <Node pos="r" depth="2" NCoef="0" IVar="1" Cut="135933" cType="1" res="0.130043" purity="0.709344" nType="0">
            <Node pos="l" depth="3" NCoef="0" IVar="-1" Cut="0" cType="1" res="0.00506626" purity="0.732718" nType="-99"/>
            <Node pos="r" depth="3" NCoef="0" IVar="-1" Cut="0" cType="1" res="0.00352798" purity="0.66339" nType="-99"/>
          </Node>
        </Node>
      </Node>
    </BinaryTree>
    <BinaryTree type="DecisionTree" boostWeight="1.0" itree="44">
      <Node pos="s" depth="0" NCoef="0" IVar="2" Cut="17898.5" cType="1" res="0.0051162" purity="0.49522" nType="0">
        <Node pos="l" depth="1" NCoef="0" IVar="0" Cut="178025" cType="1" res="-0.00774451" purity="0.466332" nType="0">
          <Node pos="l" depth="2" NCoef="0" IVar="1" Cut="110464" cType="1" res="-0.0208769" purity="0.44441" nType="0">
            <Node pos="l" depth="3" NCoef="0" IVar="2" Cut="-3283.8" cType="1" res="-0.0416392" purity="0.419792" nType="0">
              <Node pos="l" depth="4" NCoef="0" IVar="-1" Cut="0" cType="1" res="-0.00537929" purity="0.33623" nType="-99"/>
              <Node pos="r" depth="4" NCoef="0" IVar="-1" Cut="0" cType="1" res="-0.00116962" purity="0.455637" nType="-99"/>
            </Node>
            <Node pos="r" depth="3" NCoef="0" IVar="0" Cut="107612" cType="1" res="0.00014113" purity="0.469331" nType="0">
              <Node pos="l" depth="4" NCoef="0" IVar="-1" Cut="0" cType="1" res="-0.00342408" purity="0.382377" nType="-99"/>
              <Node pos="r" depth="4" NCoef="0" IVar="-1" Cut="0" cType="1" res="0.00056401" purity="0.486858" nType="-99"/>
            </Node>
          </Node>
          <Node pos="r" depth="2" NCoef="0" IVar="1" Cut="110483" cType="1" res="0.0425664" purity="0.550318" nType="0">
            <Node pos="l" depth="3" NCoef="0" IVar="1" Cut="97495" cType="1" res="0.00724921" purity="0.505091" nType="0">
              <Node pos="l" depth="4" NCoef="0" IVar="-1" Cut="0" cType="1" res="0.00116079" purity="0.517464" nType="-99"/>
              <Node pos="r" depth="4" NCoef="0" IVar="-1" Cut="0" cType="1" res="-0.000764419" purity="0.491043" nType="-99"/>
            </Node>
            <Node pos="r" depth="3" NCoef="0" IVar="6" Cut="2.14522" cType="1" res="0.0780824" purity="0.595799" nType="0">
              <Node pos="l" depth="4" NCoef="0" IVar="-1" Cut="0" cType="1" res="0.0012214" purity="0.554626" nType="-99"/>
              <Node pos="r" depth="4" NCoef="0" IVar="-1" Cut="0" cType="1" res="0.00505133" purity="0.641813" nType="-99"/>
            </Node>
          </Node>
        </Node>
        <Node pos="r" depth="1" NCoef="0" IVar="0" Cut="139003" cType="1" res="0.0721745" purity="0.645849" nType="0">
          <Node pos="l" depth="2" NCoef="0" IVar="-1" Cut="0" cType="1" res="0.000957869" purity="0.57609" nType="-99"/>
          <Node pos="r" depth="2" NCoef="0" IVar="-1" Cut="0" cType="1" res="0.00443427" purity="0.717825" nType="-99"/>
        </Node>
      </Node>
    </BinaryTree>
    <BinaryTree type="DecisionTree" boostWeight="1.0" itree="45">
      <Node pos="s" depth="0" NCoef="0" IVar="2" Cut="17977.4" cType="1" res="0.00747704" purity="0.496494" nType="0">
        <Node pos="l" depth="1" NCoef="0" IVar="0" Cut="104877" cType="1" res="-0.00425598" purity="0.468835" nType="0">
          <Node pos="l" depth="2" NCoef="0" IVar="-1" Cut="0" cType="1" res="-0.00446609" purity="0.366047" nType="-99"/>
          <Node pos="r" depth="2" NCoef="0" IVar="1" Cut="110465" cType="1" res="0.00283074" purity="0.479101" nType="0">
            <Node pos="l" depth="3" NCoef="0" IVar="0" Cut="119145" cType="1" res="-0.0168465" purity="0.452595" nType="0">
              <Node pos="l" depth="4" NCoef="0" IVar="-1" Cut="0" cType="1" res="0.0012063" purity="0.474994" nType="-99"/>
              <Node pos="r" depth="4" NCoef="0" IVar="-1" Cut="0" cType="1" res="-0.00167883" purity="0.443916" nType="-99"/>
            </Node>
            <Node pos="r" depth="3" NCoef="0" IVar="1" Cut="133551" cType="1" res="0.0227929" purity="0.50599" nType="0">
              <Node pos="l" depth="4" NCoef="0" IVar="-1" Cut="0" cType="1" res="0.00240447" purity="0.543198" nType="-99"/>
              <Node pos="r" depth="4" NCoef="0" IVar="-1" Cut="0" cType="1" res="-0.000786232" purity="0.463528" nType="-99"/>
            </Node>
          </Node>
        </Node>
        <Node pos="r" depth="1" NCoef="0" IVar="0" Cut="129253" cType="1" res="0.0696782" purity="0.643125" nType="0">
          <Node pos="l" depth="2" NCoef="0" IVar="-1" Cut="0" cType="1" res="-0.000116163" purity="0.549982" nType="-99"/>
          <Node pos="r" depth="2" NCoef="0" IVar="3" Cut="164380" cType="1" res="0.123001" purity="0.711788" nType="0">
            <Node pos="l" depth="3" NCoef="0" IVar="-1" Cut="0" cType="1" res="0.00477091" purity="0.724663" nType="-99"/>
            <Node pos="r" depth="3" NCoef="0" IVar="-1" Cut="0" cType="1" res="0.00389634" purity="0.697214" nType="-99"/>
          </Node>
        </Node>
      </Node>
    </BinaryTree>
    <BinaryTree type="DecisionTree" boostWeight="1.0" itree="46">
      <Node pos="s" depth="0" NCoef="0" IVar="0" Cut="114630" cType="1" res="0.00737855" purity="0.498266" nType="0">
        <Node pos="l" depth="1" NCoef="0" IVar="0" Cut="105352" cType="1" res="-0.0432857" purity="0.418715" nType="0">
          <Node pos="l" depth="2" NCoef="0" IVar="5" Cut="1.63621" cType="1" res="-0.0886107" purity="0.364374" nType="0">
            <Node pos="l" depth="3" NCoef="0" IVar="-1" Cut="0" cType="1" res="-0.00294937" purity="0.404322" nType="-99"/>
            <Node pos="r" depth="3" NCoef="0" IVar="-1" Cut="0" cType="1" res="-0.00811709" purity="0.326343" nType="-99"/>
          </Node>
          <Node pos="r" depth="2" NCoef="0" IVar="0" Cut="111689" cType="1" res="-0.017102" purity="0.450106" nType="0">
            <Node pos="l" depth="3" NCoef="0" IVar="2" Cut="89.0027" cType="1" res="0.00588162" purity="0.472343" nType="0">
              <Node pos="l" depth="4" NCoef="0" IVar="-1" Cut="0" cType="1" res="-0.00150739" purity="0.393117" nType="-99"/>
              <Node pos="r" depth="4" NCoef="0" IVar="-1" Cut="0" cType="1" res="0.00115112" purity="0.523971" nType="-99"/>
            </Node>
            <Node pos="r" depth="3" NCoef="0" IVar="-1" Cut="0" cType="1" res="-0.00427719" purity="0.393662" nType="-99"/>
          </Node>
        </Node>
        <Node pos="r" depth="1" NCoef="0" IVar="2" Cut="17898.5" cType="1" res="0.02462" purity="0.525338" nType="0">
          <Node pos="l" depth="2" NCoef="0" IVar="0" Cut="232143" cType="1" res="0.00967064" purity="0.493255" nType="0">
            <Node pos="l" depth="3" NCoef="0" IVar="5" Cut="0.998099" cType="1" res="0.0026516" purity="0.483528" nType="0">
              <Node pos="l" depth="4" NCoef="0" IVar="-1" Cut="0" cType="1" res="-0.00222017" purity="0.439311" nType="-99"/>
              <Node pos="r" depth="4" NCoef="0" IVar="-1" Cut="0" cType="1" res="0.000776432" purity="0.496529" nType="-99"/>
            </Node>
            <Node pos="r" depth="3" NCoef="0" IVar="-1" Cut="0" cType="1" res="0.00310102" purity="0.591401" nType="-99"/>
          </Node>
          <Node pos="r" depth="2" NCoef="0" IVar="6" Cut="1.31138" cType="1" res="0.0978905" purity="0.682584" nType="0">
            <Node pos="l" depth="3" NCoef="0" IVar="-1" Cut="0" cType="1" res="0.00155857" purity="0.602828" nType="-99"/>
            <Node pos="r" depth="3" NCoef="0" IVar="-1" Cut="0" cType="1" res="0.00510058" purity="0.748254" nType="-99"/>
          </Node>
        </Node>
      </Node>
    </BinaryTree>
    <BinaryTree type="DecisionTree" boostWeight="1.0" itree="47">
      <Node pos="s" depth="0" NCoef="0" IVar="2" Cut="14604.9" cType="1" res="0.0139785" purity="0.502078" nType="0">
        <Node pos="l" depth="1" NCoef="0" IVar="4" Cut="373183" cType="1" res="3.57548e-05" purity="0.466146" nType="0">
          <Node pos="l" depth="2" NCoef="0" IVar="1" Cut="110288" cType="1" res="0.00675694" purity="0.47695" nType="0">
            <Node pos="l" depth="3" NCoef="0" IVar="5" Cut="0.758747" cType="1" res="-0.0120834" purity="0.453051" nType="0">
              <Node pos="l" depth="4" NCoef="0" IVar="-1" Cut="0" cType="1" res="0.00249542" purity="0.544691" nType="-99"/>
              <Node pos="r" depth="4" NCoef="0" IVar="-1" Cut="0" cType="1" res="-0.00116639" purity="0.439868" nType="-99"/>
            </Node>
            <Node pos="r" depth="3" NCoef="0" IVar="6" Cut="1.53256" cType="1" res="0.0278229" purity="0.503673" nType="0">
              <Node pos="l" depth="4" NCoef="0" IVar="-1" Cut="0" cType="1" res="-0.00124863" purity="0.464472" nType="-99"/>
              <Node pos="r" depth="4" NCoef="0" IVar="-1" Cut="0" cType="1" res="0.00236938" purity="0.523166" nType="-99"/>
            </Node>
          </Node>
          <Node pos="r" depth="2" NCoef="0" IVar="6" Cut="2.14641" cType="1" res="-0.0493433" purity="0.386767" nType="0">
            <Node pos="l" depth="3" NCoef="0" IVar="-1" Cut="0" cType="1" res="-0.000657452" purity="0.433928" nType="-99"/>
            <Node pos="r" depth="3" NCoef="0" IVar="-1" Cut="0" cType="1" res="-0.0054954" purity="0.338074" nType="-99"/>
          </Node>
        </Node>
        <Node pos="r" depth="1" NCoef="0" IVar="0" Cut="129250" cType="1" res="0.0654882" purity="0.634824" nType="0">
          <Node pos="l" depth="2" NCoef="0" IVar="-1" Cut="0" cType="1" res="0.000878517" purity="0.568361" nType="-99"/>
          <Node pos="r" depth="2" NCoef="0" IVar="3" Cut="164479" cType="1" res="0.100825" purity="0.687396" nType="0">
            <Node pos="l" depth="3" NCoef="0" IVar="-1" Cut="0" cType="1" res="0.00465148" purity="0.717745" nType="-99"/>
            <Node pos="r" depth="3" NCoef="0" IVar="-1" Cut="0" cType="1" res="0.00263866" purity="0.655449" nType="-99"/>
          </Node>
        </Node>
      </Node>
    </BinaryTree>
    <BinaryTree type="DecisionTree" boostWeight="1.0" itree="48">
      <Node pos="s" depth="0" NCoef="0" IVar="2" Cut="21180.3" cType="1" res="0.00920994" purity="0.499268" nType="0">
        <Node pos="l" depth="1" NCoef="0" IVar="2" Cut="-5675.03" cType="1" res="-0.00272902" purity="0.474546" nType="0">
          <Node pos="l" depth="2" NCoef="0" IVar="5" Cut="1.30639" cType="1" res="-0.0448151" purity="0.383467" nType="0">
            <Node pos="l" depth="3" NCoef="0" IVar="0" Cut="139008" cType="1" res="-0.00786459" purity="0.425282" nType="0">
              <Node pos="l" depth="4" NCoef="0" IVar="-1" Cut="0" cType="1" res="0.00214858" purity="0.46339" nType="-99"/>
              <Node pos="r" depth="4" NCoef="0" IVar="-1" Cut="0" cType="1" res="-0.00350883" purity="0.385433" nType="-99"/>
            </Node>
            <Node pos="r" depth="3" NCoef="0" IVar="1" Cut="115585" cType="1" res="-0.0734764" purity="0.351033" nType="0">
              <Node pos="l" depth="4" NCoef="0" IVar="-1" Cut="0" cType="1" res="-0.00916316" purity="0.287753" nType="-99"/>
              <Node pos="r" depth="4" NCoef="0" IVar="-1" Cut="0" cType="1" res="-0.00233273" purity="0.390469" nType="-99"/>
            </Node>
          </Node>
          <Node pos="r" depth="2" NCoef="0" IVar="0" Cut="104877" cType="1" res="0.00959027" purity="0.501206" nType="0">
            <Node pos="l" depth="3" NCoef="0" IVar="-1" Cut="0" cType="1" res="-0.00470041" purity="0.376122" nType="-99"/>
            <Node pos="r" depth="3" NCoef="0" IVar="4" Cut="265912" cType="1" res="0.0172848" purity="0.512064" nType="0">
              <Node pos="l" depth="4" NCoef="0" IVar="-1" Cut="0" cType="1" res="0.00149754" purity="0.539097" nType="-99"/>
              <Node pos="r" depth="4" NCoef="0" IVar="-1" Cut="0" cType="1" res="-0.000949317" purity="0.455553" nType="-99"/>
            </Node>
          </Node>
        </Node>
        <Node pos="r" depth="1" NCoef="0" IVar="0" Cut="143732" cType="1" res="0.0919542" purity="0.670605" nType="0">
          <Node pos="l" depth="2" NCoef="0" IVar="-1" Cut="0" cType="1" res="0.0016597" purity="0.595453" nType="-99"/>
          <Node pos="r" depth="2" NCoef="0" IVar="-1" Cut="0" cType="1" res="0.00514428" purity="0.757876" nType="-99"/>
        </Node>
      </Node>
    </BinaryTree>
    <BinaryTree type="DecisionTree" boostWeight="1.0" itree="49">
      <Node pos="s" depth="0" NCoef="0" IVar="2" Cut="7739.83" cType="1" res="0.004866" purity="0.493991" nType="0">
        <Node pos="l" depth="1" NCoef="0" IVar="2" Cut="-15536.7" cType="1" res="-0.0156582" purity="0.437581" nType="0">
          <Node pos="l" depth="2" NCoef="0" IVar="-1" Cut="0" cType="1" res="-0.0056543" purity="0.330249" nType="-99"/>
          <Node pos="r" depth="2" NCoef="0" IVar="3" Cut="159554" cType="1" res="-0.00689633" purity="0.450419" nType="0">
            <Node pos="l" depth="3" NCoef="0" IVar="1" Cut="100051" cType="1" res="0.0358425" purity="0.491411" nType="0">
              <Node pos="l" depth="4" NCoef="0" IVar="-1" Cut="0" cType="1" res="-0.00149434" purity="0.419634" nType="-99"/>
              <Node pos="r" depth="4" NCoef="0" IVar="-1" Cut="0" cType="1" res="0.00262521" purity="0.519339" nType="-99"/>
            </Node>
            <Node pos="r" depth="3" NCoef="0" IVar="6" Cut="1.99252" cType="1" res="-0.0304762" purity="0.427803" nType="0">
              <Node pos="l" depth="4" NCoef="0" IVar="-1" Cut="0" cType="1" res="-0.00320883" purity="0.398874" nType="-99"/>
              <Node pos="r" depth="4" NCoef="0" IVar="-1" Cut="0" cType="1" res="-0.000586264" purity="0.44614" nType="-99"/>
            </Node>
          </Node>
        </Node>
        <Node pos="r" depth="1" NCoef="0" IVar="1" Cut="166750" cType="1" res="0.0374198" purity="0.583464" nType="0">
          <Node pos="l" depth="2" NCoef="0" IVar="1" Cut="95613.2" cType="1" res="0.0496134" purity="0.596875" nType="0">
            <Node pos="l" depth="3" NCoef="0" IVar="-1" Cut="0" cType="1" res="-0.00048949" purity="0.526924" nType="-99"/>
            <Node pos="r" depth="3" NCoef="0" IVar="2" Cut="23461.1" cType="1" res="0.0606205" purity="0.60958" nType="0">
              <Node pos="l" depth="4" NCoef="0" IVar="-1" Cut="0" cType="1" res="0.00180842" purity="0.580041" nType="-99"/>
              <Node pos="r" depth="4" NCoef="0" IVar="-1" Cut="0" cType="1" res="0.00394394" purity="0.690184" nType="-99"/>
            </Node>
          </Node>
          <Node pos="r" depth="2" NCoef="0" IVar="-1" Cut="0" cType="1" res="-0.00197301" purity="0.49381" nType="-99"/>
        </Node>
      </Node>
    </BinaryTree>
    <BinaryTree type="DecisionTree" boostWeight="1.0" itree="50">
      <Node pos="s" depth="0" NCoef="0" IVar="2" Cut="14612.4" cType="1" res="0.0135014" purity="0.502559" nType="0">
        <Node pos="l" depth="1" NCoef="0" IVar="4" Cut="334584" cType="1" res="0.000468763" purity="0.466957" nType="0">
          <Node pos="l" depth="2" NCoef="0" IVar="1" Cut="160933" cType="1" res="0.0110582" purity="0.48368" nType="0">
            <Node pos="l" depth="3" NCoef="0" IVar="5" Cut="1.88532" cType="1" res="0.0188562" purity="0.491585" nType="0">
              <Node pos="l" depth="4" NCoef="0" IVar="-1" Cut="0" cType="1" res="0.000255455" purity="0.479362" nType="-99"/>
              <Node pos="r" depth="4" NCoef="0" IVar="-1" Cut="0" cType="1" res="0.00268538" purity="0.529511" nType="-99"/>
            </Node>
            <Node pos="r" depth="3" NCoef="0" IVar="-1" Cut="0" cType="1" res="-0.00566639" purity="0.372459" nType="-99"/>
          </Node>
          <Node pos="r" depth="2" NCoef="0" IVar="0" Cut="178026" cType="1" res="-0.0467097" purity="0.39245" nType="0">
            <Node pos="l" depth="3" NCoef="0" IVar="5" Cut="1.35526" cType="1" res="-0.0730974" purity="0.347153" nType="0">
              <Node pos="l" depth="4" NCoef="0" IVar="-1" Cut="0" cType="1" res="-0.00768007" purity="0.30913" nType="-99"/>
              <Node pos="r" depth="4" NCoef="0" IVar="-1" Cut="0" cType="1" res="-0.00270112" purity="0.371818" nType="-99"/>
            </Node>
            <Node pos="r" depth="3" NCoef="0" IVar="-1" Cut="0" cType="1" res="0.000900484" purity="0.506424" nType="-99"/>
          </Node>
        </Node>
        <Node pos="r" depth="1" NCoef="0" IVar="0" Cut="168289" cType="1" res="0.0623262" purity="0.635936" nType="0">
          <Node pos="l" depth="2" NCoef="0" IVar="4" Cut="226865" cType="1" res="0.0354807" purity="0.596664" nType="0">
            <Node pos="l" depth="3" NCoef="0" IVar="-1" Cut="0" cType="1" res="0.00279623" purity="0.645501" nType="-99"/>
            <Node pos="r" depth="3" NCoef="0" IVar="-1" Cut="0" cType="1" res="-0.00109511" purity="0.515346" nType="-99"/>
          </Node>
          <Node pos="r" depth="2" NCoef="0" IVar="-1" Cut="0" cType="1" res="0.00455685" purity="0.728127" nType="-99"/>
        </Node>
      </Node>
    </BinaryTree>
    <BinaryTree type="DecisionTree" boostWeight="1.0" itree="51">
      <Node pos="s" depth="0" NCoef="0" IVar="2" Cut="14505.9" cType="1" res="0.00879506" purity="0.499407" nType="0">
        <Node pos="l" depth="1" NCoef="0" IVar="6" Cut="2.75839" cType="1" res="-0.00993938" purity="0.456907" nType="0">
          <Node pos="l" depth="2" NCoef="0" IVar="2" Cut="-12007.7" cType="1" res="-6.73807e-05" purity="0.473311" nType="0">
            <Node pos="l" depth="3" NCoef="0" IVar="-1" Cut="0" cType="1" res="-0.00422776" purity="0.34948" nType="-99"/>
            <Node pos="r" depth="3" NCoef="0" IVar="5" Cut="1.67148" cType="1" res="0.00572254" purity="0.483341" nType="0">
              <Node pos="l" depth="4" NCoef="0" IVar="-1" Cut="0" cType="1" res="-0.000351155" purity="0.474915" nType="-99"/>
              <Node pos="r" depth="4" NCoef="0" IVar="-1" Cut="0" cType="1" res="0.00113063" purity="0.495187" nType="-99"/>
            </Node>
          </Node>
          <Node pos="r" depth="2" NCoef="0" IVar="6" Cut="2.89864" cType="1" res="-0.0586004" purity="0.376052" nType="0">
            <Node pos="l" depth="3" NCoef="0" IVar="-1" Cut="0" cType="1" res="-0.00951722" purity="0.299769" nType="-99"/>
            <Node pos="r" depth="3" NCoef="0" IVar="0" Cut="138922" cType="1" res="-0.0179152" purity="0.414665" nType="0">
              <Node pos="l" depth="4" NCoef="0" IVar="-1" Cut="0" cType="1" res="-0.00236996" purity="0.371228" nType="-99"/>
              <Node pos="r" depth="4" NCoef="0" IVar="-1" Cut="0" cType="1" res="0.000332982" purity="0.462111" nType="-99"/>
            </Node>
          </Node>
        </Node>
        <Node pos="r" depth="1" NCoef="0" IVar="6" Cut="0.98844" cType="1" res="0.0735854" purity="0.646384" nType="0">
          <Node pos="l" depth="2" NCoef="0" IVar="-1" Cut="0" cType="1" res="0.0012426" purity="0.57566" nType="-99"/>
          <Node pos="r" depth="2" NCoef="0" IVar="3" Cut="173333" cType="1" res="0.100293" purity="0.690188" nType="0">
            <Node pos="l" depth="3" NCoef="0" IVar="-1" Cut="0" cType="1" res="0.00465315" purity="0.718358" nType="-99"/>
            <Node pos="r" depth="3" NCoef="0" IVar="-1" Cut="0" cType="1" res="0.00206999" purity="0.639909" nType="-99"/>
          </Node>
        </Node>
      </Node>
    </BinaryTree>
    <BinaryTree type="DecisionTree" boostWeight="1.0" itree="52">
      <Node pos="s" depth="0" NCoef="0" IVar="2" Cut="18025.2" cType="1" res="0.00337683" purity="0.494269" nType="0">
        <Node pos="l" depth="1" NCoef="0" IVar="0" Cut="202433" cType="1" res="-0.011275" purity="0.461933" nType="0">
          <Node pos="l" depth="2" NCoef="0" IVar="4" Cut="334275" cType="1" res="-0.0210449" purity="0.446908" nType="0">
            <Node pos="l" depth="3" NCoef="0" IVar="1" Cut="119662" cType="1" res="-0.00719254" purity="0.468681" nType="0">
              <Node pos="l" depth="4" NCoef="0" IVar="-1" Cut="0" cType="1" res="-0.000963576" purity="0.45294" nType="-99"/>
              <Node pos="r" depth="4" NCoef="0" IVar="-1" Cut="0" cType="1" res="0.00081271" purity="0.500783" nType="-99"/>
            </Node>
            <Node pos="r" depth="3" NCoef="0" IVar="1" Cut="125853" cType="1" res="-0.0924523" purity="0.334673" nType="0">
              <Node pos="l" depth="4" NCoef="0" IVar="-1" Cut="0" cType="1" res="-0.00345505" purity="0.364184" nType="-99"/>
              <Node pos="r" depth="4" NCoef="0" IVar="-1" Cut="0" cType="1" res="-0.00948933" purity="0.29348" nType="-99"/>
            </Node>
          </Node>
          <Node pos="r" depth="2" NCoef="0" IVar="3" Cut="177732" cType="1" res="0.0566386" purity="0.566373" nType="0">
            <Node pos="l" depth="3" NCoef="0" IVar="-1" Cut="0" cType="1" res="0.000513176" purity="0.523549" nType="-99"/>
            <Node pos="r" depth="3" NCoef="0" IVar="-1" Cut="0" cType="1" res="0.00424209" purity="0.61913" nType="-99"/>
          </Node>
        </Node>
        <Node pos="r" depth="1" NCoef="0" IVar="0" Cut="143949" cType="1" res="0.0783758" purity="0.659787" nType="0">
          <Node pos="l" depth="2" NCoef="0" IVar="-1" Cut="0" cType="1" res="0.00187925" purity="0.605314" nType="-99"/>
          <Node pos="r" depth="2" NCoef="0" IVar="-1" Cut="0" cType="1" res="0.00423659" purity="0.728092" nType="-99"/>
        </Node>
      </Node>
    </BinaryTree>
    <BinaryTree type="DecisionTree" boostWeight="1.0" itree="53">
      <Node pos="s" depth="0" NCoef="0" IVar="0" Cut="173151" cType="1" res="0.00839066" purity="0.497273" nType="0">
        <Node pos="l" depth="1" NCoef="0" IVar="3" Cut="178113" cType="1" res="-0.0061334" purity="0.471874" nType="0">
          <Node pos="l" depth="2" NCoef="0" IVar="2" Cut="-2485.85" cType="1" res="0.00971818" purity="0.490799" nType="0">
            <Node pos="l" depth="3" NCoef="0" IVar="2" Cut="-16194.4" cType="1" res="-0.0255141" purity="0.393304" nType="0">
              <Node pos="l" depth="4" NCoef="0" IVar="-1" Cut="0" cType="1" res="0.00260825" purity="0.453964" nType="-99"/>
              <Node pos="r" depth="4" NCoef="0" IVar="-1" Cut="0" cType="1" res="-0.00323577" purity="0.369138" nType="-99"/>
            </Node>
            <Node pos="r" depth="3" NCoef="0" IVar="0" Cut="116054" cType="1" res="0.0243204" purity="0.531206" nType="0">
              <Node pos="l" depth="4" NCoef="0" IVar="-1" Cut="0" cType="1" res="-0.000624826" purity="0.481845" nType="-99"/>
              <Node pos="r" depth="4" NCoef="0" IVar="-1" Cut="0" cType="1" res="0.00187711" purity="0.557817" nType="-99"/>
            </Node>
          </Node>
          <Node pos="r" depth="2" NCoef="0" IVar="1" Cut="115509" cType="1" res="-0.0380799" purity="0.433733" nType="0">
            <Node pos="l" depth="3" NCoef="0" IVar="1" Cut="104302" cType="1" res="-0.0713989" purity="0.394993" nType="0">
              <Node pos="l" depth="4" NCoef="0" IVar="-1" Cut="0" cType="1" res="-0.00230405" purity="0.417071" nType="-99"/>
              <Node pos="r" depth="4" NCoef="0" IVar="-1" Cut="0" cType="1" res="-0.00848266" purity="0.343949" nType="-99"/>
            </Node>
            <Node pos="r" depth="3" NCoef="0" IVar="4" Cut="260057" cType="1" res="0.00199296" purity="0.480326" nType="0">
              <Node pos="l" depth="4" NCoef="0" IVar="-1" Cut="0" cType="1" res="0.00156667" purity="0.539512" nType="-99"/>
              <Node pos="r" depth="4" NCoef="0" IVar="-1" Cut="0" cType="1" res="-0.00188927" purity="0.415532" nType="-99"/>
            </Node>
          </Node>
        </Node>
        <Node pos="r" depth="1" NCoef="0" IVar="2" Cut="17624.6" cType="1" res="0.0571865" purity="0.582605" nType="0">
          <Node pos="l" depth="2" NCoef="0" IVar="5" Cut="0.966242" cType="1" res="0.0402805" purity="0.544888" nType="0">
            <Node pos="l" depth="3" NCoef="0" IVar="5" Cut="0.778026" cType="1" res="0.0799266" purity="0.582377" nType="0">
              <Node pos="l" depth="4" NCoef="0" IVar="-1" Cut="0" cType="1" res="0.00160529" purity="0.54293" nType="-99"/>
              <Node pos="r" depth="4" NCoef="0" IVar="-1" Cut="0" cType="1" res="0.0045305" purity="0.623573" nType="-99"/>
            </Node>
            <Node pos="r" depth="3" NCoef="0" IVar="3" Cut="166568" cType="1" res="0.00903027" purity="0.515338" nType="0">
              <Node pos="l" depth="4" NCoef="0" IVar="-1" Cut="0" cType="1" res="-0.00207321" purity="0.466743" nType="-99"/>
              <Node pos="r" depth="4" NCoef="0" IVar="-1" Cut="0" cType="1" res="0.00191553" purity="0.550249" nType="-99"/>
            </Node>
          </Node>
          <Node pos="r" depth="2" NCoef="0" IVar="-1" Cut="0" cType="1" res="0.00466404" purity="0.750481" nType="-99"/>
        </Node>
      </Node>
    </BinaryTree>
    <BinaryTree type="DecisionTree" boostWeight="1.0" itree="54">
      <Node pos="s" depth="0" NCoef="0" IVar="2" Cut="4322.15" cType="1" res="0.00857745" purity="0.498814" nType="0">
        <Node pos="l" depth="1" NCoef="0" IVar="0" Cut="182867" cType="1" res="-0.0183659" purity="0.426904" nType="0">
          <Node pos="l" depth="2" NCoef="0" IVar="6" Cut="2.06887" cType="1" res="-0.0368473" purity="0.39889" nType="0">
            <Node pos="l" depth="3" NCoef="0" IVar="2" Cut="-2139.39" cType="1" res="-0.0755626" purity="0.364365" nType="0">
              <Node pos="l" depth="4" NCoef="0" IVar="-1" Cut="0" cType="1" res="-0.00747395" purity="0.307293" nType="-99"/>
              <Node pos="r" depth="4" NCoef="0" IVar="-1" Cut="0" cType="1" res="-0.00278782" purity="0.400686" nType="-99"/>
            </Node>
            <Node pos="r" depth="3" NCoef="0" IVar="4" Cut="217877" cType="1" res="-0.0164228" purity="0.417104" nType="0">
              <Node pos="l" depth="4" NCoef="0" IVar="-1" Cut="0" cType="1" res="0.000553114" purity="0.462057" nType="-99"/>
              <Node pos="r" depth="4" NCoef="0" IVar="-1" Cut="0" cType="1" res="-0.00204009" purity="0.385593" nType="-99"/>
            </Node>
          </Node>
          <Node pos="r" depth="2" NCoef="0" IVar="3" Cut="169555" cType="1" res="0.0660595" purity="0.554878" nType="0">
            <Node pos="l" depth="3" NCoef="0" IVar="-1" Cut="0" cType="1" res="0.00362964" purity="0.579965" nType="-99"/>
            <Node pos="r" depth="3" NCoef="0" IVar="-1" Cut="0" cType="1" res="0.00170413" purity="0.528855" nType="-99"/>
          </Node>
        </Node>
        <Node pos="r" depth="1" NCoef="0" IVar="1" Cut="95123.3" cType="1" res="0.034871" purity="0.56899" nType="0">
          <Node pos="l" depth="2" NCoef="0" IVar="-1" Cut="0" cType="1" res="-0.00229574" purity="0.479514" nType="-99"/>
          <Node pos="r" depth="2" NCoef="0" IVar="6" Cut="0.724433" cType="1" res="0.0469515" purity="0.582164" nType="0">
            <Node pos="l" depth="3" NCoef="0" IVar="1" Cut="145078" cType="1" res="0.00481269" purity="0.520216" nType="0">
              <Node pos="l" depth="4" NCoef="0" IVar="-1" Cut="0" cType="1" res="0.00124066" purity="0.542665" nType="-99"/>
              <Node pos="r" depth="4" NCoef="0" IVar="-1" Cut="0" cType="1" res="-0.00212344" purity="0.473573" nType="-99"/>
            </Node>
            <Node pos="r" depth="3" NCoef="0" IVar="0" Cut="207287" cType="1" res="0.063546" purity="0.60656" nType="0">
              <Node pos="l" depth="4" NCoef="0" IVar="-1" Cut="0" cType="1" res="0.00216432" purity="0.592175" nType="-99"/>
              <Node pos="r" depth="4" NCoef="0" IVar="-1" Cut="0" cType="1" res="0.00441788" purity="0.68627" nType="-99"/>
            </Node>
          </Node>
        </Node>
      </Node>
    </BinaryTree>
    <BinaryTree type="DecisionTree" boostWeight="1.0" itree="55">
      <Node pos="s" depth="0" NCoef="0" IVar="2" Cut="11139.3" cType="1" res="0.0135658" purity="0.503845" nType="0">
        <Node pos="l" depth="1" NCoef="0" IVar="4" Cut="236626" cType="1" res="-0.00711637" purity="0.450675" nType="0">
          <Node pos="l" depth="2" NCoef="0" IVar="1" Cut="98459" cType="1" res="0.0152135" purity="0.488537" nType="0">
            <Node pos="l" depth="3" NCoef="0" IVar="0" Cut="158402" cType="1" res="-0.0179167" purity="0.447461" nType="0">
              <Node pos="l" depth="4" NCoef="0" IVar="-1" Cut="0" cType="1" res="-0.00227135" purity="0.413597" nType="-99"/>
              <Node pos="r" depth="4" NCoef="0" IVar="-1" Cut="0" cType="1" res="0.00137925" purity="0.520171" nType="-99"/>
            </Node>
            <Node pos="r" depth="3" NCoef="0" IVar="5" Cut="1.04106" cType="1" res="0.0329896" purity="0.510577" nType="0">
              <Node pos="l" depth="4" NCoef="0" IVar="-1" Cut="0" cType="1" res="-0.0011299" purity="0.457559" nType="-99"/>
              <Node pos="r" depth="4" NCoef="0" IVar="-1" Cut="0" cType="1" res="0.00206446" purity="0.523352" nType="-99"/>
            </Node>
          </Node>
          <Node pos="r" depth="2" NCoef="0" IVar="5" Cut="2.31021" cType="1" res="-0.0327741" purity="0.407171" nType="0">
            <Node pos="l" depth="3" NCoef="0" IVar="5" Cut="1.23196" cType="1" res="-0.0525546" purity="0.387438" nType="0">
              <Node pos="l" depth="4" NCoef="0" IVar="-1" Cut="0" cType="1" res="-0.00110227" purity="0.422806" nType="-99"/>
              <Node pos="r" depth="4" NCoef="0" IVar="-1" Cut="0" cType="1" res="-0.00454923" purity="0.36215" nType="-99"/>
            </Node>
            <Node pos="r" depth="3" NCoef="0" IVar="-1" Cut="0" cType="1" res="0.0012044" purity="0.465377" nType="-99"/>
          </Node>
        </Node>
        <Node pos="r" depth="1" NCoef="0" IVar="1" Cut="100211" cType="1" res="0.0616539" purity="0.62747" nType="0">
          <Node pos="l" depth="2" NCoef="0" IVar="-1" Cut="0" cType="1" res="3.17655e-05" purity="0.563098" nType="-99"/>
          <Node pos="r" depth="2" NCoef="0" IVar="1" Cut="168172" cType="1" res="0.077271" purity="0.64398" nType="0">
            <Node pos="l" depth="3" NCoef="0" IVar="3" Cut="175122" cType="1" res="0.09529" purity="0.665374" nType="0">
              <Node pos="l" depth="4" NCoef="0" IVar="-1" Cut="0" cType="1" res="0.00433059" purity="0.688435" nType="-99"/>
              <Node pos="r" depth="4" NCoef="0" IVar="-1" Cut="0" cType="1" res="0.00174184" purity="0.612109" nType="-99"/>
            </Node>
            <Node pos="r" depth="3" NCoef="0" IVar="-1" Cut="0" cType="1" res="-0.000492842" purity="0.538184" nType="-99"/>
          </Node>
        </Node>
      </Node>
    </BinaryTree>
    <BinaryTree type="DecisionTree" boostWeight="1.0" itree="56">
      <Node pos="s" depth="0" NCoef="0" IVar="2" Cut="7730.73" cType="1" res="0.0071039" purity="0.496897" nType="0">
        <Node pos="l" depth="1" NCoef="0" IVar="4" Cut="246380" cType="1" res="-0.011975" purity="0.438528" nType="0">
          <Node pos="l" depth="2" NCoef="0" IVar="1" Cut="93390.3" cType="1" res="0.0101342" purity="0.474562" nType="0">
            <Node pos="l" depth="3" NCoef="0" IVar="-1" Cut="0" cType="1" res="-0.00217133" purity="0.415836" nType="-99"/>
            <Node pos="r" depth="3" NCoef="0" IVar="0" Cut="163399" cType="1" res="0.0189763" purity="0.484936" nType="0">
              <Node pos="l" depth="4" NCoef="0" IVar="-1" Cut="0" cType="1" res="0.000218309" purity="0.461516" nType="-99"/>
              <Node pos="r" depth="4" NCoef="0" IVar="-1" Cut="0" cType="1" res="0.00256043" purity="0.55966" nType="-99"/>
            </Node>
          </Node>
          <Node pos="r" depth="2" NCoef="0" IVar="0" Cut="114633" cType="1" res="-0.0415215" purity="0.390374" nType="0">
            <Node pos="l" depth="3" NCoef="0" IVar="-1" Cut="0" cType="1" res="-0.00717341" purity="0.288711" nType="-99"/>
            <Node pos="r" depth="3" NCoef="0" IVar="6" Cut="1.45653" cType="1" res="-0.0224876" purity="0.423467" nType="0">
              <Node pos="l" depth="4" NCoef="0" IVar="-1" Cut="0" cType="1" res="0.00127477" purity="0.481423" nType="-99"/>
              <Node pos="r" depth="4" NCoef="0" IVar="-1" Cut="0" cType="1" res="-0.00207111" purity="0.405844" nType="-99"/>
            </Node>
          </Node>
        </Node>
        <Node pos="r" depth="1" NCoef="0" IVar="0" Cut="168250" cType="1" res="0.0368429" purity="0.587879" nType="0">
          <Node pos="l" depth="2" NCoef="0" IVar="4" Cut="285836" cType="1" res="0.0190802" purity="0.559992" nType="0">
            <Node pos="l" depth="3" NCoef="0" IVar="5" Cut="1.00889" cType="1" res="0.036264" purity="0.58504" nType="0">
              <Node pos="l" depth="4" NCoef="0" IVar="-1" Cut="0" cType="1" res="-0.00139937" purity="0.534373" nType="-99"/>
              <Node pos="r" depth="4" NCoef="0" IVar="-1" Cut="0" cType="1" res="0.00228347" purity="0.599791" nType="-99"/>
            </Node>
            <Node pos="r" depth="3" NCoef="0" IVar="-1" Cut="0" cType="1" res="-0.00202212" purity="0.470441" nType="-99"/>
          </Node>
          <Node pos="r" depth="2" NCoef="0" IVar="2" Cut="15657.7" cType="1" res="0.0838705" purity="0.661712" nType="0">
            <Node pos="l" depth="3" NCoef="0" IVar="-1" Cut="0" cType="1" res="0.00137027" purity="0.571194" nType="-99"/>
            <Node pos="r" depth="3" NCoef="0" IVar="-1" Cut="0" cType="1" res="0.00449649" purity="0.746349" nType="-99"/>
          </Node>
        </Node>
      </Node>
    </BinaryTree>
    <BinaryTree type="DecisionTree" boostWeight="1.0" itree="57">
      <Node pos="s" depth="0" NCoef="0" IVar="2" Cut="11129.1" cType="1" res="0.00895709" purity="0.498322" nType="0">
        <Node pos="l" depth="1" NCoef="0" IVar="0" Cut="104878" cType="1" res="-0.011881" purity="0.444391" nType="0">
          <Node pos="l" depth="2" NCoef="0" IVar="-1" Cut="0" cType="1" res="-0.00468738" purity="0.342954" nType="-99"/>
          <Node pos="r" depth="2" NCoef="0" IVar="6" Cut="1.99222" cType="1" res="-0.00540156" purity="0.454921" nType="0">
            <Node pos="l" depth="3" NCoef="0" IVar="2" Cut="-2534.73" cType="1" res="-0.0279816" purity="0.441243" nType="0">
              <Node pos="l" depth="4" NCoef="0" IVar="-1" Cut="0" cType="1" res="-0.00886861" purity="0.296596" nType="-99"/>
              <Node pos="r" depth="4" NCoef="0" IVar="-1" Cut="0" cType="1" res="-0.000382016" purity="0.47002" nType="-99"/>
            </Node>
            <Node pos="r" depth="3" NCoef="0" IVar="1" Cut="140968" cType="1" res="0.0110044" purity="0.464858" nType="0">
              <Node pos="l" depth="4" NCoef="0" IVar="-1" Cut="0" cType="1" res="-3.34618e-05" purity="0.454824" nType="-99"/>
              <Node pos="r" depth="4" NCoef="0" IVar="-1" Cut="0" cType="1" res="0.00271085" purity="0.507739" nType="-99"/>
            </Node>
          </Node>
        </Node>
        <Node pos="r" depth="1" NCoef="0" IVar="4" Cut="207392" cType="1" res="0.0572494" purity="0.623307" nType="0">
          <Node pos="l" depth="2" NCoef="0" IVar="1" Cut="108975" cType="1" res="0.0880153" purity="0.668412" nType="0">
            <Node pos="l" depth="3" NCoef="0" IVar="-1" Cut="0" cType="1" res="0.00253152" purity="0.639349" nType="-99"/>
            <Node pos="r" depth="3" NCoef="0" IVar="-1" Cut="0" cType="1" res="0.00401331" purity="0.697273" nType="-99"/>
          </Node>
          <Node pos="r" depth="2" NCoef="0" IVar="2" Cut="19777.2" cType="1" res="0.025545" purity="0.576825" nType="0">
            <Node pos="l" depth="3" NCoef="0" IVar="-1" Cut="0" cType="1" res="-0.00038113" purity="0.525189" nType="-99"/>
            <Node pos="r" depth="3" NCoef="0" IVar="-1" Cut="0" cType="1" res="0.00241552" purity="0.633266" nType="-99"/>
          </Node>
        </Node>
      </Node>
    </BinaryTree>
    <BinaryTree type="DecisionTree" boostWeight="1.0" itree="58">
      <Node pos="s" depth="0" NCoef="0" IVar="2" Cut="7780.66" cType="1" res="-0.00487656" purity="0.483565" nType="0">
        <Node pos="l" depth="1" NCoef="0" IVar="1" Cut="95117.2" cType="1" res="-0.0210427" purity="0.42695" nType="0">
          <Node pos="l" depth="2" NCoef="0" IVar="1" Cut="92621.4" cType="1" res="-0.0633642" purity="0.376918" nType="0">
            <Node pos="l" depth="3" NCoef="0" IVar="-1" Cut="0" cType="1" res="-0.00064472" purity="0.428739" nType="-99"/>
            <Node pos="r" depth="3" NCoef="0" IVar="-1" Cut="0" cType="1" res="-0.00857225" purity="0.30904" nType="-99"/>
          </Node>
          <Node pos="r" depth="2" NCoef="0" IVar="0" Cut="119513" cType="1" res="-0.0122497" purity="0.437345" nType="0">
            <Node pos="l" depth="3" NCoef="0" IVar="2" Cut="787.146" cType="1" res="-0.0338195" purity="0.387445" nType="0">
              <Node pos="l" depth="4" NCoef="0" IVar="-1" Cut="0" cType="1" res="-0.00348563" purity="0.352085" nType="-99"/>
              <Node pos="r" depth="4" NCoef="0" IVar="-1" Cut="0" cType="1" res="0.000555097" purity="0.459786" nType="-99"/>
            </Node>
            <Node pos="r" depth="3" NCoef="0" IVar="2" Cut="4284.19" cType="1" res="-0.000438045" purity="0.464671" nType="0">
              <Node pos="l" depth="4" NCoef="0" IVar="-1" Cut="0" cType="1" res="0.000444694" purity="0.468528" nType="-99"/>
              <Node pos="r" depth="4" NCoef="0" IVar="-1" Cut="0" cType="1" res="-0.00229216" purity="0.447041" nType="-99"/>
            </Node>
          </Node>
        </Node>
        <Node pos="r" depth="1" NCoef="0" IVar="0" Cut="173125" cType="1" res="0.0206078" purity="0.572812" nType="0">
          <Node pos="l" depth="2" NCoef="0" IVar="4" Cut="197546" cType="1" res="-0.000267439" purity="0.541878" nType="0">
            <Node pos="l" depth="3" NCoef="0" IVar="5" Cut="1.27959" cType="1" res="0.0344969" purity="0.595202" nType="0">
              <Node pos="l" depth="4" NCoef="0" IVar="-1" Cut="0" cType="1" res="-0.000141363" purity="0.565657" nType="-99"/>
              <Node pos="r" depth="4" NCoef="0" IVar="-1" Cut="0" cType="1" res="0.00257608" purity="0.618325" nType="-99"/>
            </Node>
            <Node pos="r" depth="3" NCoef="0" IVar="6" Cut="0.630693" cType="1" res="-0.0299849" purity="0.496295" nType="0">
              <Node pos="l" depth="4" NCoef="0" IVar="-1" Cut="0" cType="1" res="-0.0057298" purity="0.397355" nType="-99"/>
              <Node pos="r" depth="4" NCoef="0" IVar="-1" Cut="0" cType="1" res="0.000125985" purity="0.537631" nType="-99"/>
            </Node>
          </Node>
          <Node pos="r" depth="2" NCoef="0" IVar="4" Cut="246431" cType="1" res="0.0823926" purity="0.664366" nType="0">
            <Node pos="l" depth="3" NCoef="0" IVar="-1" Cut="0" cType="1" res="0.00409135" purity="0.709784" nType="-99"/>
            <Node pos="r" depth="3" NCoef="0" IVar="-1" Cut="0" cType="1" res="0.00187501" purity="0.607877" nType="-99"/>
          </Node>
        </Node>
      </Node>
    </BinaryTree>
    <BinaryTree type="DecisionTree" boostWeight="1.0" itree="59">
      <Node pos="s" depth="0" NCoef="0" IVar="2" Cut="11095.9" cType="1" res="0.0176765" purity="0.508535" nType="0">
        <Node pos="l" depth="1" NCoef="0" IVar="1" Cut="156512" cType="1" res="-0.00259045" purity="0.452951" nType="0">
          <Node pos="l" depth="2" NCoef="0" IVar="1" Cut="102979" cType="1" res="0.00376458" purity="0.459764" nType="0">
            <Node pos="l" depth="3" NCoef="0" IVar="6" Cut="2.52835" cType="1" res="-0.0266251" purity="0.420737" nType="0">
              <Node pos="l" depth="4" NCoef="0" IVar="-1" Cut="0" cType="1" res="-0.00398172" purity="0.38434" nType="-99"/>
              <Node pos="r" depth="4" NCoef="0" IVar="-1" Cut="0" cType="1" res="0.00198342" purity="0.476625" nType="-99"/>
            </Node>
            <Node pos="r" depth="3" NCoef="0" IVar="3" Cut="177480" cType="1" res="0.0259698" purity="0.48828" nType="0">
              <Node pos="l" depth="4" NCoef="0" IVar="-1" Cut="0" cType="1" res="0.00218404" purity="0.512655" nType="-99"/>
              <Node pos="r" depth="4" NCoef="0" IVar="-1" Cut="0" cType="1" res="-0.000790994" purity="0.445116" nType="-99"/>
            </Node>
          </Node>
          <Node pos="r" depth="2" NCoef="0" IVar="1" Cut="187963" cType="1" res="-0.0487555" purity="0.403461" nType="0">
            <Node pos="l" depth="3" NCoef="0" IVar="-1" Cut="0" cType="1" res="-0.0034309" purity="0.390749" nType="-99"/>
            <Node pos="r" depth="3" NCoef="0" IVar="-1" Cut="0" cType="1" res="-0.00186571" purity="0.415696" nType="-99"/>
          </Node>
        </Node>
        <Node pos="r" depth="1" NCoef="0" IVar="0" Cut="109753" cType="1" res="0.0624057" purity="0.631209" nType="0">
          <Node pos="l" depth="2" NCoef="0" IVar="-1" Cut="0" cType="1" res="-0.000754732" purity="0.519904" nType="-99"/>
          <Node pos="r" depth="2" NCoef="0" IVar="6" Cut="0.701775" cType="1" res="0.0783514" purity="0.653666" nType="0">
            <Node pos="l" depth="3" NCoef="0" IVar="-1" Cut="0" cType="1" res="0.000746166" purity="0.559441" nType="-99"/>
            <Node pos="r" depth="3" NCoef="0" IVar="2" Cut="19733.4" cType="1" res="0.097169" purity="0.683373" nType="0">
              <Node pos="l" depth="4" NCoef="0" IVar="-1" Cut="0" cType="1" res="0.00258465" purity="0.632287" nType="-99"/>
              <Node pos="r" depth="4" NCoef="0" IVar="-1" Cut="0" cType="1" res="0.00464712" purity="0.737995" nType="-99"/>
            </Node>
          </Node>
        </Node>
      </Node>
    </BinaryTree>
    <BinaryTree type="DecisionTree" boostWeight="1.0" itree="60">
      <Node pos="s" depth="0" NCoef="0" IVar="2" Cut="31375.3" cType="1" res="0.0161472" purity="0.50548" nType="0">
        <Node pos="l" depth="1" NCoef="0" IVar="1" Cut="115600" cType="1" res="0.00952817" purity="0.492229" nType="0">
          <Node pos="l" depth="2" NCoef="0" IVar="4" Cut="304943" cType="1" res="-0.00922076" purity="0.468244" nType="0">
            <Node pos="l" depth="3" NCoef="0" IVar="2" Cut="8745.14" cType="1" res="0.00274308" purity="0.489251" nType="0">
              <Node pos="l" depth="4" NCoef="0" IVar="-1" Cut="0" cType="1" res="-0.000883006" purity="0.436524" nType="-99"/>
              <Node pos="r" depth="4" NCoef="0" IVar="-1" Cut="0" cType="1" res="0.00182265" purity="0.601291" nType="-99"/>
            </Node>
            <Node pos="r" depth="3" NCoef="0" IVar="2" Cut="1862.69" cType="1" res="-0.065562" purity="0.369314" nType="0">
              <Node pos="l" depth="4" NCoef="0" IVar="-1" Cut="0" cType="1" res="-0.0027771" purity="0.35121" nType="-99"/>
              <Node pos="r" depth="4" NCoef="0" IVar="-1" Cut="0" cType="1" res="-0.004771" purity="0.389048" nType="-99"/>
            </Node>
          </Node>
          <Node pos="r" depth="2" NCoef="0" IVar="1" Cut="165051" cType="1" res="0.0340343" purity="0.523579" nType="0">
            <Node pos="l" depth="3" NCoef="0" IVar="6" Cut="0.689409" cType="1" res="0.0500947" purity="0.543432" nType="0">
              <Node pos="l" depth="4" NCoef="0" IVar="-1" Cut="0" cType="1" res="0.00371819" purity="0.607878" nType="-99"/>
              <Node pos="r" depth="4" NCoef="0" IVar="-1" Cut="0" cType="1" res="0.00166878" purity="0.526744" nType="-99"/>
            </Node>
            <Node pos="r" depth="3" NCoef="0" IVar="4" Cut="330212" cType="1" res="-0.00952682" purity="0.469732" nType="0">
              <Node pos="l" depth="4" NCoef="0" IVar="-1" Cut="0" cType="1" res="-0.00279124" purity="0.444269" nType="-99"/>
              <Node pos="r" depth="4" NCoef="0" IVar="-1" Cut="0" cType="1" res="0.00162447" purity="0.494731" nType="-99"/>
            </Node>
          </Node>
        </Node>
        <Node pos="r" depth="1" NCoef="0" IVar="-1" Cut="0" cType="1" res="0.00429496" purity="0.714227" nType="-99"/>
      </Node>
    </BinaryTree>
    <BinaryTree type="DecisionTree" boostWeight="1.0" itree="61">
      <Node pos="s" depth="0" NCoef="0" IVar="0" Cut="192679" cType="1" res="0.0188261" purity="0.509368" nType="0">
        <Node pos="l" depth="1" NCoef="0" IVar="4" Cut="217236" cType="1" res="0.00783202" purity="0.489953" nType="0">
          <Node pos="l" depth="2" NCoef="0" IVar="2" Cut="14094.4" cType="1" res="0.0371639" purity="0.543908" nType="0">
            <Node pos="l" depth="3" NCoef="0" IVar="3" Cut="159243" cType="1" res="0.0165417" purity="0.493414" nType="0">
              <Node pos="l" depth="4" NCoef="0" IVar="-1" Cut="0" cType="1" res="0.00198407" purity="0.523959" nType="-99"/>
              <Node pos="r" depth="4" NCoef="0" IVar="-1" Cut="0" cType="1" res="-6.53781e-06" purity="0.476681" nType="-99"/>
            </Node>
            <Node pos="r" depth="3" NCoef="0" IVar="-1" Cut="0" cType="1" res="0.00343285" purity="0.685281" nType="-99"/>
          </Node>
          <Node pos="r" depth="2" NCoef="0" IVar="0" Cut="115824" cType="1" res="-0.0190374" purity="0.440528" nType="0">
            <Node pos="l" depth="3" NCoef="0" IVar="5" Cut="1.48187" cType="1" res="-0.0544688" purity="0.375372" nType="0">
              <Node pos="l" depth="4" NCoef="0" IVar="-1" Cut="0" cType="1" res="-0.00660103" purity="0.328428" nType="-99"/>
              <Node pos="r" depth="4" NCoef="0" IVar="-1" Cut="0" cType="1" res="-0.00165416" purity="0.397704" nType="-99"/>
            </Node>
            <Node pos="r" depth="3" NCoef="0" IVar="6" Cut="1.22588" cType="1" res="-0.00344281" purity="0.469205" nType="0">
              <Node pos="l" depth="4" NCoef="0" IVar="-1" Cut="0" cType="1" res="0.00130952" purity="0.520444" nType="-99"/>
              <Node pos="r" depth="4" NCoef="0" IVar="-1" Cut="0" cType="1" res="-0.000978347" purity="0.445156" nType="-99"/>
            </Node>
          </Node>
        </Node>
        <Node pos="r" depth="1" NCoef="0" IVar="1" Cut="105352" cType="1" res="0.0780636" purity="0.613981" nType="0">
          <Node pos="l" depth="2" NCoef="0" IVar="-1" Cut="0" cType="1" res="0.000572822" purity="0.525005" nType="-99"/>
          <Node pos="r" depth="2" NCoef="0" IVar="5" Cut="1.07651" cType="1" res="0.118162" purity="0.668578" nType="0">
            <Node pos="l" depth="3" NCoef="0" IVar="-1" Cut="0" cType="1" res="0.0056343" purity="0.739872" nType="-99"/>
            <Node pos="r" depth="3" NCoef="0" IVar="-1" Cut="0" cType="1" res="0.00324676" purity="0.617628" nType="-99"/>
          </Node>
        </Node>
      </Node>
    </BinaryTree>
    <BinaryTree type="DecisionTree" boostWeight="1.0" itree="62">
      <Node pos="s" depth="0" NCoef="0" IVar="0" Cut="212163" cType="1" res="0.00384022" purity="0.494313" nType="0">
        <Node pos="l" depth="1" NCoef="0" IVar="4" Cut="256134" cType="1" res="-0.00444167" purity="0.480423" nType="0">
          <Node pos="l" depth="2" NCoef="0" IVar="1" Cut="121225" cType="1" res="0.0167392" purity="0.519287" nType="0">
            <Node pos="l" depth="3" NCoef="0" IVar="2" Cut="7492.85" cType="1" res="0.000259389" purity="0.49358" nType="0">
              <Node pos="l" depth="4" NCoef="0" IVar="-1" Cut="0" cType="1" res="-0.00092243" purity="0.435689" nType="-99"/>
              <Node pos="r" depth="4" NCoef="0" IVar="-1" Cut="0" cType="1" res="0.00120017" purity="0.585387" nType="-99"/>
            </Node>
            <Node pos="r" depth="3" NCoef="0" IVar="3" Cut="160556" cType="1" res="0.0596759" purity="0.586264" nType="0">
              <Node pos="l" depth="4" NCoef="0" IVar="-1" Cut="0" cType="1" res="0.00338469" purity="0.623036" nType="-99"/>
              <Node pos="r" depth="4" NCoef="0" IVar="-1" Cut="0" cType="1" res="0.00166906" purity="0.559361" nType="-99"/>
            </Node>
          </Node>
          <Node pos="r" depth="2" NCoef="0" IVar="0" Cut="108207" cType="1" res="-0.042888" purity="0.40988" nType="0">
            <Node pos="l" depth="3" NCoef="0" IVar="-1" Cut="0" cType="1" res="-0.00866657" purity="0.284855" nType="-99"/>
            <Node pos="r" depth="3" NCoef="0" IVar="6" Cut="1.3793" cType="1" res="-0.0296334" purity="0.430826" nType="0">
              <Node pos="l" depth="4" NCoef="0" IVar="-1" Cut="0" cType="1" res="-0.00337543" purity="0.412347" nType="-99"/>
              <Node pos="r" depth="4" NCoef="0" IVar="-1" Cut="0" cType="1" res="-0.000618056" purity="0.439724" nType="-99"/>
            </Node>
          </Node>
        </Node>
        <Node pos="r" depth="1" NCoef="0" IVar="2" Cut="8758.46" cType="1" res="0.0758129" purity="0.615017" nType="0">
          <Node pos="l" depth="2" NCoef="0" IVar="-1" Cut="0" cType="1" res="0.00211146" purity="0.545109" nType="-99"/>
          <Node pos="r" depth="2" NCoef="0" IVar="-1" Cut="0" cType="1" res="0.00394626" purity="0.70322" nType="-99"/>
        </Node>
      </Node>
    </BinaryTree>
    <BinaryTree type="DecisionTree" boostWeight="1.0" itree="63">
      <Node pos="s" depth="0" NCoef="0" IVar="2" Cut="7730.73" cType="1" res="0.0227835" purity="0.512317" nType="0">
        <Node pos="l" depth="1" NCoef="0" IVar="6" Cut="0.613055" cType="1" res="0.00332195" purity="0.450577" nType="0">
          <Node pos="l" depth="2" NCoef="0" IVar="-1" Cut="0" cType="1" res="0.00255764" purity="0.520899" nType="-99"/>
          <Node pos="r" depth="2" NCoef="0" IVar="6" Cut="1.90833" cType="1" res="-0.00328364" purity="0.442541" nType="0">
            <Node pos="l" depth="3" NCoef="0" IVar="5" Cut="1.47825" cType="1" res="-0.0327369" purity="0.413311" nType="0">
              <Node pos="l" depth="4" NCoef="0" IVar="-1" Cut="0" cType="1" res="-0.00496693" purity="0.351145" nType="-99"/>
              <Node pos="r" depth="4" NCoef="0" IVar="-1" Cut="0" cType="1" res="0.000138441" purity="0.454489" nType="-99"/>
            </Node>
            <Node pos="r" depth="3" NCoef="0" IVar="3" Cut="142718" cType="1" res="0.00805428" purity="0.453793" nType="0">
              <Node pos="l" depth="4" NCoef="0" IVar="-1" Cut="0" cType="1" res="0.00280029" purity="0.506184" nType="-99"/>
              <Node pos="r" depth="4" NCoef="0" IVar="-1" Cut="0" cType="1" res="-0.000227136" purity="0.441458" nType="-99"/>
            </Node>
          </Node>
        </Node>
        <Node pos="r" depth="1" NCoef="0" IVar="6" Cut="0.494733" cType="1" res="0.0526695" purity="0.607127" nType="0">
          <Node pos="l" depth="2" NCoef="0" IVar="-1" Cut="0" cType="1" res="-0.000293709" purity="0.520941" nType="-99"/>
          <Node pos="r" depth="2" NCoef="0" IVar="0" Cut="158501" cType="1" res="0.0656464" purity="0.62604" nType="0">
            <Node pos="l" depth="3" NCoef="0" IVar="3" Cut="178113" cType="1" res="0.049334" purity="0.595126" nType="0">
              <Node pos="l" depth="4" NCoef="0" IVar="-1" Cut="0" cType="1" res="0.00274544" purity="0.616671" nType="-99"/>
              <Node pos="r" depth="4" NCoef="0" IVar="-1" Cut="0" cType="1" res="0.00038391" purity="0.546473" nType="-99"/>
            </Node>
            <Node pos="r" depth="3" NCoef="0" IVar="5" Cut="1.00928" cType="1" res="0.0945767" purity="0.680866" nType="0">
              <Node pos="l" depth="4" NCoef="0" IVar="-1" Cut="0" cType="1" res="0.00429731" purity="0.729481" nType="-99"/>
              <Node pos="r" depth="4" NCoef="0" IVar="-1" Cut="0" cType="1" res="0.00238357" purity="0.627736" nType="-99"/>
            </Node>
          </Node>
        </Node>
      </Node>
    </BinaryTree>
    <BinaryTree type="DecisionTree" boostWeight="1.0" itree="64">
      <Node pos="s" depth="0" NCoef="0" IVar="2" Cut="14617.5" cType="1" res="0.00589779" purity="0.496564" nType="0">
        <Node pos="l" depth="1" NCoef="0" IVar="6" Cut="0.689665" cType="1" res="-0.00565938" purity="0.458452" nType="0">
          <Node pos="l" depth="2" NCoef="0" IVar="5" Cut="1.26586" cType="1" res="-0.0523263" purity="0.425584" nType="0">
            <Node pos="l" depth="3" NCoef="0" IVar="-1" Cut="0" cType="1" res="0.000595461" purity="0.484665" nType="-99"/>
            <Node pos="r" depth="3" NCoef="0" IVar="-1" Cut="0" cType="1" res="-0.00668067" purity="0.370584" nType="-99"/>
          </Node>
          <Node pos="r" depth="2" NCoef="0" IVar="2" Cut="1303.51" cType="1" res="0.00157859" purity="0.46355" nType="0">
            <Node pos="l" depth="3" NCoef="0" IVar="5" Cut="1.48122" cType="1" res="-0.0171105" purity="0.415741" nType="0">
              <Node pos="l" depth="4" NCoef="0" IVar="-1" Cut="0" cType="1" res="0.000598157" purity="0.448585" nType="-99"/>
              <Node pos="r" depth="4" NCoef="0" IVar="-1" Cut="0" cType="1" res="-0.00287328" purity="0.378184" nType="-99"/>
            </Node>
            <Node pos="r" depth="3" NCoef="0" IVar="1" Cut="115584" cType="1" res="0.025709" purity="0.525278" nType="0">
              <Node pos="l" depth="4" NCoef="0" IVar="-1" Cut="0" cType="1" res="-0.000161701" purity="0.493052" nType="-99"/>
              <Node pos="r" depth="4" NCoef="0" IVar="-1" Cut="0" cType="1" res="0.0027339" purity="0.571824" nType="-99"/>
            </Node>
          </Node>
        </Node>
        <Node pos="r" depth="1" NCoef="0" IVar="0" Cut="139042" cType="1" res="0.0469325" purity="0.631885" nType="0">
          <Node pos="l" depth="2" NCoef="0" IVar="0" Cut="114303" cType="1" res="9.63225e-05" purity="0.559993" nType="0">
            <Node pos="l" depth="3" NCoef="0" IVar="-1" Cut="0" cType="1" res="-0.00172329" purity="0.508622" nType="-99"/>
            <Node pos="r" depth="3" NCoef="0" IVar="-1" Cut="0" cType="1" res="0.00127858" purity="0.603407" nType="-99"/>
          </Node>
          <Node pos="r" depth="2" NCoef="0" IVar="3" Cut="165326" cType="1" res="0.0967485" purity="0.708353" nType="0">
            <Node pos="l" depth="3" NCoef="0" IVar="-1" Cut="0" cType="1" res="0.00405469" purity="0.731713" nType="-99"/>
            <Node pos="r" depth="3" NCoef="0" IVar="-1" Cut="0" cType="1" res="0.00285756" purity="0.684646" nType="-99"/>
          </Node>
        </Node>
      </Node>
    </BinaryTree>
    <BinaryTree type="DecisionTree" boostWeight="1.0" itree="65">
      <Node pos="s" depth="0" NCoef="0" IVar="2" Cut="14604.9" cType="1" res="0.0160573" purity="0.506547" nType="0">
        <Node pos="l" depth="1" NCoef="0" IVar="4" Cut="246357" cType="1" res="0.00302089" purity="0.467136" nType="0">
          <Node pos="l" depth="2" NCoef="0" IVar="4" Cut="228502" cType="1" res="0.0235344" purity="0.504074" nType="0">
            <Node pos="l" depth="3" NCoef="0" IVar="4" Cut="200309" cType="1" res="0.0105049" purity="0.493201" nType="0">
              <Node pos="l" depth="4" NCoef="0" IVar="-1" Cut="0" cType="1" res="0.00135874" purity="0.519275" nType="-99"/>
              <Node pos="r" depth="4" NCoef="0" IVar="-1" Cut="0" cType="1" res="-0.00225847" purity="0.425587" nType="-99"/>
            </Node>
            <Node pos="r" depth="3" NCoef="0" IVar="-1" Cut="0" cType="1" res="0.00391648" purity="0.565405" nType="-99"/>
          </Node>
          <Node pos="r" depth="2" NCoef="0" IVar="0" Cut="109754" cType="1" res="-0.0263294" purity="0.414287" nType="0">
            <Node pos="l" depth="3" NCoef="0" IVar="-1" Cut="0" cType="1" res="-0.00858711" purity="0.270354" nType="-99"/>
            <Node pos="r" depth="3" NCoef="0" IVar="6" Cut="1.3028" cType="1" res="-0.0109774" purity="0.439314" nType="0">
              <Node pos="l" depth="4" NCoef="0" IVar="-1" Cut="0" cType="1" res="-0.00396138" purity="0.384551" nType="-99"/>
              <Node pos="r" depth="4" NCoef="0" IVar="-1" Cut="0" cType="1" res="0.000365355" purity="0.456043" nType="-99"/>
            </Node>
          </Node>
        </Node>
        <Node pos="r" depth="1" NCoef="0" IVar="6" Cut="1.05152" cType="1" res="0.0624003" purity="0.646649" nType="0">
          <Node pos="l" depth="2" NCoef="0" IVar="-1" Cut="0" cType="1" res="0.000486705" purity="0.567515" nType="-99"/>
          <Node pos="r" depth="2" NCoef="0" IVar="1" Cut="110155" cType="1" res="0.0967303" purity="0.700266" nType="0">
            <Node pos="l" depth="3" NCoef="0" IVar="-1" Cut="0" cType="1" res="0.00224649" purity="0.654437" nType="-99"/>
            <Node pos="r" depth="3" NCoef="0" IVar="-1" Cut="0" cType="1" res="0.00456155" purity="0.736477" nType="-99"/>
          </Node>
        </Node>
      </Node>
    </BinaryTree>
    <BinaryTree type="DecisionTree" boostWeight="1.0" itree="66">
      <Node pos="s" depth="0" NCoef="0" IVar="2" Cut="31583.1" cType="1" res="0.00599156" purity="0.497146" nType="0">
        <Node pos="l" depth="1" NCoef="0" IVar="0" Cut="182900" cType="1" res="-0.000711611" purity="0.483623" nType="0">
          <Node pos="l" depth="2" NCoef="0" IVar="0" Cut="126283" cType="1" res="-0.0125981" purity="0.460549" nType="0">
            <Node pos="l" depth="3" NCoef="0" IVar="1" Cut="110425" cType="1" res="-0.0331654" purity="0.423711" nType="0">
              <Node pos="l" depth="4" NCoef="0" IVar="-1" Cut="0" cType="1" res="-0.00299254" purity="0.397568" nType="-99"/>
              <Node pos="r" depth="4" NCoef="0" IVar="-1" Cut="0" cType="1" res="-0.000691544" purity="0.448627" nType="-99"/>
            </Node>
            <Node pos="r" depth="3" NCoef="0" IVar="1" Cut="105349" cType="1" res="0.00852416" purity="0.498381" nType="0">
              <Node pos="l" depth="4" NCoef="0" IVar="-1" Cut="0" cType="1" res="-0.000682229" purity="0.462897" nType="-99"/>
              <Node pos="r" depth="4" NCoef="0" IVar="-1" Cut="0" cType="1" res="0.00103234" purity="0.521655" nType="-99"/>
            </Node>
          </Node>
          <Node pos="r" depth="2" NCoef="0" IVar="6" Cut="1.30209" cType="1" res="0.0491183" purity="0.580355" nType="0">
            <Node pos="l" depth="3" NCoef="0" IVar="-1" Cut="0" cType="1" res="-0.000623029" purity="0.529349" nType="-99"/>
            <Node pos="r" depth="3" NCoef="0" IVar="3" Cut="155657" cType="1" res="0.0669937" purity="0.594834" nType="0">
              <Node pos="l" depth="4" NCoef="0" IVar="-1" Cut="0" cType="1" res="0.00442087" purity="0.64805" nType="-99"/>
              <Node pos="r" depth="4" NCoef="0" IVar="-1" Cut="0" cType="1" res="0.00168684" purity="0.568238" nType="-99"/>
            </Node>
          </Node>
        </Node>
        <Node pos="r" depth="1" NCoef="0" IVar="-1" Cut="0" cType="1" res="0.00420931" purity="0.71749" nType="-99"/>
      </Node>
    </BinaryTree>
    <BinaryTree type="DecisionTree" boostWeight="1.0" itree="67">
      <Node pos="s" depth="0" NCoef="0" IVar="1" Cut="110482" cType="1" res="0.0130926" purity="0.503041" nType="0">
        <Node pos="l" depth="1" NCoef="0" IVar="5" Cut="0.998503" cType="1" res="-0.00843416" purity="0.468112" nType="0">
          <Node pos="l" depth="2" NCoef="0" IVar="6" Cut="2.5286" cType="1" res="-0.0337146" purity="0.467469" nType="0">
            <Node pos="l" depth="3" NCoef="0" IVar="2" Cut="7829.1" cType="1" res="-0.0644343" purity="0.456009" nType="0">
              <Node pos="l" depth="4" NCoef="0" IVar="-1" Cut="0" cType="1" res="-0.00978531" purity="0.298206" nType="-99"/>
              <Node pos="r" depth="4" NCoef="0" IVar="-1" Cut="0" cType="1" res="-0.000484688" purity="0.555504" nType="-99"/>
            </Node>
            <Node pos="r" depth="3" NCoef="0" IVar="-1" Cut="0" cType="1" res="0.00129211" purity="0.490879" nType="-99"/>
          </Node>
          <Node pos="r" depth="2" NCoef="0" IVar="1" Cut="95496.8" cType="1" res="0.00615321" purity="0.468483" nType="0">
            <Node pos="l" depth="3" NCoef="0" IVar="4" Cut="207956" cType="1" res="0.0469128" purity="0.497605" nType="0">
              <Node pos="l" depth="4" NCoef="0" IVar="-1" Cut="0" cType="1" res="0.00347337" purity="0.552775" nType="-99"/>
              <Node pos="r" depth="4" NCoef="0" IVar="-1" Cut="0" cType="1" res="-0.000222565" purity="0.418235" nType="-99"/>
            </Node>
            <Node pos="r" depth="3" NCoef="0" IVar="1" Cut="100982" cType="1" res="-0.013705" purity="0.454296" nType="0">
              <Node pos="l" depth="4" NCoef="0" IVar="-1" Cut="0" cType="1" res="-0.00415974" purity="0.387718" nType="-99"/>
              <Node pos="r" depth="4" NCoef="0" IVar="-1" Cut="0" cType="1" res="0.00107517" purity="0.494041" nType="-99"/>
            </Node>
          </Node>
        </Node>
        <Node pos="r" depth="1" NCoef="0" IVar="5" Cut="1.88776" cType="1" res="0.0330117" purity="0.535361" nType="0">
          <Node pos="l" depth="2" NCoef="0" IVar="2" Cut="21429.2" cType="1" res="0.0602027" purity="0.579073" nType="0">
            <Node pos="l" depth="3" NCoef="0" IVar="0" Cut="173150" cType="1" res="0.0420545" purity="0.538288" nType="0">
              <Node pos="l" depth="4" NCoef="0" IVar="-1" Cut="0" cType="1" res="0.00108656" purity="0.502603" nType="-99"/>
              <Node pos="r" depth="4" NCoef="0" IVar="-1" Cut="0" cType="1" res="0.00325334" purity="0.624764" nType="-99"/>
            </Node>
            <Node pos="r" depth="3" NCoef="0" IVar="-1" Cut="0" cType="1" res="0.0046692" purity="0.741084" nType="-99"/>
          </Node>
          <Node pos="r" depth="2" NCoef="0" IVar="0" Cut="124403" cType="1" res="-0.00161278" purity="0.4797" nType="0">
            <Node pos="l" depth="3" NCoef="0" IVar="1" Cut="138146" cType="1" res="-0.0370025" purity="0.419492" nType="0">
              <Node pos="l" depth="4" NCoef="0" IVar="-1" Cut="0" cType="1" res="-0.00433184" purity="0.391664" nType="-99"/>
              <Node pos="r" depth="4" NCoef="0" IVar="-1" Cut="0" cType="1" res="-4.68794e-05" purity="0.446194" nType="-99"/>
            </Node>
            <Node pos="r" depth="3" NCoef="0" IVar="5" Cut="2.4996" cType="1" res="0.0268952" purity="0.5282" nType="0">
              <Node pos="l" depth="4" NCoef="0" IVar="-1" Cut="0" cType="1" res="0.00274419" purity="0.578104" nType="-99"/>
              <Node pos="r" depth="4" NCoef="0" IVar="-1" Cut="0" cType="1" res="-0.00142632" purity="0.459903" nType="-99"/>
            </Node>
          </Node>
        </Node>
      </Node>
    </BinaryTree>
    <BinaryTree type="DecisionTree" boostWeight="1.0" itree="68">
      <Node pos="s" depth="0" NCoef="0" IVar="0" Cut="114630" cType="1" res="0.00501395" purity="0.495633" nType="0">
        <Node pos="l" depth="1" NCoef="0" IVar="6" Cut="1.53234" cType="1" res="-0.0362003" purity="0.418326" nType="0">
          <Node pos="l" depth="2" NCoef="0" IVar="4" Cut="207877" cType="1" res="-0.0808487" purity="0.406269" nType="0">
            <Node pos="l" depth="3" NCoef="0" IVar="-1" Cut="0" cType="1" res="-0.00215244" purity="0.472382" nType="-99"/>
            <Node pos="r" depth="3" NCoef="0" IVar="-1" Cut="0" cType="1" res="-0.0073789" purity="0.339347" nType="-99"/>
          </Node>
          <Node pos="r" depth="2" NCoef="0" IVar="4" Cut="255888" cType="1" res="-0.00270268" purity="0.427372" nType="0">
            <Node pos="l" depth="3" NCoef="0" IVar="-1" Cut="0" cType="1" res="0.00163666" purity="0.48606" nType="-99"/>
            <Node pos="r" depth="3" NCoef="0" IVar="-1" Cut="0" cType="1" res="-0.00544054" purity="0.30943" nType="-99"/>
          </Node>
        </Node>
        <Node pos="r" depth="1" NCoef="0" IVar="2" Cut="27977" cType="1" res="0.0192619" purity="0.522359" nType="0">
          <Node pos="l" depth="2" NCoef="0" IVar="3" Cut="182346" cType="1" res="0.0124825" purity="0.507059" nType="0">
            <Node pos="l" depth="3" NCoef="0" IVar="1" Cut="105362" cType="1" res="0.0282335" purity="0.524917" nType="0">
              <Node pos="l" depth="4" NCoef="0" IVar="-1" Cut="0" cType="1" res="0.000268113" purity="0.486221" nType="-99"/>
              <Node pos="r" depth="4" NCoef="0" IVar="-1" Cut="0" cType="1" res="0.00183373" purity="0.551484" nType="-99"/>
            </Node>
            <Node pos="r" depth="3" NCoef="0" IVar="0" Cut="195999" cType="1" res="-0.0267582" purity="0.462571" nType="0">
              <Node pos="l" depth="4" NCoef="0" IVar="-1" Cut="0" cType="1" res="-0.0021569" purity="0.436694" nType="-99"/>
              <Node pos="r" depth="4" NCoef="0" IVar="-1" Cut="0" cType="1" res="0.00129244" purity="0.559153" nType="-99"/>
            </Node>
          </Node>
          <Node pos="r" depth="2" NCoef="0" IVar="-1" Cut="0" cType="1" res="0.00401786" purity="0.721878" nType="-99"/>
        </Node>
      </Node>
    </BinaryTree>
    <BinaryTree type="DecisionTree" boostWeight="1.0" itree="69">
      <Node pos="s" depth="0" NCoef="0" IVar="4" Cut="256134" cType="1" res="0.000366445" purity="0.489793" nType="0">
        <Node pos="l" depth="1" NCoef="0" IVar="0" Cut="202178" cType="1" res="0.0236974" purity="0.530764" nType="0">
          <Node pos="l" depth="2" NCoef="0" IVar="2" Cut="949.686" cType="1" res="0.0148787" purity="0.516142" nType="0">
            <Node pos="l" depth="3" NCoef="0" IVar="0" Cut="144856" cType="1" res="-0.0166511" purity="0.423097" nType="0">
              <Node pos="l" depth="4" NCoef="0" IVar="-1" Cut="0" cType="1" res="0.000184568" purity="0.435634" nType="-99"/>
              <Node pos="r" depth="4" NCoef="0" IVar="-1" Cut="0" cType="1" res="-0.00438149" purity="0.384312" nType="-99"/>
            </Node>
            <Node pos="r" depth="3" NCoef="0" IVar="3" Cut="146259" cType="1" res="0.0319339" purity="0.566472" nType="0">
              <Node pos="l" depth="4" NCoef="0" IVar="-1" Cut="0" cType="1" res="-0.000386773" purity="0.529487" nType="-99"/>
              <Node pos="r" depth="4" NCoef="0" IVar="-1" Cut="0" cType="1" res="0.00177326" purity="0.576175" nType="-99"/>
            </Node>
          </Node>
          <Node pos="r" depth="2" NCoef="0" IVar="-1" Cut="0" cType="1" res="0.00345423" purity="0.644052" nType="-99"/>
        </Node>
        <Node pos="r" depth="1" NCoef="0" IVar="6" Cut="0.842855" cType="1" res="-0.0404635" purity="0.418094" nType="0">
          <Node pos="l" depth="2" NCoef="0" IVar="-1" Cut="0" cType="1" res="-0.00540551" purity="0.373934" nType="-99"/>
          <Node pos="r" depth="2" NCoef="0" IVar="0" Cut="139013" cType="1" res="-0.0274986" purity="0.428453" nType="0">
            <Node pos="l" depth="3" NCoef="0" IVar="5" Cut="2.07543" cType="1" res="-0.0571611" purity="0.357505" nType="0">
              <Node pos="l" depth="4" NCoef="0" IVar="-1" Cut="0" cType="1" res="-0.00195886" purity="0.385236" nType="-99"/>
              <Node pos="r" depth="4" NCoef="0" IVar="-1" Cut="0" cType="1" res="-0.00769731" purity="0.298448" nType="-99"/>
            </Node>
            <Node pos="r" depth="3" NCoef="0" IVar="1" Cut="110416" cType="1" res="0.00120017" purity="0.497097" nType="0">
              <Node pos="l" depth="4" NCoef="0" IVar="-1" Cut="0" cType="1" res="-0.00210963" purity="0.427191" nType="-99"/>
              <Node pos="r" depth="4" NCoef="0" IVar="-1" Cut="0" cType="1" res="0.00106217" purity="0.536627" nType="-99"/>
            </Node>
          </Node>
        </Node>
      </Node>
    </BinaryTree>
    <BinaryTree type="DecisionTree" boostWeight="1.0" itree="70">
      <Node pos="s" depth="0" NCoef="0" IVar="0" Cut="129267" cType="1" res="0.0121473" purity="0.502569" nType="0">
        <Node pos="l" depth="1" NCoef="0" IVar="4" Cut="207524" cType="1" res="-0.0126304" purity="0.452281" nType="0">
          <Node pos="l" depth="2" NCoef="0" IVar="0" Cut="107140" cType="1" res="0.0266986" purity="0.528893" nType="0">
            <Node pos="l" depth="3" NCoef="0" IVar="-1" Cut="0" cType="1" res="-0.00146382" purity="0.45549" nType="-99"/>
            <Node pos="r" depth="3" NCoef="0" IVar="3" Cut="170806" cType="1" res="0.047785" purity="0.556516" nType="0">
              <Node pos="l" depth="4" NCoef="0" IVar="-1" Cut="0" cType="1" res="0.00347012" purity="0.600377" nType="-99"/>
              <Node pos="r" depth="4" NCoef="0" IVar="-1" Cut="0" cType="1" res="-0.000146607" purity="0.496268" nType="-99"/>
            </Node>
          </Node>
          <Node pos="r" depth="2" NCoef="0" IVar="4" Cut="236093" cType="1" res="-0.0459921" purity="0.387292" nType="0">
            <Node pos="l" depth="3" NCoef="0" IVar="-1" Cut="0" cType="1" res="-0.00541835" purity="0.369258" nType="-99"/>
            <Node pos="r" depth="3" NCoef="0" IVar="3" Cut="165599" cType="1" res="-0.0300528" purity="0.39314" nType="0">
              <Node pos="l" depth="4" NCoef="0" IVar="-1" Cut="0" cType="1" res="-0.000150714" purity="0.428112" nType="-99"/>
              <Node pos="r" depth="4" NCoef="0" IVar="-1" Cut="0" cType="1" res="-0.0032129" purity="0.363077" nType="-99"/>
            </Node>
          </Node>
        </Node>
        <Node pos="r" depth="1" NCoef="0" IVar="2" Cut="17313.6" cType="1" res="0.0327159" purity="0.544315" nType="0">
          <Node pos="l" depth="2" NCoef="0" IVar="2" Cut="13120" cType="1" res="0.0219436" purity="0.511914" nType="0">
            <Node pos="l" depth="3" NCoef="0" IVar="1" Cut="95118.1" cType="1" res="0.0155642" purity="0.495737" nType="0">
              <Node pos="l" depth="4" NCoef="0" IVar="-1" Cut="0" cType="1" res="-0.00114889" purity="0.438955" nType="-99"/>
              <Node pos="r" depth="4" NCoef="0" IVar="-1" Cut="0" cType="1" res="0.00107731" purity="0.508179" nType="-99"/>
            </Node>
            <Node pos="r" depth="3" NCoef="0" IVar="-1" Cut="0" cType="1" res="0.00285077" purity="0.644569" nType="-99"/>
          </Node>
          <Node pos="r" depth="2" NCoef="0" IVar="5" Cut="0.921368" cType="1" res="0.0845182" purity="0.700126" nType="0">
            <Node pos="l" depth="3" NCoef="0" IVar="-1" Cut="0" cType="1" res="0.0036809" purity="0.730258" nType="-99"/>
            <Node pos="r" depth="3" NCoef="0" IVar="-1" Cut="0" cType="1" res="0.00265816" purity="0.67564" nType="-99"/>
          </Node>
        </Node>
      </Node>
    </BinaryTree>
    <BinaryTree type="DecisionTree" boostWeight="1.0" itree="71">
      <Node pos="s" depth="0" NCoef="0" IVar="0" Cut="119507" cType="1" res="0.010446" purity="0.500182" nType="0">
        <Node pos="l" depth="1" NCoef="0" IVar="0" Cut="105708" cType="1" res="-0.0214083" purity="0.434784" nType="0">
          <Node pos="l" depth="2" NCoef="0" IVar="1" Cut="115542" cType="1" res="-0.0642996" purity="0.376375" nType="0">
            <Node pos="l" depth="3" NCoef="0" IVar="-1" Cut="0" cType="1" res="-0.00614782" purity="0.344164" nType="-99"/>
            <Node pos="r" depth="3" NCoef="0" IVar="-1" Cut="0" cType="1" res="-0.00161292" purity="0.414168" nType="-99"/>
          </Node>
          <Node pos="r" depth="2" NCoef="0" IVar="3" Cut="152269" cType="1" res="-0.00223683" purity="0.460892" nType="0">
            <Node pos="l" depth="3" NCoef="0" IVar="-1" Cut="0" cType="1" res="-0.00306354" purity="0.407381" nType="-99"/>
            <Node pos="r" depth="3" NCoef="0" IVar="1" Cut="104682" cType="1" res="0.0176733" purity="0.479708" nType="0">
              <Node pos="l" depth="4" NCoef="0" IVar="-1" Cut="0" cType="1" res="0.00238932" purity="0.501438" nType="-99"/>
              <Node pos="r" depth="4" NCoef="0" IVar="-1" Cut="0" cType="1" res="-0.000282459" purity="0.46475" nType="-99"/>
            </Node>
          </Node>
        </Node>
        <Node pos="r" depth="1" NCoef="0" IVar="2" Cut="12732.6" cType="1" res="0.0255649" purity="0.531221" nType="0">
          <Node pos="l" depth="2" NCoef="0" IVar="2" Cut="-16844.7" cType="1" res="0.0120198" purity="0.485724" nType="0">
            <Node pos="l" depth="3" NCoef="0" IVar="-1" Cut="0" cType="1" res="0.0040761" purity="0.520773" nType="-99"/>
            <Node pos="r" depth="3" NCoef="0" IVar="5" Cut="2.51136" cType="1" res="0.00475684" purity="0.482607" nType="0">
              <Node pos="l" depth="4" NCoef="0" IVar="-1" Cut="0" cType="1" res="0.000501975" purity="0.489621" nType="-99"/>
              <Node pos="r" depth="4" NCoef="0" IVar="-1" Cut="0" cType="1" res="-0.00304575" purity="0.4121" nType="-99"/>
            </Node>
          </Node>
          <Node pos="r" depth="2" NCoef="0" IVar="4" Cut="236562" cType="1" res="0.0636945" purity="0.659294" nType="0">
            <Node pos="l" depth="3" NCoef="0" IVar="-1" Cut="0" cType="1" res="0.00315067" purity="0.697399" nType="-99"/>
            <Node pos="r" depth="3" NCoef="0" IVar="-1" Cut="0" cType="1" res="0.00131723" purity="0.600849" nType="-99"/>
          </Node>
        </Node>
      </Node>
    </BinaryTree>
    <BinaryTree type="DecisionTree" boostWeight="1.0" itree="72">
      <Node pos="s" depth="0" NCoef="0" IVar="0" Cut="114633" cType="1" res="0.0107035" purity="0.499412" nType="0">
        <Node pos="l" depth="1" NCoef="0" IVar="4" Cut="178079" cType="1" res="-0.0279221" purity="0.421742" nType="0">
          <Node pos="l" depth="2" NCoef="0" IVar="-1" Cut="0" cType="1" res="-0.00435453" purity="0.4154" nType="-99"/>
          <Node pos="r" depth="2" NCoef="0" IVar="4" Cut="217350" cType="1" res="-0.0129187" purity="0.423514" nType="0">
            <Node pos="l" depth="3" NCoef="0" IVar="-1" Cut="0" cType="1" res="0.00164407" purity="0.506579" nType="-99"/>
            <Node pos="r" depth="3" NCoef="0" IVar="0" Cut="105709" cType="1" res="-0.0389701" purity="0.379445" nType="0">
              <Node pos="l" depth="4" NCoef="0" IVar="-1" Cut="0" cType="1" res="-0.00735653" purity="0.298068" nType="-99"/>
              <Node pos="r" depth="4" NCoef="0" IVar="-1" Cut="0" cType="1" res="-3.4842e-05" purity="0.428283" nType="-99"/>
            </Node>
          </Node>
        </Node>
        <Node pos="r" depth="1" NCoef="0" IVar="4" Cut="236583" cType="1" res="0.0237698" purity="0.525686" nType="0">
          <Node pos="l" depth="2" NCoef="0" IVar="1" Cut="108637" cType="1" res="0.0418481" purity="0.562154" nType="0">
            <Node pos="l" depth="3" NCoef="0" IVar="0" Cut="146267" cType="1" res="0.0219896" purity="0.5238" nType="0">
              <Node pos="l" depth="4" NCoef="0" IVar="-1" Cut="0" cType="1" res="-0.00122568" purity="0.465819" nType="-99"/>
              <Node pos="r" depth="4" NCoef="0" IVar="-1" Cut="0" cType="1" res="0.00243119" purity="0.573677" nType="-99"/>
            </Node>
            <Node pos="r" depth="3" NCoef="0" IVar="4" Cut="203822" cType="1" res="0.0676432" purity="0.611974" nType="0">
              <Node pos="l" depth="4" NCoef="0" IVar="-1" Cut="0" cType="1" res="0.00357174" purity="0.647158" nType="-99"/>
              <Node pos="r" depth="4" NCoef="0" IVar="-1" Cut="0" cType="1" res="0.00090851" purity="0.548568" nType="-99"/>
            </Node>
          </Node>
          <Node pos="r" depth="2" NCoef="0" IVar="6" Cut="2.68158" cType="1" res="0.00210123" purity="0.481976" nType="0">
            <Node pos="l" depth="3" NCoef="0" IVar="1" Cut="110466" cType="1" res="-0.0126568" purity="0.479272" nType="0">
              <Node pos="l" depth="4" NCoef="0" IVar="-1" Cut="0" cType="1" res="-0.00299804" purity="0.413652" nType="-99"/>
              <Node pos="r" depth="4" NCoef="0" IVar="-1" Cut="0" cType="1" res="0.000342045" purity="0.510667" nType="-99"/>
            </Node>
            <Node pos="r" depth="3" NCoef="0" IVar="-1" Cut="0" cType="1" res="0.00268311" purity="0.492048" nType="-99"/>
          </Node>
        </Node>
      </Node>
    </BinaryTree>
    <BinaryTree type="DecisionTree" boostWeight="1.0" itree="73">
      <Node pos="s" depth="0" NCoef="0" IVar="2" Cut="14612.4" cType="1" res="0.00234397" purity="0.493045" nType="0">
        <Node pos="l" depth="1" NCoef="0" IVar="5" Cut="1.0491" cType="1" res="-0.012013" purity="0.450749" nType="0">
          <Node pos="l" depth="2" NCoef="0" IVar="4" Cut="179737" cType="1" res="-0.0560094" purity="0.416349" nType="0">
            <Node pos="l" depth="3" NCoef="0" IVar="-1" Cut="0" cType="1" res="-0.00617087" purity="0.385713" nType="-99"/>
            <Node pos="r" depth="3" NCoef="0" IVar="3" Cut="158946" cType="1" res="-0.0366483" purity="0.426869" nType="0">
              <Node pos="l" depth="4" NCoef="0" IVar="-1" Cut="0" cType="1" res="0.00112757" purity="0.491272" nType="-99"/>
              <Node pos="r" depth="4" NCoef="0" IVar="-1" Cut="0" cType="1" res="-0.0040376" purity="0.388532" nType="-99"/>
            </Node>
          </Node>
          <Node pos="r" depth="2" NCoef="0" IVar="0" Cut="114627" cType="1" res="0.00160777" purity="0.461399" nType="0">
            <Node pos="l" depth="3" NCoef="0" IVar="0" Cut="103924" cType="1" res="-0.0320992" purity="0.392582" nType="0">
              <Node pos="l" depth="4" NCoef="0" IVar="-1" Cut="0" cType="1" res="-0.00554875" purity="0.326918" nType="-99"/>
              <Node pos="r" depth="4" NCoef="0" IVar="-1" Cut="0" cType="1" res="-0.000682453" purity="0.416802" nType="-99"/>
            </Node>
            <Node pos="r" depth="3" NCoef="0" IVar="2" Cut="2634.51" cType="1" res="0.0172" purity="0.493233" nType="0">
              <Node pos="l" depth="4" NCoef="0" IVar="-1" Cut="0" cType="1" res="-0.000179624" purity="0.444986" nType="-99"/>
              <Node pos="r" depth="4" NCoef="0" IVar="-1" Cut="0" cType="1" res="0.00179755" purity="0.551744" nType="-99"/>
            </Node>
          </Node>
        </Node>
        <Node pos="r" depth="1" NCoef="0" IVar="6" Cut="1.26729" cType="1" res="0.0528741" purity="0.641909" nType="0">
          <Node pos="l" depth="2" NCoef="0" IVar="4" Cut="236722" cType="1" res="0.0207861" purity="0.585363" nType="0">
            <Node pos="l" depth="3" NCoef="0" IVar="-1" Cut="0" cType="1" res="0.00169075" purity="0.629401" nType="-99"/>
            <Node pos="r" depth="3" NCoef="0" IVar="-1" Cut="0" cType="1" res="-0.00037489" purity="0.524544" nType="-99"/>
          </Node>
          <Node pos="r" depth="2" NCoef="0" IVar="1" Cut="110146" cType="1" res="0.0868647" purity="0.701808" nType="0">
            <Node pos="l" depth="3" NCoef="0" IVar="-1" Cut="0" cType="1" res="0.000815297" purity="0.622101" nType="-99"/>
            <Node pos="r" depth="3" NCoef="0" IVar="-1" Cut="0" cType="1" res="0.00484756" purity="0.761327" nType="-99"/>
          </Node>
        </Node>
      </Node>
    </BinaryTree>
    <BinaryTree type="DecisionTree" boostWeight="1.0" itree="74">
      <Node pos="s" depth="0" NCoef="0" IVar="2" Cut="17938.2" cType="1" res="0.0118347" purity="0.503097" nType="0">
        <Node pos="l" depth="1" NCoef="0" IVar="2" Cut="-11727.5" cType="1" res="-0.000697876" purity="0.468819" nType="0">
          <Node pos="l" depth="2" NCoef="0" IVar="2" Cut="-17239.9" cType="1" res="-0.0548934" purity="0.352267" nType="0">
            <Node pos="l" depth="3" NCoef="0" IVar="-1" Cut="0" cType="1" res="-0.00161194" purity="0.380026" nType="-99"/>
            <Node pos="r" depth="3" NCoef="0" IVar="-1" Cut="0" cType="1" res="-0.00616046" purity="0.31568" nType="-99"/>
          </Node>
          <Node pos="r" depth="2" NCoef="0" IVar="1" Cut="136051" cType="1" res="0.00673572" purity="0.484806" nType="0">
            <Node pos="l" depth="3" NCoef="0" IVar="1" Cut="125933" cType="1" res="0.015876" purity="0.492595" nType="0">
              <Node pos="l" depth="4" NCoef="0" IVar="-1" Cut="0" cType="1" res="0.000331779" purity="0.481675" nType="-99"/>
              <Node pos="r" depth="4" NCoef="0" IVar="-1" Cut="0" cType="1" res="0.00363527" purity="0.586128" nType="-99"/>
            </Node>
            <Node pos="r" depth="3" NCoef="0" IVar="6" Cut="1.4551" cType="1" res="-0.0291059" purity="0.454259" nType="0">
              <Node pos="l" depth="4" NCoef="0" IVar="-1" Cut="0" cType="1" res="-0.00459882" purity="0.4101" nType="-99"/>
              <Node pos="r" depth="4" NCoef="0" IVar="-1" Cut="0" cType="1" res="0.000443319" purity="0.485111" nType="-99"/>
            </Node>
          </Node>
        </Node>
        <Node pos="r" depth="1" NCoef="0" IVar="6" Cut="1.24048" cType="1" res="0.0717576" purity="0.666992" nType="0">
          <Node pos="l" depth="2" NCoef="0" IVar="-1" Cut="0" cType="1" res="0.000974814" purity="0.591416" nType="-99"/>
          <Node pos="r" depth="2" NCoef="0" IVar="-1" Cut="0" cType="1" res="0.00432924" purity="0.740227" nType="-99"/>
        </Node>
      </Node>
    </BinaryTree>
    <BinaryTree type="DecisionTree" boostWeight="1.0" itree="75">
      <Node pos="s" depth="0" NCoef="0" IVar="2" Cut="18017.1" cType="1" res="0.00185308" purity="0.490447" nType="0">
        <Node pos="l" depth="1" NCoef="0" IVar="2" Cut="-7449.82" cType="1" res="-0.00860875" purity="0.45953" nType="0">
          <Node pos="l" depth="2" NCoef="0" IVar="5" Cut="1.84463" cType="1" res="-0.0435098" purity="0.366066" nType="0">
            <Node pos="l" depth="3" NCoef="0" IVar="6" Cut="2.72647" cType="1" res="-0.016467" purity="0.396529" nType="0">
              <Node pos="l" depth="4" NCoef="0" IVar="-1" Cut="0" cType="1" res="-0.00256085" purity="0.36385" nType="-99"/>
              <Node pos="r" depth="4" NCoef="0" IVar="-1" Cut="0" cType="1" res="0.000140734" purity="0.420499" nType="-99"/>
            </Node>
            <Node pos="r" depth="3" NCoef="0" IVar="-1" Cut="0" cType="1" res="-0.00835182" purity="0.288361" nType="-99"/>
          </Node>
          <Node pos="r" depth="2" NCoef="0" IVar="5" Cut="1.24685" cType="1" res="5.41827e-05" purity="0.48273" nType="0">
            <Node pos="l" depth="3" NCoef="0" IVar="4" Cut="178049" cType="1" res="-0.0214911" purity="0.466894" nType="0">
              <Node pos="l" depth="4" NCoef="0" IVar="-1" Cut="0" cType="1" res="-0.00432578" purity="0.423266" nType="-99"/>
              <Node pos="r" depth="4" NCoef="0" IVar="-1" Cut="0" cType="1" res="2.08982e-05" purity="0.482443" nType="-99"/>
            </Node>
            <Node pos="r" depth="3" NCoef="0" IVar="4" Cut="246544" cType="1" res="0.013152" purity="0.492356" nType="0">
              <Node pos="l" depth="4" NCoef="0" IVar="-1" Cut="0" cType="1" res="0.00142579" purity="0.529685" nType="-99"/>
              <Node pos="r" depth="4" NCoef="0" IVar="-1" Cut="0" cType="1" res="-0.000812364" purity="0.436134" nType="-99"/>
            </Node>
          </Node>
        </Node>
        <Node pos="r" depth="1" NCoef="0" IVar="6" Cut="1.10571" cType="1" res="0.0572132" purity="0.654046" nType="0">
          <Node pos="l" depth="2" NCoef="0" IVar="-1" Cut="0" cType="1" res="0.000229982" purity="0.572366" nType="-99"/>
          <Node pos="r" depth="2" NCoef="0" IVar="-1" Cut="0" cType="1" res="0.00357798" purity="0.715452" nType="-99"/>
        </Node>
      </Node>
    </BinaryTree>
    <BinaryTree type="DecisionTree" boostWeight="1.0" itree="76">
      <Node pos="s" depth="0" NCoef="0" IVar="2" Cut="31597.5" cType="1" res="0.0177944" purity="0.506938" nType="0">
        <Node pos="l" depth="1" NCoef="0" IVar="5" Cut="2.50578" cType="1" res="0.0139726" purity="0.496746" nType="0">
          <Node pos="l" depth="2" NCoef="0" IVar="5" Cut="2.11993" cType="1" res="0.0191381" purity="0.504298" nType="0">
            <Node pos="l" depth="3" NCoef="0" IVar="2" Cut="-10300.8" cType="1" res="0.0129269" purity="0.499354" nType="0">
              <Node pos="l" depth="4" NCoef="0" IVar="-1" Cut="0" cType="1" res="0.00255101" purity="0.461635" nType="-99"/>
              <Node pos="r" depth="4" NCoef="0" IVar="-1" Cut="0" cType="1" res="0.000292984" purity="0.505617" nType="-99"/>
            </Node>
            <Node pos="r" depth="3" NCoef="0" IVar="-1" Cut="0" cType="1" res="0.00297681" purity="0.542585" nType="-99"/>
          </Node>
          <Node pos="r" depth="2" NCoef="0" IVar="1" Cut="177549" cType="1" res="-0.026731" purity="0.437236" nType="0">
            <Node pos="l" depth="3" NCoef="0" IVar="-1" Cut="0" cType="1" res="-0.00280276" purity="0.415395" nType="-99"/>
            <Node pos="r" depth="3" NCoef="0" IVar="-1" Cut="0" cType="1" res="0.000599294" purity="0.471886" nType="-99"/>
          </Node>
        </Node>
        <Node pos="r" depth="1" NCoef="0" IVar="-1" Cut="0" cType="1" res="0.0030616" purity="0.681996" nType="-99"/>
      </Node>
    </BinaryTree>
    <BinaryTree type="DecisionTree" boostWeight="1.0" itree="77">
      <Node pos="s" depth="0" NCoef="0" IVar="0" Cut="114637" cType="1" res="0.0140455" purity="0.504182" nType="0">
        <Node pos="l" depth="1" NCoef="0" IVar="0" Cut="105714" cType="1" res="-0.0213731" purity="0.42601" nType="0">
          <Node pos="l" depth="2" NCoef="0" IVar="4" Cut="236525" cType="1" res="-0.0591316" purity="0.370782" nType="0">
            <Node pos="l" depth="3" NCoef="0" IVar="-1" Cut="0" cType="1" res="-0.00655535" purity="0.36534" nType="-99"/>
            <Node pos="r" depth="3" NCoef="0" IVar="-1" Cut="0" cType="1" res="-0.000463931" purity="0.377042" nType="-99"/>
          </Node>
          <Node pos="r" depth="2" NCoef="0" IVar="3" Cut="179802" cType="1" res="0.00329059" purity="0.462085" nType="0">
            <Node pos="l" depth="3" NCoef="0" IVar="3" Cut="157802" cType="1" res="0.0258207" purity="0.489094" nType="0">
              <Node pos="l" depth="4" NCoef="0" IVar="-1" Cut="0" cType="1" res="-0.00100292" purity="0.44425" nType="-99"/>
              <Node pos="r" depth="4" NCoef="0" IVar="-1" Cut="0" cType="1" res="0.00302018" purity="0.529563" nType="-99"/>
            </Node>
            <Node pos="r" depth="3" NCoef="0" IVar="-1" Cut="0" cType="1" res="-0.00234114" purity="0.402723" nType="-99"/>
          </Node>
        </Node>
        <Node pos="r" depth="1" NCoef="0" IVar="4" Cut="304873" cType="1" res="0.0260731" purity="0.530728" nType="0">
          <Node pos="l" depth="2" NCoef="0" IVar="1" Cut="109573" cType="1" res="0.0395314" purity="0.554384" nType="0">
            <Node pos="l" depth="3" NCoef="0" IVar="0" Cut="128203" cType="1" res="0.0143855" purity="0.511137" nType="0">
              <Node pos="l" depth="4" NCoef="0" IVar="-1" Cut="0" cType="1" res="0.0031678" purity="0.546568" nType="-99"/>
              <Node pos="r" depth="4" NCoef="0" IVar="-1" Cut="0" cType="1" res="-0.000416473" purity="0.497308" nType="-99"/>
            </Node>
            <Node pos="r" depth="3" NCoef="0" IVar="4" Cut="189505" cType="1" res="0.0657193" purity="0.599423" nType="0">
              <Node pos="l" depth="4" NCoef="0" IVar="-1" Cut="0" cType="1" res="0.00437072" purity="0.683927" nType="-99"/>
              <Node pos="r" depth="4" NCoef="0" IVar="-1" Cut="0" cType="1" res="0.00182388" purity="0.562894" nType="-99"/>
            </Node>
          </Node>
          <Node pos="r" depth="2" NCoef="0" IVar="6" Cut="1.83855" cType="1" res="-0.013866" purity="0.460526" nType="0">
            <Node pos="l" depth="3" NCoef="0" IVar="6" Cut="0.941166" cType="1" res="-0.046693" purity="0.445681" nType="0">
              <Node pos="l" depth="4" NCoef="0" IVar="-1" Cut="0" cType="1" res="0.000112548" purity="0.485245" nType="-99"/>
              <Node pos="r" depth="4" NCoef="0" IVar="-1" Cut="0" cType="1" res="-0.00544826" purity="0.405775" nType="-99"/>
            </Node>
            <Node pos="r" depth="3" NCoef="0" IVar="6" Cut="2.3785" cType="1" res="0.0124699" purity="0.472435" nType="0">
              <Node pos="l" depth="4" NCoef="0" IVar="-1" Cut="0" cType="1" res="0.00299877" purity="0.555486" nType="-99"/>
              <Node pos="r" depth="4" NCoef="0" IVar="-1" Cut="0" cType="1" res="-0.00137891" purity="0.416143" nType="-99"/>
            </Node>
          </Node>
        </Node>
      </Node>
    </BinaryTree>
    <BinaryTree type="DecisionTree" boostWeight="1.0" itree="78">
      <Node pos="s" depth="0" NCoef="0" IVar="2" Cut="14392.1" cType="1" res="0.000405635" purity="0.491183" nType="0">
        <Node pos="l" depth="1" NCoef="0" IVar="5" Cut="1.11876" cType="1" res="-0.013637" purity="0.446821" nType="0">
          <Node pos="l" depth="2" NCoef="0" IVar="0" Cut="202408" cType="1" res="-0.0409941" purity="0.426509" nType="0">
            <Node pos="l" depth="3" NCoef="0" IVar="6" Cut="0.996227" cType="1" res="-0.0604353" purity="0.394746" nType="0">
              <Node pos="l" depth="4" NCoef="0" IVar="-1" Cut="0" cType="1" res="0.000647863" purity="0.472741" nType="-99"/>
              <Node pos="r" depth="4" NCoef="0" IVar="-1" Cut="0" cType="1" res="-0.00516304" purity="0.364745" nType="-99"/>
            </Node>
            <Node pos="r" depth="3" NCoef="0" IVar="-1" Cut="0" cType="1" res="0.000761775" purity="0.522639" nType="-99"/>
          </Node>
          <Node pos="r" depth="2" NCoef="0" IVar="0" Cut="124379" cType="1" res="-0.00275829" purity="0.454899" nType="0">
            <Node pos="l" depth="3" NCoef="0" IVar="6" Cut="1.99197" cType="1" res="-0.0208664" purity="0.409243" nType="0">
              <Node pos="l" depth="4" NCoef="0" IVar="-1" Cut="0" cType="1" res="-0.0025798" purity="0.403277" nType="-99"/>
              <Node pos="r" depth="4" NCoef="0" IVar="-1" Cut="0" cType="1" res="0.000130934" purity="0.414669" nType="-99"/>
            </Node>
            <Node pos="r" depth="3" NCoef="0" IVar="6" Cut="1.91568" cType="1" res="0.0128973" purity="0.494371" nType="0">
              <Node pos="l" depth="4" NCoef="0" IVar="-1" Cut="0" cType="1" res="0.00194385" purity="0.539015" nType="-99"/>
              <Node pos="r" depth="4" NCoef="0" IVar="-1" Cut="0" cType="1" res="-0.00103925" purity="0.447258" nType="-99"/>
            </Node>
          </Node>
        </Node>
        <Node pos="r" depth="1" NCoef="0" IVar="6" Cut="0.845008" cType="1" res="0.0478793" purity="0.641157" nType="0">
          <Node pos="l" depth="2" NCoef="0" IVar="-1" Cut="0" cType="1" res="-7.19095e-05" purity="0.553108" nType="-99"/>
          <Node pos="r" depth="2" NCoef="0" IVar="1" Cut="110428" cType="1" res="0.0704325" purity="0.681211" nType="0">
            <Node pos="l" depth="3" NCoef="0" IVar="-1" Cut="0" cType="1" res="0.0011513" purity="0.628357" nType="-99"/>
            <Node pos="r" depth="3" NCoef="0" IVar="-1" Cut="0" cType="1" res="0.00385459" purity="0.722899" nType="-99"/>
          </Node>
        </Node>
      </Node>
    </BinaryTree>
    <BinaryTree type="DecisionTree" boostWeight="1.0" itree="79">
      <Node pos="s" depth="0" NCoef="0" IVar="1" Cut="110466" cType="1" res="0.0158766" purity="0.504861" nType="0">
        <Node pos="l" depth="1" NCoef="0" IVar="3" Cut="188352" cType="1" res="-0.00255722" purity="0.473632" nType="0">
          <Node pos="l" depth="2" NCoef="0" IVar="5" Cut="1.14986" cType="1" res="0.0134435" purity="0.492153" nType="0">
            <Node pos="l" depth="3" NCoef="0" IVar="0" Cut="124381" cType="1" res="0.0410945" purity="0.534383" nType="0">
              <Node pos="l" depth="4" NCoef="0" IVar="-1" Cut="0" cType="1" res="0.00329" purity="0.556289" nType="-99"/>
              <Node pos="r" depth="4" NCoef="0" IVar="-1" Cut="0" cType="1" res="0.00109718" purity="0.526014" nType="-99"/>
            </Node>
            <Node pos="r" depth="3" NCoef="0" IVar="2" Cut="3105.78" cType="1" res="-0.0176313" purity="0.444693" nType="0">
              <Node pos="l" depth="4" NCoef="0" IVar="-1" Cut="0" cType="1" res="-0.00413982" purity="0.352976" nType="-99"/>
              <Node pos="r" depth="4" NCoef="0" IVar="-1" Cut="0" cType="1" res="0.00164589" purity="0.548765" nType="-99"/>
            </Node>
          </Node>
          <Node pos="r" depth="2" NCoef="0" IVar="0" Cut="138992" cType="1" res="-0.0625751" purity="0.404161" nType="0">
            <Node pos="l" depth="3" NCoef="0" IVar="-1" Cut="0" cType="1" res="-0.00584305" purity="0.347111" nType="-99"/>
            <Node pos="r" depth="3" NCoef="0" IVar="-1" Cut="0" cType="1" res="-0.00118957" purity="0.471495" nType="-99"/>
          </Node>
        </Node>
        <Node pos="r" depth="1" NCoef="0" IVar="2" Cut="24857.1" cType="1" res="0.0331315" purity="0.534092" nType="0">
          <Node pos="l" depth="2" NCoef="0" IVar="6" Cut="1.53251" cType="1" res="0.0252069" purity="0.513375" nType="0">
            <Node pos="l" depth="3" NCoef="0" IVar="1" Cut="124320" cType="1" res="-0.00589999" purity="0.501122" nType="0">
              <Node pos="l" depth="4" NCoef="0" IVar="-1" Cut="0" cType="1" res="-0.00236569" purity="0.459132" nType="-99"/>
              <Node pos="r" depth="4" NCoef="0" IVar="-1" Cut="0" cType="1" res="0.000515157" purity="0.519463" nType="-99"/>
            </Node>
            <Node pos="r" depth="3" NCoef="0" IVar="5" Cut="1.64341" cType="1" res="0.0456231" purity="0.521416" nType="0">
              <Node pos="l" depth="4" NCoef="0" IVar="-1" Cut="0" cType="1" res="0.00314399" purity="0.581037" nType="-99"/>
              <Node pos="r" depth="4" NCoef="0" IVar="-1" Cut="0" cType="1" res="0.000618451" purity="0.460018" nType="-99"/>
            </Node>
          </Node>
          <Node pos="r" depth="2" NCoef="0" IVar="-1" Cut="0" cType="1" res="0.00350875" purity="0.69845" nType="-99"/>
        </Node>
      </Node>
    </BinaryTree>
    <BinaryTree type="DecisionTree" boostWeight="1.0" itree="80">
      <Node pos="s" depth="0" NCoef="0" IVar="2" Cut="-2598.86" cType="1" res="0.0130737" purity="0.502842" nType="0">
        <Node pos="l" depth="1" NCoef="0" IVar="3" Cut="188024" cType="1" res="-0.022778" purity="0.396607" nType="0">
          <Node pos="l" depth="2" NCoef="0" IVar="4" Cut="261373" cType="1" res="-0.0403933" purity="0.378249" nType="0">
            <Node pos="l" depth="3" NCoef="0" IVar="4" Cut="201796" cType="1" res="-0.0718103" purity="0.36074" nType="0">
              <Node pos="l" depth="4" NCoef="0" IVar="-1" Cut="0" cType="1" res="-0.00182912" purity="0.405842" nType="-99"/>
              <Node pos="r" depth="4" NCoef="0" IVar="-1" Cut="0" cType="1" res="-0.00739591" purity="0.314956" nType="-99"/>
            </Node>
            <Node pos="r" depth="3" NCoef="0" IVar="2" Cut="-12633.2" cType="1" res="-0.00386818" purity="0.398605" nType="0">
              <Node pos="l" depth="4" NCoef="0" IVar="-1" Cut="0" cType="1" res="0.00240667" purity="0.435359" nType="-99"/>
              <Node pos="r" depth="4" NCoef="0" IVar="-1" Cut="0" cType="1" res="-0.00236331" purity="0.369988" nType="-99"/>
            </Node>
          </Node>
          <Node pos="r" depth="2" NCoef="0" IVar="-1" Cut="0" cType="1" res="0.00137298" purity="0.448743" nType="-99"/>
        </Node>
        <Node pos="r" depth="1" NCoef="0" IVar="4" Cut="353599" cType="1" res="0.0262082" purity="0.541763" nType="0">
          <Node pos="l" depth="2" NCoef="0" IVar="6" Cut="1.07263" cType="1" res="0.0346773" purity="0.555966" nType="0">
            <Node pos="l" depth="3" NCoef="0" IVar="4" Cut="192961" cType="1" res="0.0136228" purity="0.526831" nType="0">
              <Node pos="l" depth="4" NCoef="0" IVar="-1" Cut="0" cType="1" res="0.00188522" purity="0.582481" nType="-99"/>
              <Node pos="r" depth="4" NCoef="0" IVar="-1" Cut="0" cType="1" res="-0.000453979" purity="0.488121" nType="-99"/>
            </Node>
            <Node pos="r" depth="3" NCoef="0" IVar="6" Cut="1.4763" cType="1" res="0.0459886" purity="0.571618" nType="0">
              <Node pos="l" depth="4" NCoef="0" IVar="-1" Cut="0" cType="1" res="0.00358864" purity="0.632738" nType="-99"/>
              <Node pos="r" depth="4" NCoef="0" IVar="-1" Cut="0" cType="1" res="0.00136733" purity="0.552704" nType="-99"/>
            </Node>
          </Node>
          <Node pos="r" depth="2" NCoef="0" IVar="6" Cut="1.53086" cType="1" res="-0.0326197" purity="0.443103" nType="0">
            <Node pos="l" depth="3" NCoef="0" IVar="-1" Cut="0" cType="1" res="-0.00376991" purity="0.400353" nType="-99"/>
            <Node pos="r" depth="3" NCoef="0" IVar="-1" Cut="0" cType="1" res="0.000149643" purity="0.480002" nType="-99"/>
          </Node>
        </Node>
      </Node>
    </BinaryTree>
    <BinaryTree type="DecisionTree" boostWeight="1.0" itree="81">
      <Node pos="s" depth="0" NCoef="0" IVar="2" Cut="21310.5" cType="1" res="0.0118047" purity="0.501492" nType="0">
        <Node pos="l" depth="1" NCoef="0" IVar="2" Cut="-13070.7" cType="1" res="0.00496876" purity="0.478839" nType="0">
          <Node pos="l" depth="2" NCoef="0" IVar="6" Cut="2.82003" cType="1" res="-0.0504031" purity="0.352503" nType="0">
            <Node pos="l" depth="3" NCoef="0" IVar="-1" Cut="0" cType="1" res="-0.00507461" purity="0.320418" nType="-99"/>
            <Node pos="r" depth="3" NCoef="0" IVar="-1" Cut="0" cType="1" res="-0.00107712" purity="0.38805" nType="-99"/>
          </Node>
          <Node pos="r" depth="2" NCoef="0" IVar="5" Cut="1.53149" cType="1" res="0.0112369" purity="0.49314" nType="0">
            <Node pos="l" depth="3" NCoef="0" IVar="4" Cut="158538" cType="1" res="-0.0039387" purity="0.482342" nType="0">
              <Node pos="l" depth="4" NCoef="0" IVar="-1" Cut="0" cType="1" res="-0.0036304" purity="0.444313" nType="-99"/>
              <Node pos="r" depth="4" NCoef="0" IVar="-1" Cut="0" cType="1" res="0.000202159" purity="0.487227" nType="-99"/>
            </Node>
            <Node pos="r" depth="3" NCoef="0" IVar="2" Cut="2022.96" cType="1" res="0.0296195" purity="0.50622" nType="0">
              <Node pos="l" depth="4" NCoef="0" IVar="-1" Cut="0" cType="1" res="-0.000146399" purity="0.427792" nType="-99"/>
              <Node pos="r" depth="4" NCoef="0" IVar="-1" Cut="0" cType="1" res="0.00220016" purity="0.559367" nType="-99"/>
            </Node>
          </Node>
        </Node>
        <Node pos="r" depth="1" NCoef="0" IVar="1" Cut="120334" cType="1" res="0.0607596" purity="0.663716" nType="0">
          <Node pos="l" depth="2" NCoef="0" IVar="-1" Cut="0" cType="1" res="0.00102356" purity="0.631284" nType="-99"/>
          <Node pos="r" depth="2" NCoef="0" IVar="-1" Cut="0" cType="1" res="0.00353375" purity="0.693619" nType="-99"/>
        </Node>
      </Node>
    </BinaryTree>
    <BinaryTree type="DecisionTree" boostWeight="1.0" itree="82">
      <Node pos="s" depth="0" NCoef="0" IVar="1" Cut="95120.8" cType="1" res="0.0135393" purity="0.503112" nType="0">
        <Node pos="l" depth="1" NCoef="0" IVar="4" Cut="207392" cType="1" res="-0.0381392" purity="0.430685" nType="0">
          <Node pos="l" depth="2" NCoef="0" IVar="1" Cut="92246.4" cType="1" res="-0.00587486" purity="0.482378" nType="0">
            <Node pos="l" depth="3" NCoef="0" IVar="-1" Cut="0" cType="1" res="0.000667627" purity="0.503339" nType="-99"/>
            <Node pos="r" depth="3" NCoef="0" IVar="-1" Cut="0" cType="1" res="-0.00124287" purity="0.463303" nType="-99"/>
          </Node>
          <Node pos="r" depth="2" NCoef="0" IVar="-1" Cut="0" cType="1" res="-0.00532259" purity="0.3579" nType="-99"/>
        </Node>
        <Node pos="r" depth="1" NCoef="0" IVar="2" Cut="21310.5" cType="1" res="0.0228678" purity="0.516185" nType="0">
          <Node pos="l" depth="2" NCoef="0" IVar="5" Cut="0.766761" cType="1" res="0.0148444" purity="0.492077" nType="0">
            <Node pos="l" depth="3" NCoef="0" IVar="-1" Cut="0" cType="1" res="0.00309223" purity="0.596981" nType="-99"/>
            <Node pos="r" depth="3" NCoef="0" IVar="3" Cut="118838" cType="1" res="0.0096985" purity="0.483891" nType="0">
              <Node pos="l" depth="4" NCoef="0" IVar="-1" Cut="0" cType="1" res="-0.002422" purity="0.422696" nType="-99"/>
              <Node pos="r" depth="4" NCoef="0" IVar="-1" Cut="0" cType="1" res="0.000659054" purity="0.488714" nType="-99"/>
            </Node>
          </Node>
          <Node pos="r" depth="2" NCoef="0" IVar="0" Cut="138807" cType="1" res="0.0782417" purity="0.682569" nType="0">
            <Node pos="l" depth="3" NCoef="0" IVar="-1" Cut="0" cType="1" res="0.00236828" purity="0.636723" nType="-99"/>
            <Node pos="r" depth="3" NCoef="0" IVar="-1" Cut="0" cType="1" res="0.00364008" purity="0.739785" nType="-99"/>
          </Node>
        </Node>
      </Node>
    </BinaryTree>
    <BinaryTree type="DecisionTree" boostWeight="1.0" itree="83">
      <Node pos="s" depth="0" NCoef="0" IVar="4" Cut="246404" cType="1" res="0.000347627" purity="0.490845" nType="0">
        <Node pos="l" depth="1" NCoef="0" IVar="2" Cut="-5876.5" cType="1" res="0.017543" purity="0.529097" nType="0">
          <Node pos="l" depth="2" NCoef="0" IVar="2" Cut="-11704.1" cType="1" res="-0.0531261" purity="0.374" nType="0">
            <Node pos="l" depth="3" NCoef="0" IVar="-1" Cut="0" cType="1" res="-0.00526575" purity="0.336449" nType="-99"/>
            <Node pos="r" depth="3" NCoef="0" IVar="-1" Cut="0" cType="1" res="-0.00130745" purity="0.408218" nType="-99"/>
          </Node>
          <Node pos="r" depth="2" NCoef="0" IVar="1" Cut="94462.8" cType="1" res="0.0293931" purity="0.555104" nType="0">
            <Node pos="l" depth="3" NCoef="0" IVar="-1" Cut="0" cType="1" res="-0.00106308" purity="0.478584" nType="-99"/>
            <Node pos="r" depth="3" NCoef="0" IVar="6" Cut="1.07207" cType="1" res="0.0385675" purity="0.568855" nType="0">
              <Node pos="l" depth="4" NCoef="0" IVar="-1" Cut="0" cType="1" res="0.000123403" purity="0.5327" nType="-99"/>
              <Node pos="r" depth="4" NCoef="0" IVar="-1" Cut="0" cType="1" res="0.0022607" purity="0.585302" nType="-99"/>
            </Node>
          </Node>
        </Node>
        <Node pos="r" depth="1" NCoef="0" IVar="0" Cut="119511" cType="1" res="-0.0250508" purity="0.434345" nType="0">
          <Node pos="l" depth="2" NCoef="0" IVar="4" Cut="289691" cType="1" res="-0.0599189" purity="0.342984" nType="0">
            <Node pos="l" depth="3" NCoef="0" IVar="-1" Cut="0" cType="1" res="-0.00698469" purity="0.31769" nType="-99"/>
            <Node pos="r" depth="3" NCoef="0" IVar="-1" Cut="0" cType="1" res="-0.00218416" purity="0.356122" nType="-99"/>
          </Node>
          <Node pos="r" depth="2" NCoef="0" IVar="1" Cut="115601" cType="1" res="-0.0101989" purity="0.473259" nType="0">
            <Node pos="l" depth="3" NCoef="0" IVar="4" Cut="326815" cType="1" res="-0.0435325" purity="0.41769" nType="0">
              <Node pos="l" depth="4" NCoef="0" IVar="-1" Cut="0" cType="1" res="-0.000552821" purity="0.457128" nType="-99"/>
              <Node pos="r" depth="4" NCoef="0" IVar="-1" Cut="0" cType="1" res="-0.00445524" purity="0.375977" nType="-99"/>
            </Node>
            <Node pos="r" depth="3" NCoef="0" IVar="6" Cut="1.30244" cType="1" res="0.0123906" purity="0.510917" nType="0">
              <Node pos="l" depth="4" NCoef="0" IVar="-1" Cut="0" cType="1" res="-0.00222204" purity="0.466778" nType="-99"/>
              <Node pos="r" depth="4" NCoef="0" IVar="-1" Cut="0" cType="1" res="0.00177027" purity="0.531654" nType="-99"/>
            </Node>
          </Node>
        </Node>
      </Node>
    </BinaryTree>
    <BinaryTree type="DecisionTree" boostWeight="1.0" itree="84">
      <Node pos="s" depth="0" NCoef="0" IVar="4" Cut="334101" cType="1" res="0.0151975" purity="0.504859" nType="0">
        <Node pos="l" depth="1" NCoef="0" IVar="1" Cut="115509" cType="1" res="0.024794" purity="0.522929" nType="0">
          <Node pos="l" depth="2" NCoef="0" IVar="2" Cut="838.253" cType="1" res="0.00973549" purity="0.497145" nType="0">
            <Node pos="l" depth="3" NCoef="0" IVar="4" Cut="175754" cType="1" res="-0.0255165" purity="0.40136" nType="0">
              <Node pos="l" depth="4" NCoef="0" IVar="-1" Cut="0" cType="1" res="0.00107142" purity="0.470692" nType="-99"/>
              <Node pos="r" depth="4" NCoef="0" IVar="-1" Cut="0" cType="1" res="-0.00236378" purity="0.378536" nType="-99"/>
            </Node>
            <Node pos="r" depth="3" NCoef="0" IVar="6" Cut="2.38142" cType="1" res="0.031228" purity="0.555543" nType="0">
              <Node pos="l" depth="4" NCoef="0" IVar="-1" Cut="0" cType="1" res="0.000926778" purity="0.548666" nType="-99"/>
              <Node pos="r" depth="4" NCoef="0" IVar="-1" Cut="0" cType="1" res="0.0035866" purity="0.600489" nType="-99"/>
            </Node>
          </Node>
          <Node pos="r" depth="2" NCoef="0" IVar="1" Cut="169262" cType="1" res="0.0467624" purity="0.560545" nType="0">
            <Node pos="l" depth="3" NCoef="0" IVar="3" Cut="148942" cType="1" res="0.0602256" purity="0.576443" nType="0">
              <Node pos="l" depth="4" NCoef="0" IVar="-1" Cut="0" cType="1" res="0.00414084" purity="0.625136" nType="-99"/>
              <Node pos="r" depth="4" NCoef="0" IVar="-1" Cut="0" cType="1" res="0.00178803" purity="0.557389" nType="-99"/>
            </Node>
            <Node pos="r" depth="3" NCoef="0" IVar="-1" Cut="0" cType="1" res="-0.000700931" purity="0.487013" nType="-99"/>
          </Node>
        </Node>
        <Node pos="r" depth="1" NCoef="0" IVar="6" Cut="2.60462" cType="1" res="-0.0292166" purity="0.421226" nType="0">
          <Node pos="l" depth="2" NCoef="0" IVar="5" Cut="1.69323" cType="1" res="-0.0506286" purity="0.41316" nType="0">
            <Node pos="l" depth="3" NCoef="0" IVar="-1" Cut="0" cType="1" res="-0.00126724" purity="0.447376" nType="-99"/>
            <Node pos="r" depth="3" NCoef="0" IVar="-1" Cut="0" cType="1" res="-0.00509825" purity="0.365106" nType="-99"/>
          </Node>
          <Node pos="r" depth="2" NCoef="0" IVar="-1" Cut="0" cType="1" res="0.00160257" purity="0.444157" nType="-99"/>
        </Node>
      </Node>
    </BinaryTree>
    <BinaryTree type="DecisionTree" boostWeight="1.0" itree="85">
      <Node pos="s" depth="0" NCoef="0" IVar="2" Cut="4396.16" cType="1" res="0.0123388" purity="0.50256" nType="0">
        <Node pos="l" depth="1" NCoef="0" IVar="6" Cut="0.920028" cType="1" res="-0.00433366" purity="0.431933" nType="0">
          <Node pos="l" depth="2" NCoef="0" IVar="-1" Cut="0" cType="1" res="-0.00401452" purity="0.374779" nType="-99"/>
          <Node pos="r" depth="2" NCoef="0" IVar="4" Cut="217692" cType="1" res="0.00309045" purity="0.438438" nType="0">
            <Node pos="l" depth="3" NCoef="0" IVar="1" Cut="103359" cType="1" res="0.0304781" purity="0.486218" nType="0">
              <Node pos="l" depth="4" NCoef="0" IVar="-1" Cut="0" cType="1" res="-0.000280653" purity="0.438435" nType="-99"/>
              <Node pos="r" depth="4" NCoef="0" IVar="-1" Cut="0" cType="1" res="0.00287635" purity="0.53442" nType="-99"/>
            </Node>
            <Node pos="r" depth="3" NCoef="0" IVar="0" Cut="178024" cType="1" res="-0.015133" purity="0.406646" nType="0">
              <Node pos="l" depth="4" NCoef="0" IVar="-1" Cut="0" cType="1" res="-0.00148312" purity="0.381257" nType="-99"/>
              <Node pos="r" depth="4" NCoef="0" IVar="-1" Cut="0" cType="1" res="0.00128917" purity="0.510462" nType="-99"/>
            </Node>
          </Node>
        </Node>
        <Node pos="r" depth="1" NCoef="0" IVar="6" Cut="0.724438" cType="1" res="0.0288889" purity="0.572668" nType="0">
          <Node pos="l" depth="2" NCoef="0" IVar="5" Cut="1.50645" cType="1" res="-0.00729568" purity="0.50674" nType="0">
            <Node pos="l" depth="3" NCoef="0" IVar="-1" Cut="0" cType="1" res="-0.00275629" purity="0.454067" nType="-99"/>
            <Node pos="r" depth="3" NCoef="0" IVar="-1" Cut="0" cType="1" res="0.000895551" purity="0.536275" nType="-99"/>
          </Node>
          <Node pos="r" depth="2" NCoef="0" IVar="1" Cut="110397" cType="1" res="0.0414896" purity="0.595627" nType="0">
            <Node pos="l" depth="3" NCoef="0" IVar="1" Cut="94476" cType="1" res="0.0149056" purity="0.557659" nType="0">
              <Node pos="l" depth="4" NCoef="0" IVar="-1" Cut="0" cType="1" res="-0.000995896" purity="0.512751" nType="-99"/>
              <Node pos="r" depth="4" NCoef="0" IVar="-1" Cut="0" cType="1" res="0.00123522" purity="0.574474" nType="-99"/>
            </Node>
            <Node pos="r" depth="3" NCoef="0" IVar="1" Cut="142610" cType="1" res="0.0658116" purity="0.630363" nType="0">
              <Node pos="l" depth="4" NCoef="0" IVar="-1" Cut="0" cType="1" res="0.00333043" purity="0.657848" nType="-99"/>
              <Node pos="r" depth="4" NCoef="0" IVar="-1" Cut="0" cType="1" res="0.000887476" purity="0.572022" nType="-99"/>
            </Node>
          </Node>
        </Node>
      </Node>
    </BinaryTree>
    <BinaryTree type="DecisionTree" boostWeight="1.0" itree="86">
      <Node pos="s" depth="0" NCoef="0" IVar="2" Cut="24303.9" cType="1" res="0.00596411" purity="0.4961" nType="0">
        <Node pos="l" depth="1" NCoef="0" IVar="5" Cut="2.43544" cType="1" res="-0.000134113" purity="0.47822" nType="0">
          <Node pos="l" depth="2" NCoef="0" IVar="0" Cut="104878" cType="1" res="0.00635954" purity="0.487658" nType="0">
            <Node pos="l" depth="3" NCoef="0" IVar="-1" Cut="0" cType="1" res="-0.00340096" purity="0.369165" nType="-99"/>
            <Node pos="r" depth="3" NCoef="0" IVar="5" Cut="2.1683" cType="1" res="0.0119231" purity="0.498118" nType="0">
              <Node pos="l" depth="4" NCoef="0" IVar="-1" Cut="0" cType="1" res="0.000308056" purity="0.493" nType="-99"/>
              <Node pos="r" depth="4" NCoef="0" IVar="-1" Cut="0" cType="1" res="0.00317185" purity="0.557773" nType="-99"/>
            </Node>
          </Node>
          <Node pos="r" depth="2" NCoef="0" IVar="5" Cut="2.71131" cType="1" res="-0.0447797" purity="0.413335" nType="0">
            <Node pos="l" depth="3" NCoef="0" IVar="-1" Cut="0" cType="1" res="-0.00543919" purity="0.369294" nType="-99"/>
            <Node pos="r" depth="3" NCoef="0" IVar="-1" Cut="0" cType="1" res="-0.000887497" purity="0.439437" nType="-99"/>
          </Node>
        </Node>
        <Node pos="r" depth="1" NCoef="0" IVar="-1" Cut="0" cType="1" res="0.00258169" purity="0.676314" nType="-99"/>
      </Node>
    </BinaryTree>
    <BinaryTree type="DecisionTree" boostWeight="1.0" itree="87">
      <Node pos="s" depth="0" NCoef="0" IVar="4" Cut="334185" cType="1" res="0.0107711" purity="0.500675" nType="0">
        <Node pos="l" depth="1" NCoef="0" IVar="0" Cut="178005" cType="1" res="0.021467" purity="0.520911" nType="0">
          <Node pos="l" depth="2" NCoef="0" IVar="2" Cut="928.138" cType="1" res="0.0104584" purity="0.499265" nType="0">
            <Node pos="l" depth="3" NCoef="0" IVar="3" Cut="146264" cType="1" res="-0.0208432" purity="0.402805" nType="0">
              <Node pos="l" depth="4" NCoef="0" IVar="-1" Cut="0" cType="1" res="0.00238439" purity="0.47206" nType="-99"/>
              <Node pos="r" depth="4" NCoef="0" IVar="-1" Cut="0" cType="1" res="-0.00244087" purity="0.381273" nType="-99"/>
            </Node>
            <Node pos="r" depth="3" NCoef="0" IVar="3" Cut="182231" cType="1" res="0.0295023" purity="0.557951" nType="0">
              <Node pos="l" depth="4" NCoef="0" IVar="-1" Cut="0" cType="1" res="0.00178699" purity="0.57669" nType="-99"/>
              <Node pos="r" depth="4" NCoef="0" IVar="-1" Cut="0" cType="1" res="-0.000436047" purity="0.50627" nType="-99"/>
            </Node>
          </Node>
          <Node pos="r" depth="2" NCoef="0" IVar="5" Cut="1.16477" cType="1" res="0.0673465" purity="0.611125" nType="0">
            <Node pos="l" depth="3" NCoef="0" IVar="0" Cut="222605" cType="1" res="0.049999" purity="0.59506" nType="0">
              <Node pos="l" depth="4" NCoef="0" IVar="-1" Cut="0" cType="1" res="0.000941533" purity="0.553749" nType="-99"/>
              <Node pos="r" depth="4" NCoef="0" IVar="-1" Cut="0" cType="1" res="0.00325533" purity="0.646814" nType="-99"/>
            </Node>
            <Node pos="r" depth="3" NCoef="0" IVar="-1" Cut="0" cType="1" res="0.00364768" purity="0.63568" nType="-99"/>
          </Node>
        </Node>
        <Node pos="r" depth="1" NCoef="0" IVar="2" Cut="7192.45" cType="1" res="-0.0410377" purity="0.402655" nType="0">
          <Node pos="l" depth="2" NCoef="0" IVar="6" Cut="1.99403" cType="1" res="-0.0185279" purity="0.386765" nType="0">
            <Node pos="l" depth="3" NCoef="0" IVar="-1" Cut="0" cType="1" res="0.00138157" purity="0.424066" nType="-99"/>
            <Node pos="r" depth="3" NCoef="0" IVar="-1" Cut="0" cType="1" res="-0.00260631" purity="0.365637" nType="-99"/>
          </Node>
          <Node pos="r" depth="2" NCoef="0" IVar="-1" Cut="0" cType="1" res="-0.00464024" purity="0.435887" nType="-99"/>
        </Node>
      </Node>
    </BinaryTree>
    <BinaryTree type="DecisionTree" boostWeight="1.0" itree="88">
      <Node pos="s" depth="0" NCoef="0" IVar="2" Cut="31533.4" cType="1" res="0.00590985" purity="0.496854" nType="0">
        <Node pos="l" depth="1" NCoef="0" IVar="5" Cut="2.71861" cType="1" res="0.000711354" purity="0.483584" nType="0">
          <Node pos="l" depth="2" NCoef="0" IVar="1" Cut="110481" cType="1" res="0.00595963" purity="0.490514" nType="0">
            <Node pos="l" depth="3" NCoef="0" IVar="2" Cut="8861.54" cType="1" res="-0.0143937" purity="0.455357" nType="0">
              <Node pos="l" depth="4" NCoef="0" IVar="-1" Cut="0" cType="1" res="-0.00145199" purity="0.408971" nType="-99"/>
              <Node pos="r" depth="4" NCoef="0" IVar="-1" Cut="0" cType="1" res="0.000682381" purity="0.56946" nType="-99"/>
            </Node>
            <Node pos="r" depth="3" NCoef="0" IVar="5" Cut="2.19016" cType="1" res="0.0287808" purity="0.529934" nType="0">
              <Node pos="l" depth="4" NCoef="0" IVar="-1" Cut="0" cType="1" res="0.00183911" purity="0.549815" nType="-99"/>
              <Node pos="r" depth="4" NCoef="0" IVar="-1" Cut="0" cType="1" res="-0.00108482" purity="0.458877" nType="-99"/>
            </Node>
          </Node>
          <Node pos="r" depth="2" NCoef="0" IVar="-1" Cut="0" cType="1" res="-0.00382506" purity="0.393149" nType="-99"/>
        </Node>
        <Node pos="r" depth="1" NCoef="0" IVar="-1" Cut="0" cType="1" res="0.00342243" purity="0.711964" nType="-99"/>
      </Node>
    </BinaryTree>
    <BinaryTree type="DecisionTree" boostWeight="1.0" itree="89">
      <Node pos="s" depth="0" NCoef="0" IVar="6" Cut="1.14928" cType="1" res="0.00979527" purity="0.498541" nType="0">
        <Node pos="l" depth="1" NCoef="0" IVar="1" Cut="156495" cType="1" res="-0.0159563" purity="0.485324" nType="0">
          <Node pos="l" depth="2" NCoef="0" IVar="0" Cut="109732" cType="1" res="-0.0028588" purity="0.497222" nType="0">
            <Node pos="l" depth="3" NCoef="0" IVar="-1" Cut="0" cType="1" res="-0.00352071" purity="0.405809" nType="-99"/>
            <Node pos="r" depth="3" NCoef="0" IVar="6" Cut="0.420401" cType="1" res="0.0151818" purity="0.523779" nType="0">
              <Node pos="l" depth="4" NCoef="0" IVar="-1" Cut="0" cType="1" res="0.00247495" purity="0.559844" nType="-99"/>
              <Node pos="r" depth="4" NCoef="0" IVar="-1" Cut="0" cType="1" res="-0.000622069" purity="0.500573" nType="-99"/>
            </Node>
          </Node>
          <Node pos="r" depth="2" NCoef="0" IVar="-1" Cut="0" cType="1" res="-0.00384475" purity="0.429697" nType="-99"/>
        </Node>
        <Node pos="r" depth="1" NCoef="0" IVar="1" Cut="110462" cType="1" res="0.0194824" purity="0.503513" nType="0">
          <Node pos="l" depth="2" NCoef="0" IVar="4" Cut="334044" cType="1" res="-0.00142286" purity="0.472234" nType="0">
            <Node pos="l" depth="3" NCoef="0" IVar="3" Cut="149126" cType="1" res="0.00811069" purity="0.488416" nType="0">
              <Node pos="l" depth="4" NCoef="0" IVar="-1" Cut="0" cType="1" res="-0.00216573" purity="0.436186" nType="-99"/>
              <Node pos="r" depth="4" NCoef="0" IVar="-1" Cut="0" cType="1" res="0.00094331" purity="0.501747" nType="-99"/>
            </Node>
            <Node pos="r" depth="3" NCoef="0" IVar="-1" Cut="0" cType="1" res="-0.0036473" purity="0.37181" nType="-99"/>
          </Node>
          <Node pos="r" depth="2" NCoef="0" IVar="5" Cut="1.67809" cType="1" res="0.0406778" purity="0.535226" nType="0">
            <Node pos="l" depth="3" NCoef="0" IVar="0" Cut="158509" cType="1" res="0.0646904" purity="0.594141" nType="0">
              <Node pos="l" depth="4" NCoef="0" IVar="-1" Cut="0" cType="1" res="0.00166324" purity="0.537823" nType="-99"/>
              <Node pos="r" depth="4" NCoef="0" IVar="-1" Cut="0" cType="1" res="0.00378623" purity="0.667901" nType="-99"/>
            </Node>
            <Node pos="r" depth="3" NCoef="0" IVar="4" Cut="341268" cType="1" res="0.015203" purity="0.472722" nType="0">
              <Node pos="l" depth="4" NCoef="0" IVar="-1" Cut="0" cType="1" res="0.00142962" purity="0.499619" nType="-99"/>
              <Node pos="r" depth="4" NCoef="0" IVar="-1" Cut="0" cType="1" res="-0.00187781" purity="0.389178" nType="-99"/>
            </Node>
          </Node>
        </Node>
      </Node>
    </BinaryTree>
    <BinaryTree type="DecisionTree" boostWeight="1.0" itree="90">
      <Node pos="s" depth="0" NCoef="0" IVar="0" Cut="202433" cType="1" res="0.00136161" purity="0.490815" nType="0">
        <Node pos="l" depth="1" NCoef="0" IVar="1" Cut="95121.1" cType="1" res="-0.00562587" purity="0.475357" nType="0">
          <Node pos="l" depth="2" NCoef="0" IVar="1" Cut="92497.4" cType="1" res="-0.0577059" purity="0.398168" nType="0">
            <Node pos="l" depth="3" NCoef="0" IVar="-1" Cut="0" cType="1" res="-0.00080568" purity="0.444742" nType="-99"/>
            <Node pos="r" depth="3" NCoef="0" IVar="-1" Cut="0" cType="1" res="-0.00697492" purity="0.342924" nType="-99"/>
          </Node>
          <Node pos="r" depth="2" NCoef="0" IVar="2" Cut="18029.1" cType="1" res="0.00292448" purity="0.48803" nType="0">
            <Node pos="l" depth="3" NCoef="0" IVar="5" Cut="2.72939" cType="1" res="-0.00541044" purity="0.457557" nType="0">
              <Node pos="l" depth="4" NCoef="0" IVar="-1" Cut="0" cType="1" res="-2.79896e-05" purity="0.464383" nType="-99"/>
              <Node pos="r" depth="4" NCoef="0" IVar="-1" Cut="0" cType="1" res="-0.00311425" purity="0.38564" nType="-99"/>
            </Node>
            <Node pos="r" depth="3" NCoef="0" IVar="6" Cut="1.09963" cType="1" res="0.0442842" purity="0.639243" nType="0">
              <Node pos="l" depth="4" NCoef="0" IVar="-1" Cut="0" cType="1" res="0.000519585" purity="0.577931" nType="-99"/>
              <Node pos="r" depth="4" NCoef="0" IVar="-1" Cut="0" cType="1" res="0.00286218" purity="0.69876" nType="-99"/>
            </Node>
          </Node>
        </Node>
        <Node pos="r" depth="1" NCoef="0" IVar="4" Cut="256648" cType="1" res="0.049728" purity="0.597809" nType="0">
          <Node pos="l" depth="2" NCoef="0" IVar="-1" Cut="0" cType="1" res="0.00320039" purity="0.649446" nType="-99"/>
          <Node pos="r" depth="2" NCoef="0" IVar="-1" Cut="0" cType="1" res="-9.54732e-05" purity="0.52744" nType="-99"/>
        </Node>
      </Node>
    </BinaryTree>
    <BinaryTree type="DecisionTree" boostWeight="1.0" itree="91">
      <Node pos="s" depth="0" NCoef="0" IVar="0" Cut="114635" cType="1" res="0.00377234" purity="0.496198" nType="0">
        <Node pos="l" depth="1" NCoef="0" IVar="1" Cut="105323" cType="1" res="-0.0406468" purity="0.401747" nType="0">
          <Node pos="l" depth="2" NCoef="0" IVar="6" Cut="1.76194" cType="1" res="-3.52797e-05" purity="0.434313" nType="0">
            <Node pos="l" depth="3" NCoef="0" IVar="-1" Cut="0" cType="1" res="-0.00211177" purity="0.426251" nType="-99"/>
            <Node pos="r" depth="3" NCoef="0" IVar="-1" Cut="0" cType="1" res="0.00173798" purity="0.441045" nType="-99"/>
          </Node>
          <Node pos="r" depth="2" NCoef="0" IVar="3" Cut="174229" cType="1" res="-0.0702278" purity="0.378026" nType="0">
            <Node pos="l" depth="3" NCoef="0" IVar="-1" Cut="0" cType="1" res="-0.00225146" purity="0.412532" nType="-99"/>
            <Node pos="r" depth="3" NCoef="0" IVar="-1" Cut="0" cType="1" res="-0.0084694" purity="0.316382" nType="-99"/>
          </Node>
        </Node>
        <Node pos="r" depth="1" NCoef="0" IVar="2" Cut="-5893.12" cType="1" res="0.0185506" purity="0.527622" nType="0">
          <Node pos="l" depth="2" NCoef="0" IVar="1" Cut="110488" cType="1" res="-0.0413389" purity="0.384495" nType="0">
            <Node pos="l" depth="3" NCoef="0" IVar="-1" Cut="0" cType="1" res="-0.00728278" purity="0.30096" nType="-99"/>
            <Node pos="r" depth="3" NCoef="0" IVar="-1" Cut="0" cType="1" res="0.000368549" purity="0.451207" nType="-99"/>
          </Node>
          <Node pos="r" depth="2" NCoef="0" IVar="4" Cut="295119" cType="1" res="0.0306774" purity="0.556603" nType="0">
            <Node pos="l" depth="3" NCoef="0" IVar="6" Cut="0.842822" cType="1" res="0.0457143" purity="0.581699" nType="0">
              <Node pos="l" depth="4" NCoef="0" IVar="-1" Cut="0" cType="1" res="0.000201952" purity="0.528866" nType="-99"/>
              <Node pos="r" depth="4" NCoef="0" IVar="-1" Cut="0" cType="1" res="0.00232471" purity="0.595929" nType="-99"/>
            </Node>
            <Node pos="r" depth="3" NCoef="0" IVar="0" Cut="191489" cType="1" res="-0.0129729" purity="0.483755" nType="0">
              <Node pos="l" depth="4" NCoef="0" IVar="-1" Cut="0" cType="1" res="-0.00214233" purity="0.440805" nType="-99"/>
              <Node pos="r" depth="4" NCoef="0" IVar="-1" Cut="0" cType="1" res="0.00222133" purity="0.582716" nType="-99"/>
            </Node>
          </Node>
        </Node>
      </Node>
    </BinaryTree>
    <BinaryTree type="DecisionTree" boostWeight="1.0" itree="92">
      <Node pos="s" depth="0" NCoef="0" IVar="5" Cut="2.45413" cType="1" res="0.00908071" purity="0.499539" nType="0">
        <Node pos="l" depth="1" NCoef="0" IVar="2" Cut="17956.4" cType="1" res="0.0157684" purity="0.509963" nType="0">
          <Node pos="l" depth="2" NCoef="0" IVar="0" Cut="148769" cType="1" res="0.00745955" purity="0.478549" nType="0">
            <Node pos="l" depth="3" NCoef="0" IVar="3" Cut="177175" cType="1" res="-0.00656505" purity="0.443719" nType="0">
              <Node pos="l" depth="4" NCoef="0" IVar="-1" Cut="0" cType="1" res="0.000491137" purity="0.463586" nType="-99"/>
              <Node pos="r" depth="4" NCoef="0" IVar="-1" Cut="0" cType="1" res="-0.00187593" purity="0.409002" nType="-99"/>
            </Node>
            <Node pos="r" depth="3" NCoef="0" IVar="2" Cut="9475.75" cType="1" res="0.029532" purity="0.533365" nType="0">
              <Node pos="l" depth="4" NCoef="0" IVar="-1" Cut="0" cType="1" res="0.000479832" purity="0.49211" nType="-99"/>
              <Node pos="r" depth="4" NCoef="0" IVar="-1" Cut="0" cType="1" res="0.00327938" purity="0.657245" nType="-99"/>
            </Node>
          </Node>
          <Node pos="r" depth="2" NCoef="0" IVar="1" Cut="115556" cType="1" res="0.0580945" purity="0.669991" nType="0">
            <Node pos="l" depth="3" NCoef="0" IVar="-1" Cut="0" cType="1" res="0.0010903" purity="0.635686" nType="-99"/>
            <Node pos="r" depth="3" NCoef="0" IVar="-1" Cut="0" cType="1" res="0.00338699" purity="0.704203" nType="-99"/>
          </Node>
        </Node>
        <Node pos="r" depth="1" NCoef="0" IVar="4" Cut="278718" cType="1" res="-0.0404054" purity="0.422405" nType="0">
          <Node pos="l" depth="2" NCoef="0" IVar="-1" Cut="0" cType="1" res="-0.000438462" purity="0.480251" nType="-99"/>
          <Node pos="r" depth="2" NCoef="0" IVar="-1" Cut="0" cType="1" res="-0.00454617" purity="0.355829" nType="-99"/>
        </Node>
      </Node>
    </BinaryTree>
    <BinaryTree type="DecisionTree" boostWeight="1.0" itree="93">
      <Node pos="s" depth="0" NCoef="0" IVar="2" Cut="28157.5" cType="1" res="0.000541746" purity="0.48987" nType="0">
        <Node pos="l" depth="1" NCoef="0" IVar="6" Cut="2.75843" cType="1" res="-0.00448618" purity="0.475584" nType="0">
          <Node pos="l" depth="2" NCoef="0" IVar="0" Cut="104877" cType="1" res="0.001872" purity="0.492111" nType="0">
            <Node pos="l" depth="3" NCoef="0" IVar="-1" Cut="0" cType="1" res="-0.00311885" purity="0.376315" nType="-99"/>
            <Node pos="r" depth="3" NCoef="0" IVar="0" Cut="109638" cType="1" res="0.00689358" purity="0.502985" nType="0">
              <Node pos="l" depth="4" NCoef="0" IVar="-1" Cut="0" cType="1" res="0.00236136" purity="0.501343" nType="-99"/>
              <Node pos="r" depth="4" NCoef="0" IVar="-1" Cut="0" cType="1" res="8.34049e-05" purity="0.503174" nType="-99"/>
            </Node>
          </Node>
          <Node pos="r" depth="2" NCoef="0" IVar="1" Cut="100062" cType="1" res="-0.0420582" purity="0.377922" nType="0">
            <Node pos="l" depth="3" NCoef="0" IVar="-1" Cut="0" cType="1" res="0.000316123" purity="0.420574" nType="-99"/>
            <Node pos="r" depth="3" NCoef="0" IVar="5" Cut="1.42507" cType="1" res="-0.0710558" purity="0.352236" nType="0">
              <Node pos="l" depth="4" NCoef="0" IVar="-1" Cut="0" cType="1" res="-0.00820402" purity="0.316075" nType="-99"/>
              <Node pos="r" depth="4" NCoef="0" IVar="-1" Cut="0" cType="1" res="-0.00121137" purity="0.387418" nType="-99"/>
            </Node>
          </Node>
        </Node>
        <Node pos="r" depth="1" NCoef="0" IVar="-1" Cut="0" cType="1" res="0.00267493" purity="0.68535" nType="-99"/>
      </Node>
    </BinaryTree>
    <BinaryTree type="DecisionTree" boostWeight="1.0" itree="94">
      <Node pos="s" depth="0" NCoef="0" IVar="2" Cut="17937.3" cType="1" res="0.00939708" purity="0.499368" nType="0">
        <Node pos="l" depth="1" NCoef="0" IVar="0" Cut="231700" cType="1" res="0.000515524" purity="0.466917" nType="0">
          <Node pos="l" depth="2" NCoef="0" IVar="5" Cut="1.07433" cType="1" res="-0.00307169" purity="0.459465" nType="0">
            <Node pos="l" depth="3" NCoef="0" IVar="0" Cut="154613" cType="1" res="-0.0318166" purity="0.438464" nType="0">
              <Node pos="l" depth="4" NCoef="0" IVar="-1" Cut="0" cType="1" res="7.71903e-05" purity="0.450967" nType="-99"/>
              <Node pos="r" depth="4" NCoef="0" IVar="-1" Cut="0" cType="1" res="-0.00396567" purity="0.422489" nType="-99"/>
            </Node>
            <Node pos="r" depth="3" NCoef="0" IVar="0" Cut="135334" cType="1" res="0.00631042" purity="0.46632" nType="0">
              <Node pos="l" depth="4" NCoef="0" IVar="-1" Cut="0" cType="1" res="-0.000544223" purity="0.429488" nType="-99"/>
              <Node pos="r" depth="4" NCoef="0" IVar="-1" Cut="0" cType="1" res="0.00142707" purity="0.523908" nType="-99"/>
            </Node>
          </Node>
          <Node pos="r" depth="2" NCoef="0" IVar="-1" Cut="0" cType="1" res="0.00223341" purity="0.576122" nType="-99"/>
        </Node>
        <Node pos="r" depth="1" NCoef="0" IVar="6" Cut="1.1266" cType="1" res="0.0547394" purity="0.665038" nType="0">
          <Node pos="l" depth="2" NCoef="0" IVar="-1" Cut="0" cType="1" res="0.000232186" purity="0.576947" nType="-99"/>
          <Node pos="r" depth="2" NCoef="0" IVar="-1" Cut="0" cType="1" res="0.00339374" purity="0.728852" nType="-99"/>
        </Node>
      </Node>
    </BinaryTree>
    <BinaryTree type="DecisionTree" boostWeight="1.0" itree="95">
      <Node pos="s" depth="0" NCoef="0" IVar="0" Cut="139014" cType="1" res="0.0170035" purity="0.507886" nType="0">
        <Node pos="l" depth="1" NCoef="0" IVar="3" Cut="183018" cType="1" res="0.000703406" purity="0.465725" nType="0">
          <Node pos="l" depth="2" NCoef="0" IVar="1" Cut="146166" cType="1" res="0.0167112" purity="0.487224" nType="0">
            <Node pos="l" depth="3" NCoef="0" IVar="1" Cut="125606" cType="1" res="0.0258186" purity="0.497072" nType="0">
              <Node pos="l" depth="4" NCoef="0" IVar="-1" Cut="0" cType="1" res="0.000479334" purity="0.476369" nType="-99"/>
              <Node pos="r" depth="4" NCoef="0" IVar="-1" Cut="0" cType="1" res="0.00394053" purity="0.585785" nType="-99"/>
            </Node>
            <Node pos="r" depth="3" NCoef="0" IVar="-1" Cut="0" cType="1" res="-0.00211968" purity="0.425795" nType="-99"/>
          </Node>
          <Node pos="r" depth="2" NCoef="0" IVar="1" Cut="115569" cType="1" res="-0.0417117" purity="0.40876" nType="0">
            <Node pos="l" depth="3" NCoef="0" IVar="-1" Cut="0" cType="1" res="-0.00538483" purity="0.357943" nType="-99"/>
            <Node pos="r" depth="3" NCoef="0" IVar="-1" Cut="0" cType="1" res="0.000547932" purity="0.469808" nType="-99"/>
          </Node>
        </Node>
        <Node pos="r" depth="1" NCoef="0" IVar="2" Cut="-5908.62" cType="1" res="0.0367585" purity="0.558984" nType="0">
          <Node pos="l" depth="2" NCoef="0" IVar="-1" Cut="0" cType="1" res="-0.000985773" purity="0.420084" nType="-99"/>
          <Node pos="r" depth="2" NCoef="0" IVar="6" Cut="0.766466" cType="1" res="0.0466149" purity="0.583409" nType="0">
            <Node pos="l" depth="3" NCoef="0" IVar="-1" Cut="0" cType="1" res="-9.13899e-05" purity="0.511451" nType="-99"/>
            <Node pos="r" depth="3" NCoef="0" IVar="6" Cut="1.40349" cType="1" res="0.0566048" purity="0.598159" nType="0">
              <Node pos="l" depth="4" NCoef="0" IVar="-1" Cut="0" cType="1" res="0.00360669" purity="0.65796" nType="-99"/>
              <Node pos="r" depth="4" NCoef="0" IVar="-1" Cut="0" cType="1" res="0.00184458" purity="0.581031" nType="-99"/>
            </Node>
          </Node>
        </Node>
      </Node>
    </BinaryTree>
    <BinaryTree type="DecisionTree" boostWeight="1.0" itree="96">
      <Node pos="s" depth="0" NCoef="0" IVar="6" Cut="2.68178" cType="1" res="0.0185033" purity="0.508123" nType="0">
        <Node pos="l" depth="1" NCoef="0" IVar="6" Cut="1.11194" cType="1" res="0.0266485" purity="0.528894" nType="0">
          <Node pos="l" depth="2" NCoef="0" IVar="1" Cut="136080" cType="1" res="0.00759823" purity="0.509063" nType="0">
            <Node pos="l" depth="3" NCoef="0" IVar="6" Cut="0.569507" cType="1" res="0.0321441" purity="0.528107" nType="0">
              <Node pos="l" depth="4" NCoef="0" IVar="-1" Cut="0" cType="1" res="0.00239065" purity="0.54708" nType="-99"/>
              <Node pos="r" depth="4" NCoef="0" IVar="-1" Cut="0" cType="1" res="0.000202642" purity="0.506903" nType="-99"/>
            </Node>
            <Node pos="r" depth="3" NCoef="0" IVar="-1" Cut="0" cType="1" res="-0.00294246" purity="0.458156" nType="-99"/>
          </Node>
          <Node pos="r" depth="2" NCoef="0" IVar="2" Cut="11096.9" cType="1" res="0.0357853" purity="0.538405" nType="0">
            <Node pos="l" depth="3" NCoef="0" IVar="5" Cut="2.17287" cType="1" res="0.023337" purity="0.480968" nType="0">
              <Node pos="l" depth="4" NCoef="0" IVar="-1" Cut="0" cType="1" res="0.000350454" purity="0.471306" nType="-99"/>
              <Node pos="r" depth="4" NCoef="0" IVar="-1" Cut="0" cType="1" res="0.00341103" purity="0.512503" nType="-99"/>
            </Node>
            <Node pos="r" depth="3" NCoef="0" IVar="6" Cut="1.91601" cType="1" res="0.0649105" purity="0.67279" nType="0">
              <Node pos="l" depth="4" NCoef="0" IVar="-1" Cut="0" cType="1" res="0.00321196" purity="0.687611" nType="-99"/>
              <Node pos="r" depth="4" NCoef="0" IVar="-1" Cut="0" cType="1" res="0.000749121" purity="0.638823" nType="-99"/>
            </Node>
          </Node>
        </Node>
        <Node pos="r" depth="1" NCoef="0" IVar="0" Cut="119505" cType="1" res="-0.0234838" purity="0.401055" nType="0">
          <Node pos="l" depth="2" NCoef="0" IVar="-1" Cut="0" cType="1" res="-0.00498737" purity="0.310913" nType="-99"/>
          <Node pos="r" depth="2" NCoef="0" IVar="5" Cut="1.09118" cType="1" res="-0.00336748" purity="0.44002" nType="0">
            <Node pos="l" depth="3" NCoef="0" IVar="-1" Cut="0" cType="1" res="-0.00293845" purity="0.400746" nType="-99"/>
            <Node pos="r" depth="3" NCoef="0" IVar="-1" Cut="0" cType="1" res="0.00176017" purity="0.471601" nType="-99"/>
          </Node>
        </Node>
      </Node>
    </BinaryTree>
    <BinaryTree type="DecisionTree" boostWeight="1.0" itree="97">
      <Node pos="s" depth="0" NCoef="0" IVar="1" Cut="110479" cType="1" res="0.0125207" purity="0.504616" nType="0">
        <Node pos="l" depth="1" NCoef="0" IVar="4" Cut="363430" cType="1" res="-0.00930631" purity="0.46721" nType="0">
          <Node pos="l" depth="2" NCoef="0" IVar="2" Cut="9450.53" cType="1" res="0.00119997" purity="0.483807" nType="0">
            <Node pos="l" depth="3" NCoef="0" IVar="0" Cut="168275" cType="1" res="-0.015105" purity="0.427236" nType="0">
              <Node pos="l" depth="4" NCoef="0" IVar="-1" Cut="0" cType="1" res="-0.00168143" purity="0.397965" nType="-99"/>
              <Node pos="r" depth="4" NCoef="0" IVar="-1" Cut="0" cType="1" res="0.00119266" purity="0.509184" nType="-99"/>
            </Node>
            <Node pos="r" depth="3" NCoef="0" IVar="6" Cut="1.62372" cType="1" res="0.0372559" purity="0.608907" nType="0">
              <Node pos="l" depth="4" NCoef="0" IVar="-1" Cut="0" cType="1" res="0.00239396" purity="0.622998" nType="-99"/>
              <Node pos="r" depth="4" NCoef="0" IVar="-1" Cut="0" cType="1" res="1.50124e-06" purity="0.586449" nType="-99"/>
            </Node>
          </Node>
          <Node pos="r" depth="2" NCoef="0" IVar="-1" Cut="0" cType="1" res="-0.00713195" purity="0.310006" nType="-99"/>
        </Node>
        <Node pos="r" depth="1" NCoef="0" IVar="1" Cut="138199" cType="1" res="0.0325753" purity="0.538983" nType="0">
          <Node pos="l" depth="2" NCoef="0" IVar="0" Cut="114629" cType="1" res="0.0554419" purity="0.5698" nType="0">
            <Node pos="l" depth="3" NCoef="0" IVar="-1" Cut="0" cType="1" res="0.000107337" purity="0.464852" nType="-99"/>
            <Node pos="r" depth="3" NCoef="0" IVar="6" Cut="1.91532" cType="1" res="0.0754415" purity="0.60916" nType="0">
              <Node pos="l" depth="4" NCoef="0" IVar="-1" Cut="0" cType="1" res="0.00393973" purity="0.659448" nType="-99"/>
              <Node pos="r" depth="4" NCoef="0" IVar="-1" Cut="0" cType="1" res="0.0018237" purity="0.548681" nType="-99"/>
            </Node>
          </Node>
          <Node pos="r" depth="2" NCoef="0" IVar="6" Cut="0.996104" cType="1" res="6.69189e-05" purity="0.495173" nType="0">
            <Node pos="l" depth="3" NCoef="0" IVar="-1" Cut="0" cType="1" res="-0.00370464" purity="0.438568" nType="-99"/>
            <Node pos="r" depth="3" NCoef="0" IVar="5" Cut="1.64729" cType="1" res="0.0299693" purity="0.518041" nType="0">
              <Node pos="l" depth="4" NCoef="0" IVar="-1" Cut="0" cType="1" res="0.00320997" purity="0.629481" nType="-99"/>
              <Node pos="r" depth="4" NCoef="0" IVar="-1" Cut="0" cType="1" res="0.000372023" purity="0.469658" nType="-99"/>
            </Node>
          </Node>
        </Node>
      </Node>
    </BinaryTree>
    <BinaryTree type="DecisionTree" boostWeight="1.0" itree="98">
      <Node pos="s" depth="0" NCoef="0" IVar="4" Cut="431717" cType="1" res="0.00418663" purity="0.494759" nType="0">
        <Node pos="l" depth="1" NCoef="0" IVar="3" Cut="165441" cType="1" res="0.00929632" purity="0.501801" nType="0">
          <Node pos="l" depth="2" NCoef="0" IVar="5" Cut="2.53109" cType="1" res="0.023384" purity="0.521769" nType="0">
            <Node pos="l" depth="3" NCoef="0" IVar="1" Cut="110375" cType="1" res="0.0296809" purity="0.531302" nType="0">
              <Node pos="l" depth="4" NCoef="0" IVar="-1" Cut="0" cType="1" res="0.000415924" purity="0.488197" nType="-99"/>
              <Node pos="r" depth="4" NCoef="0" IVar="-1" Cut="0" cType="1" res="0.00220649" purity="0.577958" nType="-99"/>
            </Node>
            <Node pos="r" depth="3" NCoef="0" IVar="-1" Cut="0" cType="1" res="-0.00148655" purity="0.442149" nType="-99"/>
          </Node>
          <Node pos="r" depth="2" NCoef="0" IVar="2" Cut="11139.3" cType="1" res="-0.00305158" purity="0.484299" nType="0">
            <Node pos="l" depth="3" NCoef="0" IVar="3" Cut="198210" cType="1" res="-0.0181125" purity="0.43266" nType="0">
              <Node pos="l" depth="4" NCoef="0" IVar="-1" Cut="0" cType="1" res="-0.0020105" purity="0.413907" nType="-99"/>
              <Node pos="r" depth="4" NCoef="0" IVar="-1" Cut="0" cType="1" res="0.00129386" purity="0.474404" nType="-99"/>
            </Node>
            <Node pos="r" depth="3" NCoef="0" IVar="1" Cut="130903" cType="1" res="0.0345576" purity="0.613248" nType="0">
              <Node pos="l" depth="4" NCoef="0" IVar="-1" Cut="0" cType="1" res="0.00235739" purity="0.640671" nType="-99"/>
              <Node pos="r" depth="4" NCoef="0" IVar="-1" Cut="0" cType="1" res="-0.00112656" purity="0.545663" nType="-99"/>
            </Node>
          </Node>
        </Node>
        <Node pos="r" depth="1" NCoef="0" IVar="-1" Cut="0" cType="1" res="-0.00687495" purity="0.338066" nType="-99"/>
      </Node>
    </BinaryTree>
    <BinaryTree type="DecisionTree" boostWeight="1.0" itree="99">
      <Node pos="s" depth="0" NCoef="0" IVar="2" Cut="7595.18" cType="1" res="0.0141671" purity="0.506639" nType="0">
        <Node pos="l" depth="1" NCoef="0" IVar="6" Cut="1.60911" cType="1" res="-0.00543773" purity="0.437517" nType="0">
          <Node pos="l" depth="2" NCoef="0" IVar="4" Cut="201165" cType="1" res="-0.0391422" purity="0.405435" nType="0">
            <Node pos="l" depth="3" NCoef="0" IVar="-1" Cut="0" cType="1" res="0.000615924" purity="0.476412" nType="-99"/>
            <Node pos="r" depth="3" NCoef="0" IVar="5" Cut="1.69692" cType="1" res="-0.0759301" purity="0.355677" nType="0">
              <Node pos="l" depth="4" NCoef="0" IVar="-1" Cut="0" cType="1" res="-0.00947863" purity="0.282464" nType="-99"/>
              <Node pos="r" depth="4" NCoef="0" IVar="-1" Cut="0" cType="1" res="-0.000777415" purity="0.42812" nType="-99"/>
            </Node>
          </Node>
          <Node pos="r" depth="2" NCoef="0" IVar="3" Cut="164824" cType="1" res="0.00672912" purity="0.449098" nType="0">
            <Node pos="l" depth="3" NCoef="0" IVar="2" Cut="-531.141" cType="1" res="0.0339957" purity="0.478693" nType="0">
              <Node pos="l" depth="4" NCoef="0" IVar="-1" Cut="0" cType="1" res="0.000424762" purity="0.431007" nType="-99"/>
              <Node pos="r" depth="4" NCoef="0" IVar="-1" Cut="0" cType="1" res="0.00326677" purity="0.56278" nType="-99"/>
            </Node>
            <Node pos="r" depth="3" NCoef="0" IVar="0" Cut="163348" cType="1" res="-0.0134311" purity="0.427216" nType="0">
              <Node pos="l" depth="4" NCoef="0" IVar="-1" Cut="0" cType="1" res="-0.00203678" purity="0.385687" nType="-99"/>
              <Node pos="r" depth="4" NCoef="0" IVar="-1" Cut="0" cType="1" res="0.00180454" purity="0.534431" nType="-99"/>
            </Node>
          </Node>
        </Node>
        <Node pos="r" depth="1" NCoef="0" IVar="6" Cut="0.717255" cType="1" res="0.0425073" purity="0.606562" nType="0">
          <Node pos="l" depth="2" NCoef="0" IVar="0" Cut="124332" cType="1" res="-0.00455486" purity="0.520079" nType="0">
            <Node pos="l" depth="3" NCoef="0" IVar="-1" Cut="0" cType="1" res="-0.00237499" purity="0.462123" nType="-99"/>
            <Node pos="r" depth="3" NCoef="0" IVar="-1" Cut="0" cType="1" res="0.00153876" purity="0.574899" nType="-99"/>
          </Node>
          <Node pos="r" depth="2" NCoef="0" IVar="6" Cut="1.91014" cType="1" res="0.0599013" purity="0.638525" nType="0">
            <Node pos="l" depth="3" NCoef="0" IVar="4" Cut="226878" cType="1" res="0.0769549" purity="0.655388" nType="0">
              <Node pos="l" depth="4" NCoef="0" IVar="-1" Cut="0" cType="1" res="0.00360424" purity="0.692564" nType="-99"/>
              <Node pos="r" depth="4" NCoef="0" IVar="-1" Cut="0" cType="1" res="0.00193079" purity="0.598694" nType="-99"/>
            </Node>
            <Node pos="r" depth="3" NCoef="0" IVar="-1" Cut="0" cType="1" res="0.000432159" purity="0.589475" nType="-99"/>
          </Node>
        </Node>
      </Node>
    </BinaryTree>
    <BinaryTree type="DecisionTree" boostWeight="1.0" itree="100">
      <Node pos="s" depth="0" NCoef="0" IVar="3" Cut="118899" cType="1" res="0.0095424" purity="0.501354" nType="0">
        <Node pos="l" depth="1" NCoef="0" IVar="-1" Cut="0" cType="1" res="-0.00268355" purity="0.443236" nType="-99"/>
        <Node pos="r" depth="1" NCoef="0" IVar="5" Cut="1.46109" cType="1" res="0.0143215" purity="0.50592" nType="0">
          <Node pos="l" depth="2" NCoef="0" IVar="6" Cut="2.14535" cType="1" res="0.0298765" purity="0.531823" nType="0">
            <Node pos="l" depth="3" NCoef="0" IVar="3" Cut="158587" cType="1" res="0.0483588" purity="0.574612" nType="0">
              <Node pos="l" depth="4" NCoef="0" IVar="-1" Cut="0" cType="1" res="-7.89472e-05" purity="0.530504" nType="-99"/>
              <Node pos="r" depth="4" NCoef="0" IVar="-1" Cut="0" cType="1" res="0.00278737" purity="0.593282" nType="-99"/>
            </Node>
            <Node pos="r" depth="3" NCoef="0" IVar="1" Cut="99984.6" cType="1" res="0.00645752" purity="0.477606" nType="0">
              <Node pos="l" depth="4" NCoef="0" IVar="-1" Cut="0" cType="1" res="0.0023365" purity="0.506649" nType="-99"/>
              <Node pos="r" depth="4" NCoef="0" IVar="-1" Cut="0" cType="1" res="-0.00159109" purity="0.453264" nType="-99"/>
            </Node>
          </Node>
          <Node pos="r" depth="2" NCoef="0" IVar="0" Cut="124379" cType="1" res="-0.00548784" purity="0.472933" nType="0">
            <Node pos="l" depth="3" NCoef="0" IVar="6" Cut="2.06862" cType="1" res="-0.0256073" purity="0.420322" nType="0">
              <Node pos="l" depth="4" NCoef="0" IVar="-1" Cut="0" cType="1" res="-0.00251044" purity="0.428338" nType="-99"/>
              <Node pos="r" depth="4" NCoef="0" IVar="-1" Cut="0" cType="1" res="0.000486797" purity="0.407606" nType="-99"/>
            </Node>
            <Node pos="r" depth="3" NCoef="0" IVar="4" Cut="257510" cType="1" res="0.014788" purity="0.525952" nType="0">
              <Node pos="l" depth="4" NCoef="0" IVar="-1" Cut="0" cType="1" res="0.00218278" purity="0.588458" nType="-99"/>
              <Node pos="r" depth="4" NCoef="0" IVar="-1" Cut="0" cType="1" res="-0.00144588" purity="0.453158" nType="-99"/>
            </Node>
          </Node>
        </Node>
      </Node>
    </BinaryTree>
    <BinaryTree type="DecisionTree" boostWeight="1.0" itree="101">
      <Node pos="s" depth="0" NCoef="0" IVar="4" Cut="197639" cType="1" res="0.00656892" purity="0.498346" nType="0">
        <Node pos="l" depth="1" NCoef="0" IVar="1" Cut="120462" cType="1" res="0.028275" purity="0.554524" nType="0">
          <Node pos="l" depth="2" NCoef="0" IVar="0" Cut="124387" cType="1" res="0.0181625" purity="0.533041" nType="0">
            <Node pos="l" depth="3" NCoef="0" IVar="0" Cut="111301" cType="1" res="-0.0104209" purity="0.481625" nType="0">
              <Node pos="l" depth="4" NCoef="0" IVar="-1" Cut="0" cType="1" res="-0.00160381" purity="0.446569" nType="-99"/>
              <Node pos="r" depth="4" NCoef="0" IVar="-1" Cut="0" cType="1" res="0.000440264" purity="0.516582" nType="-99"/>
            </Node>
            <Node pos="r" depth="3" NCoef="0" IVar="3" Cut="176543" cType="1" res="0.0379109" purity="0.568564" nType="0">
              <Node pos="l" depth="4" NCoef="0" IVar="-1" Cut="0" cType="1" res="0.000556917" purity="0.546355" nType="-99"/>
              <Node pos="r" depth="4" NCoef="0" IVar="-1" Cut="0" cType="1" res="0.00291632" purity="0.603486" nType="-99"/>
            </Node>
          </Node>
          <Node pos="r" depth="2" NCoef="0" IVar="-1" Cut="0" cType="1" res="0.00277223" purity="0.645335" nType="-99"/>
        </Node>
        <Node pos="r" depth="1" NCoef="0" IVar="1" Cut="110479" cType="1" res="-0.00592632" purity="0.466007" nType="0">
          <Node pos="l" depth="2" NCoef="0" IVar="4" Cut="219764" cType="1" res="-0.0344352" purity="0.41369" nType="0">
            <Node pos="l" depth="3" NCoef="0" IVar="-1" Cut="0" cType="1" res="-0.00591804" purity="0.373793" nType="-99"/>
            <Node pos="r" depth="3" NCoef="0" IVar="4" Cut="253999" cType="1" res="-0.0165119" purity="0.424688" nType="0">
              <Node pos="l" depth="4" NCoef="0" IVar="-1" Cut="0" cType="1" res="0.000952569" purity="0.480052" nType="-99"/>
              <Node pos="r" depth="4" NCoef="0" IVar="-1" Cut="0" cType="1" res="-0.00191424" purity="0.398968" nType="-99"/>
            </Node>
          </Node>
          <Node pos="r" depth="2" NCoef="0" IVar="6" Cut="0.536405" cType="1" res="0.0118115" purity="0.498558" nType="0">
            <Node pos="l" depth="3" NCoef="0" IVar="-1" Cut="0" cType="1" res="-0.00360768" purity="0.428427" nType="-99"/>
            <Node pos="r" depth="3" NCoef="0" IVar="2" Cut="-5996.88" cType="1" res="0.0243004" purity="0.509342" nType="0">
              <Node pos="l" depth="4" NCoef="0" IVar="-1" Cut="0" cType="1" res="-0.00132399" purity="0.386444" nType="-99"/>
              <Node pos="r" depth="4" NCoef="0" IVar="-1" Cut="0" cType="1" res="0.00174663" purity="0.552093" nType="-99"/>
            </Node>
          </Node>
        </Node>
      </Node>
    </BinaryTree>
    <BinaryTree type="DecisionTree" boostWeight="1.0" itree="102">
      <Node pos="s" depth="0" NCoef="0" IVar="0" Cut="168289" cType="1" res="0.0114332" purity="0.501883" nType="0">
        <Node pos="l" depth="1" NCoef="0" IVar="5" Cut="1.8401" cType="1" res="0.00146729" purity="0.475107" nType="0">
          <Node pos="l" depth="2" NCoef="0" IVar="2" Cut="7799.97" cType="1" res="-0.0142541" purity="0.466811" nType="0">
            <Node pos="l" depth="3" NCoef="0" IVar="3" Cut="140000" cType="1" res="-0.0334003" purity="0.393078" nType="0">
              <Node pos="l" depth="4" NCoef="0" IVar="-1" Cut="0" cType="1" res="0.00112658" purity="0.451774" nType="-99"/>
              <Node pos="r" depth="4" NCoef="0" IVar="-1" Cut="0" cType="1" res="-0.00261905" purity="0.380557" nType="-99"/>
            </Node>
            <Node pos="r" depth="3" NCoef="0" IVar="3" Cut="164707" cType="1" res="0.013429" purity="0.57342" nType="0">
              <Node pos="l" depth="4" NCoef="0" IVar="-1" Cut="0" cType="1" res="-0.0012451" purity="0.539189" nType="-99"/>
              <Node pos="r" depth="4" NCoef="0" IVar="-1" Cut="0" cType="1" res="0.00182284" purity="0.599747" nType="-99"/>
            </Node>
          </Node>
          <Node pos="r" depth="2" NCoef="0" IVar="3" Cut="141603" cType="1" res="0.0298382" purity="0.490078" nType="0">
            <Node pos="l" depth="3" NCoef="0" IVar="-1" Cut="0" cType="1" res="0.0031022" purity="0.537611" nType="-99"/>
            <Node pos="r" depth="3" NCoef="0" IVar="3" Cut="164119" cType="1" res="0.0166928" purity="0.474691" nType="0">
              <Node pos="l" depth="4" NCoef="0" IVar="-1" Cut="0" cType="1" res="-0.00144969" purity="0.441115" nType="-99"/>
              <Node pos="r" depth="4" NCoef="0" IVar="-1" Cut="0" cType="1" res="0.00159735" purity="0.487319" nType="-99"/>
            </Node>
          </Node>
        </Node>
        <Node pos="r" depth="1" NCoef="0" IVar="5" Cut="0.708659" cType="1" res="0.0401049" purity="0.578916" nType="0">
          <Node pos="l" depth="2" NCoef="0" IVar="-1" Cut="0" cType="1" res="-0.00174012" purity="0.526575" nType="-99"/>
          <Node pos="r" depth="2" NCoef="0" IVar="5" Cut="1.47997" cType="1" res="0.0546249" purity="0.58871" nType="0">
            <Node pos="l" depth="3" NCoef="0" IVar="1" Cut="100014" cType="1" res="0.0739525" purity="0.607759" nType="0">
              <Node pos="l" depth="4" NCoef="0" IVar="-1" Cut="0" cType="1" res="0.0013972" purity="0.53113" nType="-99"/>
              <Node pos="r" depth="4" NCoef="0" IVar="-1" Cut="0" cType="1" res="0.00365617" purity="0.650102" nType="-99"/>
            </Node>
            <Node pos="r" depth="3" NCoef="0" IVar="-1" Cut="0" cType="1" res="0.000509728" purity="0.546338" nType="-99"/>
          </Node>
        </Node>
      </Node>
    </BinaryTree>
    <BinaryTree type="DecisionTree" boostWeight="1.0" itree="103">
      <Node pos="s" depth="0" NCoef="0" IVar="2" Cut="14383.7" cType="1" res="0.00263673" purity="0.493079" nType="0">
        <Node pos="l" depth="1" NCoef="0" IVar="5" Cut="2.791" cType="1" res="-0.0102751" purity="0.448669" nType="0">
          <Node pos="l" depth="2" NCoef="0" IVar="4" Cut="158806" cType="1" res="-0.00481923" purity="0.455614" nType="0">
            <Node pos="l" depth="3" NCoef="0" IVar="-1" Cut="0" cType="1" res="-0.00395316" purity="0.420849" nType="-99"/>
            <Node pos="r" depth="3" NCoef="0" IVar="2" Cut="-21424" cType="1" res="0.00191288" purity="0.458909" nType="0">
              <Node pos="l" depth="4" NCoef="0" IVar="-1" Cut="0" cType="1" res="0.00392417" purity="0.474467" nType="-99"/>
              <Node pos="r" depth="4" NCoef="0" IVar="-1" Cut="0" cType="1" res="-0.000170755" purity="0.457855" nType="-99"/>
            </Node>
          </Node>
          <Node pos="r" depth="2" NCoef="0" IVar="-1" Cut="0" cType="1" res="-0.00661945" purity="0.331147" nType="-99"/>
        </Node>
        <Node pos="r" depth="1" NCoef="0" IVar="1" Cut="105312" cType="1" res="0.0469857" purity="0.645616" nType="0">
          <Node pos="l" depth="2" NCoef="0" IVar="-1" Cut="0" cType="1" res="-0.000367969" purity="0.585572" nType="-99"/>
          <Node pos="r" depth="2" NCoef="0" IVar="0" Cut="139003" cType="1" res="0.0693898" purity="0.669792" nType="0">
            <Node pos="l" depth="3" NCoef="0" IVar="-1" Cut="0" cType="1" res="0.00191765" purity="0.617178" nType="-99"/>
            <Node pos="r" depth="3" NCoef="0" IVar="-1" Cut="0" cType="1" res="0.00335549" purity="0.727866" nType="-99"/>
          </Node>
        </Node>
      </Node>
    </BinaryTree>
    <BinaryTree type="DecisionTree" boostWeight="1.0" itree="104">
      <Node pos="s" depth="0" NCoef="0" IVar="4" Cut="431711" cType="1" res="0.011419" purity="0.499977" nType="0">
        <Node pos="l" depth="1" NCoef="0" IVar="5" Cut="2.75879" cType="1" res="0.0149884" purity="0.505513" nType="0">
          <Node pos="l" depth="2" NCoef="0" IVar="5" Cut="0.943765" cType="1" res="0.0184013" purity="0.511151" nType="0">
            <Node pos="l" depth="3" NCoef="0" IVar="2" Cut="11254.9" cType="1" res="-0.00673144" purity="0.518248" nType="0">
              <Node pos="l" depth="4" NCoef="0" IVar="-1" Cut="0" cType="1" res="-0.00190743" purity="0.423351" nType="-99"/>
              <Node pos="r" depth="4" NCoef="0" IVar="-1" Cut="0" cType="1" res="0.00139161" purity="0.648395" nType="-99"/>
            </Node>
            <Node pos="r" depth="3" NCoef="0" IVar="4" Cut="277984" cType="1" res="0.0251802" purity="0.509236" nType="0">
              <Node pos="l" depth="4" NCoef="0" IVar="-1" Cut="0" cType="1" res="0.000708936" purity="0.51327" nType="-99"/>
              <Node pos="r" depth="4" NCoef="0" IVar="-1" Cut="0" cType="1" res="0.00231913" purity="0.499015" nType="-99"/>
            </Node>
          </Node>
          <Node pos="r" depth="2" NCoef="0" IVar="-1" Cut="0" cType="1" res="-0.00199307" purity="0.4189" nType="-99"/>
        </Node>
        <Node pos="r" depth="1" NCoef="0" IVar="-1" Cut="0" cType="1" res="-0.003676" purity="0.384494" nType="-99"/>
      </Node>
    </BinaryTree>
    <BinaryTree type="DecisionTree" boostWeight="1.0" itree="105">
      <Node pos="s" depth="0" NCoef="0" IVar="2" Cut="24402.7" cType="1" res="0.0150811" purity="0.504568" nType="0">
        <Node pos="l" depth="1" NCoef="0" IVar="6" Cut="0.229885" cType="1" res="0.00757797" purity="0.483199" nType="0">
          <Node pos="l" depth="2" NCoef="0" IVar="-1" Cut="0" cType="1" res="-0.0029712" purity="0.434333" nType="-99"/>
          <Node pos="r" depth="2" NCoef="0" IVar="4" Cut="148908" cType="1" res="0.0111941" purity="0.485914" nType="0">
            <Node pos="l" depth="3" NCoef="0" IVar="-1" Cut="0" cType="1" res="-0.00230284" purity="0.469288" nType="-99"/>
            <Node pos="r" depth="3" NCoef="0" IVar="6" Cut="2.64455" cType="1" res="0.014627" purity="0.486933" nType="0">
              <Node pos="l" depth="4" NCoef="0" IVar="-1" Cut="0" cType="1" res="0.0009917" purity="0.507314" nType="-99"/>
              <Node pos="r" depth="4" NCoef="0" IVar="-1" Cut="0" cType="1" res="-0.000575958" purity="0.413667" nType="-99"/>
            </Node>
          </Node>
        </Node>
        <Node pos="r" depth="1" NCoef="0" IVar="-1" Cut="0" cType="1" res="0.00324348" purity="0.706083" nType="-99"/>
      </Node>
    </BinaryTree>
    <BinaryTree type="DecisionTree" boostWeight="1.0" itree="106">
      <Node pos="s" depth="0" NCoef="0" IVar="4" Cut="178164" cType="1" res="0.00157846" purity="0.491359" nType="0">
        <Node pos="l" depth="1" NCoef="0" IVar="0" Cut="114600" cType="1" res="0.0311579" purity="0.56568" nType="0">
          <Node pos="l" depth="2" NCoef="0" IVar="-1" Cut="0" cType="1" res="-0.00126633" purity="0.474057" nType="-99"/>
          <Node pos="r" depth="2" NCoef="0" IVar="6" Cut="1.45655" cType="1" res="0.0503814" purity="0.596359" nType="0">
            <Node pos="l" depth="3" NCoef="0" IVar="-1" Cut="0" cType="1" res="0.00364332" purity="0.645449" nType="-99"/>
            <Node pos="r" depth="3" NCoef="0" IVar="5" Cut="0.906078" cType="1" res="0.0218396" purity="0.565648" nType="0">
              <Node pos="l" depth="4" NCoef="0" IVar="-1" Cut="0" cType="1" res="0.00226901" purity="0.641071" nType="-99"/>
              <Node pos="r" depth="4" NCoef="0" IVar="-1" Cut="0" cType="1" res="7.99036e-05" purity="0.521106" nType="-99"/>
            </Node>
          </Node>
        </Node>
        <Node pos="r" depth="1" NCoef="0" IVar="1" Cut="115600" cType="1" res="-0.00767984" purity="0.468097" nType="0">
          <Node pos="l" depth="2" NCoef="0" IVar="5" Cut="1.76256" cType="1" res="-0.0262157" purity="0.430287" nType="0">
            <Node pos="l" depth="3" NCoef="0" IVar="5" Cut="1.41896" cType="1" res="-0.0379676" purity="0.424391" nType="0">
              <Node pos="l" depth="4" NCoef="0" IVar="-1" Cut="0" cType="1" res="-0.00153144" purity="0.439343" nType="-99"/>
              <Node pos="r" depth="4" NCoef="0" IVar="-1" Cut="0" cType="1" res="-0.00465927" purity="0.356719" nType="-99"/>
            </Node>
            <Node pos="r" depth="3" NCoef="0" IVar="-1" Cut="0" cType="1" res="0.00163282" purity="0.459298" nType="-99"/>
          </Node>
          <Node pos="r" depth="2" NCoef="0" IVar="1" Cut="133587" cType="1" res="0.0104359" purity="0.50505" nType="0">
            <Node pos="l" depth="3" NCoef="0" IVar="4" Cut="295819" cType="1" res="0.0470001" purity="0.544966" nType="0">
              <Node pos="l" depth="4" NCoef="0" IVar="-1" Cut="0" cType="1" res="0.000639376" purity="0.527319" nType="-99"/>
              <Node pos="r" depth="4" NCoef="0" IVar="-1" Cut="0" cType="1" res="0.00470646" purity="0.579941" nType="-99"/>
            </Node>
            <Node pos="r" depth="3" NCoef="0" IVar="6" Cut="0.766222" cType="1" res="-0.0129835" purity="0.479484" nType="0">
              <Node pos="l" depth="4" NCoef="0" IVar="-1" Cut="0" cType="1" res="-0.00518152" purity="0.403668" nType="-99"/>
              <Node pos="r" depth="4" NCoef="0" IVar="-1" Cut="0" cType="1" res="0.000430581" purity="0.499607" nType="-99"/>
            </Node>
          </Node>
        </Node>
      </Node>
    </BinaryTree>
    <BinaryTree type="DecisionTree" boostWeight="1.0" itree="107">
      <Node pos="s" depth="0" NCoef="0" IVar="5" Cut="2.45256" cType="1" res="0.00578188" purity="0.496826" nType="0">
        <Node pos="l" depth="1" NCoef="0" IVar="1" Cut="110467" cType="1" res="0.0122222" purity="0.507529" nType="0">
          <Node pos="l" depth="2" NCoef="0" IVar="1" Cut="91997.8" cType="1" res="-0.00655235" purity="0.46742" nType="0">
            <Node pos="l" depth="3" NCoef="0" IVar="-1" Cut="0" cType="1" res="0.0020906" purity="0.519625" nType="-99"/>
            <Node pos="r" depth="3" NCoef="0" IVar="5" Cut="1.61386" cType="1" res="-0.016583" purity="0.457796" nType="0">
              <Node pos="l" depth="4" NCoef="0" IVar="-1" Cut="0" cType="1" res="-0.00132161" purity="0.45416" nType="-99"/>
              <Node pos="r" depth="4" NCoef="0" IVar="-1" Cut="0" cType="1" res="0.00127072" purity="0.473032" nType="-99"/>
            </Node>
          </Node>
          <Node pos="r" depth="2" NCoef="0" IVar="6" Cut="0.689661" cType="1" res="0.0342542" purity="0.554597" nType="0">
            <Node pos="l" depth="3" NCoef="0" IVar="-1" Cut="0" cType="1" res="-0.00223458" purity="0.46886" nType="-99"/>
            <Node pos="r" depth="3" NCoef="0" IVar="3" Cut="171438" cType="1" res="0.0476225" purity="0.5688" nType="0">
              <Node pos="l" depth="4" NCoef="0" IVar="-1" Cut="0" cType="1" res="0.00298684" purity="0.60181" nType="-99"/>
              <Node pos="r" depth="4" NCoef="0" IVar="-1" Cut="0" cType="1" res="0.000683432" purity="0.527186" nType="-99"/>
            </Node>
          </Node>
        </Node>
        <Node pos="r" depth="1" NCoef="0" IVar="1" Cut="147129" cType="1" res="-0.0400089" purity="0.420724" nType="0">
          <Node pos="l" depth="2" NCoef="0" IVar="-1" Cut="0" cType="1" res="-0.00056295" purity="0.455298" nType="-99"/>
          <Node pos="r" depth="2" NCoef="0" IVar="-1" Cut="0" cType="1" res="-0.00351275" purity="0.392912" nType="-99"/>
        </Node>
      </Node>
    </BinaryTree>
    <BinaryTree type="DecisionTree" boostWeight="1.0" itree="108">
      <Node pos="s" depth="0" NCoef="0" IVar="0" Cut="134136" cType="1" res="0.0102176" purity="0.501407" nType="0">
        <Node pos="l" depth="1" NCoef="0" IVar="2" Cut="20592.9" cType="1" res="-0.00472687" purity="0.457189" nType="0">
          <Node pos="l" depth="2" NCoef="0" IVar="3" Cut="165664" cType="1" res="-0.0155608" purity="0.42794" nType="0">
            <Node pos="l" depth="3" NCoef="0" IVar="5" Cut="1.20829" cType="1" res="0.00849624" purity="0.457068" nType="0">
              <Node pos="l" depth="4" NCoef="0" IVar="-1" Cut="0" cType="1" res="0.00288343" purity="0.517908" nType="-99"/>
              <Node pos="r" depth="4" NCoef="0" IVar="-1" Cut="0" cType="1" res="-0.000602258" purity="0.436208" nType="-99"/>
            </Node>
            <Node pos="r" depth="3" NCoef="0" IVar="3" Cut="201688" cType="1" res="-0.0367454" purity="0.402289" nType="0">
              <Node pos="l" depth="4" NCoef="0" IVar="-1" Cut="0" cType="1" res="-0.00380338" purity="0.375213" nType="-99"/>
              <Node pos="r" depth="4" NCoef="0" IVar="-1" Cut="0" cType="1" res="0.00188093" purity="0.469673" nType="-99"/>
            </Node>
          </Node>
          <Node pos="r" depth="2" NCoef="0" IVar="-1" Cut="0" cType="1" res="0.00256264" purity="0.646146" nType="-99"/>
        </Node>
        <Node pos="r" depth="1" NCoef="0" IVar="1" Cut="105360" cType="1" res="0.0250567" purity="0.545313" nType="0">
          <Node pos="l" depth="2" NCoef="0" IVar="5" Cut="0.972252" cType="1" res="-0.0120624" purity="0.482456" nType="0">
            <Node pos="l" depth="3" NCoef="0" IVar="3" Cut="172808" cType="1" res="-0.044839" purity="0.462829" nType="0">
              <Node pos="l" depth="4" NCoef="0" IVar="-1" Cut="0" cType="1" res="-0.00122819" purity="0.485863" nType="-99"/>
              <Node pos="r" depth="4" NCoef="0" IVar="-1" Cut="0" cType="1" res="-0.00346804" purity="0.434057" nType="-99"/>
            </Node>
            <Node pos="r" depth="3" NCoef="0" IVar="2" Cut="929.75" cType="1" res="0.0189826" purity="0.501045" nType="0">
              <Node pos="l" depth="4" NCoef="0" IVar="-1" Cut="0" cType="1" res="-0.000866866" purity="0.417795" nType="-99"/>
              <Node pos="r" depth="4" NCoef="0" IVar="-1" Cut="0" cType="1" res="0.00189572" purity="0.562077" nType="-99"/>
            </Node>
          </Node>
          <Node pos="r" depth="2" NCoef="0" IVar="1" Cut="133834" cType="1" res="0.0493779" purity="0.586499" nType="0">
            <Node pos="l" depth="3" NCoef="0" IVar="1" Cut="112306" cType="1" res="0.0717939" purity="0.616505" nType="0">
              <Node pos="l" depth="4" NCoef="0" IVar="-1" Cut="0" cType="1" res="0.00125711" purity="0.560729" nType="-99"/>
              <Node pos="r" depth="4" NCoef="0" IVar="-1" Cut="0" cType="1" res="0.00353821" purity="0.643337" nType="-99"/>
            </Node>
            <Node pos="r" depth="3" NCoef="0" IVar="4" Cut="337698" cType="1" res="0.0198996" purity="0.547039" nType="0">
              <Node pos="l" depth="4" NCoef="0" IVar="-1" Cut="0" cType="1" res="-0.0012411" purity="0.524668" nType="-99"/>
              <Node pos="r" depth="4" NCoef="0" IVar="-1" Cut="0" cType="1" res="0.00353794" purity="0.581164" nType="-99"/>
            </Node>
          </Node>
        </Node>
      </Node>
    </BinaryTree>
    <BinaryTree type="DecisionTree" boostWeight="1.0" itree="109">
      <Node pos="s" depth="0" NCoef="0" IVar="3" Cut="118674" cType="1" res="0.0135992" purity="0.506298" nType="0">
        <Node pos="l" depth="1" NCoef="0" IVar="-1" Cut="0" cType="1" res="-0.00297318" purity="0.431352" nType="-99"/>
        <Node pos="r" depth="1" NCoef="0" IVar="2" Cut="17938.2" cType="1" res="0.0186466" purity="0.511849" nType="0">
          <Node pos="l" depth="2" NCoef="0" IVar="2" Cut="-17375.5" cType="1" res="0.00936016" purity="0.476566" nType="0">
            <Node pos="l" depth="3" NCoef="0" IVar="-1" Cut="0" cType="1" res="0.00395935" purity="0.485943" nType="-99"/>
            <Node pos="r" depth="3" NCoef="0" IVar="3" Cut="197752" cType="1" res="0.00304075" purity="0.475774" nType="0">
              <Node pos="l" depth="4" NCoef="0" IVar="-1" Cut="0" cType="1" res="-0.000265984" purity="0.469512" nType="-99"/>
              <Node pos="r" depth="4" NCoef="0" IVar="-1" Cut="0" cType="1" res="0.00178428" purity="0.502182" nType="-99"/>
            </Node>
          </Node>
          <Node pos="r" depth="2" NCoef="0" IVar="1" Cut="110434" cType="1" res="0.0636411" purity="0.682803" nType="0">
            <Node pos="l" depth="3" NCoef="0" IVar="-1" Cut="0" cType="1" res="0.000630123" purity="0.625836" nType="-99"/>
            <Node pos="r" depth="3" NCoef="0" IVar="-1" Cut="0" cType="1" res="0.00339895" purity="0.713427" nType="-99"/>
          </Node>
        </Node>
      </Node>
    </BinaryTree>
    <BinaryTree type="DecisionTree" boostWeight="1.0" itree="110">
      <Node pos="s" depth="0" NCoef="0" IVar="1" Cut="151435" cType="1" res="0.0165306" purity="0.508158" nType="0">
        <Node pos="l" depth="1" NCoef="0" IVar="1" Cut="103484" cType="1" res="0.0238462" purity="0.514978" nType="0">
          <Node pos="l" depth="2" NCoef="0" IVar="1" Cut="92631.3" cType="1" res="0.00236473" purity="0.471482" nType="0">
            <Node pos="l" depth="3" NCoef="0" IVar="3" Cut="167274" cType="1" res="0.0555981" purity="0.517904" nType="0">
              <Node pos="l" depth="4" NCoef="0" IVar="-1" Cut="0" cType="1" res="0.00082049" purity="0.484051" nType="-99"/>
              <Node pos="r" depth="4" NCoef="0" IVar="-1" Cut="0" cType="1" res="0.00361147" purity="0.546284" nType="-99"/>
            </Node>
            <Node pos="r" depth="3" NCoef="0" IVar="1" Cut="94220.3" cType="1" res="-0.0153975" purity="0.455992" nType="0">
              <Node pos="l" depth="4" NCoef="0" IVar="-1" Cut="0" cType="1" res="-0.00525366" purity="0.377263" nType="-99"/>
              <Node pos="r" depth="4" NCoef="0" IVar="-1" Cut="0" cType="1" res="-7.4604e-05" purity="0.47129" nType="-99"/>
            </Node>
          </Node>
          <Node pos="r" depth="2" NCoef="0" IVar="0" Cut="158519" cType="1" res="0.0402787" purity="0.548251" nType="0">
            <Node pos="l" depth="3" NCoef="0" IVar="5" Cut="1.46098" cType="1" res="0.0266729" purity="0.517469" nType="0">
              <Node pos="l" depth="4" NCoef="0" IVar="-1" Cut="0" cType="1" res="-0.000190432" purity="0.499634" nType="-99"/>
              <Node pos="r" depth="4" NCoef="0" IVar="-1" Cut="0" cType="1" res="0.00214535" purity="0.529369" nType="-99"/>
            </Node>
            <Node pos="r" depth="3" NCoef="0" IVar="3" Cut="177543" cType="1" res="0.0780277" purity="0.633656" nType="0">
              <Node pos="l" depth="4" NCoef="0" IVar="-1" Cut="0" cType="1" res="0.00386282" purity="0.655378" nType="-99"/>
              <Node pos="r" depth="4" NCoef="0" IVar="-1" Cut="0" cType="1" res="0.00144787" purity="0.594845" nType="-99"/>
            </Node>
          </Node>
        </Node>
        <Node pos="r" depth="1" NCoef="0" IVar="5" Cut="1.75093" cType="1" res="-0.0239194" purity="0.470452" nType="0">
          <Node pos="l" depth="2" NCoef="0" IVar="-1" Cut="0" cType="1" res="0.00191466" purity="0.599537" nType="-99"/>
          <Node pos="r" depth="2" NCoef="0" IVar="5" Cut="2.66783" cType="1" res="-0.0505782" purity="0.422912" nType="0">
            <Node pos="l" depth="3" NCoef="0" IVar="-1" Cut="0" cType="1" res="-0.0048318" purity="0.400328" nType="-99"/>
            <Node pos="r" depth="3" NCoef="0" IVar="-1" Cut="0" cType="1" res="0.000205427" purity="0.457025" nType="-99"/>
          </Node>
        </Node>
      </Node>
    </BinaryTree>
    <BinaryTree type="DecisionTree" boostWeight="1.0" itree="111">
      <Node pos="s" depth="0" NCoef="0" IVar="2" Cut="913.577" cType="1" res="-0.00123844" purity="0.490667" nType="0">
        <Node pos="l" depth="1" NCoef="0" IVar="5" Cut="1.69782" cType="1" res="-0.0277022" purity="0.395406" nType="0">
          <Node pos="l" depth="2" NCoef="0" IVar="5" Cut="0.92735" cType="1" res="-0.00569207" purity="0.421156" nType="0">
            <Node pos="l" depth="3" NCoef="0" IVar="-1" Cut="0" cType="1" res="-0.00323902" purity="0.372339" nType="-99"/>
            <Node pos="r" depth="3" NCoef="0" IVar="3" Cut="176833" cType="1" res="0.00924164" purity="0.435168" nType="0">
              <Node pos="l" depth="4" NCoef="0" IVar="-1" Cut="0" cType="1" res="-0.00114662" purity="0.404205" nType="-99"/>
              <Node pos="r" depth="4" NCoef="0" IVar="-1" Cut="0" cType="1" res="0.0024413" purity="0.47964" nType="-99"/>
            </Node>
          </Node>
          <Node pos="r" depth="2" NCoef="0" IVar="0" Cut="119508" cType="1" res="-0.0686421" purity="0.347508" nType="0">
            <Node pos="l" depth="3" NCoef="0" IVar="-1" Cut="0" cType="1" res="-0.00958415" purity="0.26351" nType="-99"/>
            <Node pos="r" depth="3" NCoef="0" IVar="-1" Cut="0" cType="1" res="-0.00107094" purity="0.4234" nType="-99"/>
          </Node>
        </Node>
        <Node pos="r" depth="1" NCoef="0" IVar="3" Cut="200485" cType="1" res="0.0148466" purity="0.548567" nType="0">
          <Node pos="l" depth="2" NCoef="0" IVar="1" Cut="166798" cType="1" res="0.0236768" purity="0.559327" nType="0">
            <Node pos="l" depth="3" NCoef="0" IVar="0" Cut="221918" cType="1" res="0.0317149" purity="0.568046" nType="0">
              <Node pos="l" depth="4" NCoef="0" IVar="-1" Cut="0" cType="1" res="0.00109131" purity="0.557438" nType="-99"/>
              <Node pos="r" depth="4" NCoef="0" IVar="-1" Cut="0" cType="1" res="0.00349707" purity="0.676123" nType="-99"/>
            </Node>
            <Node pos="r" depth="3" NCoef="0" IVar="-1" Cut="0" cType="1" res="-0.0020392" purity="0.48665" nType="-99"/>
          </Node>
          <Node pos="r" depth="2" NCoef="0" IVar="-1" Cut="0" cType="1" res="-0.00237395" purity="0.472932" nType="-99"/>
        </Node>
      </Node>
    </BinaryTree>
    <BinaryTree type="DecisionTree" boostWeight="1.0" itree="112">
      <Node pos="s" depth="0" NCoef="0" IVar="6" Cut="0.306489" cType="1" res="0.00607644" purity="0.497504" nType="0">
        <Node pos="l" depth="1" NCoef="0" IVar="-1" Cut="0" cType="1" res="0.002972" purity="0.569898" nType="-99"/>
        <Node pos="r" depth="1" NCoef="0" IVar="2" Cut="21437" cType="1" res="-7.57012e-05" purity="0.490743" nType="0">
          <Node pos="l" depth="2" NCoef="0" IVar="0" Cut="231668" cType="1" res="-0.00784003" purity="0.464721" nType="0">
            <Node pos="l" depth="3" NCoef="0" IVar="5" Cut="1.4131" cType="1" res="-0.0135389" purity="0.453598" nType="0">
              <Node pos="l" depth="4" NCoef="0" IVar="-1" Cut="0" cType="1" res="-0.00167482" purity="0.442563" nType="-99"/>
              <Node pos="r" depth="4" NCoef="0" IVar="-1" Cut="0" cType="1" res="0.000159548" purity="0.463008" nType="-99"/>
            </Node>
            <Node pos="r" depth="3" NCoef="0" IVar="-1" Cut="0" cType="1" res="0.00261982" purity="0.605879" nType="-99"/>
          </Node>
          <Node pos="r" depth="2" NCoef="0" IVar="0" Cut="143669" cType="1" res="0.0587724" purity="0.687971" nType="0">
            <Node pos="l" depth="3" NCoef="0" IVar="-1" Cut="0" cType="1" res="0.00129861" purity="0.628711" nType="-99"/>
            <Node pos="r" depth="3" NCoef="0" IVar="-1" Cut="0" cType="1" res="0.00343915" purity="0.758372" nType="-99"/>
          </Node>
        </Node>
      </Node>
    </BinaryTree>
    <BinaryTree type="DecisionTree" boostWeight="1.0" itree="113">
      <Node pos="s" depth="0" NCoef="0" IVar="2" Cut="4322.15" cType="1" res="0.0167892" purity="0.508601" nType="0">
        <Node pos="l" depth="1" NCoef="0" IVar="4" Cut="168564" cType="1" res="0.00280748" purity="0.434539" nType="0">
          <Node pos="l" depth="2" NCoef="0" IVar="-1" Cut="0" cType="1" res="0.00215017" purity="0.504769" nType="-99"/>
          <Node pos="r" depth="2" NCoef="0" IVar="4" Cut="200901" cType="1" res="-0.00296709" purity="0.425214" nType="0">
            <Node pos="l" depth="3" NCoef="0" IVar="1" Cut="101910" cType="1" res="-0.0449293" purity="0.411384" nType="0">
              <Node pos="l" depth="4" NCoef="0" IVar="-1" Cut="0" cType="1" res="-0.00506316" purity="0.353818" nType="-99"/>
              <Node pos="r" depth="4" NCoef="0" IVar="-1" Cut="0" cType="1" res="-0.000281321" purity="0.464205" nType="-99"/>
            </Node>
            <Node pos="r" depth="3" NCoef="0" IVar="3" Cut="146205" cType="1" res="0.00800506" purity="0.42883" nType="0">
              <Node pos="l" depth="4" NCoef="0" IVar="-1" Cut="0" cType="1" res="0.00242405" purity="0.472186" nType="-99"/>
              <Node pos="r" depth="4" NCoef="0" IVar="-1" Cut="0" cType="1" res="-0.000269716" purity="0.415372" nType="-99"/>
            </Node>
          </Node>
        </Node>
        <Node pos="r" depth="1" NCoef="0" IVar="1" Cut="166749" cType="1" res="0.0302393" purity="0.579847" nType="0">
          <Node pos="l" depth="2" NCoef="0" IVar="4" Cut="158593" cType="1" res="0.0374211" purity="0.588368" nType="0">
            <Node pos="l" depth="3" NCoef="0" IVar="-1" Cut="0" cType="1" res="-0.00046661" purity="0.564616" nType="-99"/>
            <Node pos="r" depth="3" NCoef="0" IVar="4" Cut="266879" cType="1" res="0.0459843" purity="0.592589" nType="0">
              <Node pos="l" depth="4" NCoef="0" IVar="-1" Cut="0" cType="1" res="0.00250776" purity="0.624298" nType="-99"/>
              <Node pos="r" depth="4" NCoef="0" IVar="-1" Cut="0" cType="1" res="0.000214227" purity="0.51779" nType="-99"/>
            </Node>
          </Node>
          <Node pos="r" depth="2" NCoef="0" IVar="-1" Cut="0" cType="1" res="-0.00124143" purity="0.5125" nType="-99"/>
        </Node>
      </Node>
    </BinaryTree>
    <BinaryTree type="DecisionTree" boostWeight="1.0" itree="114">
      <Node pos="s" depth="0" NCoef="0" IVar="6" Cut="0.536413" cType="1" res="-0.00617339" purity="0.484802" nType="0">
        <Node pos="l" depth="1" NCoef="0" IVar="4" Cut="218656" cType="1" res="-0.0578411" purity="0.439538" nType="0">
          <Node pos="l" depth="2" NCoef="0" IVar="-1" Cut="0" cType="1" res="-0.0003668" purity="0.513899" nType="-99"/>
          <Node pos="r" depth="2" NCoef="0" IVar="-1" Cut="0" cType="1" res="-0.00655339" purity="0.360024" nType="-99"/>
        </Node>
        <Node pos="r" depth="1" NCoef="0" IVar="2" Cut="24292.9" cType="1" res="0.00102024" purity="0.491104" nType="0">
          <Node pos="l" depth="2" NCoef="0" IVar="2" Cut="-16472" cType="1" res="-0.00353937" purity="0.471433" nType="0">
            <Node pos="l" depth="3" NCoef="0" IVar="-1" Cut="0" cType="1" res="0.00175006" purity="0.427331" nType="-99"/>
            <Node pos="r" depth="3" NCoef="0" IVar="0" Cut="231665" cType="1" res="-0.00709327" purity="0.475638" nType="0">
              <Node pos="l" depth="4" NCoef="0" IVar="-1" Cut="0" cType="1" res="-0.000553293" purity="0.465878" nType="-99"/>
              <Node pos="r" depth="4" NCoef="0" IVar="-1" Cut="0" cType="1" res="0.00175276" purity="0.594174" nType="-99"/>
            </Node>
          </Node>
          <Node pos="r" depth="2" NCoef="0" IVar="-1" Cut="0" cType="1" res="0.001788" purity="0.684562" nType="-99"/>
        </Node>
      </Node>
    </BinaryTree>
    <BinaryTree type="DecisionTree" boostWeight="1.0" itree="115">
      <Node pos="s" depth="0" NCoef="0" IVar="4" Cut="421970" cType="1" res="0.00794633" purity="0.49968" nType="0">
        <Node pos="l" depth="1" NCoef="0" IVar="2" Cut="11116" cType="1" res="0.0123948" purity="0.506695" nType="0">
          <Node pos="l" depth="2" NCoef="0" IVar="6" Cut="1.9156" cType="1" res="0.00333445" purity="0.455473" nType="0">
            <Node pos="l" depth="3" NCoef="0" IVar="6" Cut="1.68149" cType="1" res="-0.018235" purity="0.440418" nType="0">
              <Node pos="l" depth="4" NCoef="0" IVar="-1" Cut="0" cType="1" res="-0.000264704" purity="0.452674" nType="-99"/>
              <Node pos="r" depth="4" NCoef="0" IVar="-1" Cut="0" cType="1" res="-0.00496031" purity="0.379002" nType="-99"/>
            </Node>
            <Node pos="r" depth="3" NCoef="0" IVar="6" Cut="2.30448" cType="1" res="0.0176811" purity="0.465487" nType="0">
              <Node pos="l" depth="4" NCoef="0" IVar="-1" Cut="0" cType="1" res="0.00277259" purity="0.532664" nType="-99"/>
              <Node pos="r" depth="4" NCoef="0" IVar="-1" Cut="0" cType="1" res="-5.55056e-05" purity="0.438261" nType="-99"/>
            </Node>
          </Node>
          <Node pos="r" depth="2" NCoef="0" IVar="6" Cut="0.491359" cType="1" res="0.0330879" purity="0.623682" nType="0">
            <Node pos="l" depth="3" NCoef="0" IVar="-1" Cut="0" cType="1" res="0.00284905" purity="0.615764" nType="-99"/>
            <Node pos="r" depth="3" NCoef="0" IVar="5" Cut="1.53301" cType="1" res="0.021349" purity="0.625891" nType="0">
              <Node pos="l" depth="4" NCoef="0" IVar="-1" Cut="0" cType="1" res="0.00164887" purity="0.655657" nType="-99"/>
              <Node pos="r" depth="4" NCoef="0" IVar="-1" Cut="0" cType="1" res="-0.00127783" purity="0.554168" nType="-99"/>
            </Node>
          </Node>
        </Node>
        <Node pos="r" depth="1" NCoef="0" IVar="-1" Cut="0" cType="1" res="-0.00423761" purity="0.371288" nType="-99"/>
      </Node>
    </BinaryTree>
    <BinaryTree type="DecisionTree" boostWeight="1.0" itree="116">
      <Node pos="s" depth="0" NCoef="0" IVar="3" Cut="182895" cType="1" res="0.00837082" purity="0.498835" nType="0">
        <Node pos="l" depth="1" NCoef="0" IVar="2" Cut="965.07" cType="1" res="0.0174017" purity="0.513249" nType="0">
          <Node pos="l" depth="2" NCoef="0" IVar="6" Cut="2.68227" cType="1" res="-0.00503567" purity="0.418234" nType="0">
            <Node pos="l" depth="3" NCoef="0" IVar="3" Cut="150235" cType="1" res="-0.0362026" purity="0.390146" nType="0">
              <Node pos="l" depth="4" NCoef="0" IVar="-1" Cut="0" cType="1" res="-6.40184e-05" purity="0.424088" nType="-99"/>
              <Node pos="r" depth="4" NCoef="0" IVar="-1" Cut="0" cType="1" res="-0.00349284" purity="0.36641" nType="-99"/>
            </Node>
            <Node pos="r" depth="3" NCoef="0" IVar="6" Cut="2.85047" cType="1" res="0.036346" purity="0.455527" nType="0">
              <Node pos="l" depth="4" NCoef="0" IVar="-1" Cut="0" cType="1" res="0.00316473" purity="0.499841" nType="-99"/>
              <Node pos="r" depth="4" NCoef="0" IVar="-1" Cut="0" cType="1" res="0.000717518" purity="0.427206" nType="-99"/>
            </Node>
          </Node>
          <Node pos="r" depth="2" NCoef="0" IVar="1" Cut="125659" cType="1" res="0.0306241" purity="0.569242" nType="0">
            <Node pos="l" depth="3" NCoef="0" IVar="0" Cut="114633" cType="1" res="0.0180736" purity="0.55085" nType="0">
              <Node pos="l" depth="4" NCoef="0" IVar="-1" Cut="0" cType="1" res="-0.00174302" purity="0.462951" nType="-99"/>
              <Node pos="r" depth="4" NCoef="0" IVar="-1" Cut="0" cType="1" res="0.00145387" purity="0.578966" nType="-99"/>
            </Node>
            <Node pos="r" depth="3" NCoef="0" IVar="1" Cut="167916" cType="1" res="0.0542277" purity="0.603833" nType="0">
              <Node pos="l" depth="4" NCoef="0" IVar="-1" Cut="0" cType="1" res="0.00306774" purity="0.63851" nType="-99"/>
              <Node pos="r" depth="4" NCoef="0" IVar="-1" Cut="0" cType="1" res="0.000231234" purity="0.530378" nType="-99"/>
            </Node>
          </Node>
        </Node>
        <Node pos="r" depth="1" NCoef="0" IVar="1" Cut="161680" cType="1" res="-0.0140689" purity="0.46302" nType="0">
          <Node pos="l" depth="2" NCoef="0" IVar="5" Cut="1.71429" cType="1" res="-0.0273829" purity="0.449827" nType="0">
            <Node pos="l" depth="3" NCoef="0" IVar="5" Cut="1.35215" cType="1" res="-0.0113208" purity="0.472644" nType="0">
              <Node pos="l" depth="4" NCoef="0" IVar="-1" Cut="0" cType="1" res="-0.00152829" purity="0.458151" nType="-99"/>
              <Node pos="r" depth="4" NCoef="0" IVar="-1" Cut="0" cType="1" res="0.0018396" purity="0.510139" nType="-99"/>
            </Node>
            <Node pos="r" depth="3" NCoef="0" IVar="-1" Cut="0" cType="1" res="-0.00420651" purity="0.384708" nType="-99"/>
          </Node>
          <Node pos="r" depth="2" NCoef="0" IVar="-1" Cut="0" cType="1" res="0.00258661" purity="0.53649" nType="-99"/>
        </Node>
      </Node>
    </BinaryTree>
    <BinaryTree type="DecisionTree" boostWeight="1.0" itree="117">
      <Node pos="s" depth="0" NCoef="0" IVar="1" Cut="95116.8" cType="1" res="0.0107766" purity="0.502344" nType="0">
        <Node pos="l" depth="1" NCoef="0" IVar="4" Cut="217093" cType="1" res="-0.0388351" purity="0.420841" nType="0">
          <Node pos="l" depth="2" NCoef="0" IVar="5" Cut="0.984803" cType="1" res="-0.0193063" purity="0.463591" nType="0">
            <Node pos="l" depth="3" NCoef="0" IVar="-1" Cut="0" cType="1" res="0.00085611" purity="0.516319" nType="-99"/>
            <Node pos="r" depth="3" NCoef="0" IVar="-1" Cut="0" cType="1" res="-0.00286217" purity="0.418038" nType="-99"/>
          </Node>
          <Node pos="r" depth="2" NCoef="0" IVar="-1" Cut="0" cType="1" res="-0.00453307" purity="0.352104" nType="-99"/>
        </Node>
        <Node pos="r" depth="1" NCoef="0" IVar="2" Cut="31665.6" cType="1" res="0.0194638" purity="0.516616" nType="0">
          <Node pos="l" depth="2" NCoef="0" IVar="2" Cut="-6784.25" cType="1" res="0.0155741" purity="0.502925" nType="0">
            <Node pos="l" depth="3" NCoef="0" IVar="2" Cut="-17318.7" cType="1" res="-0.0155218" purity="0.38971" nType="0">
              <Node pos="l" depth="4" NCoef="0" IVar="-1" Cut="0" cType="1" res="0.00135655" purity="0.427012" nType="-99"/>
              <Node pos="r" depth="4" NCoef="0" IVar="-1" Cut="0" cType="1" res="-0.0023178" purity="0.369172" nType="-99"/>
            </Node>
            <Node pos="r" depth="3" NCoef="0" IVar="3" Cut="194076" cType="1" res="0.0225597" purity="0.528359" nType="0">
              <Node pos="l" depth="4" NCoef="0" IVar="-1" Cut="0" cType="1" res="0.00129403" purity="0.539214" nType="-99"/>
              <Node pos="r" depth="4" NCoef="0" IVar="-1" Cut="0" cType="1" res="-0.000420451" purity="0.480255" nType="-99"/>
            </Node>
          </Node>
          <Node pos="r" depth="2" NCoef="0" IVar="-1" Cut="0" cType="1" res="0.00277661" purity="0.708681" nType="-99"/>
        </Node>
      </Node>
    </BinaryTree>
    <BinaryTree type="DecisionTree" boostWeight="1.0" itree="118">
      <Node pos="s" depth="0" NCoef="0" IVar="6" Cut="2.91168" cType="1" res="0.00715067" purity="0.498461" nType="0">
        <Node pos="l" depth="1" NCoef="0" IVar="4" Cut="421972" cType="1" res="0.000973716" purity="0.499764" nType="0">
          <Node pos="l" depth="2" NCoef="0" IVar="2" Cut="14544.9" cType="1" res="0.0059343" purity="0.507663" nType="0">
            <Node pos="l" depth="3" NCoef="0" IVar="5" Cut="1.0491" cType="1" res="-0.00378132" purity="0.463156" nType="0">
              <Node pos="l" depth="4" NCoef="0" IVar="-1" Cut="0" cType="1" res="-0.00180277" purity="0.440464" nType="-99"/>
              <Node pos="r" depth="4" NCoef="0" IVar="-1" Cut="0" cType="1" res="0.000261046" purity="0.46973" nType="-99"/>
            </Node>
            <Node pos="r" depth="3" NCoef="0" IVar="3" Cut="171228" cType="1" res="0.0358591" purity="0.644747" nType="0">
              <Node pos="l" depth="4" NCoef="0" IVar="-1" Cut="0" cType="1" res="0.002089" purity="0.665973" nType="-99"/>
              <Node pos="r" depth="4" NCoef="0" IVar="-1" Cut="0" cType="1" res="0.000167078" purity="0.607018" nType="-99"/>
            </Node>
          </Node>
          <Node pos="r" depth="2" NCoef="0" IVar="-1" Cut="0" cType="1" res="-0.0055718" purity="0.353769" nType="-99"/>
        </Node>
        <Node pos="r" depth="1" NCoef="0" IVar="4" Cut="248274" cType="1" res="0.0688523" purity="0.485439" nType="0">
          <Node pos="l" depth="2" NCoef="0" IVar="-1" Cut="0" cType="1" res="0.00218741" purity="0.479445" nType="-99"/>
          <Node pos="r" depth="2" NCoef="0" IVar="-1" Cut="0" cType="1" res="0.00431814" purity="0.491139" nType="-99"/>
        </Node>
      </Node>
    </BinaryTree>
    <BinaryTree type="DecisionTree" boostWeight="1.0" itree="119">
      <Node pos="s" depth="0" NCoef="0" IVar="1" Cut="166799" cType="1" res="0.0087394" purity="0.500173" nType="0">
        <Node pos="l" depth="1" NCoef="0" IVar="3" Cut="206410" cType="1" res="0.0154487" purity="0.507609" nType="0">
          <Node pos="l" depth="2" NCoef="0" IVar="6" Cut="2.52859" cType="1" res="0.0217832" purity="0.515366" nType="0">
            <Node pos="l" depth="3" NCoef="0" IVar="4" Cut="373126" cType="1" res="0.0324913" purity="0.54492" nType="0">
              <Node pos="l" depth="4" NCoef="0" IVar="-1" Cut="0" cType="1" res="0.00169321" purity="0.556152" nType="-99"/>
              <Node pos="r" depth="4" NCoef="0" IVar="-1" Cut="0" cType="1" res="-0.00246791" purity="0.415509" nType="-99"/>
            </Node>
            <Node pos="r" depth="3" NCoef="0" IVar="1" Cut="104974" cType="1" res="-0.0133272" purity="0.418463" nType="0">
              <Node pos="l" depth="4" NCoef="0" IVar="-1" Cut="0" cType="1" res="0.000613874" purity="0.434365" nType="-99"/>
              <Node pos="r" depth="4" NCoef="0" IVar="-1" Cut="0" cType="1" res="-0.00232357" purity="0.400249" nType="-99"/>
            </Node>
          </Node>
          <Node pos="r" depth="2" NCoef="0" IVar="3" Cut="224669" cType="1" res="-0.0396965" purity="0.440087" nType="0">
            <Node pos="l" depth="3" NCoef="0" IVar="-1" Cut="0" cType="1" res="-0.00436313" purity="0.404917" nType="-99"/>
            <Node pos="r" depth="3" NCoef="0" IVar="-1" Cut="0" cType="1" res="9.08517e-05" purity="0.476347" nType="-99"/>
          </Node>
        </Node>
        <Node pos="r" depth="1" NCoef="0" IVar="4" Cut="354302" cType="1" res="-0.0484311" purity="0.436802" nType="0">
          <Node pos="l" depth="2" NCoef="0" IVar="-1" Cut="0" cType="1" res="-0.00423463" purity="0.424582" nType="-99"/>
          <Node pos="r" depth="2" NCoef="0" IVar="-1" Cut="0" cType="1" res="-9.10443e-06" purity="0.455765" nType="-99"/>
        </Node>
      </Node>
    </BinaryTree>
    <BinaryTree type="DecisionTree" boostWeight="1.0" itree="120">
      <Node pos="s" depth="0" NCoef="0" IVar="4" Cut="392629" cType="1" res="0.00325786" purity="0.494113" nType="0">
        <Node pos="l" depth="1" NCoef="0" IVar="4" Cut="178489" cType="1" res="0.0101806" purity="0.505852" nType="0">
          <Node pos="l" depth="2" NCoef="0" IVar="6" Cut="1.7627" cType="1" res="0.0341809" purity="0.567256" nType="0">
            <Node pos="l" depth="3" NCoef="0" IVar="0" Cut="129148" cType="1" res="0.0630525" purity="0.613381" nType="0">
              <Node pos="l" depth="4" NCoef="0" IVar="-1" Cut="0" cType="1" res="0.00322493" purity="0.620951" nType="-99"/>
              <Node pos="r" depth="4" NCoef="0" IVar="-1" Cut="0" cType="1" res="0.0014933" purity="0.602789" nType="-99"/>
            </Node>
            <Node pos="r" depth="3" NCoef="0" IVar="4" Cut="157427" cType="1" res="-0.00357899" purity="0.506931" nType="0">
              <Node pos="l" depth="4" NCoef="0" IVar="-1" Cut="0" cType="1" res="-0.00332602" purity="0.4616" nType="-99"/>
              <Node pos="r" depth="4" NCoef="0" IVar="-1" Cut="0" cType="1" res="0.00165942" purity="0.539044" nType="-99"/>
            </Node>
          </Node>
          <Node pos="r" depth="2" NCoef="0" IVar="0" Cut="124378" cType="1" res="0.0016957" purity="0.484143" nType="0">
            <Node pos="l" depth="3" NCoef="0" IVar="1" Cut="139423" cType="1" res="-0.0144512" purity="0.428617" nType="0">
              <Node pos="l" depth="4" NCoef="0" IVar="-1" Cut="0" cType="1" res="-0.00164892" purity="0.411651" nType="-99"/>
              <Node pos="r" depth="4" NCoef="0" IVar="-1" Cut="0" cType="1" res="0.0015884" purity="0.482196" nType="-99"/>
            </Node>
            <Node pos="r" depth="3" NCoef="0" IVar="1" Cut="100233" cType="1" res="0.0128061" purity="0.52235" nType="0">
              <Node pos="l" depth="4" NCoef="0" IVar="-1" Cut="0" cType="1" res="-0.00139121" purity="0.446417" nType="-99"/>
              <Node pos="r" depth="4" NCoef="0" IVar="-1" Cut="0" cType="1" res="0.00112657" purity="0.547739" nType="-99"/>
            </Node>
          </Node>
        </Node>
        <Node pos="r" depth="1" NCoef="0" IVar="4" Cut="439735" cType="1" res="-0.0708761" purity="0.368404" nType="0">
          <Node pos="l" depth="2" NCoef="0" IVar="-1" Cut="0" cType="1" res="-0.00829653" purity="0.320213" nType="-99"/>
          <Node pos="r" depth="2" NCoef="0" IVar="-1" Cut="0" cType="1" res="-0.00106516" purity="0.418981" nType="-99"/>
        </Node>
      </Node>
    </BinaryTree>
    <BinaryTree type="DecisionTree" boostWeight="1.0" itree="121">
      <Node pos="s" depth="0" NCoef="0" IVar="5" Cut="1.68684" cType="1" res="0.00873959" purity="0.501268" nType="0">
        <Node pos="l" depth="1" NCoef="0" IVar="1" Cut="130933" cType="1" res="0.0201617" purity="0.522266" nType="0">
          <Node pos="l" depth="2" NCoef="0" IVar="5" Cut="0.783131" cType="1" res="0.0116477" purity="0.505752" nType="0">
            <Node pos="l" depth="3" NCoef="0" IVar="2" Cut="14753.3" cType="1" res="-0.0286129" purity="0.514913" nType="0">
              <Node pos="l" depth="4" NCoef="0" IVar="-1" Cut="0" cType="1" res="-0.00336385" purity="0.410264" nType="-99"/>
              <Node pos="r" depth="4" NCoef="0" IVar="-1" Cut="0" cType="1" res="0.000578071" purity="0.648667" nType="-99"/>
            </Node>
            <Node pos="r" depth="3" NCoef="0" IVar="0" Cut="207243" cType="1" res="0.0209682" purity="0.503631" nType="0">
              <Node pos="l" depth="4" NCoef="0" IVar="-1" Cut="0" cType="1" res="0.000646702" purity="0.490635" nType="-99"/>
              <Node pos="r" depth="4" NCoef="0" IVar="-1" Cut="0" cType="1" res="0.00331773" purity="0.618212" nType="-99"/>
            </Node>
          </Node>
          <Node pos="r" depth="2" NCoef="0" IVar="5" Cut="1.21171" cType="1" res="0.0730531" purity="0.624857" nType="0">
            <Node pos="l" depth="3" NCoef="0" IVar="-1" Cut="0" cType="1" res="0.00422433" purity="0.7013" nType="-99"/>
            <Node pos="r" depth="3" NCoef="0" IVar="-1" Cut="0" cType="1" res="0.00145783" purity="0.563868" nType="-99"/>
          </Node>
        </Node>
        <Node pos="r" depth="1" NCoef="0" IVar="2" Cut="285.997" cType="1" res="-0.012841" purity="0.461595" nType="0">
          <Node pos="l" depth="2" NCoef="0" IVar="5" Cut="2.00607" cType="1" res="-0.0503416" purity="0.361218" nType="0">
            <Node pos="l" depth="3" NCoef="0" IVar="-1" Cut="0" cType="1" res="-0.00596637" purity="0.323458" nType="-99"/>
            <Node pos="r" depth="3" NCoef="0" IVar="3" Cut="168589" cType="1" res="-0.0318323" purity="0.378487" nType="0">
              <Node pos="l" depth="4" NCoef="0" IVar="-1" Cut="0" cType="1" res="-0.00303985" purity="0.36464" nType="-99"/>
              <Node pos="r" depth="4" NCoef="0" IVar="-1" Cut="0" cType="1" res="-0.000696765" purity="0.393299" nType="-99"/>
            </Node>
          </Node>
          <Node pos="r" depth="2" NCoef="0" IVar="4" Cut="199969" cType="1" res="0.00952028" purity="0.521449" nType="0">
            <Node pos="l" depth="3" NCoef="0" IVar="-1" Cut="0" cType="1" res="0.00241181" purity="0.598537" nType="-99"/>
            <Node pos="r" depth="3" NCoef="0" IVar="3" Cut="173810" cType="1" res="-0.0139889" purity="0.484084" nType="0">
              <Node pos="l" depth="4" NCoef="0" IVar="-1" Cut="0" cType="1" res="0.000726809" purity="0.523249" nType="-99"/>
              <Node pos="r" depth="4" NCoef="0" IVar="-1" Cut="0" cType="1" res="-0.00350494" purity="0.418891" nType="-99"/>
            </Node>
          </Node>
        </Node>
      </Node>
    </BinaryTree>
    <BinaryTree type="DecisionTree" boostWeight="1.0" itree="122">
      <Node pos="s" depth="0" NCoef="0" IVar="1" Cut="115581" cType="1" res="0.0049092" purity="0.496682" nType="0">
        <Node pos="l" depth="1" NCoef="0" IVar="4" Cut="334141" cType="1" res="-0.0129559" purity="0.466142" nType="0">
          <Node pos="l" depth="2" NCoef="0" IVar="0" Cut="114623" cType="1" res="-0.0028128" purity="0.485434" nType="0">
            <Node pos="l" depth="3" NCoef="0" IVar="2" Cut="4519.6" cType="1" res="-0.0392614" purity="0.403654" nType="0">
              <Node pos="l" depth="4" NCoef="0" IVar="-1" Cut="0" cType="1" res="-3.20296e-05" purity="0.393167" nType="-99"/>
              <Node pos="r" depth="4" NCoef="0" IVar="-1" Cut="0" cType="1" res="-0.00457887" purity="0.417297" nType="-99"/>
            </Node>
            <Node pos="r" depth="3" NCoef="0" IVar="2" Cut="11148.4" cType="1" res="0.0100811" purity="0.514365" nType="0">
              <Node pos="l" depth="4" NCoef="0" IVar="-1" Cut="0" cType="1" res="-0.000412376" purity="0.454912" nType="-99"/>
              <Node pos="r" depth="4" NCoef="0" IVar="-1" Cut="0" cType="1" res="0.00228885" purity="0.671945" nType="-99"/>
            </Node>
          </Node>
          <Node pos="r" depth="2" NCoef="0" IVar="-1" Cut="0" cType="1" res="-0.00509347" purity="0.340944" nType="-99"/>
        </Node>
        <Node pos="r" depth="1" NCoef="0" IVar="0" Cut="153642" cType="1" res="0.0268948" purity="0.534267" nType="0">
          <Node pos="l" depth="2" NCoef="0" IVar="0" Cut="136633" cType="1" res="0.0426615" purity="0.529199" nType="0">
            <Node pos="l" depth="3" NCoef="0" IVar="4" Cut="212285" cType="1" res="0.0266035" purity="0.50442" nType="0">
              <Node pos="l" depth="4" NCoef="0" IVar="-1" Cut="0" cType="1" res="0.00313528" purity="0.629818" nType="-99"/>
              <Node pos="r" depth="4" NCoef="0" IVar="-1" Cut="0" cType="1" res="-5.68467e-05" purity="0.440118" nType="-99"/>
            </Node>
            <Node pos="r" depth="3" NCoef="0" IVar="-1" Cut="0" cType="1" res="0.00361068" purity="0.608519" nType="-99"/>
          </Node>
          <Node pos="r" depth="2" NCoef="0" IVar="5" Cut="1.68384" cType="1" res="-0.0087789" purity="0.545735" nType="0">
            <Node pos="l" depth="3" NCoef="0" IVar="-1" Cut="0" cType="1" res="0.00171026" purity="0.628969" nType="-99"/>
            <Node pos="r" depth="3" NCoef="0" IVar="-1" Cut="0" cType="1" res="-0.0031609" purity="0.456891" nType="-99"/>
          </Node>
        </Node>
      </Node>
    </BinaryTree>
    <BinaryTree type="DecisionTree" boostWeight="1.0" itree="123">
      <Node pos="s" depth="0" NCoef="0" IVar="0" Cut="139022" cType="1" res="0.0120373" purity="0.502263" nType="0">
        <Node pos="l" depth="1" NCoef="0" IVar="0" Cut="132344" cType="1" res="-0.00134996" purity="0.460828" nType="0">
          <Node pos="l" depth="2" NCoef="0" IVar="0" Cut="116565" cType="1" res="0.00522446" purity="0.464454" nType="0">
            <Node pos="l" depth="3" NCoef="0" IVar="4" Cut="238031" cType="1" res="-0.0122042" purity="0.433154" nType="0">
              <Node pos="l" depth="4" NCoef="0" IVar="-1" Cut="0" cType="1" res="0.000719049" purity="0.49266" nType="-99"/>
              <Node pos="r" depth="4" NCoef="0" IVar="-1" Cut="0" cType="1" res="-0.00341122" purity="0.339852" nType="-99"/>
            </Node>
            <Node pos="r" depth="3" NCoef="0" IVar="4" Cut="275968" cType="1" res="0.0293881" purity="0.507849" nType="0">
              <Node pos="l" depth="4" NCoef="0" IVar="-1" Cut="0" cType="1" res="0.000491745" purity="0.514541" nType="-99"/>
              <Node pos="r" depth="4" NCoef="0" IVar="-1" Cut="0" cType="1" res="0.00338069" purity="0.492667" nType="-99"/>
            </Node>
          </Node>
          <Node pos="r" depth="2" NCoef="0" IVar="-1" Cut="0" cType="1" res="-0.00306971" purity="0.430189" nType="-99"/>
        </Node>
        <Node pos="r" depth="1" NCoef="0" IVar="3" Cut="182649" cType="1" res="0.0282143" purity="0.552332" nType="0">
          <Node pos="l" depth="2" NCoef="0" IVar="1" Cut="130958" cType="1" res="0.0189807" purity="0.547017" nType="0">
            <Node pos="l" depth="3" NCoef="0" IVar="0" Cut="213598" cType="1" res="0.00511053" purity="0.527526" nType="0">
              <Node pos="l" depth="4" NCoef="0" IVar="-1" Cut="0" cType="1" res="-0.00037252" purity="0.509793" nType="-99"/>
              <Node pos="r" depth="4" NCoef="0" IVar="-1" Cut="0" cType="1" res="0.00212764" purity="0.593734" nType="-99"/>
            </Node>
            <Node pos="r" depth="3" NCoef="0" IVar="3" Cut="147806" cType="1" res="0.0502098" purity="0.590903" nType="0">
              <Node pos="l" depth="4" NCoef="0" IVar="-1" Cut="0" cType="1" res="0.00357002" purity="0.641587" nType="-99"/>
              <Node pos="r" depth="4" NCoef="0" IVar="-1" Cut="0" cType="1" res="0.000591364" purity="0.549504" nType="-99"/>
            </Node>
          </Node>
          <Node pos="r" depth="2" NCoef="0" IVar="6" Cut="1.5326" cType="1" res="0.0481848" purity="0.563827" nType="0">
            <Node pos="l" depth="3" NCoef="0" IVar="-1" Cut="0" cType="1" res="-0.000258781" purity="0.5169" nType="-99"/>
            <Node pos="r" depth="3" NCoef="0" IVar="5" Cut="1.18886" cType="1" res="0.072105" purity="0.584701" nType="0">
              <Node pos="l" depth="4" NCoef="0" IVar="-1" Cut="0" cType="1" res="0.00381319" purity="0.620382" nType="-99"/>
              <Node pos="r" depth="4" NCoef="0" IVar="-1" Cut="0" cType="1" res="0.00151604" purity="0.536664" nType="-99"/>
            </Node>
          </Node>
        </Node>
      </Node>
    </BinaryTree>
    <BinaryTree type="DecisionTree" boostWeight="1.0" itree="124">
      <Node pos="s" depth="0" NCoef="0" IVar="1" Cut="115598" cType="1" res="0.0125794" purity="0.504215" nType="0">
        <Node pos="l" depth="1" NCoef="0" IVar="6" Cut="1.83897" cType="1" res="-0.0022948" purity="0.47454" nType="0">
          <Node pos="l" depth="2" NCoef="0" IVar="2" Cut="8088.56" cType="1" res="0.0210339" purity="0.522751" nType="0">
            <Node pos="l" depth="3" NCoef="0" IVar="1" Cut="98740.4" cType="1" res="-0.00339172" purity="0.430108" nType="0">
              <Node pos="l" depth="4" NCoef="0" IVar="-1" Cut="0" cType="1" res="-0.00248032" purity="0.376477" nType="-99"/>
              <Node pos="r" depth="4" NCoef="0" IVar="-1" Cut="0" cType="1" res="0.00128242" purity="0.47081" nType="-99"/>
            </Node>
            <Node pos="r" depth="3" NCoef="0" IVar="1" Cut="98736.2" cType="1" res="0.042382" purity="0.603721" nType="0">
              <Node pos="l" depth="4" NCoef="0" IVar="-1" Cut="0" cType="1" res="0.00320321" purity="0.635319" nType="-99"/>
              <Node pos="r" depth="4" NCoef="0" IVar="-1" Cut="0" cType="1" res="0.000443886" purity="0.580171" nType="-99"/>
            </Node>
          </Node>
          <Node pos="r" depth="2" NCoef="0" IVar="3" Cut="177122" cType="1" res="-0.0237615" purity="0.430177" nType="0">
            <Node pos="l" depth="3" NCoef="0" IVar="3" Cut="137235" cType="1" res="-0.045585" purity="0.413825" nType="0">
              <Node pos="l" depth="4" NCoef="0" IVar="-1" Cut="0" cType="1" res="0.000670678" purity="0.458336" nType="-99"/>
              <Node pos="r" depth="4" NCoef="0" IVar="-1" Cut="0" cType="1" res="-0.00365336" purity="0.399698" nType="-99"/>
            </Node>
            <Node pos="r" depth="3" NCoef="0" IVar="2" Cut="-3562.36" cType="1" res="0.00844406" purity="0.454307" nType="0">
              <Node pos="l" depth="4" NCoef="0" IVar="-1" Cut="0" cType="1" res="0.00355065" purity="0.46514" nType="-99"/>
              <Node pos="r" depth="4" NCoef="0" IVar="-1" Cut="0" cType="1" res="-0.00181706" purity="0.44673" nType="-99"/>
            </Node>
          </Node>
        </Node>
        <Node pos="r" depth="1" NCoef="0" IVar="1" Cut="165047" cType="1" res="0.0316642" purity="0.542291" nType="0">
          <Node pos="l" depth="2" NCoef="0" IVar="0" Cut="148776" cType="1" res="0.0472987" purity="0.567932" nType="0">
            <Node pos="l" depth="3" NCoef="0" IVar="5" Cut="1.42536" cType="1" res="0.0273082" purity="0.520631" nType="0">
              <Node pos="l" depth="4" NCoef="0" IVar="-1" Cut="0" cType="1" res="-0.00149208" purity="0.49394" nType="-99"/>
              <Node pos="r" depth="4" NCoef="0" IVar="-1" Cut="0" cType="1" res="0.0021574" purity="0.529882" nType="-99"/>
            </Node>
            <Node pos="r" depth="3" NCoef="0" IVar="4" Cut="251229" cType="1" res="0.0842228" purity="0.655302" nType="0">
              <Node pos="l" depth="4" NCoef="0" IVar="-1" Cut="0" cType="1" res="0.00457041" purity="0.717207" nType="-99"/>
              <Node pos="r" depth="4" NCoef="0" IVar="-1" Cut="0" cType="1" res="0.000709536" purity="0.561128" nType="-99"/>
            </Node>
          </Node>
          <Node pos="r" depth="2" NCoef="0" IVar="1" Cut="188090" cType="1" res="-0.0128292" purity="0.46932" nType="0">
            <Node pos="l" depth="3" NCoef="0" IVar="-1" Cut="0" cType="1" res="-0.00355943" purity="0.417609" nType="-99"/>
            <Node pos="r" depth="3" NCoef="0" IVar="-1" Cut="0" cType="1" res="0.00078513" purity="0.500147" nType="-99"/>
          </Node>
        </Node>
      </Node>
    </BinaryTree>
    <BinaryTree type="DecisionTree" boostWeight="1.0" itree="125">
      <Node pos="s" depth="0" NCoef="0" IVar="0" Cut="168273" cType="1" res="-0.00182375" purity="0.492552" nType="0">
        <Node pos="l" depth="1" NCoef="0" IVar="2" Cut="7474.52" cType="1" res="-0.0156646" purity="0.461277" nType="0">
          <Node pos="l" depth="2" NCoef="0" IVar="5" Cut="1.08295" cType="1" res="-0.030705" purity="0.392164" nType="0">
            <Node pos="l" depth="3" NCoef="0" IVar="6" Cut="2.37533" cType="1" res="-0.0810489" purity="0.333381" nType="0">
              <Node pos="l" depth="4" NCoef="0" IVar="-1" Cut="0" cType="1" res="-0.00361095" purity="0.350396" nType="-99"/>
              <Node pos="r" depth="4" NCoef="0" IVar="-1" Cut="0" cType="1" res="-0.00672013" purity="0.316338" nType="-99"/>
            </Node>
            <Node pos="r" depth="3" NCoef="0" IVar="1" Cut="105301" cType="1" res="-0.0192777" purity="0.405507" nType="0">
              <Node pos="l" depth="4" NCoef="0" IVar="-1" Cut="0" cType="1" res="0.000668011" purity="0.423847" nType="-99"/>
              <Node pos="r" depth="4" NCoef="0" IVar="-1" Cut="0" cType="1" res="-0.00210655" purity="0.394674" nType="-99"/>
            </Node>
          </Node>
          <Node pos="r" depth="2" NCoef="0" IVar="0" Cut="108326" cType="1" res="0.00657902" purity="0.563489" nType="0">
            <Node pos="l" depth="3" NCoef="0" IVar="-1" Cut="0" cType="1" res="-0.00275061" purity="0.466871" nType="-99"/>
            <Node pos="r" depth="3" NCoef="0" IVar="1" Cut="120678" cType="1" res="0.0209001" purity="0.585811" nType="0">
              <Node pos="l" depth="4" NCoef="0" IVar="-1" Cut="0" cType="1" res="6.16724e-05" purity="0.566353" nType="-99"/>
              <Node pos="r" depth="4" NCoef="0" IVar="-1" Cut="0" cType="1" res="0.00189928" purity="0.612855" nType="-99"/>
            </Node>
          </Node>
        </Node>
        <Node pos="r" depth="1" NCoef="0" IVar="5" Cut="1.64915" cType="1" res="0.0370193" purity="0.580322" nType="0">
          <Node pos="l" depth="2" NCoef="0" IVar="1" Cut="110374" cType="1" res="0.0519016" purity="0.599346" nType="0">
            <Node pos="l" depth="3" NCoef="0" IVar="4" Cut="226652" cType="1" res="0.0257589" purity="0.542796" nType="0">
              <Node pos="l" depth="4" NCoef="0" IVar="-1" Cut="0" cType="1" res="0.00229456" purity="0.594638" nType="-99"/>
              <Node pos="r" depth="4" NCoef="0" IVar="-1" Cut="0" cType="1" res="-0.00160539" purity="0.450639" nType="-99"/>
            </Node>
            <Node pos="r" depth="3" NCoef="0" IVar="6" Cut="2.14941" cType="1" res="0.0907564" purity="0.683394" nType="0">
              <Node pos="l" depth="4" NCoef="0" IVar="-1" Cut="0" cType="1" res="0.00304242" purity="0.704306" nType="-99"/>
              <Node pos="r" depth="4" NCoef="0" IVar="-1" Cut="0" cType="1" res="0.00401182" purity="0.660194" nType="-99"/>
            </Node>
          </Node>
          <Node pos="r" depth="2" NCoef="0" IVar="-1" Cut="0" cType="1" res="-0.00130029" purity="0.497828" nType="-99"/>
        </Node>
      </Node>
    </BinaryTree>
    <BinaryTree type="DecisionTree" boostWeight="1.0" itree="126">
      <Node pos="s" depth="0" NCoef="0" IVar="2" Cut="17799.2" cType="1" res="0.00694247" purity="0.500439" nType="0">
        <Node pos="l" depth="1" NCoef="0" IVar="6" Cut="0.229884" cType="1" res="-0.00390731" purity="0.463654" nType="0">
          <Node pos="l" depth="2" NCoef="0" IVar="-1" Cut="0" cType="1" res="0.0031061" purity="0.55769" nType="-99"/>
          <Node pos="r" depth="2" NCoef="0" IVar="0" Cut="202435" cType="1" res="-0.00922436" purity="0.457505" nType="0">
            <Node pos="l" depth="3" NCoef="0" IVar="1" Cut="105363" cType="1" res="-0.017334" purity="0.439907" nType="0">
              <Node pos="l" depth="4" NCoef="0" IVar="-1" Cut="0" cType="1" res="-0.0025927" purity="0.393631" nType="-99"/>
              <Node pos="r" depth="4" NCoef="0" IVar="-1" Cut="0" cType="1" res="7.39393e-05" purity="0.469987" nType="-99"/>
            </Node>
            <Node pos="r" depth="3" NCoef="0" IVar="4" Cut="246376" cType="1" res="0.0456547" purity="0.57659" nType="0">
              <Node pos="l" depth="4" NCoef="0" IVar="-1" Cut="0" cType="1" res="0.00333364" purity="0.638232" nType="-99"/>
              <Node pos="r" depth="4" NCoef="0" IVar="-1" Cut="0" cType="1" res="-0.000601077" purity="0.499683" nType="-99"/>
            </Node>
          </Node>
        </Node>
        <Node pos="r" depth="1" NCoef="0" IVar="1" Cut="110453" cType="1" res="0.0585125" purity="0.675277" nType="0">
          <Node pos="l" depth="2" NCoef="0" IVar="-1" Cut="0" cType="1" res="0.00111657" purity="0.64036" nType="-99"/>
          <Node pos="r" depth="2" NCoef="0" IVar="-1" Cut="0" cType="1" res="0.00285722" purity="0.695099" nType="-99"/>
        </Node>
      </Node>
    </BinaryTree>
    <BinaryTree type="DecisionTree" boostWeight="1.0" itree="127">
      <Node pos="s" depth="0" NCoef="0" IVar="4" Cut="363432" cType="1" res="0.0086431" purity="0.499892" nType="0">
        <Node pos="l" depth="1" NCoef="0" IVar="2" Cut="7730.73" cType="1" res="0.00219518" purity="0.50173" nType="0">
          <Node pos="l" depth="2" NCoef="0" IVar="1" Cut="141161" cType="1" res="-0.0114193" purity="0.433649" nType="0">
            <Node pos="l" depth="3" NCoef="0" IVar="4" Cut="209217" cType="1" res="-0.024363" purity="0.420251" nType="0">
              <Node pos="l" depth="4" NCoef="0" IVar="-1" Cut="0" cType="1" res="0.000420914" purity="0.470442" nType="-99"/>
              <Node pos="r" depth="4" NCoef="0" IVar="-1" Cut="0" cType="1" res="-0.00358115" purity="0.365344" nType="-99"/>
            </Node>
            <Node pos="r" depth="3" NCoef="0" IVar="-1" Cut="0" cType="1" res="0.0024381" purity="0.501666" nType="-99"/>
          </Node>
          <Node pos="r" depth="2" NCoef="0" IVar="1" Cut="150904" cType="1" res="0.0220264" purity="0.600897" nType="0">
            <Node pos="l" depth="3" NCoef="0" IVar="6" Cut="1.89463" cType="1" res="0.0371183" purity="0.617845" nType="0">
              <Node pos="l" depth="4" NCoef="0" IVar="-1" Cut="0" cType="1" res="0.00211186" purity="0.627842" nType="-99"/>
              <Node pos="r" depth="4" NCoef="0" IVar="-1" Cut="0" cType="1" res="-0.000840655" purity="0.581273" nType="-99"/>
            </Node>
            <Node pos="r" depth="3" NCoef="0" IVar="-1" Cut="0" cType="1" res="-0.0032455" purity="0.502675" nType="-99"/>
          </Node>
        </Node>
        <Node pos="r" depth="1" NCoef="0" IVar="2" Cut="965.07" cType="1" res="0.04808" purity="0.488651" nType="0">
          <Node pos="l" depth="2" NCoef="0" IVar="-1" Cut="0" cType="1" res="0.000347512" purity="0.39202" nType="-99"/>
          <Node pos="r" depth="2" NCoef="0" IVar="-1" Cut="0" cType="1" res="0.0032532" purity="0.562792" nType="-99"/>
        </Node>
      </Node>
    </BinaryTree>
    <BinaryTree type="DecisionTree" boostWeight="1.0" itree="128">
      <Node pos="s" depth="0" NCoef="0" IVar="0" Cut="104878" cType="1" res="0.0090795" purity="0.500658" nType="0">
        <Node pos="l" depth="1" NCoef="0" IVar="-1" Cut="0" cType="1" res="-0.00544391" purity="0.341706" nType="-99"/>
        <Node pos="r" depth="1" NCoef="0" IVar="2" Cut="31665.6" cType="1" res="0.0169282" purity="0.514465" nType="0">
          <Node pos="l" depth="2" NCoef="0" IVar="2" Cut="7196.82" cType="1" res="0.0131211" purity="0.501575" nType="0">
            <Node pos="l" depth="3" NCoef="0" IVar="2" Cut="-3161.52" cType="1" res="0.00273837" purity="0.444688" nType="0">
              <Node pos="l" depth="4" NCoef="0" IVar="-1" Cut="0" cType="1" res="0.0014087" purity="0.442676" nType="-99"/>
              <Node pos="r" depth="4" NCoef="0" IVar="-1" Cut="0" cType="1" res="-0.000952993" purity="0.446443" nType="-99"/>
            </Node>
            <Node pos="r" depth="3" NCoef="0" IVar="2" Cut="10777.7" cType="1" res="0.029433" purity="0.590949" nType="0">
              <Node pos="l" depth="4" NCoef="0" IVar="-1" Cut="0" cType="1" res="0.00291899" purity="0.581137" nType="-99"/>
              <Node pos="r" depth="4" NCoef="0" IVar="-1" Cut="0" cType="1" res="0.000381373" purity="0.595583" nType="-99"/>
            </Node>
          </Node>
          <Node pos="r" depth="2" NCoef="0" IVar="-1" Cut="0" cType="1" res="0.00293678" purity="0.716927" nType="-99"/>
        </Node>
      </Node>
    </BinaryTree>
    <BinaryTree type="DecisionTree" boostWeight="1.0" itree="129">
      <Node pos="s" depth="0" NCoef="0" IVar="1" Cut="151436" cType="1" res="0.00824064" purity="0.499893" nType="0">
        <Node pos="l" depth="1" NCoef="0" IVar="4" Cut="334199" cType="1" res="0.0158064" purity="0.507628" nType="0">
          <Node pos="l" depth="2" NCoef="0" IVar="0" Cut="163398" cType="1" res="0.0229186" purity="0.523535" nType="0">
            <Node pos="l" depth="3" NCoef="0" IVar="0" Cut="147920" cType="1" res="0.0124362" purity="0.497025" nType="0">
              <Node pos="l" depth="4" NCoef="0" IVar="-1" Cut="0" cType="1" res="0.000993381" purity="0.500881" nType="-99"/>
              <Node pos="r" depth="4" NCoef="0" IVar="-1" Cut="0" cType="1" res="-0.00307272" purity="0.465756" nType="-99"/>
            </Node>
            <Node pos="r" depth="3" NCoef="0" IVar="3" Cut="155884" cType="1" res="0.053422" purity="0.600678" nType="0">
              <Node pos="l" depth="4" NCoef="0" IVar="-1" Cut="0" cType="1" res="0.00042864" purity="0.563772" nType="-99"/>
              <Node pos="r" depth="4" NCoef="0" IVar="-1" Cut="0" cType="1" res="0.00271569" purity="0.614929" nType="-99"/>
            </Node>
          </Node>
          <Node pos="r" depth="2" NCoef="0" IVar="1" Cut="104983" cType="1" res="-0.0299011" purity="0.4054" nType="0">
            <Node pos="l" depth="3" NCoef="0" IVar="-1" Cut="0" cType="1" res="-0.00532083" purity="0.33111" nType="-99"/>
            <Node pos="r" depth="3" NCoef="0" IVar="-1" Cut="0" cType="1" res="0.000516396" purity="0.463062" nType="-99"/>
          </Node>
        </Node>
        <Node pos="r" depth="1" NCoef="0" IVar="5" Cut="1.9547" cType="1" res="-0.034549" purity="0.45615" nType="0">
          <Node pos="l" depth="2" NCoef="0" IVar="-1" Cut="0" cType="1" res="0.00131137" purity="0.566088" nType="-99"/>
          <Node pos="r" depth="2" NCoef="0" IVar="2" Cut="4806.38" cType="1" res="-0.069168" purity="0.397298" nType="0">
            <Node pos="l" depth="3" NCoef="0" IVar="-1" Cut="0" cType="1" res="-0.00164263" purity="0.388576" nType="-99"/>
            <Node pos="r" depth="3" NCoef="0" IVar="-1" Cut="0" cType="1" res="-0.00596052" purity="0.406479" nType="-99"/>
          </Node>
        </Node>
      </Node>
    </BinaryTree>
    <BinaryTree type="DecisionTree" boostWeight="1.0" itree="130">
      <Node pos="s" depth="0" NCoef="0" IVar="4" Cut="421969" cType="1" res="0.0231929" purity="0.512779" nType="0">
        <Node pos="l" depth="1" NCoef="0" IVar="4" Cut="155090" cType="1" res="0.0271697" purity="0.519544" nType="0">
          <Node pos="l" depth="2" NCoef="0" IVar="-1" Cut="0" cType="1" res="-0.00129054" purity="0.511498" nType="-99"/>
          <Node pos="r" depth="2" NCoef="0" IVar="3" Cut="124556" cType="1" res="0.0325149" purity="0.520324" nType="0">
            <Node pos="l" depth="3" NCoef="0" IVar="4" Cut="246341" cType="1" res="0.0800997" purity="0.566988" nType="0">
              <Node pos="l" depth="4" NCoef="0" IVar="-1" Cut="0" cType="1" res="0.00125563" purity="0.544052" nType="-99"/>
              <Node pos="r" depth="4" NCoef="0" IVar="-1" Cut="0" cType="1" res="0.00522418" purity="0.590034" nType="-99"/>
            </Node>
            <Node pos="r" depth="3" NCoef="0" IVar="3" Cut="180121" cType="1" res="0.0263707" purity="0.514298" nType="0">
              <Node pos="l" depth="4" NCoef="0" IVar="-1" Cut="0" cType="1" res="0.000540252" purity="0.505996" nType="-99"/>
              <Node pos="r" depth="4" NCoef="0" IVar="-1" Cut="0" cType="1" res="0.00221404" purity="0.52778" nType="-99"/>
            </Node>
          </Node>
        </Node>
        <Node pos="r" depth="1" NCoef="0" IVar="-1" Cut="0" cType="1" res="-0.00264122" purity="0.391707" nType="-99"/>
      </Node>
    </BinaryTree>
    <BinaryTree type="DecisionTree" boostWeight="1.0" itree="131">
      <Node pos="s" depth="0" NCoef="0" IVar="0" Cut="182922" cType="1" res="0.0129386" purity="0.504686" nType="0">
        <Node pos="l" depth="1" NCoef="0" IVar="5" Cut="1.08506" cType="1" res="0.00593958" purity="0.484755" nType="0">
          <Node pos="l" depth="2" NCoef="0" IVar="6" Cut="1.83898" cType="1" res="-0.0262588" purity="0.469458" nType="0">
            <Node pos="l" depth="3" NCoef="0" IVar="3" Cut="162012" cType="1" res="0.0019496" purity="0.517479" nType="0">
              <Node pos="l" depth="4" NCoef="0" IVar="-1" Cut="0" cType="1" res="-0.00148588" purity="0.492336" nType="-99"/>
              <Node pos="r" depth="4" NCoef="0" IVar="-1" Cut="0" cType="1" res="0.00111734" purity="0.53531" nType="-99"/>
            </Node>
            <Node pos="r" depth="3" NCoef="0" IVar="0" Cut="140428" cType="1" res="-0.0563838" purity="0.418175" nType="0">
              <Node pos="l" depth="4" NCoef="0" IVar="-1" Cut="0" cType="1" res="-0.00462974" purity="0.37511" nType="-99"/>
              <Node pos="r" depth="4" NCoef="0" IVar="-1" Cut="0" cType="1" res="-0.00183096" purity="0.457419" nType="-99"/>
            </Node>
          </Node>
          <Node pos="r" depth="2" NCoef="0" IVar="1" Cut="105344" cType="1" res="0.015913" purity="0.489493" nType="0">
            <Node pos="l" depth="3" NCoef="0" IVar="4" Cut="236421" cType="1" res="0.0428835" purity="0.490285" nType="0">
              <Node pos="l" depth="4" NCoef="0" IVar="-1" Cut="0" cType="1" res="0.00271404" purity="0.527082" nType="-99"/>
              <Node pos="r" depth="4" NCoef="0" IVar="-1" Cut="0" cType="1" res="6.16953e-05" purity="0.396887" nType="-99"/>
            </Node>
            <Node pos="r" depth="3" NCoef="0" IVar="0" Cut="136404" cType="1" res="0.00261543" purity="0.489103" nType="0">
              <Node pos="l" depth="4" NCoef="0" IVar="-1" Cut="0" cType="1" res="-0.000709674" purity="0.454935" nType="-99"/>
              <Node pos="r" depth="4" NCoef="0" IVar="-1" Cut="0" cType="1" res="0.00149234" purity="0.556096" nType="-99"/>
            </Node>
          </Node>
        </Node>
        <Node pos="r" depth="1" NCoef="0" IVar="1" Cut="110465" cType="1" res="0.0435783" purity="0.59194" nType="0">
          <Node pos="l" depth="2" NCoef="0" IVar="3" Cut="167304" cType="1" res="0.00983447" purity="0.529076" nType="0">
            <Node pos="l" depth="3" NCoef="0" IVar="-1" Cut="0" cType="1" res="0.00259616" purity="0.583781" nType="-99"/>
            <Node pos="r" depth="3" NCoef="0" IVar="-1" Cut="0" cType="1" res="-0.00200777" purity="0.473971" nType="-99"/>
          </Node>
          <Node pos="r" depth="2" NCoef="0" IVar="6" Cut="1.68553" cType="1" res="0.0727765" purity="0.646336" nType="0">
            <Node pos="l" depth="3" NCoef="0" IVar="-1" Cut="0" cType="1" res="0.0018365" purity="0.615944" nType="-99"/>
            <Node pos="r" depth="3" NCoef="0" IVar="-1" Cut="0" cType="1" res="0.00359988" purity="0.668338" nType="-99"/>
          </Node>
        </Node>
      </Node>
    </BinaryTree>
    <BinaryTree type="DecisionTree" boostWeight="1.0" itree="132">
      <Node pos="s" depth="0" NCoef="0" IVar="2" Cut="31665.6" cType="1" res="0.014202" purity="0.505853" nType="0">
        <Node pos="l" depth="1" NCoef="0" IVar="5" Cut="1.16895" cType="1" res="0.0110627" purity="0.493798" nType="0">
          <Node pos="l" depth="2" NCoef="0" IVar="0" Cut="202410" cType="1" res="-0.00488829" purity="0.491719" nType="0">
            <Node pos="l" depth="3" NCoef="0" IVar="4" Cut="187786" cType="1" res="-0.0167621" purity="0.464655" nType="0">
              <Node pos="l" depth="4" NCoef="0" IVar="-1" Cut="0" cType="1" res="-0.00237722" purity="0.470818" nType="-99"/>
              <Node pos="r" depth="4" NCoef="0" IVar="-1" Cut="0" cType="1" res="3.52912e-05" purity="0.461392" nType="-99"/>
            </Node>
            <Node pos="r" depth="3" NCoef="0" IVar="-1" Cut="0" cType="1" res="0.00140033" purity="0.580512" nType="-99"/>
          </Node>
          <Node pos="r" depth="2" NCoef="0" IVar="4" Cut="275761" cType="1" res="0.0193532" purity="0.494879" nType="0">
            <Node pos="l" depth="3" NCoef="0" IVar="3" Cut="160076" cType="1" res="0.0304621" purity="0.525073" nType="0">
              <Node pos="l" depth="4" NCoef="0" IVar="-1" Cut="0" cType="1" res="0.002209" purity="0.551704" nType="-99"/>
              <Node pos="r" depth="4" NCoef="0" IVar="-1" Cut="0" cType="1" res="0.000815341" purity="0.507988" nType="-99"/>
            </Node>
            <Node pos="r" depth="3" NCoef="0" IVar="5" Cut="2.13117" cType="1" res="-0.00335605" purity="0.433155" nType="0">
              <Node pos="l" depth="4" NCoef="0" IVar="-1" Cut="0" cType="1" res="-0.00167051" purity="0.412479" nType="-99"/>
              <Node pos="r" depth="4" NCoef="0" IVar="-1" Cut="0" cType="1" res="0.0012728" purity="0.456667" nType="-99"/>
            </Node>
          </Node>
        </Node>
        <Node pos="r" depth="1" NCoef="0" IVar="-1" Cut="0" cType="1" res="0.00259857" purity="0.710633" nType="-99"/>
      </Node>
    </BinaryTree>
    <BinaryTree type="DecisionTree" boostWeight="1.0" itree="133">
      <Node pos="s" depth="0" NCoef="0" IVar="1" Cut="207758" cType="1" res="0.0148054" purity="0.506492" nType="0">
        <Node pos="l" depth="1" NCoef="0" IVar="2" Cut="-9302.55" cType="1" res="0.018462" purity="0.510618" nType="0">
          <Node pos="l" depth="2" NCoef="0" IVar="0" Cut="133967" cType="1" res="0.0486858" purity="0.449017" nType="0">
            <Node pos="l" depth="3" NCoef="0" IVar="-1" Cut="0" cType="1" res="0.000245606" purity="0.381099" nType="-99"/>
            <Node pos="r" depth="3" NCoef="0" IVar="-1" Cut="0" cType="1" res="0.0046908" purity="0.538515" nType="-99"/>
          </Node>
          <Node pos="r" depth="2" NCoef="0" IVar="2" Cut="6658.95" cType="1" res="0.0133579" purity="0.521021" nType="0">
            <Node pos="l" depth="3" NCoef="0" IVar="4" Cut="265888" cType="1" res="-0.00627834" purity="0.443697" nType="0">
              <Node pos="l" depth="4" NCoef="0" IVar="-1" Cut="0" cType="1" res="0.000392866" purity="0.47391" nType="-99"/>
              <Node pos="r" depth="4" NCoef="0" IVar="-1" Cut="0" cType="1" res="-0.00225226" purity="0.376393" nType="-99"/>
            </Node>
            <Node pos="r" depth="3" NCoef="0" IVar="5" Cut="0.699816" cType="1" res="0.0330173" purity="0.598436" nType="0">
              <Node pos="l" depth="4" NCoef="0" IVar="-1" Cut="0" cType="1" res="-0.00094208" purity="0.587734" nType="-99"/>
              <Node pos="r" depth="4" NCoef="0" IVar="-1" Cut="0" cType="1" res="0.00163591" purity="0.599764" nType="-99"/>
            </Node>
          </Node>
        </Node>
        <Node pos="r" depth="1" NCoef="0" IVar="-1" Cut="0" cType="1" res="-0.0040142" purity="0.406556" nType="-99"/>
      </Node>
    </BinaryTree>
    <BinaryTree type="DecisionTree" boostWeight="1.0" itree="134">
      <Node pos="s" depth="0" NCoef="0" IVar="2" Cut="-12692.2" cType="1" res="0.0060089" purity="0.495448" nType="0">
        <Node pos="l" depth="1" NCoef="0" IVar="0" Cut="129189" cType="1" res="0.0535308" purity="0.445547" nType="0">
          <Node pos="l" depth="2" NCoef="0" IVar="-1" Cut="0" cType="1" res="0.0041838" purity="0.44765" nType="-99"/>
          <Node pos="r" depth="2" NCoef="0" IVar="-1" Cut="0" cType="1" res="0.000609488" purity="0.442294" nType="-99"/>
        </Node>
        <Node pos="r" depth="1" NCoef="0" IVar="2" Cut="-4451.78" cType="1" res="0.000436272" purity="0.501299" nType="0">
          <Node pos="l" depth="2" NCoef="0" IVar="1" Cut="105367" cType="1" res="-0.0407291" purity="0.370898" nType="0">
            <Node pos="l" depth="3" NCoef="0" IVar="-1" Cut="0" cType="1" res="-1.62358e-05" purity="0.392684" nType="-99"/>
            <Node pos="r" depth="3" NCoef="0" IVar="-1" Cut="0" cType="1" res="-0.00445221" purity="0.353326" nType="-99"/>
          </Node>
          <Node pos="r" depth="2" NCoef="0" IVar="6" Cut="2.37511" cType="1" res="0.00713562" purity="0.522521" nType="0">
            <Node pos="l" depth="3" NCoef="0" IVar="2" Cut="23549.8" cType="1" res="-0.00100926" purity="0.523809" nType="0">
              <Node pos="l" depth="4" NCoef="0" IVar="-1" Cut="0" cType="1" res="-0.000390598" purity="0.497537" nType="-99"/>
              <Node pos="r" depth="4" NCoef="0" IVar="-1" Cut="0" cType="1" res="0.0015401" purity="0.66681" nType="-99"/>
            </Node>
            <Node pos="r" depth="3" NCoef="0" IVar="1" Cut="100024" cType="1" res="0.0428126" purity="0.516878" nType="0">
              <Node pos="l" depth="4" NCoef="0" IVar="-1" Cut="0" cType="1" res="0.00345001" purity="0.543094" nType="-99"/>
              <Node pos="r" depth="4" NCoef="0" IVar="-1" Cut="0" cType="1" res="0.000298749" purity="0.493938" nType="-99"/>
            </Node>
          </Node>
        </Node>
      </Node>
    </BinaryTree>
    <BinaryTree type="DecisionTree" boostWeight="1.0" itree="135">
      <Node pos="s" depth="0" NCoef="0" IVar="6" Cut="0.919526" cType="1" res="0.00137662" purity="0.492437" nType="0">
        <Node pos="l" depth="1" NCoef="0" IVar="1" Cut="110467" cType="1" res="0.0281788" purity="0.525626" nType="0">
          <Node pos="l" depth="2" NCoef="0" IVar="1" Cut="96992" cType="1" res="0.0762796" purity="0.553846" nType="0">
            <Node pos="l" depth="3" NCoef="0" IVar="-1" Cut="0" cType="1" res="0.000484291" purity="0.472516" nType="-99"/>
            <Node pos="r" depth="3" NCoef="0" IVar="-1" Cut="0" cType="1" res="0.00462435" purity="0.604221" nType="-99"/>
          </Node>
          <Node pos="r" depth="2" NCoef="0" IVar="5" Cut="2.14848" cType="1" res="-0.0131935" purity="0.501354" nType="0">
            <Node pos="l" depth="3" NCoef="0" IVar="-1" Cut="0" cType="1" res="-0.00324693" purity="0.458027" nType="-99"/>
            <Node pos="r" depth="3" NCoef="0" IVar="-1" Cut="0" cType="1" res="0.00149274" purity="0.540042" nType="-99"/>
          </Node>
        </Node>
        <Node pos="r" depth="1" NCoef="0" IVar="0" Cut="182922" cType="1" res="-0.00690043" purity="0.482188" nType="0">
          <Node pos="l" depth="2" NCoef="0" IVar="4" Cut="168968" cType="1" res="-0.0172599" purity="0.455517" nType="0">
            <Node pos="l" depth="3" NCoef="0" IVar="-1" Cut="0" cType="1" res="0.00134954" purity="0.55206" nType="-99"/>
            <Node pos="r" depth="3" NCoef="0" IVar="5" Cut="2.29945" cType="1" res="-0.0278215" purity="0.434182" nType="0">
              <Node pos="l" depth="4" NCoef="0" IVar="-1" Cut="0" cType="1" res="-0.000973416" purity="0.448933" nType="-99"/>
              <Node pos="r" depth="4" NCoef="0" IVar="-1" Cut="0" cType="1" res="-0.00461902" purity="0.355815" nType="-99"/>
            </Node>
          </Node>
          <Node pos="r" depth="2" NCoef="0" IVar="2" Cut="689.103" cType="1" res="0.0331889" purity="0.5854" nType="0">
            <Node pos="l" depth="3" NCoef="0" IVar="-1" Cut="0" cType="1" res="0.00269474" purity="0.552" nType="-99"/>
            <Node pos="r" depth="3" NCoef="0" IVar="3" Cut="171949" cType="1" res="0.0155844" purity="0.604116" nType="0">
              <Node pos="l" depth="4" NCoef="0" IVar="-1" Cut="0" cType="1" res="-0.000533181" purity="0.587665" nType="-99"/>
              <Node pos="r" depth="4" NCoef="0" IVar="-1" Cut="0" cType="1" res="0.00184509" purity="0.621643" nType="-99"/>
            </Node>
          </Node>
        </Node>
      </Node>
    </BinaryTree>
    <BinaryTree type="DecisionTree" boostWeight="1.0" itree="136">
      <Node pos="s" depth="0" NCoef="0" IVar="0" Cut="231664" cType="1" res="0.00083963" purity="0.492799" nType="0">
        <Node pos="l" depth="1" NCoef="0" IVar="6" Cut="2.68166" cType="1" res="-0.00315339" purity="0.483928" nType="0">
          <Node pos="l" depth="2" NCoef="0" IVar="3" Cut="217931" cType="1" res="0.00412365" purity="0.505734" nType="0">
            <Node pos="l" depth="3" NCoef="0" IVar="5" Cut="2.68409" cType="1" res="0.000605575" purity="0.504578" nType="0">
              <Node pos="l" depth="4" NCoef="0" IVar="-1" Cut="0" cType="1" res="0.000315315" purity="0.514604" nType="-99"/>
              <Node pos="r" depth="4" NCoef="0" IVar="-1" Cut="0" cType="1" res="-0.00406058" purity="0.390096" nType="-99"/>
            </Node>
            <Node pos="r" depth="3" NCoef="0" IVar="-1" Cut="0" cType="1" res="0.00216703" purity="0.521214" nType="-99"/>
          </Node>
          <Node pos="r" depth="2" NCoef="0" IVar="5" Cut="1.59452" cType="1" res="-0.0412971" purity="0.369628" nType="0">
            <Node pos="l" depth="3" NCoef="0" IVar="1" Cut="101437" cType="1" res="-0.0750776" purity="0.343844" nType="0">
              <Node pos="l" depth="4" NCoef="0" IVar="-1" Cut="0" cType="1" res="-0.00231973" purity="0.36732" nType="-99"/>
              <Node pos="r" depth="4" NCoef="0" IVar="-1" Cut="0" cType="1" res="-0.00711243" purity="0.321231" nType="-99"/>
            </Node>
            <Node pos="r" depth="3" NCoef="0" IVar="-1" Cut="0" cType="1" res="0.00121421" purity="0.417838" nType="-99"/>
          </Node>
        </Node>
        <Node pos="r" depth="1" NCoef="0" IVar="-1" Cut="0" cType="1" res="0.00218177" purity="0.611558" nType="-99"/>
      </Node>
    </BinaryTree>
    <BinaryTree type="DecisionTree" boostWeight="1.0" itree="137">
      <Node pos="s" depth="0" NCoef="0" IVar="0" Cut="114633" cType="1" res="0.00617017" purity="0.497097" nType="0">
        <Node pos="l" depth="1" NCoef="0" IVar="3" Cut="148510" cType="1" res="-0.0311827" purity="0.408117" nType="0">
          <Node pos="l" depth="2" NCoef="0" IVar="-1" Cut="0" cType="1" res="-0.00588927" purity="0.349918" nType="-99"/>
          <Node pos="r" depth="2" NCoef="0" IVar="6" Cut="0.99591" cType="1" res="-0.0127577" purity="0.425536" nType="0">
            <Node pos="l" depth="3" NCoef="0" IVar="-1" Cut="0" cType="1" res="0.00154261" purity="0.505856" nType="-99"/>
            <Node pos="r" depth="3" NCoef="0" IVar="0" Cut="106781" cType="1" res="-0.0319532" purity="0.39262" nType="0">
              <Node pos="l" depth="4" NCoef="0" IVar="-1" Cut="0" cType="1" res="-0.00426238" purity="0.342106" nType="-99"/>
              <Node pos="r" depth="4" NCoef="0" IVar="-1" Cut="0" cType="1" res="-0.000143014" purity="0.432939" nType="-99"/>
            </Node>
          </Node>
        </Node>
        <Node pos="r" depth="1" NCoef="0" IVar="5" Cut="2.52943" cType="1" res="0.0186654" purity="0.526862" nType="0">
          <Node pos="l" depth="2" NCoef="0" IVar="6" Cut="2.7584" cType="1" res="0.0241841" purity="0.536004" nType="0">
            <Node pos="l" depth="3" NCoef="0" IVar="6" Cut="2.42196" cType="1" res="0.0306297" purity="0.555594" nType="0">
              <Node pos="l" depth="4" NCoef="0" IVar="-1" Cut="0" cType="1" res="0.00100098" purity="0.558075" nType="-99"/>
              <Node pos="r" depth="4" NCoef="0" IVar="-1" Cut="0" cType="1" res="0.00266719" purity="0.54501" nType="-99"/>
            </Node>
            <Node pos="r" depth="3" NCoef="0" IVar="1" Cut="100199" cType="1" res="-0.0142814" purity="0.419098" nType="0">
              <Node pos="l" depth="4" NCoef="0" IVar="-1" Cut="0" cType="1" res="0.00148034" purity="0.446714" nType="-99"/>
              <Node pos="r" depth="4" NCoef="0" IVar="-1" Cut="0" cType="1" res="-0.00248229" purity="0.399814" nType="-99"/>
            </Node>
          </Node>
          <Node pos="r" depth="2" NCoef="0" IVar="-1" Cut="0" cType="1" res="-0.00200786" purity="0.431897" nType="-99"/>
        </Node>
      </Node>
    </BinaryTree>
    <BinaryTree type="DecisionTree" boostWeight="1.0" itree="138">
      <Node pos="s" depth="0" NCoef="0" IVar="0" Cut="226740" cType="1" res="0.00784948" purity="0.500094" nType="0">
        <Node pos="l" depth="1" NCoef="0" IVar="5" Cut="0.997964" cType="1" res="0.00260874" purity="0.488782" nType="0">
          <Node pos="l" depth="2" NCoef="0" IVar="4" Cut="187867" cType="1" res="-0.0219075" purity="0.491839" nType="0">
            <Node pos="l" depth="3" NCoef="0" IVar="-1" Cut="0" cType="1" res="-0.00353019" purity="0.481071" nType="-99"/>
            <Node pos="r" depth="3" NCoef="0" IVar="0" Cut="171089" cType="1" res="0.00484824" purity="0.497838" nType="0">
              <Node pos="l" depth="4" NCoef="0" IVar="-1" Cut="0" cType="1" res="-0.000906549" purity="0.453056" nType="-99"/>
              <Node pos="r" depth="4" NCoef="0" IVar="-1" Cut="0" cType="1" res="0.0019986" purity="0.581464" nType="-99"/>
            </Node>
          </Node>
          <Node pos="r" depth="2" NCoef="0" IVar="4" Cut="169021" cType="1" res="0.00944894" purity="0.487929" nType="0">
            <Node pos="l" depth="3" NCoef="0" IVar="-1" Cut="0" cType="1" res="0.00247748" purity="0.584084" nType="-99"/>
            <Node pos="r" depth="3" NCoef="0" IVar="2" Cut="-17714.7" cType="1" res="0.000291194" purity="0.470002" nType="0">
              <Node pos="l" depth="4" NCoef="0" IVar="-1" Cut="0" cType="1" res="0.00255534" purity="0.441231" nType="-99"/>
              <Node pos="r" depth="4" NCoef="0" IVar="-1" Cut="0" cType="1" res="-0.000201906" purity="0.472562" nType="-99"/>
            </Node>
          </Node>
        </Node>
        <Node pos="r" depth="1" NCoef="0" IVar="-1" Cut="0" cType="1" res="0.00269285" purity="0.632502" nType="-99"/>
      </Node>
    </BinaryTree>
    <BinaryTree type="DecisionTree" boostWeight="1.0" itree="139">
      <Node pos="s" depth="0" NCoef="0" IVar="1" Cut="125816" cType="1" res="0.00918727" purity="0.500862" nType="0">
        <Node pos="l" depth="1" NCoef="0" IVar="0" Cut="231670" cType="1" res="-0.00202157" purity="0.483819" nType="0">
          <Node pos="l" depth="2" NCoef="0" IVar="3" Cut="136189" cType="1" res="-0.00843916" purity="0.472409" nType="0">
            <Node pos="l" depth="3" NCoef="0" IVar="6" Cut="1.68487" cType="1" res="-0.0594738" purity="0.418089" nType="0">
              <Node pos="l" depth="4" NCoef="0" IVar="-1" Cut="0" cType="1" res="-0.00361551" purity="0.428971" nType="-99"/>
              <Node pos="r" depth="4" NCoef="0" IVar="-1" Cut="0" cType="1" res="-0.0030019" purity="0.407086" nType="-99"/>
            </Node>
            <Node pos="r" depth="3" NCoef="0" IVar="3" Cut="192011" cType="1" res="-0.000218083" purity="0.48116" nType="0">
              <Node pos="l" depth="4" NCoef="0" IVar="-1" Cut="0" cType="1" res="0.000558191" purity="0.496" nType="-99"/>
              <Node pos="r" depth="4" NCoef="0" IVar="-1" Cut="0" cType="1" res="-0.00245222" purity="0.425489" nType="-99"/>
            </Node>
          </Node>
          <Node pos="r" depth="2" NCoef="0" IVar="-1" Cut="0" cType="1" res="0.00305222" purity="0.636937" nType="-99"/>
        </Node>
        <Node pos="r" depth="1" NCoef="0" IVar="6" Cut="1.37917" cType="1" res="0.0325068" purity="0.536317" nType="0">
          <Node pos="l" depth="2" NCoef="0" IVar="6" Cut="0.571654" cType="1" res="-0.0061992" purity="0.517112" nType="0">
            <Node pos="l" depth="3" NCoef="0" IVar="-1" Cut="0" cType="1" res="0.00168955" purity="0.554015" nType="-99"/>
            <Node pos="r" depth="3" NCoef="0" IVar="-1" Cut="0" cType="1" res="-0.00219975" purity="0.486984" nType="-99"/>
          </Node>
          <Node pos="r" depth="2" NCoef="0" IVar="5" Cut="1.62908" cType="1" res="0.0583632" purity="0.549147" nType="0">
            <Node pos="l" depth="3" NCoef="0" IVar="-1" Cut="0" cType="1" res="0.00350337" purity="0.640347" nType="-99"/>
            <Node pos="r" depth="3" NCoef="0" IVar="4" Cut="310986" cType="1" res="0.0358244" purity="0.487095" nType="0">
              <Node pos="l" depth="4" NCoef="0" IVar="-1" Cut="0" cType="1" res="-0.000296228" purity="0.473511" nType="-99"/>
              <Node pos="r" depth="4" NCoef="0" IVar="-1" Cut="0" cType="1" res="0.00362115" purity="0.501301" nType="-99"/>
            </Node>
          </Node>
        </Node>
      </Node>
    </BinaryTree>
    <BinaryTree type="DecisionTree" boostWeight="1.0" itree="140">
      <Node pos="s" depth="0" NCoef="0" IVar="6" Cut="2.75845" cType="1" res="0.00826379" purity="0.500966" nType="0">
        <Node pos="l" depth="1" NCoef="0" IVar="5" Cut="2.60635" cType="1" res="0.0138996" purity="0.519067" nType="0">
          <Node pos="l" depth="2" NCoef="0" IVar="1" Cut="105348" cType="1" res="0.0188289" purity="0.528792" nType="0">
            <Node pos="l" depth="3" NCoef="0" IVar="6" Cut="0.80736" cType="1" res="-0.00219718" purity="0.481255" nType="0">
              <Node pos="l" depth="4" NCoef="0" IVar="-1" Cut="0" cType="1" res="0.00151484" purity="0.506095" nType="-99"/>
              <Node pos="r" depth="4" NCoef="0" IVar="-1" Cut="0" cType="1" res="-0.000602832" purity="0.474339" nType="-99"/>
            </Node>
            <Node pos="r" depth="3" NCoef="0" IVar="5" Cut="0.947432" cType="1" res="0.0340423" purity="0.563188" nType="0">
              <Node pos="l" depth="4" NCoef="0" IVar="-1" Cut="0" cType="1" res="0.0029804" purity="0.665269" nType="-99"/>
              <Node pos="r" depth="4" NCoef="0" IVar="-1" Cut="0" cType="1" res="0.00112593" purity="0.543493" nType="-99"/>
            </Node>
          </Node>
          <Node pos="r" depth="2" NCoef="0" IVar="-1" Cut="0" cType="1" res="-0.00172254" purity="0.427517" nType="-99"/>
        </Node>
        <Node pos="r" depth="1" NCoef="0" IVar="1" Cut="105176" cType="1" res="-0.0277207" purity="0.385392" nType="0">
          <Node pos="l" depth="2" NCoef="0" IVar="-1" Cut="0" cType="1" res="0.00120155" purity="0.429643" nType="-99"/>
          <Node pos="r" depth="2" NCoef="0" IVar="-1" Cut="0" cType="1" res="-0.0052432" purity="0.340363" nType="-99"/>
        </Node>
      </Node>
    </BinaryTree>
    <BinaryTree type="DecisionTree" boostWeight="1.0" itree="141">
      <Node pos="s" depth="0" NCoef="0" IVar="3" Cut="206299" cType="1" res="0.0168465" purity="0.508024" nType="0">
        <Node pos="l" depth="1" NCoef="0" IVar="6" Cut="1.76236" cType="1" res="0.00935939" purity="0.503188" nType="0">
          <Node pos="l" depth="2" NCoef="0" IVar="1" Cut="136045" cType="1" res="0.0243352" purity="0.541864" nType="0">
            <Node pos="l" depth="3" NCoef="0" IVar="4" Cut="256074" cType="1" res="0.0365967" purity="0.550679" nType="0">
              <Node pos="l" depth="4" NCoef="0" IVar="-1" Cut="0" cType="1" res="0.00098245" purity="0.557196" nType="-99"/>
              <Node pos="r" depth="4" NCoef="0" IVar="-1" Cut="0" cType="1" res="0.00331728" purity="0.533114" nType="-99"/>
            </Node>
            <Node pos="r" depth="3" NCoef="0" IVar="2" Cut="12104.4" cType="1" res="-0.00973401" purity="0.517372" nType="0">
              <Node pos="l" depth="4" NCoef="0" IVar="-1" Cut="0" cType="1" res="-0.00474635" purity="0.380243" nType="-99"/>
              <Node pos="r" depth="4" NCoef="0" IVar="-1" Cut="0" cType="1" res="0.00171428" purity="0.615119" nType="-99"/>
            </Node>
          </Node>
          <Node pos="r" depth="2" NCoef="0" IVar="5" Cut="1.92106" cType="1" res="-0.00522437" purity="0.465525" nType="0">
            <Node pos="l" depth="3" NCoef="0" IVar="0" Cut="114633" cType="1" res="0.00685559" purity="0.489545" nType="0">
              <Node pos="l" depth="4" NCoef="0" IVar="-1" Cut="0" cType="1" res="0.00263869" purity="0.466322" nType="-99"/>
              <Node pos="r" depth="4" NCoef="0" IVar="-1" Cut="0" cType="1" res="-0.000259199" purity="0.495618" nType="-99"/>
            </Node>
            <Node pos="r" depth="3" NCoef="0" IVar="-1" Cut="0" cType="1" res="-0.00362194" purity="0.358281" nType="-99"/>
          </Node>
        </Node>
        <Node pos="r" depth="1" NCoef="0" IVar="6" Cut="1.7619" cType="1" res="0.0696401" purity="0.54212" nType="0">
          <Node pos="l" depth="2" NCoef="0" IVar="-1" Cut="0" cType="1" res="0.000223744" purity="0.497973" nType="-99"/>
          <Node pos="r" depth="2" NCoef="0" IVar="-1" Cut="0" cType="1" res="0.0043459" purity="0.571137" nType="-99"/>
        </Node>
      </Node>
    </BinaryTree>
    <BinaryTree type="DecisionTree" boostWeight="1.0" itree="142">
      <Node pos="s" depth="0" NCoef="0" IVar="1" Cut="136081" cType="1" res="0.00718135" purity="0.500169" nType="0">
        <Node pos="l" depth="1" NCoef="0" IVar="1" Cut="111354" cType="1" res="0.0154568" purity="0.506592" nType="0">
          <Node pos="l" depth="2" NCoef="0" IVar="1" Cut="92606.1" cType="1" res="0.00100868" purity="0.476174" nType="0">
            <Node pos="l" depth="3" NCoef="0" IVar="6" Cut="1.99382" cType="1" res="0.0434101" purity="0.504174" nType="0">
              <Node pos="l" depth="4" NCoef="0" IVar="-1" Cut="0" cType="1" res="0.00310651" purity="0.553139" nType="-99"/>
              <Node pos="r" depth="4" NCoef="0" IVar="-1" Cut="0" cType="1" res="0.00056782" purity="0.453744" nType="-99"/>
            </Node>
            <Node pos="r" depth="3" NCoef="0" IVar="1" Cut="94436.4" cType="1" res="-0.0079639" purity="0.470248" nType="0">
              <Node pos="l" depth="4" NCoef="0" IVar="-1" Cut="0" cType="1" res="-0.00640402" purity="0.353327" nType="-99"/>
              <Node pos="r" depth="4" NCoef="0" IVar="-1" Cut="0" cType="1" res="0.000192005" purity="0.484964" nType="-99"/>
            </Node>
          </Node>
          <Node pos="r" depth="2" NCoef="0" IVar="3" Cut="143390" cType="1" res="0.0421355" purity="0.56276" nType="0">
            <Node pos="l" depth="3" NCoef="0" IVar="-1" Cut="0" cType="1" res="-0.000337958" purity="0.512439" nType="-99"/>
            <Node pos="r" depth="3" NCoef="0" IVar="3" Cut="195945" cType="1" res="0.0532252" purity="0.574062" nType="0">
              <Node pos="l" depth="4" NCoef="0" IVar="-1" Cut="0" cType="1" res="0.00269746" purity="0.58915" nType="-99"/>
              <Node pos="r" depth="4" NCoef="0" IVar="-1" Cut="0" cType="1" res="0.000469678" purity="0.514172" nType="-99"/>
            </Node>
          </Node>
        </Node>
        <Node pos="r" depth="1" NCoef="0" IVar="6" Cut="0.689637" cType="1" res="-0.020823" purity="0.478432" nType="0">
          <Node pos="l" depth="2" NCoef="0" IVar="-1" Cut="0" cType="1" res="-0.00454184" purity="0.420619" nType="-99"/>
          <Node pos="r" depth="2" NCoef="0" IVar="1" Cut="184043" cType="1" res="-0.0039359" purity="0.492922" nType="0">
            <Node pos="l" depth="3" NCoef="0" IVar="0" Cut="158348" cType="1" res="-0.0290107" purity="0.479693" nType="0">
              <Node pos="l" depth="4" NCoef="0" IVar="-1" Cut="0" cType="1" res="-0.00293677" purity="0.425667" nType="-99"/>
              <Node pos="r" depth="4" NCoef="0" IVar="-1" Cut="0" cType="1" res="0.000793296" purity="0.582671" nType="-99"/>
            </Node>
            <Node pos="r" depth="3" NCoef="0" IVar="-1" Cut="0" cType="1" res="0.00194094" purity="0.518011" nType="-99"/>
          </Node>
        </Node>
      </Node>
    </BinaryTree>
    <BinaryTree type="DecisionTree" boostWeight="1.0" itree="143">
      <Node pos="s" depth="0" NCoef="0" IVar="4" Cut="412202" cType="1" res="0.0121098" purity="0.50414" nType="0">
        <Node pos="l" depth="1" NCoef="0" IVar="3" Cut="112894" cType="1" res="0.00730754" purity="0.503381" nType="0">
          <Node pos="l" depth="2" NCoef="0" IVar="-1" Cut="0" cType="1" res="-0.0032287" purity="0.429399" nType="-99"/>
          <Node pos="r" depth="2" NCoef="0" IVar="2" Cut="14523.1" cType="1" res="0.010834" purity="0.507376" nType="0">
            <Node pos="l" depth="3" NCoef="0" IVar="0" Cut="109756" cType="1" res="0.00197343" purity="0.463554" nType="0">
              <Node pos="l" depth="4" NCoef="0" IVar="-1" Cut="0" cType="1" res="0.00244324" purity="0.454023" nType="-99"/>
              <Node pos="r" depth="4" NCoef="0" IVar="-1" Cut="0" cType="1" res="-0.000457903" purity="0.465873" nType="-99"/>
            </Node>
            <Node pos="r" depth="3" NCoef="0" IVar="0" Cut="119495" cType="1" res="0.0412662" purity="0.657887" nType="0">
              <Node pos="l" depth="4" NCoef="0" IVar="-1" Cut="0" cType="1" res="0.000122168" purity="0.573301" nType="-99"/>
              <Node pos="r" depth="4" NCoef="0" IVar="-1" Cut="0" cType="1" res="0.00225411" purity="0.696935" nType="-99"/>
            </Node>
          </Node>
        </Node>
        <Node pos="r" depth="1" NCoef="0" IVar="-1" Cut="0" cType="1" res="0.00313817" purity="0.513049" nType="-99"/>
      </Node>
    </BinaryTree>
    <BinaryTree type="DecisionTree" boostWeight="1.0" itree="144">
      <Node pos="s" depth="0" NCoef="0" IVar="0" Cut="173167" cType="1" res="0.0167272" purity="0.50937" nType="0">
        <Node pos="l" depth="1" NCoef="0" IVar="4" Cut="402366" cType="1" res="0.00815814" purity="0.483829" nType="0">
          <Node pos="l" depth="2" NCoef="0" IVar="3" Cut="118753" cType="1" res="0.0121771" purity="0.492478" nType="0">
            <Node pos="l" depth="3" NCoef="0" IVar="-1" Cut="0" cType="1" res="-0.00249265" purity="0.434819" nType="-99"/>
            <Node pos="r" depth="3" NCoef="0" IVar="4" Cut="321214" cType="1" res="0.016819" purity="0.497054" nType="0">
              <Node pos="l" depth="4" NCoef="0" IVar="-1" Cut="0" cType="1" res="0.00051483" purity="0.500829" nType="-99"/>
              <Node pos="r" depth="4" NCoef="0" IVar="-1" Cut="0" cType="1" res="0.00252391" purity="0.473384" nType="-99"/>
            </Node>
          </Node>
          <Node pos="r" depth="2" NCoef="0" IVar="-1" Cut="0" cType="1" res="-0.00318871" purity="0.35388" nType="-99"/>
        </Node>
        <Node pos="r" depth="1" NCoef="0" IVar="1" Cut="110482" cType="1" res="0.0452516" purity="0.594392" nType="0">
          <Node pos="l" depth="2" NCoef="0" IVar="5" Cut="0.860449" cType="1" res="0.0109894" purity="0.534422" nType="0">
            <Node pos="l" depth="3" NCoef="0" IVar="-1" Cut="0" cType="1" res="0.00188978" purity="0.581297" nType="-99"/>
            <Node pos="r" depth="3" NCoef="0" IVar="-1" Cut="0" cType="1" res="-0.00169094" purity="0.477196" nType="-99"/>
          </Node>
          <Node pos="r" depth="2" NCoef="0" IVar="1" Cut="124345" cType="1" res="0.0761138" purity="0.64841" nType="0">
            <Node pos="l" depth="3" NCoef="0" IVar="-1" Cut="0" cType="1" res="0.00438002" purity="0.716346" nType="-99"/>
            <Node pos="r" depth="3" NCoef="0" IVar="6" Cut="1.76033" cType="1" res="0.0541145" purity="0.615387" nType="0">
              <Node pos="l" depth="4" NCoef="0" IVar="-1" Cut="0" cType="1" res="0.00141956" purity="0.592971" nType="-99"/>
              <Node pos="r" depth="4" NCoef="0" IVar="-1" Cut="0" cType="1" res="0.00306294" purity="0.638316" nType="-99"/>
            </Node>
          </Node>
        </Node>
      </Node>
    </BinaryTree>
    <BinaryTree type="DecisionTree" boostWeight="1.0" itree="145">
      <Node pos="s" depth="0" NCoef="0" IVar="4" Cut="158538" cType="1" res="0.00098942" purity="0.494397" nType="0">
        <Node pos="l" depth="1" NCoef="0" IVar="4" Cut="147116" cType="1" res="-0.0473492" purity="0.493815" nType="0">
          <Node pos="l" depth="2" NCoef="0" IVar="-1" Cut="0" cType="1" res="-0.000726313" purity="0.529129" nType="-99"/>
          <Node pos="r" depth="2" NCoef="0" IVar="-1" Cut="0" cType="1" res="-0.00479227" purity="0.443994" nType="-99"/>
        </Node>
        <Node pos="r" depth="1" NCoef="0" IVar="0" Cut="178027" cType="1" res="0.00629845" purity="0.494461" nType="0">
          <Node pos="l" depth="2" NCoef="0" IVar="0" Cut="166602" cType="1" res="-0.00278891" purity="0.468528" nType="0">
            <Node pos="l" depth="3" NCoef="0" IVar="5" Cut="2.29945" cType="1" res="0.00152022" purity="0.470335" nType="0">
              <Node pos="l" depth="4" NCoef="0" IVar="-1" Cut="0" cType="1" res="0.00046603" purity="0.482889" nType="-99"/>
              <Node pos="r" depth="4" NCoef="0" IVar="-1" Cut="0" cType="1" res="-0.00195324" purity="0.413428" nType="-99"/>
            </Node>
            <Node pos="r" depth="3" NCoef="0" IVar="-1" Cut="0" cType="1" res="-0.00360517" purity="0.440478" nType="-99"/>
          </Node>
          <Node pos="r" depth="2" NCoef="0" IVar="0" Cut="195884" cType="1" res="0.0399828" purity="0.590589" nType="0">
            <Node pos="l" depth="3" NCoef="0" IVar="-1" Cut="0" cType="1" res="0.00342598" purity="0.621579" nType="-99"/>
            <Node pos="r" depth="3" NCoef="0" IVar="4" Cut="216902" cType="1" res="0.0142658" purity="0.573721" nType="0">
              <Node pos="l" depth="4" NCoef="0" IVar="-1" Cut="0" cType="1" res="0.00219118" purity="0.648052" nType="-99"/>
              <Node pos="r" depth="4" NCoef="0" IVar="-1" Cut="0" cType="1" res="-0.000601442" purity="0.524671" nType="-99"/>
            </Node>
          </Node>
        </Node>
      </Node>
    </BinaryTree>
    <BinaryTree type="DecisionTree" boostWeight="1.0" itree="146">
      <Node pos="s" depth="0" NCoef="0" IVar="1" Cut="95117.3" cType="1" res="0.00757867" purity="0.500426" nType="0">
        <Node pos="l" depth="1" NCoef="0" IVar="1" Cut="92245.8" cType="1" res="-0.0288103" purity="0.432753" nType="0">
          <Node pos="l" depth="2" NCoef="0" IVar="-1" Cut="0" cType="1" res="0.00171914" purity="0.50279" nType="-99"/>
          <Node pos="r" depth="2" NCoef="0" IVar="-1" Cut="0" cType="1" res="-0.00657442" purity="0.353975" nType="-99"/>
        </Node>
        <Node pos="r" depth="1" NCoef="0" IVar="3" Cut="147877" cType="1" res="0.0140448" purity="0.512451" nType="0">
          <Node pos="l" depth="2" NCoef="0" IVar="3" Cut="117976" cType="1" res="0.0447413" purity="0.54843" nType="0">
            <Node pos="l" depth="3" NCoef="0" IVar="-1" Cut="0" cType="1" res="-6.81314e-05" purity="0.498495" nType="-99"/>
            <Node pos="r" depth="3" NCoef="0" IVar="4" Cut="314629" cType="1" res="0.0638335" purity="0.569087" nType="0">
              <Node pos="l" depth="4" NCoef="0" IVar="-1" Cut="0" cType="1" res="0.00207511" purity="0.565606" nType="-99"/>
              <Node pos="r" depth="4" NCoef="0" IVar="-1" Cut="0" cType="1" res="0.00431774" purity="0.579259" nType="-99"/>
            </Node>
          </Node>
          <Node pos="r" depth="2" NCoef="0" IVar="4" Cut="334424" cType="1" res="0.00310658" purity="0.49963" nType="0">
            <Node pos="l" depth="3" NCoef="0" IVar="2" Cut="17910.5" cType="1" res="-0.00444799" purity="0.506489" nType="0">
              <Node pos="l" depth="4" NCoef="0" IVar="-1" Cut="0" cType="1" res="-0.000630053" purity="0.4733" nType="-99"/>
              <Node pos="r" depth="4" NCoef="0" IVar="-1" Cut="0" cType="1" res="0.00158353" purity="0.673583" nType="-99"/>
            </Node>
            <Node pos="r" depth="3" NCoef="0" IVar="5" Cut="2.16076" cType="1" res="0.0330773" purity="0.472421" nType="0">
              <Node pos="l" depth="4" NCoef="0" IVar="-1" Cut="0" cType="1" res="5.63504e-05" purity="0.453428" nType="-99"/>
              <Node pos="r" depth="4" NCoef="0" IVar="-1" Cut="0" cType="1" res="0.00421607" purity="0.508946" nType="-99"/>
            </Node>
          </Node>
        </Node>
      </Node>
    </BinaryTree>
    <BinaryTree type="DecisionTree" boostWeight="1.0" itree="147">
      <Node pos="s" depth="0" NCoef="0" IVar="3" Cut="118927" cType="1" res="0.00830459" purity="0.502332" nType="0">
        <Node pos="l" depth="1" NCoef="0" IVar="-1" Cut="0" cType="1" res="-0.00299021" purity="0.429489" nType="-99"/>
        <Node pos="r" depth="1" NCoef="0" IVar="2" Cut="11088.2" cType="1" res="0.0132449" purity="0.507996" nType="0">
          <Node pos="l" depth="2" NCoef="0" IVar="3" Cut="220389" cType="1" res="0.0039997" purity="0.45311" nType="0">
            <Node pos="l" depth="3" NCoef="0" IVar="1" Cut="100236" cType="1" res="-0.00183833" purity="0.446831" nType="0">
              <Node pos="l" depth="4" NCoef="0" IVar="-1" Cut="0" cType="1" res="0.00130345" purity="0.45649" nType="-99"/>
              <Node pos="r" depth="4" NCoef="0" IVar="-1" Cut="0" cType="1" res="-0.000855339" purity="0.441739" nType="-99"/>
            </Node>
            <Node pos="r" depth="3" NCoef="0" IVar="-1" Cut="0" cType="1" res="0.00289741" purity="0.520961" nType="-99"/>
          </Node>
          <Node pos="r" depth="2" NCoef="0" IVar="3" Cut="189275" cType="1" res="0.0338433" purity="0.630284" nType="0">
            <Node pos="l" depth="3" NCoef="0" IVar="6" Cut="1.19953" cType="1" res="0.0526616" purity="0.652029" nType="0">
              <Node pos="l" depth="4" NCoef="0" IVar="-1" Cut="0" cType="1" res="0.000933065" purity="0.586353" nType="-99"/>
              <Node pos="r" depth="4" NCoef="0" IVar="-1" Cut="0" cType="1" res="0.00293522" purity="0.705623" nType="-99"/>
            </Node>
            <Node pos="r" depth="3" NCoef="0" IVar="-1" Cut="0" cType="1" res="-0.00253041" purity="0.527682" nType="-99"/>
          </Node>
        </Node>
      </Node>
    </BinaryTree>
    <BinaryTree type="DecisionTree" boostWeight="1.0" itree="148">
      <Node pos="s" depth="0" NCoef="0" IVar="2" Cut="7794.21" cType="1" res="0.00798217" purity="0.501395" nType="0">
        <Node pos="l" depth="1" NCoef="0" IVar="4" Cut="169092" cType="1" res="-0.00556898" purity="0.433844" nType="0">
          <Node pos="l" depth="2" NCoef="0" IVar="-1" Cut="0" cType="1" res="0.00211792" purity="0.520329" nType="-99"/>
          <Node pos="r" depth="2" NCoef="0" IVar="4" Cut="419213" cType="1" res="-0.0143984" purity="0.419366" nType="0">
            <Node pos="l" depth="3" NCoef="0" IVar="6" Cut="1.9156" cType="1" res="-0.0223856" purity="0.414662" nType="0">
              <Node pos="l" depth="4" NCoef="0" IVar="-1" Cut="0" cType="1" res="-0.00298317" purity="0.384212" nType="-99"/>
              <Node pos="r" depth="4" NCoef="0" IVar="-1" Cut="0" cType="1" res="-0.000324407" purity="0.4301" nType="-99"/>
            </Node>
            <Node pos="r" depth="3" NCoef="0" IVar="-1" Cut="0" cType="1" res="0.00308081" purity="0.466135" nType="-99"/>
          </Node>
        </Node>
        <Node pos="r" depth="1" NCoef="0" IVar="3" Cut="165430" cType="1" res="0.0281661" purity="0.602009" nType="0">
          <Node pos="l" depth="2" NCoef="0" IVar="5" Cut="0.936601" cType="1" res="0.011385" purity="0.591762" nType="0">
            <Node pos="l" depth="3" NCoef="0" IVar="-1" Cut="0" cType="1" res="-0.00248474" purity="0.556551" nType="-99"/>
            <Node pos="r" depth="3" NCoef="0" IVar="6" Cut="1.10188" cType="1" res="0.0309903" purity="0.602264" nType="0">
              <Node pos="l" depth="4" NCoef="0" IVar="-1" Cut="0" cType="1" res="-0.000576021" purity="0.529275" nType="-99"/>
              <Node pos="r" depth="4" NCoef="0" IVar="-1" Cut="0" cType="1" res="0.00272867" purity="0.666192" nType="-99"/>
            </Node>
          </Node>
          <Node pos="r" depth="2" NCoef="0" IVar="5" Cut="0.77778" cType="1" res="0.0427083" purity="0.610889" nType="0">
            <Node pos="l" depth="3" NCoef="0" IVar="-1" Cut="0" cType="1" res="0.0036625" purity="0.709948" nType="-99"/>
            <Node pos="r" depth="3" NCoef="0" IVar="3" Cut="191650" cType="1" res="0.0277052" purity="0.584867" nType="0">
              <Node pos="l" depth="4" NCoef="0" IVar="-1" Cut="0" cType="1" res="0.0020193" purity="0.613732" nType="-99"/>
              <Node pos="r" depth="4" NCoef="0" IVar="-1" Cut="0" cType="1" res="-0.000959757" purity="0.519672" nType="-99"/>
            </Node>
          </Node>
        </Node>
      </Node>
    </BinaryTree>
    <BinaryTree type="DecisionTree" boostWeight="1.0" itree="149">
      <Node pos="s" depth="0" NCoef="0" IVar="6" Cut="2.22204" cType="1" res="0.00629675" purity="0.498861" nType="0">
        <Node pos="l" depth="1" NCoef="0" IVar="3" Cut="206899" cType="1" res="0.0164033" purity="0.531246" nType="0">
          <Node pos="l" depth="2" NCoef="0" IVar="4" Cut="187886" cType="1" res="0.022628" purity="0.539663" nType="0">
            <Node pos="l" depth="3" NCoef="0" IVar="0" Cut="143697" cType="1" res="0.0493721" purity="0.603221" nType="0">
              <Node pos="l" depth="4" NCoef="0" IVar="-1" Cut="0" cType="1" res="0.000890502" purity="0.557348" nType="-99"/>
              <Node pos="r" depth="4" NCoef="0" IVar="-1" Cut="0" cType="1" res="0.00376643" purity="0.681177" nType="-99"/>
            </Node>
            <Node pos="r" depth="3" NCoef="0" IVar="3" Cut="185612" cType="1" res="0.00851996" purity="0.506134" nType="0">
              <Node pos="l" depth="4" NCoef="0" IVar="-1" Cut="0" cType="1" res="3.18718e-05" purity="0.503075" nType="-99"/>
              <Node pos="r" depth="4" NCoef="0" IVar="-1" Cut="0" cType="1" res="0.00209883" purity="0.521008" nType="-99"/>
            </Node>
          </Node>
          <Node pos="r" depth="2" NCoef="0" IVar="-1" Cut="0" cType="1" res="-0.00189025" purity="0.456036" nType="-99"/>
        </Node>
        <Node pos="r" depth="1" NCoef="0" IVar="1" Cut="115575" cType="1" res="-0.0129831" purity="0.437081" nType="0">
          <Node pos="l" depth="2" NCoef="0" IVar="6" Cut="2.5136" cType="1" res="-0.0345862" purity="0.406466" nType="0">
            <Node pos="l" depth="3" NCoef="0" IVar="-1" Cut="0" cType="1" res="-0.00472883" purity="0.3984" nType="-99"/>
            <Node pos="r" depth="3" NCoef="0" IVar="2" Cut="-4741.98" cType="1" res="-0.0151447" purity="0.409806" nType="0">
              <Node pos="l" depth="4" NCoef="0" IVar="-1" Cut="0" cType="1" res="-0.00369684" purity="0.334569" nType="-99"/>
              <Node pos="r" depth="4" NCoef="0" IVar="-1" Cut="0" cType="1" res="0.00098918" purity="0.478336" nType="-99"/>
            </Node>
          </Node>
          <Node pos="r" depth="2" NCoef="0" IVar="3" Cut="181734" cType="1" res="0.0217793" purity="0.486345" nType="0">
            <Node pos="l" depth="3" NCoef="0" IVar="3" Cut="155096" cType="1" res="-0.00186224" purity="0.459202" nType="0">
              <Node pos="l" depth="4" NCoef="0" IVar="-1" Cut="0" cType="1" res="0.00100283" purity="0.475789" nType="-99"/>
              <Node pos="r" depth="4" NCoef="0" IVar="-1" Cut="0" cType="1" res="-0.00112547" purity="0.444165" nType="-99"/>
            </Node>
            <Node pos="r" depth="3" NCoef="0" IVar="-1" Cut="0" cType="1" res="0.00287539" purity="0.535575" nType="-99"/>
          </Node>
        </Node>
      </Node>
    </BinaryTree>
    <BinaryTree type="DecisionTree" boostWeight="1.0" itree="150">
      <Node pos="s" depth="0" NCoef="0" IVar="4" Cut="431717" cType="1" res="0.00903586" purity="0.501466" nType="0">
        <Node pos="l" depth="1" NCoef="0" IVar="0" Cut="139014" cType="1" res="0.013089" purity="0.508171" nType="0">
          <Node pos="l" depth="2" NCoef="0" IVar="0" Cut="110468" cType="1" res="-0.00159224" purity="0.463496" nType="0">
            <Node pos="l" depth="3" NCoef="0" IVar="3" Cut="166804" cType="1" res="-0.0206255" purity="0.415735" nType="0">
              <Node pos="l" depth="4" NCoef="0" IVar="-1" Cut="0" cType="1" res="-0.00368569" purity="0.381036" nType="-99"/>
              <Node pos="r" depth="4" NCoef="0" IVar="-1" Cut="0" cType="1" res="0.000731478" purity="0.443716" nType="-99"/>
            </Node>
            <Node pos="r" depth="3" NCoef="0" IVar="4" Cut="172891" cType="1" res="0.00827017" purity="0.488245" nType="0">
              <Node pos="l" depth="4" NCoef="0" IVar="-1" Cut="0" cType="1" res="0.00184558" purity="0.571124" nType="-99"/>
              <Node pos="r" depth="4" NCoef="0" IVar="-1" Cut="0" cType="1" res="-6.89023e-05" purity="0.465233" nType="-99"/>
            </Node>
          </Node>
          <Node pos="r" depth="2" NCoef="0" IVar="6" Cut="2.60522" cType="1" res="0.0311013" purity="0.562983" nType="0">
            <Node pos="l" depth="3" NCoef="0" IVar="4" Cut="253768" cType="1" res="0.0417807" purity="0.58904" nType="0">
              <Node pos="l" depth="4" NCoef="0" IVar="-1" Cut="0" cType="1" res="0.00238301" purity="0.623894" nType="-99"/>
              <Node pos="r" depth="4" NCoef="0" IVar="-1" Cut="0" cType="1" res="0.000370631" purity="0.52535" nType="-99"/>
            </Node>
            <Node pos="r" depth="3" NCoef="0" IVar="4" Cut="245788" cType="1" res="-0.0125515" purity="0.45647" nType="0">
              <Node pos="l" depth="4" NCoef="0" IVar="-1" Cut="0" cType="1" res="-0.00331469" purity="0.414417" nType="-99"/>
              <Node pos="r" depth="4" NCoef="0" IVar="-1" Cut="0" cType="1" res="0.00191462" purity="0.500922" nType="-99"/>
            </Node>
          </Node>
        </Node>
        <Node pos="r" depth="1" NCoef="0" IVar="-1" Cut="0" cType="1" res="-0.00485452" purity="0.354109" nType="-99"/>
      </Node>
    </BinaryTree>
    <BinaryTree type="DecisionTree" boostWeight="1.0" itree="151">
      <Node pos="s" depth="0" NCoef="0" IVar="3" Cut="235394" cType="1" res="0.00756013" purity="0.498751" nType="0">
        <Node pos="l" depth="1" NCoef="0" IVar="3" Cut="205494" cType="1" res="0.00390598" purity="0.496008" nType="0">
          <Node pos="l" depth="2" NCoef="0" IVar="5" Cut="1.54028" cType="1" res="0.00863025" purity="0.502153" nType="0">
            <Node pos="l" depth="3" NCoef="0" IVar="0" Cut="182900" cType="1" res="-0.00618352" purity="0.500329" nType="0">
              <Node pos="l" depth="4" NCoef="0" IVar="-1" Cut="0" cType="1" res="-0.000837662" purity="0.472879" nType="-99"/>
              <Node pos="r" depth="4" NCoef="0" IVar="-1" Cut="0" cType="1" res="0.0011821" purity="0.585929" nType="-99"/>
            </Node>
            <Node pos="r" depth="3" NCoef="0" IVar="6" Cut="0.689608" cType="1" res="0.0284484" purity="0.504592" nType="0">
              <Node pos="l" depth="4" NCoef="0" IVar="-1" Cut="0" cType="1" res="0.00305216" purity="0.587062" nType="-99"/>
              <Node pos="r" depth="4" NCoef="0" IVar="-1" Cut="0" cType="1" res="0.000697374" purity="0.480019" nType="-99"/>
            </Node>
          </Node>
          <Node pos="r" depth="2" NCoef="0" IVar="-1" Cut="0" cType="1" res="-0.00295098" purity="0.419922" nType="-99"/>
        </Node>
        <Node pos="r" depth="1" NCoef="0" IVar="-1" Cut="0" cType="1" res="0.00362956" purity="0.558677" nType="-99"/>
      </Node>
    </BinaryTree>
    <BinaryTree type="DecisionTree" boostWeight="1.0" itree="152">
      <Node pos="s" depth="0" NCoef="0" IVar="6" Cut="2.98823" cType="1" res="0.00527576" purity="0.499855" nType="0">
        <Node pos="l" depth="1" NCoef="0" IVar="2" Cut="14244" cType="1" res="0.0101746" purity="0.508701" nType="0">
          <Node pos="l" depth="2" NCoef="0" IVar="0" Cut="129261" cType="1" res="-0.000278114" purity="0.460473" nType="0">
            <Node pos="l" depth="3" NCoef="0" IVar="3" Cut="197795" cType="1" res="0.0230996" purity="0.45296" nType="0">
              <Node pos="l" depth="4" NCoef="0" IVar="-1" Cut="0" cType="1" res="0.000645541" purity="0.445114" nType="-99"/>
              <Node pos="r" depth="4" NCoef="0" IVar="-1" Cut="0" cType="1" res="0.00339534" purity="0.489984" nType="-99"/>
            </Node>
            <Node pos="r" depth="3" NCoef="0" IVar="2" Cut="3662.98" cType="1" res="-0.0217031" purity="0.467359" nType="0">
              <Node pos="l" depth="4" NCoef="0" IVar="-1" Cut="0" cType="1" res="-6.7937e-05" purity="0.460333" nType="-99"/>
              <Node pos="r" depth="4" NCoef="0" IVar="-1" Cut="0" cType="1" res="-0.00237606" purity="0.476853" nType="-99"/>
            </Node>
          </Node>
          <Node pos="r" depth="2" NCoef="0" IVar="5" Cut="0.931105" cType="1" res="0.0423403" purity="0.657109" nType="0">
            <Node pos="l" depth="3" NCoef="0" IVar="-1" Cut="0" cType="1" res="0.000272657" purity="0.643723" nType="-99"/>
            <Node pos="r" depth="3" NCoef="0" IVar="1" Cut="150773" cType="1" res="0.0578823" purity="0.662954" nType="0">
              <Node pos="l" depth="4" NCoef="0" IVar="-1" Cut="0" cType="1" res="0.00329376" purity="0.697467" nType="-99"/>
              <Node pos="r" depth="4" NCoef="0" IVar="-1" Cut="0" cType="1" res="-0.000421263" purity="0.573767" nType="-99"/>
            </Node>
          </Node>
        </Node>
        <Node pos="r" depth="1" NCoef="0" IVar="-1" Cut="0" cType="1" res="-0.00660613" purity="0.313776" nType="-99"/>
      </Node>
    </BinaryTree>
    <BinaryTree type="DecisionTree" boostWeight="1.0" itree="153">
      <Node pos="s" depth="0" NCoef="0" IVar="3" Cut="212086" cType="1" res="0.00168567" purity="0.496036" nType="0">
        <Node pos="l" depth="1" NCoef="0" IVar="2" Cut="7595.18" cType="1" res="-0.00420971" purity="0.491793" nType="0">
          <Node pos="l" depth="2" NCoef="0" IVar="5" Cut="1.68663" cType="1" res="-0.018497" purity="0.418673" nType="0">
            <Node pos="l" depth="3" NCoef="0" IVar="4" Cut="188446" cType="1" res="-0.00313892" purity="0.438373" nType="0">
              <Node pos="l" depth="4" NCoef="0" IVar="-1" Cut="0" cType="1" res="-0.00242535" purity="0.424813" nType="-99"/>
              <Node pos="r" depth="4" NCoef="0" IVar="-1" Cut="0" cType="1" res="0.000725066" purity="0.443861" nType="-99"/>
            </Node>
            <Node pos="r" depth="3" NCoef="0" IVar="1" Cut="171924" cType="1" res="-0.0473995" purity="0.3816" nType="0">
              <Node pos="l" depth="4" NCoef="0" IVar="-1" Cut="0" cType="1" res="-0.003944" purity="0.365874" nType="-99"/>
              <Node pos="r" depth="4" NCoef="0" IVar="-1" Cut="0" cType="1" res="0.000703286" purity="0.434399" nType="-99"/>
            </Node>
          </Node>
          <Node pos="r" depth="2" NCoef="0" IVar="6" Cut="1.2015" cType="1" res="0.0158711" purity="0.594564" nType="0">
            <Node pos="l" depth="3" NCoef="0" IVar="0" Cut="129202" cType="1" res="-0.0162024" purity="0.535086" nType="0">
              <Node pos="l" depth="4" NCoef="0" IVar="-1" Cut="0" cType="1" res="-0.00185126" purity="0.490708" nType="-99"/>
              <Node pos="r" depth="4" NCoef="0" IVar="-1" Cut="0" cType="1" res="0.000500593" purity="0.586932" nType="-99"/>
            </Node>
            <Node pos="r" depth="3" NCoef="0" IVar="3" Cut="167648" cType="1" res="0.0431149" purity="0.645086" nType="0">
              <Node pos="l" depth="4" NCoef="0" IVar="-1" Cut="0" cType="1" res="0.00284894" purity="0.682421" nType="-99"/>
              <Node pos="r" depth="4" NCoef="0" IVar="-1" Cut="0" cType="1" res="0.000160052" purity="0.595522" nType="-99"/>
            </Node>
          </Node>
        </Node>
        <Node pos="r" depth="1" NCoef="0" IVar="5" Cut="1.44512" cType="1" res="0.0564696" purity="0.535463" nType="0">
          <Node pos="l" depth="2" NCoef="0" IVar="-1" Cut="0" cType="1" res="0.00401316" purity="0.594863" nType="-99"/>
          <Node pos="r" depth="2" NCoef="0" IVar="-1" Cut="0" cType="1" res="0.000304267" purity="0.467084" nType="-99"/>
        </Node>
      </Node>
    </BinaryTree>
    <BinaryTree type="DecisionTree" boostWeight="1.0" itree="154">
      <Node pos="s" depth="0" NCoef="0" IVar="2" Cut="909.534" cType="1" res="0.00287624" purity="0.498679" nType="0">
        <Node pos="l" depth="1" NCoef="0" IVar="0" Cut="202406" cType="1" res="-0.0283334" purity="0.391611" nType="0">
          <Node pos="l" depth="2" NCoef="0" IVar="0" Cut="124944" cType="1" res="-0.0401878" purity="0.369787" nType="0">
            <Node pos="l" depth="3" NCoef="0" IVar="0" Cut="107909" cType="1" res="-0.0689559" purity="0.312512" nType="0">
              <Node pos="l" depth="4" NCoef="0" IVar="-1" Cut="0" cType="1" res="-0.000813607" purity="0.349969" nType="-99"/>
              <Node pos="r" depth="4" NCoef="0" IVar="-1" Cut="0" cType="1" res="-0.00790674" purity="0.286658" nType="-99"/>
            </Node>
            <Node pos="r" depth="3" NCoef="0" IVar="4" Cut="217283" cType="1" res="-0.0145327" purity="0.420865" nType="0">
              <Node pos="l" depth="4" NCoef="0" IVar="-1" Cut="0" cType="1" res="0.00104" purity="0.474615" nType="-99"/>
              <Node pos="r" depth="4" NCoef="0" IVar="-1" Cut="0" cType="1" res="-0.00213144" purity="0.386439" nType="-99"/>
            </Node>
          </Node>
          <Node pos="r" depth="2" NCoef="0" IVar="-1" Cut="0" cType="1" res="0.00265629" purity="0.570443" nType="-99"/>
        </Node>
        <Node pos="r" depth="1" NCoef="0" IVar="6" Cut="2.02829" cType="1" res="0.0212932" purity="0.561861" nType="0">
          <Node pos="l" depth="2" NCoef="0" IVar="2" Cut="8138.36" cType="1" res="0.00923435" purity="0.5521" nType="0">
            <Node pos="l" depth="3" NCoef="0" IVar="0" Cut="148648" cType="1" res="-0.033033" purity="0.431795" nType="0">
              <Node pos="l" depth="4" NCoef="0" IVar="-1" Cut="0" cType="1" res="-0.00346111" purity="0.386524" nType="-99"/>
              <Node pos="r" depth="4" NCoef="0" IVar="-1" Cut="0" cType="1" res="0.000795099" purity="0.516397" nType="-99"/>
            </Node>
            <Node pos="r" depth="3" NCoef="0" IVar="4" Cut="334424" cType="1" res="0.026483" purity="0.601195" nType="0">
              <Node pos="l" depth="4" NCoef="0" IVar="-1" Cut="0" cType="1" res="0.00139412" purity="0.618615" nType="-99"/>
              <Node pos="r" depth="4" NCoef="0" IVar="-1" Cut="0" cType="1" res="-0.00116545" purity="0.493426" nType="-99"/>
            </Node>
          </Node>
          <Node pos="r" depth="2" NCoef="0" IVar="1" Cut="115441" cType="1" res="0.0572937" purity="0.591" nType="0">
            <Node pos="l" depth="3" NCoef="0" IVar="6" Cut="2.28148" cType="1" res="0.0410042" purity="0.554623" nType="0">
              <Node pos="l" depth="4" NCoef="0" IVar="-1" Cut="0" cType="1" res="0.00285298" purity="0.596815" nType="-99"/>
              <Node pos="r" depth="4" NCoef="0" IVar="-1" Cut="0" cType="1" res="0.000706226" purity="0.518522" nType="-99"/>
            </Node>
            <Node pos="r" depth="3" NCoef="0" IVar="-1" Cut="0" cType="1" res="0.00354708" purity="0.673071" nType="-99"/>
          </Node>
        </Node>
      </Node>
    </BinaryTree>
    <BinaryTree type="DecisionTree" boostWeight="1.0" itree="155">
      <Node pos="s" depth="0" NCoef="0" IVar="4" Cut="197544" cType="1" res="0.00534167" purity="0.499452" nType="0">
        <Node pos="l" depth="1" NCoef="0" IVar="4" Cut="149961" cType="1" res="0.0277229" purity="0.562683" nType="0">
          <Node pos="l" depth="2" NCoef="0" IVar="-1" Cut="0" cType="1" res="-0.00151787" purity="0.517367" nType="-99"/>
          <Node pos="r" depth="2" NCoef="0" IVar="6" Cut="2.52875" cType="1" res="0.0410685" purity="0.572882" nType="0">
            <Node pos="l" depth="3" NCoef="0" IVar="0" Cut="143728" cType="1" res="0.0549147" purity="0.600666" nType="0">
              <Node pos="l" depth="4" NCoef="0" IVar="-1" Cut="0" cType="1" res="0.00157877" purity="0.563114" nType="-99"/>
              <Node pos="r" depth="4" NCoef="0" IVar="-1" Cut="0" cType="1" res="0.00305764" purity="0.65877" nType="-99"/>
            </Node>
            <Node pos="r" depth="3" NCoef="0" IVar="-1" Cut="0" cType="1" res="-0.00136977" purity="0.437161" nType="-99"/>
          </Node>
        </Node>
        <Node pos="r" depth="1" NCoef="0" IVar="3" Cut="124583" cType="1" res="-0.00738462" purity="0.463498" nType="0">
          <Node pos="l" depth="2" NCoef="0" IVar="-1" Cut="0" cType="1" res="0.00268841" purity="0.532433" nType="-99"/>
          <Node pos="r" depth="2" NCoef="0" IVar="6" Cut="1.91561" cType="1" res="-0.0167993" purity="0.454114" nType="0">
            <Node pos="l" depth="3" NCoef="0" IVar="5" Cut="1.07392" cType="1" res="-0.0350716" purity="0.457404" nType="0">
              <Node pos="l" depth="4" NCoef="0" IVar="-1" Cut="0" cType="1" res="-0.00509593" purity="0.405219" nType="-99"/>
              <Node pos="r" depth="4" NCoef="0" IVar="-1" Cut="0" cType="1" res="-0.00106428" purity="0.470338" nType="-99"/>
            </Node>
            <Node pos="r" depth="3" NCoef="0" IVar="2" Cut="882.436" cType="1" res="0.00066845" purity="0.450969" nType="0">
              <Node pos="l" depth="4" NCoef="0" IVar="-1" Cut="0" cType="1" res="-0.00141496" purity="0.387121" nType="-99"/>
              <Node pos="r" depth="4" NCoef="0" IVar="-1" Cut="0" cType="1" res="0.00210767" purity="0.575234" nType="-99"/>
            </Node>
          </Node>
        </Node>
      </Node>
    </BinaryTree>
    <BinaryTree type="DecisionTree" boostWeight="1.0" itree="156">
      <Node pos="s" depth="0" NCoef="0" IVar="4" Cut="334101" cType="1" res="0.0130283" purity="0.504799" nType="0">
        <Node pos="l" depth="1" NCoef="0" IVar="4" Cut="316970" cType="1" res="0.0191386" purity="0.522206" nType="0">
          <Node pos="l" depth="2" NCoef="0" IVar="4" Cut="226976" cType="1" res="0.0146521" purity="0.519512" nType="0">
            <Node pos="l" depth="3" NCoef="0" IVar="3" Cut="124529" cType="1" res="0.00268786" purity="0.52515" nType="0">
              <Node pos="l" depth="4" NCoef="0" IVar="-1" Cut="0" cType="1" res="-0.00338326" purity="0.463542" nType="-99"/>
              <Node pos="r" depth="4" NCoef="0" IVar="-1" Cut="0" cType="1" res="0.000408795" purity="0.530984" nType="-99"/>
            </Node>
            <Node pos="r" depth="3" NCoef="0" IVar="4" Cut="246720" cType="1" res="0.0358358" purity="0.509529" nType="0">
              <Node pos="l" depth="4" NCoef="0" IVar="-1" Cut="0" cType="1" res="0.00377216" purity="0.577606" nType="-99"/>
              <Node pos="r" depth="4" NCoef="0" IVar="-1" Cut="0" cType="1" res="0.000453835" purity="0.477115" nType="-99"/>
            </Node>
          </Node>
          <Node pos="r" depth="2" NCoef="0" IVar="-1" Cut="0" cType="1" res="0.00431821" purity="0.574179" nType="-99"/>
        </Node>
        <Node pos="r" depth="1" NCoef="0" IVar="5" Cut="1.54112" cType="1" res="-0.0154219" purity="0.423752" nType="0">
          <Node pos="l" depth="2" NCoef="0" IVar="4" Cut="410989" cType="1" res="0.0102391" purity="0.462767" nType="0">
            <Node pos="l" depth="3" NCoef="0" IVar="-1" Cut="0" cType="1" res="-0.00057783" purity="0.447605" nType="-99"/>
            <Node pos="r" depth="3" NCoef="0" IVar="-1" Cut="0" cType="1" res="0.00179547" purity="0.481318" nType="-99"/>
          </Node>
          <Node pos="r" depth="2" NCoef="0" IVar="-1" Cut="0" cType="1" res="-0.00306806" purity="0.36968" nType="-99"/>
        </Node>
      </Node>
    </BinaryTree>
    <BinaryTree type="DecisionTree" boostWeight="1.0" itree="157">
      <Node pos="s" depth="0" NCoef="0" IVar="1" Cut="115600" cType="1" res="0.00610367" purity="0.500423" nType="0">
        <Node pos="l" depth="1" NCoef="0" IVar="6" Cut="0.919526" cType="1" res="-0.00899681" purity="0.468399" nType="0">
          <Node pos="l" depth="2" NCoef="0" IVar="0" Cut="119448" cType="1" res="0.0348613" purity="0.518878" nType="0">
            <Node pos="l" depth="3" NCoef="0" IVar="-1" Cut="0" cType="1" res="0.00314157" purity="0.541709" nType="-99"/>
            <Node pos="r" depth="3" NCoef="0" IVar="-1" Cut="0" cType="1" res="4.69996e-05" purity="0.498463" nType="-99"/>
          </Node>
          <Node pos="r" depth="2" NCoef="0" IVar="2" Cut="-2496.99" cType="1" res="-0.0211676" purity="0.45439" nType="0">
            <Node pos="l" depth="3" NCoef="0" IVar="6" Cut="2.87059" cType="1" res="0.00565684" purity="0.39966" nType="0">
              <Node pos="l" depth="4" NCoef="0" IVar="-1" Cut="0" cType="1" res="0.00195069" purity="0.434877" nType="-99"/>
              <Node pos="r" depth="4" NCoef="0" IVar="-1" Cut="0" cType="1" res="-0.00374618" purity="0.329746" nType="-99"/>
            </Node>
            <Node pos="r" depth="3" NCoef="0" IVar="2" Cut="17444.2" cType="1" res="-0.0357238" purity="0.484089" nType="0">
              <Node pos="l" depth="4" NCoef="0" IVar="-1" Cut="0" cType="1" res="-0.00259692" purity="0.43923" nType="-99"/>
              <Node pos="r" depth="4" NCoef="0" IVar="-1" Cut="0" cType="1" res="0.000885975" purity="0.663872" nType="-99"/>
            </Node>
          </Node>
        </Node>
        <Node pos="r" depth="1" NCoef="0" IVar="6" Cut="1.6092" cType="1" res="0.0246841" purity="0.539828" nType="0">
          <Node pos="l" depth="2" NCoef="0" IVar="1" Cut="169549" cType="1" res="-0.00794942" purity="0.528453" nType="0">
            <Node pos="l" depth="3" NCoef="0" IVar="2" Cut="8766.98" cType="1" res="0.014664" purity="0.561429" nType="0">
              <Node pos="l" depth="4" NCoef="0" IVar="-1" Cut="0" cType="1" res="-0.00279205" purity="0.412283" nType="-99"/>
              <Node pos="r" depth="4" NCoef="0" IVar="-1" Cut="0" cType="1" res="0.0020017" purity="0.636212" nType="-99"/>
            </Node>
            <Node pos="r" depth="3" NCoef="0" IVar="-1" Cut="0" cType="1" res="-0.00400251" purity="0.426091" nType="-99"/>
          </Node>
          <Node pos="r" depth="2" NCoef="0" IVar="0" Cut="124392" cType="1" res="0.0525652" purity="0.549546" nType="0">
            <Node pos="l" depth="3" NCoef="0" IVar="-1" Cut="0" cType="1" res="-0.000434949" purity="0.42038" nType="-99"/>
            <Node pos="r" depth="3" NCoef="0" IVar="1" Cut="129073" cType="1" res="0.0824926" purity="0.613439" nType="0">
              <Node pos="l" depth="4" NCoef="0" IVar="-1" Cut="0" cType="1" res="0.00409516" purity="0.658547" nType="-99"/>
              <Node pos="r" depth="4" NCoef="0" IVar="-1" Cut="0" cType="1" res="0.00274799" purity="0.586528" nType="-99"/>
            </Node>
          </Node>
        </Node>
      </Node>
    </BinaryTree>
    <BinaryTree type="DecisionTree" boostWeight="1.0" itree="158">
      <Node pos="s" depth="0" NCoef="0" IVar="3" Cut="205601" cType="1" res="0.00592138" purity="0.49827" nType="0">
        <Node pos="l" depth="1" NCoef="0" IVar="1" Cut="161577" cType="1" res="0.010657" purity="0.505387" nType="0">
          <Node pos="l" depth="2" NCoef="0" IVar="1" Cut="124908" cType="1" res="0.0155029" purity="0.511572" nType="0">
            <Node pos="l" depth="3" NCoef="0" IVar="2" Cut="4090.96" cType="1" res="0.00619358" purity="0.492654" nType="0">
              <Node pos="l" depth="4" NCoef="0" IVar="-1" Cut="0" cType="1" res="0.0010764" purity="0.445101" nType="-99"/>
              <Node pos="r" depth="4" NCoef="0" IVar="-1" Cut="0" cType="1" res="-0.00047157" purity="0.545027" nType="-99"/>
            </Node>
            <Node pos="r" depth="3" NCoef="0" IVar="2" Cut="9737.34" cType="1" res="0.0463153" purity="0.574185" nType="0">
              <Node pos="l" depth="4" NCoef="0" IVar="-1" Cut="0" cType="1" res="0.000744356" purity="0.476224" nType="-99"/>
              <Node pos="r" depth="4" NCoef="0" IVar="-1" Cut="0" cType="1" res="0.00327548" purity="0.696841" nType="-99"/>
            </Node>
          </Node>
          <Node pos="r" depth="2" NCoef="0" IVar="3" Cut="160265" cType="1" res="-0.0245141" purity="0.460495" nType="0">
            <Node pos="l" depth="3" NCoef="0" IVar="-1" Cut="0" cType="1" res="-0.00398237" purity="0.417364" nType="-99"/>
            <Node pos="r" depth="3" NCoef="0" IVar="-1" Cut="0" cType="1" res="0.000922141" purity="0.499266" nType="-99"/>
          </Node>
        </Node>
        <Node pos="r" depth="1" NCoef="0" IVar="1" Cut="115512" cType="1" res="-0.0320694" purity="0.441182" nType="0">
          <Node pos="l" depth="2" NCoef="0" IVar="-1" Cut="0" cType="1" res="-0.00353619" purity="0.395744" nType="-99"/>
          <Node pos="r" depth="2" NCoef="0" IVar="-1" Cut="0" cType="1" res="8.85647e-05" purity="0.489802" nType="-99"/>
        </Node>
      </Node>
    </BinaryTree>
    <BinaryTree type="DecisionTree" boostWeight="1.0" itree="159">
      <Node pos="s" depth="0" NCoef="0" IVar="2" Cut="24934.3" cType="1" res="0.0100715" purity="0.500722" nType="0">
        <Node pos="l" depth="1" NCoef="0" IVar="3" Cut="124583" cType="1" res="0.0053516" purity="0.481437" nType="0">
          <Node pos="l" depth="2" NCoef="0" IVar="6" Cut="1.60895" cType="1" res="0.053398" purity="0.524363" nType="0">
            <Node pos="l" depth="3" NCoef="0" IVar="-1" Cut="0" cType="1" res="0.00103219" purity="0.514734" nType="-99"/>
            <Node pos="r" depth="3" NCoef="0" IVar="-1" Cut="0" cType="1" res="0.00355638" purity="0.532675" nType="-99"/>
          </Node>
          <Node pos="r" depth="2" NCoef="0" IVar="3" Cut="227225" cType="1" res="-0.000506226" purity="0.476204" nType="0">
            <Node pos="l" depth="3" NCoef="0" IVar="3" Cut="177156" cType="1" res="-0.00508337" purity="0.472531" nType="0">
              <Node pos="l" depth="4" NCoef="0" IVar="-1" Cut="0" cType="1" res="0.000285702" purity="0.488384" nType="-99"/>
              <Node pos="r" depth="4" NCoef="0" IVar="-1" Cut="0" cType="1" res="-0.00119114" purity="0.445995" nType="-99"/>
            </Node>
            <Node pos="r" depth="3" NCoef="0" IVar="-1" Cut="0" cType="1" res="0.00294276" purity="0.531411" nType="-99"/>
          </Node>
        </Node>
        <Node pos="r" depth="1" NCoef="0" IVar="-1" Cut="0" cType="1" res="0.00222498" purity="0.691517" nType="-99"/>
      </Node>
    </BinaryTree>
    <BinaryTree type="DecisionTree" boostWeight="1.0" itree="160">
      <Node pos="s" depth="0" NCoef="0" IVar="6" Cut="0.536405" cType="1" res="0.000804551" purity="0.492707" nType="0">
        <Node pos="l" depth="1" NCoef="0" IVar="5" Cut="1.331" cType="1" res="-0.0425116" purity="0.454983" nType="0">
          <Node pos="l" depth="2" NCoef="0" IVar="-1" Cut="0" cType="1" res="-0.000140879" purity="0.480149" nType="-99"/>
          <Node pos="r" depth="2" NCoef="0" IVar="-1" Cut="0" cType="1" res="-0.00363371" purity="0.435955" nType="-99"/>
        </Node>
        <Node pos="r" depth="1" NCoef="0" IVar="3" Cut="124494" cType="1" res="0.00696092" purity="0.498068" nType="0">
          <Node pos="l" depth="2" NCoef="0" IVar="-1" Cut="0" cType="1" res="-0.00221837" purity="0.442462" nType="-99"/>
          <Node pos="r" depth="2" NCoef="0" IVar="2" Cut="21020.5" cType="1" res="0.0116051" purity="0.503488" nType="0">
            <Node pos="l" depth="3" NCoef="0" IVar="2" Cut="-14686.3" cType="1" res="0.00630626" purity="0.477821" nType="0">
              <Node pos="l" depth="4" NCoef="0" IVar="-1" Cut="0" cType="1" res="0.00274401" purity="0.443076" nType="-99"/>
              <Node pos="r" depth="4" NCoef="0" IVar="-1" Cut="0" cType="1" res="4.31354e-05" purity="0.481929" nType="-99"/>
            </Node>
            <Node pos="r" depth="3" NCoef="0" IVar="-1" Cut="0" cType="1" res="0.00199763" purity="0.69567" nType="-99"/>
          </Node>
        </Node>
      </Node>
    </BinaryTree>
    <BinaryTree type="DecisionTree" boostWeight="1.0" itree="161">
      <Node pos="s" depth="0" NCoef="0" IVar="0" Cut="178045" cType="1" res="0.00317115" purity="0.497107" nType="0">
        <Node pos="l" depth="1" NCoef="0" IVar="0" Cut="120939" cType="1" res="-0.00411405" purity="0.473926" nType="0">
          <Node pos="l" depth="2" NCoef="0" IVar="6" Cut="2.06873" cType="1" res="-0.0172568" purity="0.430708" nType="0">
            <Node pos="l" depth="3" NCoef="0" IVar="5" Cut="1.15918" cType="1" res="-0.0447905" purity="0.434944" nType="0">
              <Node pos="l" depth="4" NCoef="0" IVar="-1" Cut="0" cType="1" res="0.000678984" purity="0.507886" nType="-99"/>
              <Node pos="r" depth="4" NCoef="0" IVar="-1" Cut="0" cType="1" res="-0.00356705" purity="0.411733" nType="-99"/>
            </Node>
            <Node pos="r" depth="3" NCoef="0" IVar="4" Cut="236525" cType="1" res="0.0233905" purity="0.424455" nType="0">
              <Node pos="l" depth="4" NCoef="0" IVar="-1" Cut="0" cType="1" res="0.00287223" purity="0.493982" nType="-99"/>
              <Node pos="r" depth="4" NCoef="0" IVar="-1" Cut="0" cType="1" res="-0.00185463" purity="0.333605" nType="-99"/>
            </Node>
          </Node>
          <Node pos="r" depth="2" NCoef="0" IVar="5" Cut="1.08262" cType="1" res="0.00617643" purity="0.507764" nType="0">
            <Node pos="l" depth="3" NCoef="0" IVar="6" Cut="1.60912" cType="1" res="-0.0313645" purity="0.479118" nType="0">
              <Node pos="l" depth="4" NCoef="0" IVar="-1" Cut="0" cType="1" res="0.00103434" purity="0.558368" nType="-99"/>
              <Node pos="r" depth="4" NCoef="0" IVar="-1" Cut="0" cType="1" res="-0.00415664" purity="0.41765" nType="-99"/>
            </Node>
            <Node pos="r" depth="3" NCoef="0" IVar="4" Cut="344021" cType="1" res="0.0211988" purity="0.519228" nType="0">
              <Node pos="l" depth="4" NCoef="0" IVar="-1" Cut="0" cType="1" res="0.00136969" purity="0.541225" nType="-99"/>
              <Node pos="r" depth="4" NCoef="0" IVar="-1" Cut="0" cType="1" res="-0.00187354" purity="0.394848" nType="-99"/>
            </Node>
          </Node>
        </Node>
        <Node pos="r" depth="1" NCoef="0" IVar="3" Cut="171678" cType="1" res="0.0305948" purity="0.584368" nType="0">
          <Node pos="l" depth="2" NCoef="0" IVar="1" Cut="105362" cType="1" res="-0.0101968" purity="0.548756" nType="0">
            <Node pos="l" depth="3" NCoef="0" IVar="-1" Cut="0" cType="1" res="-0.00182617" purity="0.487497" nType="-99"/>
            <Node pos="r" depth="3" NCoef="0" IVar="-1" Cut="0" cType="1" res="0.000351129" purity="0.589216" nType="-99"/>
          </Node>
          <Node pos="r" depth="2" NCoef="0" IVar="0" Cut="216710" cType="1" res="0.0710924" purity="0.619723" nType="0">
            <Node pos="l" depth="3" NCoef="0" IVar="-1" Cut="0" cType="1" res="0.00352434" purity="0.634707" nType="-99"/>
            <Node pos="r" depth="3" NCoef="0" IVar="-1" Cut="0" cType="1" res="0.0016281" purity="0.599155" nType="-99"/>
          </Node>
        </Node>
      </Node>
    </BinaryTree>
    <BinaryTree type="DecisionTree" boostWeight="1.0" itree="162">
      <Node pos="s" depth="0" NCoef="0" IVar="1" Cut="207669" cType="1" res="0.00423046" purity="0.494252" nType="0">
        <Node pos="l" depth="1" NCoef="0" IVar="0" Cut="178025" cType="1" res="0.00733817" purity="0.498312" nType="0">
          <Node pos="l" depth="2" NCoef="0" IVar="0" Cut="126641" cType="1" res="-0.000500555" purity="0.475301" nType="0">
            <Node pos="l" depth="3" NCoef="0" IVar="6" Cut="1.37913" cType="1" res="0.0155402" purity="0.470419" nType="0">
              <Node pos="l" depth="4" NCoef="0" IVar="-1" Cut="0" cType="1" res="-0.000632079" purity="0.478001" nType="-99"/>
              <Node pos="r" depth="4" NCoef="0" IVar="-1" Cut="0" cType="1" res="0.00166812" purity="0.465662" nType="-99"/>
            </Node>
            <Node pos="r" depth="3" NCoef="0" IVar="6" Cut="0.613681" cType="1" res="-0.0207912" purity="0.481476" nType="0">
              <Node pos="l" depth="4" NCoef="0" IVar="-1" Cut="0" cType="1" res="0.00138965" purity="0.539988" nType="-99"/>
              <Node pos="r" depth="4" NCoef="0" IVar="-1" Cut="0" cType="1" res="-0.00151601" purity="0.470748" nType="-99"/>
            </Node>
          </Node>
          <Node pos="r" depth="2" NCoef="0" IVar="2" Cut="882.436" cType="1" res="0.0386072" purity="0.590105" nType="0">
            <Node pos="l" depth="3" NCoef="0" IVar="-1" Cut="0" cType="1" res="0.00384189" purity="0.587364" nType="-99"/>
            <Node pos="r" depth="3" NCoef="0" IVar="1" Cut="118670" cType="1" res="0.003733" purity="0.591674" nType="0">
              <Node pos="l" depth="4" NCoef="0" IVar="-1" Cut="0" cType="1" res="-0.000683575" purity="0.555827" nType="-99"/>
              <Node pos="r" depth="4" NCoef="0" IVar="-1" Cut="0" cType="1" res="0.00131176" purity="0.643808" nType="-99"/>
            </Node>
          </Node>
        </Node>
        <Node pos="r" depth="1" NCoef="0" IVar="-1" Cut="0" cType="1" res="-0.0036833" purity="0.400843" nType="-99"/>
      </Node>
    </BinaryTree>
    <BinaryTree type="DecisionTree" boostWeight="1.0" itree="163">
      <Node pos="s" depth="0" NCoef="0" IVar="1" Cut="223118" cType="1" res="0.0156417" purity="0.506655" nType="0">
        <Node pos="l" depth="1" NCoef="0" IVar="3" Cut="165441" cType="1" res="0.0121435" purity="0.503813" nType="0">
          <Node pos="l" depth="2" NCoef="0" IVar="2" Cut="-5811.1" cType="1" res="-0.00391278" purity="0.493181" nType="0">
            <Node pos="l" depth="3" NCoef="0" IVar="0" Cut="124363" cType="1" res="-0.0375329" purity="0.360227" nType="0">
              <Node pos="l" depth="4" NCoef="0" IVar="-1" Cut="0" cType="1" res="-0.000339382" purity="0.362314" nType="-99"/>
              <Node pos="r" depth="4" NCoef="0" IVar="-1" Cut="0" cType="1" res="-0.00437822" purity="0.358118" nType="-99"/>
            </Node>
            <Node pos="r" depth="3" NCoef="0" IVar="6" Cut="2.14526" cType="1" res="0.0041529" purity="0.525077" nType="0">
              <Node pos="l" depth="4" NCoef="0" IVar="-1" Cut="0" cType="1" res="-0.000461223" purity="0.521426" nType="-99"/>
              <Node pos="r" depth="4" NCoef="0" IVar="-1" Cut="0" cType="1" res="0.00172161" purity="0.533908" nType="-99"/>
            </Node>
          </Node>
          <Node pos="r" depth="2" NCoef="0" IVar="4" Cut="334131" cType="1" res="0.0243408" purity="0.511891" nType="0">
            <Node pos="l" depth="3" NCoef="0" IVar="3" Cut="204760" cType="1" res="0.0341267" purity="0.532158" nType="0">
              <Node pos="l" depth="4" NCoef="0" IVar="-1" Cut="0" cType="1" res="0.00187073" purity="0.542023" nType="-99"/>
              <Node pos="r" depth="4" NCoef="0" IVar="-1" Cut="0" cType="1" res="-0.000178741" purity="0.489587" nType="-99"/>
            </Node>
            <Node pos="r" depth="3" NCoef="0" IVar="3" Cut="187765" cType="1" res="-0.0263472" purity="0.406914" nType="0">
              <Node pos="l" depth="4" NCoef="0" IVar="-1" Cut="0" cType="1" res="-0.00389741" purity="0.371165" nType="-99"/>
              <Node pos="r" depth="4" NCoef="0" IVar="-1" Cut="0" cType="1" res="0.000503214" purity="0.439621" nType="-99"/>
            </Node>
          </Node>
        </Node>
        <Node pos="r" depth="1" NCoef="0" IVar="-1" Cut="0" cType="1" res="0.00399803" purity="0.575354" nType="-99"/>
      </Node>
    </BinaryTree>
    <BinaryTree type="DecisionTree" boostWeight="1.0" itree="164">
      <Node pos="s" depth="0" NCoef="0" IVar="6" Cut="2.75839" cType="1" res="-0.00224027" purity="0.489099" nType="0">
        <Node pos="l" depth="1" NCoef="0" IVar="6" Cut="1.34556" cType="1" res="0.00310021" purity="0.507052" nType="0">
          <Node pos="l" depth="2" NCoef="0" IVar="3" Cut="165716" cType="1" res="-0.0194162" purity="0.488346" nType="0">
            <Node pos="l" depth="3" NCoef="0" IVar="4" Cut="275693" cType="1" res="-0.0412029" purity="0.472262" nType="0">
              <Node pos="l" depth="4" NCoef="0" IVar="-1" Cut="0" cType="1" res="-0.00294579" purity="0.477974" nType="-99"/>
              <Node pos="r" depth="4" NCoef="0" IVar="-1" Cut="0" cType="1" res="-2.0325e-05" purity="0.459374" nType="-99"/>
            </Node>
            <Node pos="r" depth="3" NCoef="0" IVar="4" Cut="257436" cType="1" res="0.000237794" purity="0.502855" nType="0">
              <Node pos="l" depth="4" NCoef="0" IVar="-1" Cut="0" cType="1" res="0.00119515" purity="0.55864" nType="-99"/>
              <Node pos="r" depth="4" NCoef="0" IVar="-1" Cut="0" cType="1" res="-0.00294197" purity="0.397033" nType="-99"/>
            </Node>
          </Node>
          <Node pos="r" depth="2" NCoef="0" IVar="0" Cut="173167" cType="1" res="0.0169659" purity="0.518571" nType="0">
            <Node pos="l" depth="3" NCoef="0" IVar="0" Cut="126745" cType="1" res="0.00825372" purity="0.48305" nType="0">
              <Node pos="l" depth="4" NCoef="0" IVar="-1" Cut="0" cType="1" res="0.00146352" purity="0.478613" nType="-99"/>
              <Node pos="r" depth="4" NCoef="0" IVar="-1" Cut="0" cType="1" res="-0.000870736" purity="0.488418" nType="-99"/>
            </Node>
            <Node pos="r" depth="3" NCoef="0" IVar="6" Cut="1.89708" cType="1" res="0.0399884" purity="0.612437" nType="0">
              <Node pos="l" depth="4" NCoef="0" IVar="-1" Cut="0" cType="1" res="-0.000192101" purity="0.599905" nType="-99"/>
              <Node pos="r" depth="4" NCoef="0" IVar="-1" Cut="0" cType="1" res="0.0023196" purity="0.617353" nType="-99"/>
            </Node>
          </Node>
        </Node>
        <Node pos="r" depth="1" NCoef="0" IVar="6" Cut="2.91732" cType="1" res="-0.0365379" purity="0.373802" nType="0">
          <Node pos="l" depth="2" NCoef="0" IVar="-1" Cut="0" cType="1" res="-0.00548547" purity="0.332271" nType="-99"/>
          <Node pos="r" depth="2" NCoef="0" IVar="-1" Cut="0" cType="1" res="-0.000302291" purity="0.400768" nType="-99"/>
        </Node>
      </Node>
    </BinaryTree>
    <BinaryTree type="DecisionTree" boostWeight="1.0" itree="165">
      <Node pos="s" depth="0" NCoef="0" IVar="5" Cut="2.68224" cType="1" res="0.00152549" purity="0.494501" nType="0">
        <Node pos="l" depth="1" NCoef="0" IVar="3" Cut="118674" cType="1" res="0.00742511" purity="0.503921" nType="0">
          <Node pos="l" depth="2" NCoef="0" IVar="-1" Cut="0" cType="1" res="-0.00296996" purity="0.431445" nType="-99"/>
          <Node pos="r" depth="2" NCoef="0" IVar="0" Cut="202412" cType="1" res="0.0117417" purity="0.508961" nType="0">
            <Node pos="l" depth="3" NCoef="0" IVar="3" Cut="171681" cType="1" res="0.00649542" purity="0.493401" nType="0">
              <Node pos="l" depth="4" NCoef="0" IVar="-1" Cut="0" cType="1" res="0.000899767" purity="0.517507" nType="-99"/>
              <Node pos="r" depth="4" NCoef="0" IVar="-1" Cut="0" cType="1" res="-0.000381607" purity="0.467184" nType="-99"/>
            </Node>
            <Node pos="r" depth="3" NCoef="0" IVar="5" Cut="0.995093" cType="1" res="0.0466832" purity="0.612595" nType="0">
              <Node pos="l" depth="4" NCoef="0" IVar="-1" Cut="0" cType="1" res="0.00275669" purity="0.636954" nType="-99"/>
              <Node pos="r" depth="4" NCoef="0" IVar="-1" Cut="0" cType="1" res="0.000351226" purity="0.57718" nType="-99"/>
            </Node>
          </Node>
        </Node>
        <Node pos="r" depth="1" NCoef="0" IVar="-1" Cut="0" cType="1" res="-0.00412925" purity="0.378361" nType="-99"/>
      </Node>
    </BinaryTree>
    <BinaryTree type="DecisionTree" boostWeight="1.0" itree="166">
      <Node pos="s" depth="0" NCoef="0" IVar="0" Cut="114630" cType="1" res="0.00878015" purity="0.502483" nType="0">
        <Node pos="l" depth="1" NCoef="0" IVar="3" Cut="149519" cType="1" res="-0.0203791" purity="0.420459" nType="0">
          <Node pos="l" depth="2" NCoef="0" IVar="-1" Cut="0" cType="1" res="0.000777724" purity="0.457299" nType="-99"/>
          <Node pos="r" depth="2" NCoef="0" IVar="6" Cut="2.3748" cType="1" res="-0.0342245" purity="0.406334" nType="0">
            <Node pos="l" depth="3" NCoef="0" IVar="6" Cut="1.21623" cType="1" res="-0.0133097" purity="0.449895" nType="0">
              <Node pos="l" depth="4" NCoef="0" IVar="-1" Cut="0" cType="1" res="-0.00264773" purity="0.424554" nType="-99"/>
              <Node pos="r" depth="4" NCoef="0" IVar="-1" Cut="0" cType="1" res="0.000799679" purity="0.470752" nType="-99"/>
            </Node>
            <Node pos="r" depth="3" NCoef="0" IVar="-1" Cut="0" cType="1" res="-0.00706661" purity="0.282417" nType="-99"/>
          </Node>
        </Node>
        <Node pos="r" depth="1" NCoef="0" IVar="3" Cut="130428" cType="1" res="0.0185065" purity="0.529843" nType="0">
          <Node pos="l" depth="2" NCoef="0" IVar="0" Cut="150723" cType="1" res="0.0543658" purity="0.563242" nType="0">
            <Node pos="l" depth="3" NCoef="0" IVar="-1" Cut="0" cType="1" res="0.00352294" purity="0.579223" nType="-99"/>
            <Node pos="r" depth="3" NCoef="0" IVar="-1" Cut="0" cType="1" res="0.000463974" purity="0.541052" nType="-99"/>
          </Node>
          <Node pos="r" depth="2" NCoef="0" IVar="3" Cut="171775" cType="1" res="0.0132098" purity="0.52491" nType="0">
            <Node pos="l" depth="3" NCoef="0" IVar="0" Cut="141760" cType="1" res="-0.00746945" purity="0.511142" nType="0">
              <Node pos="l" depth="4" NCoef="0" IVar="-1" Cut="0" cType="1" res="-0.00238118" purity="0.444917" nType="-99"/>
              <Node pos="r" depth="4" NCoef="0" IVar="-1" Cut="0" cType="1" res="0.000850135" purity="0.557541" nType="-99"/>
            </Node>
            <Node pos="r" depth="3" NCoef="0" IVar="4" Cut="256269" cType="1" res="0.030935" purity="0.536711" nType="0">
              <Node pos="l" depth="4" NCoef="0" IVar="-1" Cut="0" cType="1" res="0.0021658" purity="0.576617" nType="-99"/>
              <Node pos="r" depth="4" NCoef="0" IVar="-1" Cut="0" cType="1" res="-0.000174725" purity="0.471088" nType="-99"/>
            </Node>
          </Node>
        </Node>
      </Node>
    </BinaryTree>
    <BinaryTree type="DecisionTree" boostWeight="1.0" itree="167">
      <Node pos="s" depth="0" NCoef="0" IVar="4" Cut="412188" cType="1" res="0.0104447" purity="0.50466" nType="0">
        <Node pos="l" depth="1" NCoef="0" IVar="2" Cut="4342.18" cType="1" res="0.0133915" purity="0.511749" nType="0">
          <Node pos="l" depth="2" NCoef="0" IVar="6" Cut="2.1461" cType="1" res="-0.00016074" purity="0.432143" nType="0">
            <Node pos="l" depth="3" NCoef="0" IVar="0" Cut="153506" cType="1" res="-0.0262639" purity="0.40478" nType="0">
              <Node pos="l" depth="4" NCoef="0" IVar="-1" Cut="0" cType="1" res="-0.000442419" purity="0.407689" nType="-99"/>
              <Node pos="r" depth="4" NCoef="0" IVar="-1" Cut="0" cType="1" res="-0.00412513" purity="0.396235" nType="-99"/>
            </Node>
            <Node pos="r" depth="3" NCoef="0" IVar="6" Cut="2.36459" cType="1" res="0.0144191" purity="0.447427" nType="0">
              <Node pos="l" depth="4" NCoef="0" IVar="-1" Cut="0" cType="1" res="0.00271226" purity="0.501872" nType="-99"/>
              <Node pos="r" depth="4" NCoef="0" IVar="-1" Cut="0" cType="1" res="0.000277107" purity="0.436017" nType="-99"/>
            </Node>
          </Node>
          <Node pos="r" depth="2" NCoef="0" IVar="1" Cut="151392" cType="1" res="0.026085" purity="0.586311" nType="0">
            <Node pos="l" depth="3" NCoef="0" IVar="1" Cut="110963" cType="1" res="0.035939" purity="0.598194" nType="0">
              <Node pos="l" depth="4" NCoef="0" IVar="-1" Cut="0" cType="1" res="0.000560987" purity="0.55361" nType="-99"/>
              <Node pos="r" depth="4" NCoef="0" IVar="-1" Cut="0" cType="1" res="0.00248797" purity="0.649425" nType="-99"/>
            </Node>
            <Node pos="r" depth="3" NCoef="0" IVar="-1" Cut="0" cType="1" res="-0.00106894" purity="0.526178" nType="-99"/>
          </Node>
        </Node>
        <Node pos="r" depth="1" NCoef="0" IVar="-1" Cut="0" cType="1" res="-0.00201679" purity="0.39592" nType="-99"/>
      </Node>
    </BinaryTree>
    <BinaryTree type="DecisionTree" boostWeight="1.0" itree="168">
      <Node pos="s" depth="0" NCoef="0" IVar="5" Cut="2.75868" cType="1" res="0.00565784" purity="0.499883" nType="0">
        <Node pos="l" depth="1" NCoef="0" IVar="0" Cut="217035" cType="1" res="0.010502" purity="0.507631" nType="0">
          <Node pos="l" depth="2" NCoef="0" IVar="4" Cut="168553" cType="1" res="0.0068411" purity="0.496639" nType="0">
            <Node pos="l" depth="3" NCoef="0" IVar="3" Cut="174641" cType="1" res="0.0301895" purity="0.567274" nType="0">
              <Node pos="l" depth="4" NCoef="0" IVar="-1" Cut="0" cType="1" res="0.00231137" purity="0.600029" nType="-99"/>
              <Node pos="r" depth="4" NCoef="0" IVar="-1" Cut="0" cType="1" res="-0.00069036" purity="0.508428" nType="-99"/>
            </Node>
            <Node pos="r" depth="3" NCoef="0" IVar="4" Cut="281727" cType="1" res="0.00161031" purity="0.480815" nType="0">
              <Node pos="l" depth="4" NCoef="0" IVar="-1" Cut="0" cType="1" res="-0.000427951" purity="0.488994" nType="-99"/>
              <Node pos="r" depth="4" NCoef="0" IVar="-1" Cut="0" cType="1" res="0.00104044" purity="0.465764" nType="-99"/>
            </Node>
          </Node>
          <Node pos="r" depth="2" NCoef="0" IVar="6" Cut="2.29866" cType="1" res="0.0463183" purity="0.615174" nType="0">
            <Node pos="l" depth="3" NCoef="0" IVar="-1" Cut="0" cType="1" res="0.000914387" purity="0.609419" nType="-99"/>
            <Node pos="r" depth="3" NCoef="0" IVar="-1" Cut="0" cType="1" res="0.00282843" purity="0.621781" nType="-99"/>
          </Node>
        </Node>
        <Node pos="r" depth="1" NCoef="0" IVar="-1" Cut="0" cType="1" res="-0.00417757" purity="0.377375" nType="-99"/>
      </Node>
    </BinaryTree>
    <BinaryTree type="DecisionTree" boostWeight="1.0" itree="169">
      <Node pos="s" depth="0" NCoef="0" IVar="5" Cut="0.616467" cType="1" res="0.0223139" purity="0.51339" nType="0">
        <Node pos="l" depth="1" NCoef="0" IVar="-1" Cut="0" cType="1" res="-0.00301024" purity="0.524957" nType="-99"/>
        <Node pos="r" depth="1" NCoef="0" IVar="4" Cut="314780" cType="1" res="0.0258068" purity="0.512914" nType="0">
          <Node pos="l" depth="2" NCoef="0" IVar="5" Cut="1.23234" cType="1" res="0.0163834" purity="0.518538" nType="0">
            <Node pos="l" depth="3" NCoef="0" IVar="0" Cut="202382" cType="1" res="0.0390722" purity="0.55529" nType="0">
              <Node pos="l" depth="4" NCoef="0" IVar="-1" Cut="0" cType="1" res="0.00112158" purity="0.530778" nType="-99"/>
              <Node pos="r" depth="4" NCoef="0" IVar="-1" Cut="0" cType="1" res="0.00374654" purity="0.663064" nType="-99"/>
            </Node>
            <Node pos="r" depth="3" NCoef="0" IVar="4" Cut="251995" cType="1" res="0.00152602" purity="0.494471" nType="0">
              <Node pos="l" depth="4" NCoef="0" IVar="-1" Cut="0" cType="1" res="0.000612731" purity="0.51918" nType="-99"/>
              <Node pos="r" depth="4" NCoef="0" IVar="-1" Cut="0" cType="1" res="-0.0018161" purity="0.419666" nType="-99"/>
            </Node>
          </Node>
          <Node pos="r" depth="2" NCoef="0" IVar="2" Cut="4209.48" cType="1" res="0.0572582" purity="0.494146" nType="0">
            <Node pos="l" depth="3" NCoef="0" IVar="2" Cut="-8665.58" cType="1" res="0.0803278" purity="0.471216" nType="0">
              <Node pos="l" depth="4" NCoef="0" IVar="-1" Cut="0" cType="1" res="0.00128113" purity="0.389165" nType="-99"/>
              <Node pos="r" depth="4" NCoef="0" IVar="-1" Cut="0" cType="1" res="0.0049081" purity="0.513636" nType="-99"/>
            </Node>
            <Node pos="r" depth="3" NCoef="0" IVar="6" Cut="1.08262" cType="1" res="0.0237457" purity="0.527455" nType="0">
              <Node pos="l" depth="4" NCoef="0" IVar="-1" Cut="0" cType="1" res="-0.000132407" purity="0.467208" nType="-99"/>
              <Node pos="r" depth="4" NCoef="0" IVar="-1" Cut="0" cType="1" res="0.00197229" purity="0.576166" nType="-99"/>
            </Node>
          </Node>
        </Node>
      </Node>
    </BinaryTree>
    <BinaryTree type="DecisionTree" boostWeight="1.0" itree="170">
      <Node pos="s" depth="0" NCoef="0" IVar="3" Cut="235440" cType="1" res="0.0057873" purity="0.499955" nType="0">
        <Node pos="l" depth="1" NCoef="0" IVar="0" Cut="109753" cType="1" res="0.00282393" purity="0.497287" nType="0">
          <Node pos="l" depth="2" NCoef="0" IVar="1" Cut="100214" cType="1" res="-0.0270259" purity="0.40903" nType="0">
            <Node pos="l" depth="3" NCoef="0" IVar="-1" Cut="0" cType="1" res="0.00110541" purity="0.444992" nType="-99"/>
            <Node pos="r" depth="3" NCoef="0" IVar="4" Cut="239735" cType="1" res="-0.0475309" purity="0.393775" nType="0">
              <Node pos="l" depth="4" NCoef="0" IVar="-1" Cut="0" cType="1" res="-0.00114596" purity="0.461133" nType="-99"/>
              <Node pos="r" depth="4" NCoef="0" IVar="-1" Cut="0" cType="1" res="-0.00590672" purity="0.300529" nType="-99"/>
            </Node>
          </Node>
          <Node pos="r" depth="2" NCoef="0" IVar="1" Cut="100239" cType="1" res="0.00911919" purity="0.515901" nType="0">
            <Node pos="l" depth="3" NCoef="0" IVar="1" Cut="96992.5" cType="1" res="-0.0126933" purity="0.463573" nType="0">
              <Node pos="l" depth="4" NCoef="0" IVar="-1" Cut="0" cType="1" res="0.000216694" purity="0.47828" nType="-99"/>
              <Node pos="r" depth="4" NCoef="0" IVar="-1" Cut="0" cType="1" res="-0.00328716" purity="0.421569" nType="-99"/>
            </Node>
            <Node pos="r" depth="3" NCoef="0" IVar="6" Cut="1.68574" cType="1" res="0.0179738" purity="0.537142" nType="0">
              <Node pos="l" depth="4" NCoef="0" IVar="-1" Cut="0" cType="1" res="0.00159742" purity="0.579948" nType="-99"/>
              <Node pos="r" depth="4" NCoef="0" IVar="-1" Cut="0" cType="1" res="-5.87703e-05" purity="0.496574" nType="-99"/>
            </Node>
          </Node>
        </Node>
        <Node pos="r" depth="1" NCoef="0" IVar="-1" Cut="0" cType="1" res="0.00311427" purity="0.562186" nType="-99"/>
      </Node>
    </BinaryTree>
    <BinaryTree type="DecisionTree" boostWeight="1.0" itree="171">
      <Node pos="s" depth="0" NCoef="0" IVar="6" Cut="2.37534" cType="1" res="0.00200225" purity="0.494611" nType="0">
        <Node pos="l" depth="1" NCoef="0" IVar="1" Cut="110479" cType="1" res="-0.00846175" purity="0.507259" nType="0">
          <Node pos="l" depth="2" NCoef="0" IVar="3" Cut="171281" cType="1" res="-0.0326989" purity="0.464496" nType="0">
            <Node pos="l" depth="3" NCoef="0" IVar="3" Cut="133376" cType="1" res="-0.0118702" purity="0.491872" nType="0">
              <Node pos="l" depth="4" NCoef="0" IVar="-1" Cut="0" cType="1" res="-0.00367226" purity="0.425474" nType="-99"/>
              <Node pos="r" depth="4" NCoef="0" IVar="-1" Cut="0" cType="1" res="0.00030053" purity="0.514307" nType="-99"/>
            </Node>
            <Node pos="r" depth="3" NCoef="0" IVar="0" Cut="153606" cType="1" res="-0.0585839" purity="0.430474" nType="0">
              <Node pos="l" depth="4" NCoef="0" IVar="-1" Cut="0" cType="1" res="-0.0043373" purity="0.386981" nType="-99"/>
              <Node pos="r" depth="4" NCoef="0" IVar="-1" Cut="0" cType="1" res="-0.000716941" purity="0.51928" nType="-99"/>
            </Node>
          </Node>
          <Node pos="r" depth="2" NCoef="0" IVar="6" Cut="0.637326" cType="1" res="0.0110861" purity="0.541748" nType="0">
            <Node pos="l" depth="3" NCoef="0" IVar="6" Cut="0.310774" cType="1" res="-0.0277197" purity="0.487255" nType="0">
              <Node pos="l" depth="4" NCoef="0" IVar="-1" Cut="0" cType="1" res="-0.00032981" purity="0.514872" nType="-99"/>
              <Node pos="r" depth="4" NCoef="0" IVar="-1" Cut="0" cType="1" res="-0.00241675" purity="0.454925" nType="-99"/>
            </Node>
            <Node pos="r" depth="3" NCoef="0" IVar="6" Cut="1.31591" cType="1" res="0.0226286" purity="0.557957" nType="0">
              <Node pos="l" depth="4" NCoef="0" IVar="-1" Cut="0" cType="1" res="0.002491" purity="0.595201" nType="-99"/>
              <Node pos="r" depth="4" NCoef="0" IVar="-1" Cut="0" cType="1" res="6.72706e-06" purity="0.535716" nType="-99"/>
            </Node>
          </Node>
        </Node>
        <Node pos="r" depth="1" NCoef="0" IVar="3" Cut="197212" cType="1" res="0.0261469" purity="0.465427" nType="0">
          <Node pos="l" depth="2" NCoef="0" IVar="6" Cut="2.9734" cType="1" res="0.00910333" purity="0.44801" nType="0">
            <Node pos="l" depth="3" NCoef="0" IVar="5" Cut="1.62105" cType="1" res="0.0231844" purity="0.469921" nType="0">
              <Node pos="l" depth="4" NCoef="0" IVar="-1" Cut="0" cType="1" res="0.000292872" purity="0.47145" nType="-99"/>
              <Node pos="r" depth="4" NCoef="0" IVar="-1" Cut="0" cType="1" res="0.00334673" purity="0.466161" nType="-99"/>
            </Node>
            <Node pos="r" depth="3" NCoef="0" IVar="-1" Cut="0" cType="1" res="-0.00307985" purity="0.354609" nType="-99"/>
          </Node>
          <Node pos="r" depth="2" NCoef="0" IVar="-1" Cut="0" cType="1" res="0.00415355" purity="0.537267" nType="-99"/>
        </Node>
      </Node>
    </BinaryTree>
    <BinaryTree type="DecisionTree" boostWeight="1.0" itree="172">
      <Node pos="s" depth="0" NCoef="0" IVar="2" Cut="21429.2" cType="1" res="0.0106502" purity="0.504765" nType="0">
        <Node pos="l" depth="1" NCoef="0" IVar="3" Cut="153760" cType="1" res="0.00499233" purity="0.479188" nType="0">
          <Node pos="l" depth="2" NCoef="0" IVar="6" Cut="1.99222" cType="1" res="-0.0151507" purity="0.460201" nType="0">
            <Node pos="l" depth="3" NCoef="0" IVar="4" Cut="256752" cType="1" res="-0.0415879" purity="0.447341" nType="0">
              <Node pos="l" depth="4" NCoef="0" IVar="-1" Cut="0" cType="1" res="-0.000916796" purity="0.491711" nType="-99"/>
              <Node pos="r" depth="4" NCoef="0" IVar="-1" Cut="0" cType="1" res="-0.00495291" purity="0.362211" nType="-99"/>
            </Node>
            <Node pos="r" depth="3" NCoef="0" IVar="2" Cut="-5468.5" cType="1" res="0.013169" purity="0.473976" nType="0">
              <Node pos="l" depth="4" NCoef="0" IVar="-1" Cut="0" cType="1" res="-0.00272346" purity="0.363684" nType="-99"/>
              <Node pos="r" depth="4" NCoef="0" IVar="-1" Cut="0" cType="1" res="0.00234555" purity="0.548543" nType="-99"/>
            </Node>
          </Node>
          <Node pos="r" depth="2" NCoef="0" IVar="3" Cut="182251" cType="1" res="0.0127571" purity="0.486508" nType="0">
            <Node pos="l" depth="3" NCoef="0" IVar="3" Cut="176690" cType="1" res="0.0319437" purity="0.509912" nType="0">
              <Node pos="l" depth="4" NCoef="0" IVar="-1" Cut="0" cType="1" res="0.00094911" purity="0.500073" nType="-99"/>
              <Node pos="r" depth="4" NCoef="0" IVar="-1" Cut="0" cType="1" res="0.00323963" purity="0.548487" nType="-99"/>
            </Node>
            <Node pos="r" depth="3" NCoef="0" IVar="0" Cut="197559" cType="1" res="-0.0135445" purity="0.454425" nType="0">
              <Node pos="l" depth="4" NCoef="0" IVar="-1" Cut="0" cType="1" res="-0.00132258" purity="0.429957" nType="-99"/>
              <Node pos="r" depth="4" NCoef="0" IVar="-1" Cut="0" cType="1" res="0.00209499" purity="0.588535" nType="-99"/>
            </Node>
          </Node>
        </Node>
        <Node pos="r" depth="1" NCoef="0" IVar="6" Cut="1.17159" cType="1" res="0.0506052" purity="0.685381" nType="0">
          <Node pos="l" depth="2" NCoef="0" IVar="-1" Cut="0" cType="1" res="0.000203144" purity="0.593022" nType="-99"/>
          <Node pos="r" depth="2" NCoef="0" IVar="-1" Cut="0" cType="1" res="0.00325638" purity="0.75616" nType="-99"/>
        </Node>
      </Node>
    </BinaryTree>
    <BinaryTree type="DecisionTree" boostWeight="1.0" itree="173">
      <Node pos="s" depth="0" NCoef="0" IVar="5" Cut="1.38772" cType="1" res="0.00676826" purity="0.501285" nType="0">
        <Node pos="l" depth="1" NCoef="0" IVar="0" Cut="231699" cType="1" res="0.0211875" purity="0.532336" nType="0">
          <Node pos="l" depth="2" NCoef="0" IVar="6" Cut="2.75844" cType="1" res="0.0141341" purity="0.517481" nType="0">
            <Node pos="l" depth="3" NCoef="0" IVar="0" Cut="109636" cType="1" res="0.0224582" purity="0.542824" nType="0">
              <Node pos="l" depth="4" NCoef="0" IVar="-1" Cut="0" cType="1" res="0.00278109" purity="0.528715" nType="-99"/>
              <Node pos="r" depth="4" NCoef="0" IVar="-1" Cut="0" cType="1" res="0.000680751" purity="0.545174" nType="-99"/>
            </Node>
            <Node pos="r" depth="3" NCoef="0" IVar="-1" Cut="0" cType="1" res="-0.00184844" purity="0.378595" nType="-99"/>
          </Node>
          <Node pos="r" depth="2" NCoef="0" IVar="-1" Cut="0" cType="1" res="0.00286116" purity="0.65231" nType="-99"/>
        </Node>
        <Node pos="r" depth="1" NCoef="0" IVar="2" Cut="13324.6" cType="1" res="-0.0080657" purity="0.469339" nType="0">
          <Node pos="l" depth="2" NCoef="0" IVar="1" Cut="100242" cType="1" res="-0.0162911" purity="0.431624" nType="0">
            <Node pos="l" depth="3" NCoef="0" IVar="-1" Cut="0" cType="1" res="0.00133478" purity="0.444487" nType="-99"/>
            <Node pos="r" depth="3" NCoef="0" IVar="0" Cut="114636" cType="1" res="-0.0255204" purity="0.428791" nType="0">
              <Node pos="l" depth="4" NCoef="0" IVar="-1" Cut="0" cType="1" res="-0.00446335" purity="0.335112" nType="-99"/>
              <Node pos="r" depth="4" NCoef="0" IVar="-1" Cut="0" cType="1" res="-0.000345301" purity="0.470778" nType="-99"/>
            </Node>
          </Node>
          <Node pos="r" depth="2" NCoef="0" IVar="-1" Cut="0" cType="1" res="0.000874544" purity="0.604841" nType="-99"/>
        </Node>
      </Node>
    </BinaryTree>
    <BinaryTree type="DecisionTree" boostWeight="1.0" itree="174">
      <Node pos="s" depth="0" NCoef="0" IVar="5" Cut="2.2228" cType="1" res="0.00431847" purity="0.495577" nType="0">
        <Node pos="l" depth="1" NCoef="0" IVar="3" Cut="212255" cType="1" res="0.0116596" purity="0.510019" nType="0">
          <Node pos="l" depth="2" NCoef="0" IVar="4" Cut="275665" cType="1" res="0.00635217" purity="0.505367" nType="0">
            <Node pos="l" depth="3" NCoef="0" IVar="3" Cut="156686" cType="1" res="-0.00449722" purity="0.510503" nType="0">
              <Node pos="l" depth="4" NCoef="0" IVar="-1" Cut="0" cType="1" res="-0.00153266" purity="0.487027" nType="-99"/>
              <Node pos="r" depth="4" NCoef="0" IVar="-1" Cut="0" cType="1" res="0.000438686" purity="0.522576" nType="-99"/>
            </Node>
            <Node pos="r" depth="3" NCoef="0" IVar="6" Cut="2.68166" cType="1" res="0.0323069" purity="0.49308" nType="0">
              <Node pos="l" depth="4" NCoef="0" IVar="-1" Cut="0" cType="1" res="0.000870895" purity="0.497459" nType="-99"/>
              <Node pos="r" depth="4" NCoef="0" IVar="-1" Cut="0" cType="1" res="0.00353147" purity="0.480119" nType="-99"/>
            </Node>
          </Node>
          <Node pos="r" depth="2" NCoef="0" IVar="-1" Cut="0" cType="1" res="0.00247331" purity="0.553151" nType="-99"/>
        </Node>
        <Node pos="r" depth="1" NCoef="0" IVar="5" Cut="2.87266" cType="1" res="-0.031538" purity="0.425033" nType="0">
          <Node pos="l" depth="2" NCoef="0" IVar="6" Cut="1.68471" cType="1" res="-0.0516711" purity="0.410747" nType="0">
            <Node pos="l" depth="3" NCoef="0" IVar="-1" Cut="0" cType="1" res="-0.000805105" purity="0.478952" nType="-99"/>
            <Node pos="r" depth="3" NCoef="0" IVar="-1" Cut="0" cType="1" res="-0.00770372" purity="0.298809" nType="-99"/>
          </Node>
          <Node pos="r" depth="2" NCoef="0" IVar="-1" Cut="0" cType="1" res="0.000950363" purity="0.460821" nType="-99"/>
        </Node>
      </Node>
    </BinaryTree>
    <BinaryTree type="DecisionTree" boostWeight="1.0" itree="175">
      <Node pos="s" depth="0" NCoef="0" IVar="6" Cut="1.07279" cType="1" res="0.00934171" purity="0.503398" nType="0">
        <Node pos="l" depth="1" NCoef="0" IVar="1" Cut="100233" cType="1" res="-0.0185451" purity="0.484556" nType="0">
          <Node pos="l" depth="2" NCoef="0" IVar="-1" Cut="0" cType="1" res="-0.00416469" purity="0.392903" nType="-99"/>
          <Node pos="r" depth="2" NCoef="0" IVar="3" Cut="187790" cType="1" res="-0.00109861" purity="0.511686" nType="0">
            <Node pos="l" depth="3" NCoef="0" IVar="2" Cut="11671.2" cType="1" res="0.0120976" purity="0.528934" nType="0">
              <Node pos="l" depth="4" NCoef="0" IVar="-1" Cut="0" cType="1" res="-0.00100659" purity="0.447634" nType="-99"/>
              <Node pos="r" depth="4" NCoef="0" IVar="-1" Cut="0" cType="1" res="0.00162681" purity="0.595962" nType="-99"/>
            </Node>
            <Node pos="r" depth="3" NCoef="0" IVar="-1" Cut="0" cType="1" res="-0.00263543" purity="0.445378" nType="-99"/>
          </Node>
        </Node>
        <Node pos="r" depth="1" NCoef="0" IVar="6" Cut="2.73795" cType="1" res="0.0189023" purity="0.509858" nType="0">
          <Node pos="l" depth="2" NCoef="0" IVar="1" Cut="115583" cType="1" res="0.0265037" purity="0.535196" nType="0">
            <Node pos="l" depth="3" NCoef="0" IVar="6" Cut="2.41291" cType="1" res="0.0139316" purity="0.511383" nType="0">
              <Node pos="l" depth="4" NCoef="0" IVar="-1" Cut="0" cType="1" res="0.00119534" purity="0.536139" nType="-99"/>
              <Node pos="r" depth="4" NCoef="0" IVar="-1" Cut="0" cType="1" res="-0.00164838" purity="0.426325" nType="-99"/>
            </Node>
            <Node pos="r" depth="3" NCoef="0" IVar="6" Cut="2.4128" cType="1" res="0.043238" purity="0.566892" nType="0">
              <Node pos="l" depth="4" NCoef="0" IVar="-1" Cut="0" cType="1" res="0.00106045" purity="0.561485" nType="-99"/>
              <Node pos="r" depth="4" NCoef="0" IVar="-1" Cut="0" cType="1" res="0.00445963" purity="0.585769" nType="-99"/>
            </Node>
          </Node>
          <Node pos="r" depth="2" NCoef="0" IVar="4" Cut="304955" cType="1" res="-0.0129768" purity="0.403593" nType="0">
            <Node pos="l" depth="3" NCoef="0" IVar="1" Cut="107547" cType="1" res="0.0144159" purity="0.438564" nType="0">
              <Node pos="l" depth="4" NCoef="0" IVar="-1" Cut="0" cType="1" res="0.00193639" purity="0.449395" nType="-99"/>
              <Node pos="r" depth="4" NCoef="0" IVar="-1" Cut="0" cType="1" res="-0.000915102" purity="0.423429" nType="-99"/>
            </Node>
            <Node pos="r" depth="3" NCoef="0" IVar="-1" Cut="0" cType="1" res="-0.00543608" purity="0.314974" nType="-99"/>
          </Node>
        </Node>
      </Node>
    </BinaryTree>
    <BinaryTree type="DecisionTree" boostWeight="1.0" itree="176">
      <Node pos="s" depth="0" NCoef="0" IVar="6" Cut="1.68572" cType="1" res="0.00928427" purity="0.501991" nType="0">
        <Node pos="l" depth="1" NCoef="0" IVar="6" Cut="1.52088" cType="1" res="0.0235467" purity="0.537786" nType="0">
          <Node pos="l" depth="2" NCoef="0" IVar="0" Cut="114620" cType="1" res="0.0159998" purity="0.527609" nType="0">
            <Node pos="l" depth="3" NCoef="0" IVar="2" Cut="9400.43" cType="1" res="-0.0124258" purity="0.453255" nType="0">
              <Node pos="l" depth="4" NCoef="0" IVar="-1" Cut="0" cType="1" res="0.000842679" purity="0.414358" nType="-99"/>
              <Node pos="r" depth="4" NCoef="0" IVar="-1" Cut="0" cType="1" res="-0.00180753" purity="0.48776" nType="-99"/>
            </Node>
            <Node pos="r" depth="3" NCoef="0" IVar="6" Cut="0.296818" cType="1" res="0.0271255" purity="0.55671" nType="0">
              <Node pos="l" depth="4" NCoef="0" IVar="-1" Cut="0" cType="1" res="0.00300334" purity="0.585829" nType="-99"/>
              <Node pos="r" depth="4" NCoef="0" IVar="-1" Cut="0" cType="1" res="0.000642216" purity="0.549227" nType="-99"/>
            </Node>
          </Node>
          <Node pos="r" depth="2" NCoef="0" IVar="-1" Cut="0" cType="1" res="0.00321061" purity="0.608749" nType="-99"/>
        </Node>
        <Node pos="r" depth="1" NCoef="0" IVar="0" Cut="109757" cType="1" res="-0.00301084" purity="0.471134" nType="0">
          <Node pos="l" depth="2" NCoef="0" IVar="1" Cut="109784" cType="1" res="0.0316895" purity="0.432896" nType="0">
            <Node pos="l" depth="3" NCoef="0" IVar="-1" Cut="0" cType="1" res="0.000559527" purity="0.411891" nType="-99"/>
            <Node pos="r" depth="3" NCoef="0" IVar="-1" Cut="0" cType="1" res="0.00271436" purity="0.453129" nType="-99"/>
          </Node>
          <Node pos="r" depth="2" NCoef="0" IVar="0" Cut="160783" cType="1" res="-0.0105628" purity="0.479456" nType="0">
            <Node pos="l" depth="3" NCoef="0" IVar="3" Cut="181120" cType="1" res="-0.0291917" purity="0.427326" nType="0">
              <Node pos="l" depth="4" NCoef="0" IVar="-1" Cut="0" cType="1" res="-0.00266855" purity="0.411897" nType="-99"/>
              <Node pos="r" depth="4" NCoef="0" IVar="-1" Cut="0" cType="1" res="0.000382444" purity="0.457438" nType="-99"/>
            </Node>
            <Node pos="r" depth="3" NCoef="0" IVar="4" Cut="265789" cType="1" res="0.0171475" purity="0.556998" nType="0">
              <Node pos="l" depth="4" NCoef="0" IVar="-1" Cut="0" cType="1" res="-0.000683156" purity="0.548175" nType="-99"/>
              <Node pos="r" depth="4" NCoef="0" IVar="-1" Cut="0" cType="1" res="0.00262212" purity="0.568855" nType="-99"/>
            </Node>
          </Node>
        </Node>
      </Node>
    </BinaryTree>
    <BinaryTree type="DecisionTree" boostWeight="1.0" itree="177">
      <Node pos="s" depth="0" NCoef="0" IVar="0" Cut="178027" cType="1" res="0.00601213" purity="0.500962" nType="0">
        <Node pos="l" depth="1" NCoef="0" IVar="0" Cut="166583" cType="1" res="-0.00185027" purity="0.475816" nType="0">
          <Node pos="l" depth="2" NCoef="0" IVar="3" Cut="159764" cType="1" res="0.00233894" purity="0.477306" nType="0">
            <Node pos="l" depth="3" NCoef="0" IVar="1" Cut="125321" cType="1" res="0.0244755" purity="0.507273" nType="0">
              <Node pos="l" depth="4" NCoef="0" IVar="-1" Cut="0" cType="1" res="0.000325162" purity="0.48064" nType="-99"/>
              <Node pos="r" depth="4" NCoef="0" IVar="-1" Cut="0" cType="1" res="0.00249334" purity="0.557006" nType="-99"/>
            </Node>
            <Node pos="r" depth="3" NCoef="0" IVar="6" Cut="1.07277" cType="1" res="-0.0111846" purity="0.458998" nType="0">
              <Node pos="l" depth="4" NCoef="0" IVar="-1" Cut="0" cType="1" res="-0.00207519" purity="0.452598" nType="-99"/>
              <Node pos="r" depth="4" NCoef="0" IVar="-1" Cut="0" cType="1" res="-4.47841e-05" purity="0.461237" nType="-99"/>
            </Node>
          </Node>
          <Node pos="r" depth="2" NCoef="0" IVar="-1" Cut="0" cType="1" res="-0.00344367" purity="0.452856" nType="-99"/>
        </Node>
        <Node pos="r" depth="1" NCoef="0" IVar="6" Cut="2.37528" cType="1" res="0.0349461" purity="0.593503" nType="0">
          <Node pos="l" depth="2" NCoef="0" IVar="0" Cut="207763" cType="1" res="0.053037" purity="0.627019" nType="0">
            <Node pos="l" depth="3" NCoef="0" IVar="-1" Cut="0" cType="1" res="0.0035704" purity="0.651027" nType="-99"/>
            <Node pos="r" depth="3" NCoef="0" IVar="-1" Cut="0" cType="1" res="0.000470635" purity="0.60095" nType="-99"/>
          </Node>
          <Node pos="r" depth="2" NCoef="0" IVar="-1" Cut="0" cType="1" res="-0.000147211" purity="0.522814" nType="-99"/>
        </Node>
      </Node>
    </BinaryTree>
    <BinaryTree type="DecisionTree" boostWeight="1.0" itree="178">
      <Node pos="s" depth="0" NCoef="0" IVar="1" Cut="166798" cType="1" res="0.0237592" purity="0.517665" nType="0">
        <Node pos="l" depth="1" NCoef="0" IVar="5" Cut="1.53417" cType="1" res="0.0287951" purity="0.523938" nType="0">
          <Node pos="l" depth="2" NCoef="0" IVar="6" Cut="0.919472" cType="1" res="0.0162737" purity="0.521628" nType="0">
            <Node pos="l" depth="3" NCoef="0" IVar="3" Cut="156835" cType="1" res="0.0569206" purity="0.551378" nType="0">
              <Node pos="l" depth="4" NCoef="0" IVar="-1" Cut="0" cType="1" res="-0.00112338" purity="0.474176" nType="-99"/>
              <Node pos="r" depth="4" NCoef="0" IVar="-1" Cut="0" cType="1" res="0.00383533" purity="0.591886" nType="-99"/>
            </Node>
            <Node pos="r" depth="3" NCoef="0" IVar="0" Cut="221865" cType="1" res="0.00558398" purity="0.513804" nType="0">
              <Node pos="l" depth="4" NCoef="0" IVar="-1" Cut="0" cType="1" res="-0.000125207" purity="0.495063" nType="-99"/>
              <Node pos="r" depth="4" NCoef="0" IVar="-1" Cut="0" cType="1" res="0.0023721" purity="0.641469" nType="-99"/>
            </Node>
          </Node>
          <Node pos="r" depth="2" NCoef="0" IVar="3" Cut="159901" cType="1" res="0.0501234" purity="0.527872" nType="0">
            <Node pos="l" depth="3" NCoef="0" IVar="1" Cut="123737" cType="1" res="0.0918404" purity="0.576462" nType="0">
              <Node pos="l" depth="4" NCoef="0" IVar="-1" Cut="0" cType="1" res="0.00253994" purity="0.529365" nType="-99"/>
              <Node pos="r" depth="4" NCoef="0" IVar="-1" Cut="0" cType="1" res="0.00520303" purity="0.632533" nType="-99"/>
            </Node>
            <Node pos="r" depth="3" NCoef="0" IVar="1" Cut="134961" cType="1" res="0.0207506" purity="0.49366" nType="0">
              <Node pos="l" depth="4" NCoef="0" IVar="-1" Cut="0" cType="1" res="0.00176205" purity="0.506105" nType="-99"/>
              <Node pos="r" depth="4" NCoef="0" IVar="-1" Cut="0" cType="1" res="-0.0016653" purity="0.453539" nType="-99"/>
            </Node>
          </Node>
        </Node>
        <Node pos="r" depth="1" NCoef="0" IVar="1" Cut="205765" cType="1" res="-0.0164768" purity="0.467549" nType="0">
          <Node pos="l" depth="2" NCoef="0" IVar="-1" Cut="0" cType="1" res="-0.00297016" purity="0.433195" nType="-99"/>
          <Node pos="r" depth="2" NCoef="0" IVar="-1" Cut="0" cType="1" res="0.00138841" purity="0.508768" nType="-99"/>
        </Node>
      </Node>
    </BinaryTree>
    <BinaryTree type="DecisionTree" boostWeight="1.0" itree="179">
      <Node pos="s" depth="0" NCoef="0" IVar="3" Cut="118756" cType="1" res="0.013892" purity="0.507561" nType="0">
        <Node pos="l" depth="1" NCoef="0" IVar="-1" Cut="0" cType="1" res="-0.00162411" purity="0.446067" nType="-99"/>
        <Node pos="r" depth="1" NCoef="0" IVar="2" Cut="17937.3" cType="1" res="0.0172658" purity="0.512166" nType="0">
          <Node pos="l" depth="2" NCoef="0" IVar="0" Cut="129268" cType="1" res="0.0111327" purity="0.479152" nType="0">
            <Node pos="l" depth="3" NCoef="0" IVar="1" Cut="145022" cType="1" res="0.0258307" purity="0.458533" nType="0">
              <Node pos="l" depth="4" NCoef="0" IVar="-1" Cut="0" cType="1" res="0.00186182" purity="0.47546" nType="-99"/>
              <Node pos="r" depth="4" NCoef="0" IVar="-1" Cut="0" cType="1" res="-0.00437191" purity="0.334773" nType="-99"/>
            </Node>
            <Node pos="r" depth="3" NCoef="0" IVar="4" Cut="314631" cType="1" res="-0.00162993" purity="0.497056" nType="0">
              <Node pos="l" depth="4" NCoef="0" IVar="-1" Cut="0" cType="1" res="-0.000655168" purity="0.498131" nType="-99"/>
              <Node pos="r" depth="4" NCoef="0" IVar="-1" Cut="0" cType="1" res="0.00145316" purity="0.494197" nType="-99"/>
            </Node>
          </Node>
          <Node pos="r" depth="2" NCoef="0" IVar="0" Cut="153364" cType="1" res="0.048669" purity="0.681205" nType="0">
            <Node pos="l" depth="3" NCoef="0" IVar="-1" Cut="0" cType="1" res="0.000303385" purity="0.608525" nType="-99"/>
            <Node pos="r" depth="3" NCoef="0" IVar="-1" Cut="0" cType="1" res="0.00393644" purity="0.784406" nType="-99"/>
          </Node>
        </Node>
      </Node>
    </BinaryTree>
    <BinaryTree type="DecisionTree" boostWeight="1.0" itree="180">
      <Node pos="s" depth="0" NCoef="0" IVar="4" Cut="334141" cType="1" res="0.00833768" purity="0.502526" nType="0">
        <Node pos="l" depth="1" NCoef="0" IVar="4" Cut="311279" cType="1" res="0.0142068" purity="0.520312" nType="0">
          <Node pos="l" depth="2" NCoef="0" IVar="2" Cut="10855.3" cType="1" res="0.00834061" purity="0.517213" nType="0">
            <Node pos="l" depth="3" NCoef="0" IVar="6" Cut="2.9117" cType="1" res="-0.00254404" purity="0.458366" nType="0">
              <Node pos="l" depth="4" NCoef="0" IVar="-1" Cut="0" cType="1" res="-0.000376325" purity="0.45887" nType="-99"/>
              <Node pos="r" depth="4" NCoef="0" IVar="-1" Cut="0" cType="1" res="0.00185913" purity="0.454487" nType="-99"/>
            </Node>
            <Node pos="r" depth="3" NCoef="0" IVar="3" Cut="182649" cType="1" res="0.0310828" purity="0.640166" nType="0">
              <Node pos="l" depth="4" NCoef="0" IVar="-1" Cut="0" cType="1" res="0.00201622" purity="0.663379" nType="-99"/>
              <Node pos="r" depth="4" NCoef="0" IVar="-1" Cut="0" cType="1" res="-0.00198679" purity="0.550978" nType="-99"/>
            </Node>
          </Node>
          <Node pos="r" depth="2" NCoef="0" IVar="-1" Cut="0" cType="1" res="0.00410805" purity="0.565009" nType="-99"/>
        </Node>
        <Node pos="r" depth="1" NCoef="0" IVar="4" Cut="378662" cType="1" res="-0.0186635" purity="0.420701" nType="0">
          <Node pos="l" depth="2" NCoef="0" IVar="-1" Cut="0" cType="1" res="-0.00401891" purity="0.375003" nType="-99"/>
          <Node pos="r" depth="2" NCoef="0" IVar="4" Cut="414207" cType="1" res="0.00929439" purity="0.447447" nType="0">
            <Node pos="l" depth="3" NCoef="0" IVar="-1" Cut="0" cType="1" res="0.00308197" purity="0.506477" nType="-99"/>
            <Node pos="r" depth="3" NCoef="0" IVar="-1" Cut="0" cType="1" res="-0.00199233" purity="0.400412" nType="-99"/>
          </Node>
        </Node>
      </Node>
    </BinaryTree>
    <BinaryTree type="DecisionTree" boostWeight="1.0" itree="181">
      <Node pos="s" depth="0" NCoef="0" IVar="5" Cut="2.14839" cType="1" res="0.00714443" purity="0.499929" nType="0">
        <Node pos="l" depth="1" NCoef="0" IVar="0" Cut="226740" cType="1" res="-0.000249526" purity="0.500333" nType="0">
          <Node pos="l" depth="2" NCoef="0" IVar="3" Cut="120215" cType="1" res="-0.00686041" purity="0.485892" nType="0">
            <Node pos="l" depth="3" NCoef="0" IVar="-1" Cut="0" cType="1" res="-0.00445242" purity="0.403876" nType="-99"/>
            <Node pos="r" depth="3" NCoef="0" IVar="3" Cut="216651" cType="1" res="-0.00163357" purity="0.491825" nType="0">
              <Node pos="l" depth="4" NCoef="0" IVar="-1" Cut="0" cType="1" res="0.000194188" purity="0.498366" nType="-99"/>
              <Node pos="r" depth="4" NCoef="0" IVar="-1" Cut="0" cType="1" res="-0.00428144" purity="0.402237" nType="-99"/>
            </Node>
          </Node>
          <Node pos="r" depth="2" NCoef="0" IVar="-1" Cut="0" cType="1" res="0.00258135" purity="0.650277" nType="-99"/>
        </Node>
        <Node pos="r" depth="1" NCoef="0" IVar="5" Cut="2.36635" cType="1" res="0.035408" purity="0.498385" nType="0">
          <Node pos="l" depth="2" NCoef="0" IVar="-1" Cut="0" cType="1" res="0.00345053" purity="0.567644" nType="-99"/>
          <Node pos="r" depth="2" NCoef="0" IVar="6" Cut="1.60888" cType="1" res="0.0154431" purity="0.468114" nType="0">
            <Node pos="l" depth="3" NCoef="0" IVar="-1" Cut="0" cType="1" res="-0.000912089" purity="0.468074" nType="-99"/>
            <Node pos="r" depth="3" NCoef="0" IVar="-1" Cut="0" cType="1" res="0.00303725" purity="0.46817" nType="-99"/>
          </Node>
        </Node>
      </Node>
    </BinaryTree>
    <BinaryTree type="DecisionTree" boostWeight="1.0" itree="182">
      <Node pos="s" depth="0" NCoef="0" IVar="4" Cut="392692" cType="1" res="0.00813904" purity="0.501468" nType="0">
        <Node pos="l" depth="1" NCoef="0" IVar="4" Cut="157165" cType="1" res="0.0136277" purity="0.512528" nType="0">
          <Node pos="l" depth="2" NCoef="0" IVar="0" Cut="143752" cType="1" res="-0.0422774" purity="0.506209" nType="0">
            <Node pos="l" depth="3" NCoef="0" IVar="-1" Cut="0" cType="1" res="-0.00367194" purity="0.45368" nType="-99"/>
            <Node pos="r" depth="3" NCoef="0" IVar="-1" Cut="0" cType="1" res="-0.000161129" purity="0.578094" nType="-99"/>
          </Node>
          <Node pos="r" depth="2" NCoef="0" IVar="4" Cut="214617" cType="1" res="0.0200553" purity="0.513255" nType="0">
            <Node pos="l" depth="3" NCoef="0" IVar="6" Cut="2.069" cType="1" res="0.0364165" purity="0.557509" nType="0">
              <Node pos="l" depth="4" NCoef="0" IVar="-1" Cut="0" cType="1" res="0.000985849" purity="0.567769" nType="-99"/>
              <Node pos="r" depth="4" NCoef="0" IVar="-1" Cut="0" cType="1" res="0.00242629" purity="0.542143" nType="-99"/>
            </Node>
            <Node pos="r" depth="3" NCoef="0" IVar="4" Cut="314512" cType="1" res="0.00728618" purity="0.478717" nType="0">
              <Node pos="l" depth="4" NCoef="0" IVar="-1" Cut="0" cType="1" res="-0.000454997" purity="0.470722" nType="-99"/>
              <Node pos="r" depth="4" NCoef="0" IVar="-1" Cut="0" cType="1" res="0.00205253" purity="0.495999" nType="-99"/>
            </Node>
          </Node>
        </Node>
        <Node pos="r" depth="1" NCoef="0" IVar="4" Cut="434594" cType="1" res="-0.053599" purity="0.377062" nType="0">
          <Node pos="l" depth="2" NCoef="0" IVar="-1" Cut="0" cType="1" res="-0.00549134" purity="0.345596" nType="-99"/>
          <Node pos="r" depth="2" NCoef="0" IVar="-1" Cut="0" cType="1" res="-0.00120496" purity="0.407103" nType="-99"/>
        </Node>
      </Node>
    </BinaryTree>
    <BinaryTree type="DecisionTree" boostWeight="1.0" itree="183">
      <Node pos="s" depth="0" NCoef="0" IVar="5" Cut="1.15103" cType="1" res="0.00398511" purity="0.499331" nType="0">
        <Node pos="l" depth="1" NCoef="0" IVar="2" Cut="17712.3" cType="1" res="-0.0204959" purity="0.500656" nType="0">
          <Node pos="l" depth="2" NCoef="0" IVar="0" Cut="202408" cType="1" res="-0.035853" purity="0.442834" nType="0">
            <Node pos="l" depth="3" NCoef="0" IVar="6" Cut="1.30247" cType="1" res="-0.0551152" purity="0.404117" nType="0">
              <Node pos="l" depth="4" NCoef="0" IVar="-1" Cut="0" cType="1" res="0.000501301" purity="0.472683" nType="-99"/>
              <Node pos="r" depth="4" NCoef="0" IVar="-1" Cut="0" cType="1" res="-0.00516521" purity="0.368132" nType="-99"/>
            </Node>
            <Node pos="r" depth="3" NCoef="0" IVar="-1" Cut="0" cType="1" res="0.000878255" purity="0.55714" nType="-99"/>
          </Node>
          <Node pos="r" depth="2" NCoef="0" IVar="-1" Cut="0" cType="1" res="0.00109979" purity="0.679666" nType="-99"/>
        </Node>
        <Node pos="r" depth="1" NCoef="0" IVar="3" Cut="188884" cType="1" res="0.01655" purity="0.49865" nType="0">
          <Node pos="l" depth="2" NCoef="0" IVar="2" Cut="2138.6" cType="1" res="0.00461108" purity="0.492338" nType="0">
            <Node pos="l" depth="3" NCoef="0" IVar="4" Cut="239687" cType="1" res="-0.0305342" purity="0.387908" nType="0">
              <Node pos="l" depth="4" NCoef="0" IVar="-1" Cut="0" cType="1" res="0.00034955" purity="0.44486" nType="-99"/>
              <Node pos="r" depth="4" NCoef="0" IVar="-1" Cut="0" cType="1" res="-0.00438932" purity="0.330706" nType="-99"/>
            </Node>
            <Node pos="r" depth="3" NCoef="0" IVar="3" Cut="135559" cType="1" res="0.0308141" purity="0.570196" nType="0">
              <Node pos="l" depth="4" NCoef="0" IVar="-1" Cut="0" cType="1" res="0.00283696" purity="0.606732" nType="-99"/>
              <Node pos="r" depth="4" NCoef="0" IVar="-1" Cut="0" cType="1" res="0.000852047" purity="0.559712" nType="-99"/>
            </Node>
          </Node>
          <Node pos="r" depth="2" NCoef="0" IVar="2" Cut="5189.35" cType="1" res="0.0542066" purity="0.518561" nType="0">
            <Node pos="l" depth="3" NCoef="0" IVar="1" Cut="120486" cType="1" res="0.0854314" purity="0.514349" nType="0">
              <Node pos="l" depth="4" NCoef="0" IVar="-1" Cut="0" cType="1" res="0.00250307" purity="0.472654" nType="-99"/>
              <Node pos="r" depth="4" NCoef="0" IVar="-1" Cut="0" cType="1" res="0.00497968" purity="0.55827" nType="-99"/>
            </Node>
            <Node pos="r" depth="3" NCoef="0" IVar="-1" Cut="0" cType="1" res="3.52258e-05" purity="0.52577" nType="-99"/>
          </Node>
        </Node>
      </Node>
    </BinaryTree>
    <BinaryTree type="DecisionTree" boostWeight="1.0" itree="184">
      <Node pos="s" depth="0" NCoef="0" IVar="3" Cut="118674" cType="1" res="0.00938996" purity="0.504549" nType="0">
        <Node pos="l" depth="1" NCoef="0" IVar="-1" Cut="0" cType="1" res="-0.00321334" purity="0.425351" nType="-99"/>
        <Node pos="r" depth="1" NCoef="0" IVar="4" Cut="207316" cType="1" res="0.0144981" purity="0.510517" nType="0">
          <Node pos="l" depth="2" NCoef="0" IVar="4" Cut="154966" cType="1" res="0.0296919" purity="0.563266" nType="0">
            <Node pos="l" depth="3" NCoef="0" IVar="-1" Cut="0" cType="1" res="-0.000787065" purity="0.530571" nType="-99"/>
            <Node pos="r" depth="3" NCoef="0" IVar="0" Cut="119451" cType="1" res="0.0423397" purity="0.572037" nType="0">
              <Node pos="l" depth="4" NCoef="0" IVar="-1" Cut="0" cType="1" res="0.00319535" purity="0.571513" nType="-99"/>
              <Node pos="r" depth="4" NCoef="0" IVar="-1" Cut="0" cType="1" res="0.000980451" purity="0.572345" nType="-99"/>
            </Node>
          </Node>
          <Node pos="r" depth="2" NCoef="0" IVar="3" Cut="202546" cType="1" res="0.0030267" purity="0.470691" nType="0">
            <Node pos="l" depth="3" NCoef="0" IVar="3" Cut="147313" cType="1" res="-0.00645271" purity="0.462394" nType="0">
              <Node pos="l" depth="4" NCoef="0" IVar="-1" Cut="0" cType="1" res="0.00168487" purity="0.512492" nType="-99"/>
              <Node pos="r" depth="4" NCoef="0" IVar="-1" Cut="0" cType="1" res="-0.00097214" purity="0.447978" nType="-99"/>
            </Node>
            <Node pos="r" depth="3" NCoef="0" IVar="0" Cut="139008" cType="1" res="0.047668" purity="0.509763" nType="0">
              <Node pos="l" depth="4" NCoef="0" IVar="-1" Cut="0" cType="1" res="0.00101504" purity="0.437504" nType="-99"/>
              <Node pos="r" depth="4" NCoef="0" IVar="-1" Cut="0" cType="1" res="0.00295105" purity="0.577781" nType="-99"/>
            </Node>
          </Node>
        </Node>
      </Node>
    </BinaryTree>
    <BinaryTree type="DecisionTree" boostWeight="1.0" itree="185">
      <Node pos="s" depth="0" NCoef="0" IVar="4" Cut="226850" cType="1" res="0.010529" purity="0.502886" nType="0">
        <Node pos="l" depth="1" NCoef="0" IVar="4" Cut="214481" cType="1" res="-0.00306334" purity="0.519669" nType="0">
          <Node pos="l" depth="2" NCoef="0" IVar="5" Cut="1.91591" cType="1" res="0.00714197" purity="0.534592" nType="0">
            <Node pos="l" depth="3" NCoef="0" IVar="2" Cut="-3078.9" cType="1" res="-0.00430333" purity="0.526416" nType="0">
              <Node pos="l" depth="4" NCoef="0" IVar="-1" Cut="0" cType="1" res="0.00198483" purity="0.472586" nType="-99"/>
              <Node pos="r" depth="4" NCoef="0" IVar="-1" Cut="0" cType="1" res="-0.000772537" purity="0.541305" nType="-99"/>
            </Node>
            <Node pos="r" depth="3" NCoef="0" IVar="-1" Cut="0" cType="1" res="0.00244736" purity="0.569263" nType="-99"/>
          </Node>
          <Node pos="r" depth="2" NCoef="0" IVar="-1" Cut="0" cType="1" res="-0.00505137" purity="0.391897" nType="-99"/>
        </Node>
        <Node pos="r" depth="1" NCoef="0" IVar="5" Cut="2.45256" cType="1" res="0.0238446" purity="0.486443" nType="0">
          <Node pos="l" depth="2" NCoef="0" IVar="0" Cut="207284" cType="1" res="0.0332184" purity="0.502857" nType="0">
            <Node pos="l" depth="3" NCoef="0" IVar="0" Cut="149676" cType="1" res="0.0258551" purity="0.48076" nType="0">
              <Node pos="l" depth="4" NCoef="0" IVar="-1" Cut="0" cType="1" res="0.00217552" purity="0.479306" nType="-99"/>
              <Node pos="r" depth="4" NCoef="0" IVar="-1" Cut="0" cType="1" res="-0.00117385" purity="0.48444" nType="-99"/>
            </Node>
            <Node pos="r" depth="3" NCoef="0" IVar="-1" Cut="0" cType="1" res="0.00310093" purity="0.634534" nType="-99"/>
          </Node>
          <Node pos="r" depth="2" NCoef="0" IVar="3" Cut="168229" cType="1" res="-0.0221432" purity="0.405916" nType="0">
            <Node pos="l" depth="3" NCoef="0" IVar="-1" Cut="0" cType="1" res="-0.00249422" purity="0.384916" nType="-99"/>
            <Node pos="r" depth="3" NCoef="0" IVar="-1" Cut="0" cType="1" res="8.60043e-05" purity="0.427993" nType="-99"/>
          </Node>
        </Node>
      </Node>
    </BinaryTree>
    <BinaryTree type="DecisionTree" boostWeight="1.0" itree="186">
      <Node pos="s" depth="0" NCoef="0" IVar="6" Cut="0.229934" cType="1" res="0.00270557" purity="0.495198" nType="0">
        <Node pos="l" depth="1" NCoef="0" IVar="-1" Cut="0" cType="1" res="-0.0023264" purity="0.449863" nType="-99"/>
        <Node pos="r" depth="1" NCoef="0" IVar="2" Cut="956.375" cType="1" res="0.00550741" purity="0.49777" nType="0">
          <Node pos="l" depth="2" NCoef="0" IVar="3" Cut="158725" cType="1" res="-0.00818874" purity="0.409462" nType="0">
            <Node pos="l" depth="3" NCoef="0" IVar="2" Cut="-8030.19" cType="1" res="0.0177377" purity="0.435242" nType="0">
              <Node pos="l" depth="4" NCoef="0" IVar="-1" Cut="0" cType="1" res="-0.001017" purity="0.377311" nType="-99"/>
              <Node pos="r" depth="4" NCoef="0" IVar="-1" Cut="0" cType="1" res="0.00195953" purity="0.477564" nType="-99"/>
            </Node>
            <Node pos="r" depth="3" NCoef="0" IVar="5" Cut="1.28831" cType="1" res="-0.0231322" purity="0.394603" nType="0">
              <Node pos="l" depth="4" NCoef="0" IVar="-1" Cut="0" cType="1" res="0.000622318" purity="0.438309" nType="-99"/>
              <Node pos="r" depth="4" NCoef="0" IVar="-1" Cut="0" cType="1" res="-0.00309463" purity="0.360971" nType="-99"/>
            </Node>
          </Node>
          <Node pos="r" depth="2" NCoef="0" IVar="0" Cut="143909" cType="1" res="0.0151474" purity="0.559925" nType="0">
            <Node pos="l" depth="3" NCoef="0" IVar="5" Cut="1.91559" cType="1" res="0.000585872" purity="0.519871" nType="0">
              <Node pos="l" depth="4" NCoef="0" IVar="-1" Cut="0" cType="1" res="-0.000965515" purity="0.510022" nType="-99"/>
              <Node pos="r" depth="4" NCoef="0" IVar="-1" Cut="0" cType="1" res="0.00194893" purity="0.539654" nType="-99"/>
            </Node>
            <Node pos="r" depth="3" NCoef="0" IVar="0" Cut="166764" cType="1" res="0.032756" purity="0.60836" nType="0">
              <Node pos="l" depth="4" NCoef="0" IVar="-1" Cut="0" cType="1" res="0.00288255" purity="0.632045" nType="-99"/>
              <Node pos="r" depth="4" NCoef="0" IVar="-1" Cut="0" cType="1" res="0.000285172" purity="0.593487" nType="-99"/>
            </Node>
          </Node>
        </Node>
      </Node>
    </BinaryTree>
    <BinaryTree type="DecisionTree" boostWeight="1.0" itree="187">
      <Node pos="s" depth="0" NCoef="0" IVar="4" Cut="246340" cType="1" res="7.54817e-05" purity="0.496469" nType="0">
        <Node pos="l" depth="1" NCoef="0" IVar="0" Cut="202293" cType="1" res="0.0135023" purity="0.535928" nType="0">
          <Node pos="l" depth="2" NCoef="0" IVar="5" Cut="0.845929" cType="1" res="0.00713352" purity="0.520617" nType="0">
            <Node pos="l" depth="3" NCoef="0" IVar="-1" Cut="0" cType="1" res="-0.0031864" purity="0.48294" nType="-99"/>
            <Node pos="r" depth="3" NCoef="0" IVar="6" Cut="2.68156" cType="1" res="0.0161439" purity="0.525572" nType="0">
              <Node pos="l" depth="4" NCoef="0" IVar="-1" Cut="0" cType="1" res="0.001166" purity="0.549494" nType="-99"/>
              <Node pos="r" depth="4" NCoef="0" IVar="-1" Cut="0" cType="1" res="-0.00342311" purity="0.359422" nType="-99"/>
            </Node>
          </Node>
          <Node pos="r" depth="2" NCoef="0" IVar="-1" Cut="0" cType="1" res="0.00236584" purity="0.654088" nType="-99"/>
        </Node>
        <Node pos="r" depth="1" NCoef="0" IVar="6" Cut="2.91142" cType="1" res="-0.0198206" purity="0.437998" nType="0">
          <Node pos="l" depth="2" NCoef="0" IVar="6" Cut="2.34333" cType="1" res="-0.0301707" purity="0.435945" nType="0">
            <Node pos="l" depth="3" NCoef="0" IVar="6" Cut="0.742952" cType="1" res="-0.0145047" purity="0.464581" nType="0">
              <Node pos="l" depth="4" NCoef="0" IVar="-1" Cut="0" cType="1" res="-0.004473" purity="0.376149" nType="-99"/>
              <Node pos="r" depth="4" NCoef="0" IVar="-1" Cut="0" cType="1" res="0.000340516" purity="0.494059" nType="-99"/>
            </Node>
            <Node pos="r" depth="3" NCoef="0" IVar="1" Cut="120704" cType="1" res="-0.0761414" purity="0.351918" nType="0">
              <Node pos="l" depth="4" NCoef="0" IVar="-1" Cut="0" cType="1" res="-0.00912949" purity="0.290658" nType="-99"/>
              <Node pos="r" depth="4" NCoef="0" IVar="-1" Cut="0" cType="1" res="-0.00121851" purity="0.420053" nType="-99"/>
            </Node>
          </Node>
          <Node pos="r" depth="2" NCoef="0" IVar="-1" Cut="0" cType="1" res="0.00339226" purity="0.454665" nType="-99"/>
        </Node>
      </Node>
    </BinaryTree>
    <BinaryTree type="DecisionTree" boostWeight="1.0" itree="188">
      <Node pos="s" depth="0" NCoef="0" IVar="4" Cut="178102" cType="1" res="0.00942779" purity="0.503967" nType="0">
        <Node pos="l" depth="1" NCoef="0" IVar="3" Cut="188268" cType="1" res="0.0376312" purity="0.583454" nType="0">
          <Node pos="l" depth="2" NCoef="0" IVar="6" Cut="1.45604" cType="1" res="0.0510643" purity="0.601715" nType="0">
            <Node pos="l" depth="3" NCoef="0" IVar="-1" Cut="0" cType="1" res="0.00358924" purity="0.651424" nType="-99"/>
            <Node pos="r" depth="3" NCoef="0" IVar="2" Cut="5224.02" cType="1" res="0.0192905" purity="0.563263" nType="0">
              <Node pos="l" depth="4" NCoef="0" IVar="-1" Cut="0" cType="1" res="-0.000774717" purity="0.447862" nType="-99"/>
              <Node pos="r" depth="4" NCoef="0" IVar="-1" Cut="0" cType="1" res="0.00189479" purity="0.657269" nType="-99"/>
            </Node>
          </Node>
          <Node pos="r" depth="2" NCoef="0" IVar="-1" Cut="0" cType="1" res="-0.00111672" purity="0.50058" nType="-99"/>
        </Node>
        <Node pos="r" depth="1" NCoef="0" IVar="3" Cut="153756" cType="1" res="0.000384665" purity="0.47848" nType="0">
          <Node pos="l" depth="2" NCoef="0" IVar="2" Cut="6069.76" cType="1" res="0.0282712" purity="0.508874" nType="0">
            <Node pos="l" depth="3" NCoef="0" IVar="2" Cut="452.796" cType="1" res="0.0576054" purity="0.485327" nType="0">
              <Node pos="l" depth="4" NCoef="0" IVar="-1" Cut="0" cType="1" res="0.00166751" purity="0.444103" nType="-99"/>
              <Node pos="r" depth="4" NCoef="0" IVar="-1" Cut="0" cType="1" res="0.00439816" purity="0.576761" nType="-99"/>
            </Node>
            <Node pos="r" depth="3" NCoef="0" IVar="6" Cut="1.18215" cType="1" res="-0.016696" purity="0.54497" nType="0">
              <Node pos="l" depth="4" NCoef="0" IVar="-1" Cut="0" cType="1" res="-0.00232104" purity="0.482581" nType="-99"/>
              <Node pos="r" depth="4" NCoef="0" IVar="-1" Cut="0" cType="1" res="0.000756462" purity="0.611745" nType="-99"/>
            </Node>
          </Node>
          <Node pos="r" depth="2" NCoef="0" IVar="1" Cut="115583" cType="1" res="-0.0129058" purity="0.463995" nType="0">
            <Node pos="l" depth="3" NCoef="0" IVar="2" Cut="10463" cType="1" res="-0.0325635" purity="0.423998" nType="0">
              <Node pos="l" depth="4" NCoef="0" IVar="-1" Cut="0" cType="1" res="-0.00308681" purity="0.369335" nType="-99"/>
              <Node pos="r" depth="4" NCoef="0" IVar="-1" Cut="0" cType="1" res="0.00115719" purity="0.595782" nType="-99"/>
            </Node>
            <Node pos="r" depth="3" NCoef="0" IVar="0" Cut="163396" cType="1" res="0.00692812" purity="0.50435" nType="0">
              <Node pos="l" depth="4" NCoef="0" IVar="-1" Cut="0" cType="1" res="-0.000507246" purity="0.461294" nType="-99"/>
              <Node pos="r" depth="4" NCoef="0" IVar="-1" Cut="0" cType="1" res="0.00187911" purity="0.60269" nType="-99"/>
            </Node>
          </Node>
        </Node>
      </Node>
    </BinaryTree>
    <BinaryTree type="DecisionTree" boostWeight="1.0" itree="189">
      <Node pos="s" depth="0" NCoef="0" IVar="6" Cut="1.6857" cType="1" res="-0.000526745" purity="0.492277" nType="0">
        <Node pos="l" depth="1" NCoef="0" IVar="5" Cut="1.22851" cType="1" res="-0.0257485" purity="0.495754" nType="0">
          <Node pos="l" depth="2" NCoef="0" IVar="4" Cut="188547" cType="1" res="0.00317963" purity="0.536355" nType="0">
            <Node pos="l" depth="3" NCoef="0" IVar="-1" Cut="0" cType="1" res="0.00131529" purity="0.604193" nType="-99"/>
            <Node pos="r" depth="3" NCoef="0" IVar="6" Cut="0.781199" cType="1" res="-0.01823" purity="0.485476" nType="0">
              <Node pos="l" depth="4" NCoef="0" IVar="-1" Cut="0" cType="1" res="0.000656796" purity="0.481393" nType="-99"/>
              <Node pos="r" depth="4" NCoef="0" IVar="-1" Cut="0" cType="1" res="-0.00218558" purity="0.489161" nType="-99"/>
            </Node>
          </Node>
          <Node pos="r" depth="2" NCoef="0" IVar="5" Cut="1.64868" cType="1" res="-0.0426742" purity="0.471999" nType="0">
            <Node pos="l" depth="3" NCoef="0" IVar="-1" Cut="0" cType="1" res="-0.00475279" purity="0.439118" nType="-99"/>
            <Node pos="r" depth="3" NCoef="0" IVar="3" Cut="161303" cType="1" res="-0.023455" purity="0.48597" nType="0">
              <Node pos="l" depth="4" NCoef="0" IVar="-1" Cut="0" cType="1" res="0.000557796" purity="0.532447" nType="-99"/>
              <Node pos="r" depth="4" NCoef="0" IVar="-1" Cut="0" cType="1" res="-0.00268608" purity="0.449497" nType="-99"/>
            </Node>
          </Node>
        </Node>
        <Node pos="r" depth="1" NCoef="0" IVar="0" Cut="119510" cType="1" res="0.0186594" purity="0.489633" nType="0">
          <Node pos="l" depth="2" NCoef="0" IVar="6" Cut="2.71586" cType="1" res="0.0435313" purity="0.456555" nType="0">
            <Node pos="l" depth="3" NCoef="0" IVar="5" Cut="1.69518" cType="1" res="0.0716393" purity="0.502173" nType="0">
              <Node pos="l" depth="4" NCoef="0" IVar="-1" Cut="0" cType="1" res="0.0041666" purity="0.555275" nType="-99"/>
              <Node pos="r" depth="4" NCoef="0" IVar="-1" Cut="0" cType="1" res="0.00223018" purity="0.441069" nType="-99"/>
            </Node>
            <Node pos="r" depth="3" NCoef="0" IVar="-1" Cut="0" cType="1" res="-0.00231973" purity="0.330814" nType="-99"/>
          </Node>
          <Node pos="r" depth="2" NCoef="0" IVar="6" Cut="2.92843" cType="1" res="0.0069637" purity="0.505187" nType="0">
            <Node pos="l" depth="3" NCoef="0" IVar="0" Cut="229537" cType="1" res="-0.00403004" purity="0.50586" nType="0">
              <Node pos="l" depth="4" NCoef="0" IVar="-1" Cut="0" cType="1" res="-0.000646573" purity="0.484905" nType="-99"/>
              <Node pos="r" depth="4" NCoef="0" IVar="-1" Cut="0" cType="1" res="0.00230817" purity="0.641032" nType="-99"/>
            </Node>
            <Node pos="r" depth="3" NCoef="0" IVar="-1" Cut="0" cType="1" res="0.00331707" purity="0.501325" nType="-99"/>
          </Node>
        </Node>
      </Node>
    </BinaryTree>
    <BinaryTree type="DecisionTree" boostWeight="1.0" itree="190">
      <Node pos="s" depth="0" NCoef="0" IVar="5" Cut="2.75868" cType="1" res="0.012971" purity="0.507665" nType="0">
        <Node pos="l" depth="1" NCoef="0" IVar="3" Cut="147907" cType="1" res="0.0165966" purity="0.514556" nType="0">
          <Node pos="l" depth="2" NCoef="0" IVar="6" Cut="1.99207" cType="1" res="0.0389011" purity="0.540942" nType="0">
            <Node pos="l" depth="3" NCoef="0" IVar="4" Cut="265950" cType="1" res="0.0149409" purity="0.54246" nType="0">
              <Node pos="l" depth="4" NCoef="0" IVar="-1" Cut="0" cType="1" res="-0.000330227" purity="0.536255" nType="-99"/>
              <Node pos="r" depth="4" NCoef="0" IVar="-1" Cut="0" cType="1" res="0.00258896" purity="0.554911" nType="-99"/>
            </Node>
            <Node pos="r" depth="3" NCoef="0" IVar="5" Cut="1.29148" cType="1" res="0.0715365" purity="0.538875" nType="0">
              <Node pos="l" depth="4" NCoef="0" IVar="-1" Cut="0" cType="1" res="0.00392055" purity="0.591706" nType="-99"/>
              <Node pos="r" depth="4" NCoef="0" IVar="-1" Cut="0" cType="1" res="0.00211253" purity="0.478205" nType="-99"/>
            </Node>
          </Node>
          <Node pos="r" depth="2" NCoef="0" IVar="2" Cut="-13338.7" cType="1" res="0.00907084" purity="0.505654" nType="0">
            <Node pos="l" depth="3" NCoef="0" IVar="-1" Cut="0" cType="1" res="-0.00318926" purity="0.341096" nType="-99"/>
            <Node pos="r" depth="3" NCoef="0" IVar="6" Cut="1.14928" cType="1" res="0.0139243" purity="0.519335" nType="0">
              <Node pos="l" depth="4" NCoef="0" IVar="-1" Cut="0" cType="1" res="-0.000440908" purity="0.496397" nType="-99"/>
              <Node pos="r" depth="4" NCoef="0" IVar="-1" Cut="0" cType="1" res="0.00101357" purity="0.527591" nType="-99"/>
            </Node>
          </Node>
        </Node>
        <Node pos="r" depth="1" NCoef="0" IVar="-1" Cut="0" cType="1" res="-0.0024497" purity="0.402108" nType="-99"/>
      </Node>
    </BinaryTree>
    <BinaryTree type="DecisionTree" boostWeight="1.0" itree="191">
      <Node pos="s" depth="0" NCoef="0" IVar="0" Cut="129259" cType="1" res="0.0155542" purity="0.509652" nType="0">
        <Node pos="l" depth="1" NCoef="0" IVar="5" Cut="1.08324" cType="1" res="0.0373185" purity="0.494943" nType="0">
          <Node pos="l" depth="2" NCoef="0" IVar="2" Cut="8734.3" cType="1" res="-0.00996944" purity="0.471984" nType="0">
            <Node pos="l" depth="3" NCoef="0" IVar="-1" Cut="0" cType="1" res="0.00122331" purity="0.421002" nType="-99"/>
            <Node pos="r" depth="3" NCoef="0" IVar="-1" Cut="0" cType="1" res="-0.00195925" purity="0.523611" nType="-99"/>
          </Node>
          <Node pos="r" depth="2" NCoef="0" IVar="4" Cut="168296" cType="1" res="0.0477934" purity="0.500029" nType="0">
            <Node pos="l" depth="3" NCoef="0" IVar="-1" Cut="0" cType="1" res="0.00390434" purity="0.605696" nType="-99"/>
            <Node pos="r" depth="3" NCoef="0" IVar="5" Cut="1.33412" cType="1" res="0.0383745" purity="0.478623" nType="0">
              <Node pos="l" depth="4" NCoef="0" IVar="-1" Cut="0" cType="1" res="0.00385812" purity="0.541209" nType="-99"/>
              <Node pos="r" depth="4" NCoef="0" IVar="-1" Cut="0" cType="1" res="0.00131066" purity="0.46369" nType="-99"/>
            </Node>
          </Node>
        </Node>
        <Node pos="r" depth="1" NCoef="0" IVar="1" Cut="105351" cType="1" res="-0.00395971" purity="0.522839" nType="0">
          <Node pos="l" depth="2" NCoef="0" IVar="3" Cut="171042" cType="1" res="-0.0399037" purity="0.454522" nType="0">
            <Node pos="l" depth="3" NCoef="0" IVar="6" Cut="1.91576" cType="1" res="-0.0689562" purity="0.426271" nType="0">
              <Node pos="l" depth="4" NCoef="0" IVar="-1" Cut="0" cType="1" res="-0.00184662" purity="0.475589" nType="-99"/>
              <Node pos="r" depth="4" NCoef="0" IVar="-1" Cut="0" cType="1" res="-0.00591149" purity="0.380773" nType="-99"/>
            </Node>
            <Node pos="r" depth="3" NCoef="0" IVar="5" Cut="1.00293" cType="1" res="-0.011866" purity="0.481787" nType="0">
              <Node pos="l" depth="4" NCoef="0" IVar="-1" Cut="0" cType="1" res="-0.00235835" purity="0.458655" nType="-99"/>
              <Node pos="r" depth="4" NCoef="0" IVar="-1" Cut="0" cType="1" res="0.00116257" purity="0.506167" nType="-99"/>
            </Node>
          </Node>
          <Node pos="r" depth="2" NCoef="0" IVar="0" Cut="137589" cType="1" res="0.0184601" purity="0.565452" nType="0">
            <Node pos="l" depth="3" NCoef="0" IVar="-1" Cut="0" cType="1" res="-0.00282927" purity="0.447884" nType="-99"/>
            <Node pos="r" depth="3" NCoef="0" IVar="4" Cut="238113" cType="1" res="0.0307066" purity="0.585308" nType="0">
              <Node pos="l" depth="4" NCoef="0" IVar="-1" Cut="0" cType="1" res="0.00228255" purity="0.647512" nType="-99"/>
              <Node pos="r" depth="4" NCoef="0" IVar="-1" Cut="0" cType="1" res="0.000465723" purity="0.536309" nType="-99"/>
            </Node>
          </Node>
        </Node>
      </Node>
    </BinaryTree>
    <BinaryTree type="DecisionTree" boostWeight="1.0" itree="192">
      <Node pos="s" depth="0" NCoef="0" IVar="4" Cut="402430" cType="1" res="-0.000163136" purity="0.49455" nType="0">
        <Node pos="l" depth="1" NCoef="0" IVar="2" Cut="14547.9" cType="1" res="0.00399934" purity="0.503774" nType="0">
          <Node pos="l" depth="2" NCoef="0" IVar="4" Cut="181189" cType="1" res="-0.00147654" purity="0.463121" nType="0">
            <Node pos="l" depth="3" NCoef="0" IVar="4" Cut="151507" cType="1" res="-0.0281086" purity="0.466996" nType="0">
              <Node pos="l" depth="4" NCoef="0" IVar="-1" Cut="0" cType="1" res="0.00114246" purity="0.520307" nType="-99"/>
              <Node pos="r" depth="4" NCoef="0" IVar="-1" Cut="0" cType="1" res="-0.00272989" purity="0.442115" nType="-99"/>
            </Node>
            <Node pos="r" depth="3" NCoef="0" IVar="4" Cut="332283" cType="1" res="0.00689222" purity="0.461904" nType="0">
              <Node pos="l" depth="4" NCoef="0" IVar="-1" Cut="0" cType="1" res="0.000665452" purity="0.476931" nType="-99"/>
              <Node pos="r" depth="4" NCoef="0" IVar="-1" Cut="0" cType="1" res="-0.00202384" purity="0.376269" nType="-99"/>
            </Node>
          </Node>
          <Node pos="r" depth="2" NCoef="0" IVar="1" Cut="110428" cType="1" res="0.0233652" purity="0.647546" nType="0">
            <Node pos="l" depth="3" NCoef="0" IVar="-1" Cut="0" cType="1" res="-0.000506219" purity="0.606418" nType="-99"/>
            <Node pos="r" depth="3" NCoef="0" IVar="1" Cut="138081" cType="1" res="0.0451146" purity="0.673074" nType="0">
              <Node pos="l" depth="4" NCoef="0" IVar="-1" Cut="0" cType="1" res="0.00287479" purity="0.721653" nType="-99"/>
              <Node pos="r" depth="4" NCoef="0" IVar="-1" Cut="0" cType="1" res="0.000467572" purity="0.609863" nType="-99"/>
            </Node>
          </Node>
        </Node>
        <Node pos="r" depth="1" NCoef="0" IVar="-1" Cut="0" cType="1" res="-0.00325793" purity="0.373395" nType="-99"/>
      </Node>
    </BinaryTree>
    <BinaryTree type="DecisionTree" boostWeight="1.0" itree="193">
      <Node pos="s" depth="0" NCoef="0" IVar="1" Cut="177034" cType="1" res="0.00705109" purity="0.497357" nType="0">
        <Node pos="l" depth="1" NCoef="0" IVar="3" Cut="147919" cType="1" res="0.00270704" purity="0.49485" nType="0">
          <Node pos="l" depth="2" NCoef="0" IVar="3" Cut="128685" cType="1" res="-0.0178522" purity="0.481534" nType="0">
            <Node pos="l" depth="3" NCoef="0" IVar="2" Cut="5615.21" cType="1" res="0.0107389" purity="0.507968" nType="0">
              <Node pos="l" depth="4" NCoef="0" IVar="-1" Cut="0" cType="1" res="-0.00128432" purity="0.404251" nType="-99"/>
              <Node pos="r" depth="4" NCoef="0" IVar="-1" Cut="0" cType="1" res="0.00190808" purity="0.61215" nType="-99"/>
            </Node>
            <Node pos="r" depth="3" NCoef="0" IVar="4" Cut="256011" cType="1" res="-0.0461518" purity="0.455369" nType="0">
              <Node pos="l" depth="4" NCoef="0" IVar="-1" Cut="0" cType="1" res="-0.00438623" purity="0.443975" nType="-99"/>
              <Node pos="r" depth="4" NCoef="0" IVar="-1" Cut="0" cType="1" res="0.000404323" purity="0.473818" nType="-99"/>
            </Node>
          </Node>
          <Node pos="r" depth="2" NCoef="0" IVar="4" Cut="236600" cType="1" res="0.0089145" purity="0.498871" nType="0">
            <Node pos="l" depth="3" NCoef="0" IVar="3" Cut="159042" cType="1" res="0.0258607" purity="0.54246" nType="0">
              <Node pos="l" depth="4" NCoef="0" IVar="-1" Cut="0" cType="1" res="0.0030467" purity="0.608366" nType="-99"/>
              <Node pos="r" depth="4" NCoef="0" IVar="-1" Cut="0" cType="1" res="0.000675858" purity="0.528211" nType="-99"/>
            </Node>
            <Node pos="r" depth="3" NCoef="0" IVar="4" Cut="268709" cType="1" res="-0.0171396" purity="0.431855" nType="0">
              <Node pos="l" depth="4" NCoef="0" IVar="-1" Cut="0" cType="1" res="-0.00363026" purity="0.406198" nType="-99"/>
              <Node pos="r" depth="4" NCoef="0" IVar="-1" Cut="0" cType="1" res="-1.47811e-05" purity="0.440591" nType="-99"/>
            </Node>
          </Node>
        </Node>
        <Node pos="r" depth="1" NCoef="0" IVar="2" Cut="7956.7" cType="1" res="0.0453966" purity="0.519482" nType="0">
          <Node pos="l" depth="2" NCoef="0" IVar="-1" Cut="0" cType="1" res="0.00371126" purity="0.512779" nType="-99"/>
          <Node pos="r" depth="2" NCoef="0" IVar="-1" Cut="0" cType="1" res="-0.000378459" purity="0.528736" nType="-99"/>
        </Node>
      </Node>
    </BinaryTree>
    <BinaryTree type="DecisionTree" boostWeight="1.0" itree="194">
      <Node pos="s" depth="0" NCoef="0" IVar="6" Cut="2.9117" cType="1" res="0.00161985" purity="0.49384" nType="0">
        <Node pos="l" depth="1" NCoef="0" IVar="1" Cut="95120.8" cType="1" res="-0.00421829" purity="0.49691" nType="0">
          <Node pos="l" depth="2" NCoef="0" IVar="3" Cut="156865" cType="1" res="-0.0405518" purity="0.425867" nType="0">
            <Node pos="l" depth="3" NCoef="0" IVar="-1" Cut="0" cType="1" res="-5.39276e-05" purity="0.461912" nType="-99"/>
            <Node pos="r" depth="3" NCoef="0" IVar="5" Cut="1.06157" cType="1" res="-0.059172" purity="0.408846" nType="0">
              <Node pos="l" depth="4" NCoef="0" IVar="-1" Cut="0" cType="1" res="-0.00530188" purity="0.401434" nType="-99"/>
              <Node pos="r" depth="4" NCoef="0" IVar="-1" Cut="0" cType="1" res="-0.00157829" purity="0.415565" nType="-99"/>
            </Node>
          </Node>
          <Node pos="r" depth="2" NCoef="0" IVar="3" Cut="130368" cType="1" res="0.00192714" purity="0.508927" nType="0">
            <Node pos="l" depth="3" NCoef="0" IVar="2" Cut="8696.74" cType="1" res="0.0365856" purity="0.539387" nType="0">
              <Node pos="l" depth="4" NCoef="0" IVar="-1" Cut="0" cType="1" res="0.00306519" purity="0.50423" nType="-99"/>
              <Node pos="r" depth="4" NCoef="0" IVar="-1" Cut="0" cType="1" res="-0.000138374" purity="0.586467" nType="-99"/>
            </Node>
            <Node pos="r" depth="3" NCoef="0" IVar="1" Cut="165053" cType="1" res="-0.00391104" purity="0.503796" nType="0">
              <Node pos="l" depth="4" NCoef="0" IVar="-1" Cut="0" cType="1" res="0.000103859" purity="0.513799" nType="-99"/>
              <Node pos="r" depth="4" NCoef="0" IVar="-1" Cut="0" cType="1" res="-0.00229488" purity="0.43513" nType="-99"/>
            </Node>
          </Node>
        </Node>
        <Node pos="r" depth="1" NCoef="0" IVar="5" Cut="1.20079" cType="1" res="0.0588659" purity="0.463737" nType="0">
          <Node pos="l" depth="2" NCoef="0" IVar="-1" Cut="0" cType="1" res="0.0045109" purity="0.509975" nType="-99"/>
          <Node pos="r" depth="2" NCoef="0" IVar="-1" Cut="0" cType="1" res="0.00116972" purity="0.418155" nType="-99"/>
        </Node>
      </Node>
    </BinaryTree>
    <BinaryTree type="DecisionTree" boostWeight="1.0" itree="195">
      <Node pos="s" depth="0" NCoef="0" IVar="3" Cut="235110" cType="1" res="0.0160334" purity="0.507459" nType="0">
        <Node pos="l" depth="1" NCoef="0" IVar="3" Cut="196741" cType="1" res="0.0116038" purity="0.503508" nType="0">
          <Node pos="l" depth="2" NCoef="0" IVar="4" Cut="148873" cType="1" res="0.00610852" purity="0.500709" nType="0">
            <Node pos="l" depth="3" NCoef="0" IVar="-1" Cut="0" cType="1" res="-0.00186863" purity="0.512071" nType="-99"/>
            <Node pos="r" depth="3" NCoef="0" IVar="4" Cut="243089" cType="1" res="0.00935092" purity="0.499881" nType="0">
              <Node pos="l" depth="4" NCoef="0" IVar="-1" Cut="0" cType="1" res="0.000928922" purity="0.539085" nType="-99"/>
              <Node pos="r" depth="4" NCoef="0" IVar="-1" Cut="0" cType="1" res="-0.000289669" purity="0.448404" nType="-99"/>
            </Node>
          </Node>
          <Node pos="r" depth="2" NCoef="0" IVar="0" Cut="134136" cType="1" res="0.0443408" purity="0.520182" nType="0">
            <Node pos="l" depth="3" NCoef="0" IVar="-1" Cut="0" cType="1" res="0.00359313" purity="0.521332" nType="-99"/>
            <Node pos="r" depth="3" NCoef="0" IVar="-1" Cut="0" cType="1" res="0.000352803" purity="0.519024" nType="-99"/>
          </Node>
        </Node>
        <Node pos="r" depth="1" NCoef="0" IVar="-1" Cut="0" cType="1" res="0.00440808" purity="0.591099" nType="-99"/>
      </Node>
    </BinaryTree>
    <BinaryTree type="DecisionTree" boostWeight="1.0" itree="196">
      <Node pos="s" depth="0" NCoef="0" IVar="6" Cut="1.99211" cType="1" res="0.00730516" purity="0.50171" nType="0">
        <Node pos="l" depth="1" NCoef="0" IVar="4" Cut="168560" cType="1" res="-0.00578518" purity="0.514973" nType="0">
          <Node pos="l" depth="2" NCoef="0" IVar="-1" Cut="0" cType="1" res="0.00122813" purity="0.592387" nType="-99"/>
          <Node pos="r" depth="2" NCoef="0" IVar="4" Cut="362570" cType="1" res="-0.0141706" purity="0.495823" nType="0">
            <Node pos="l" depth="3" NCoef="0" IVar="2" Cut="1941.59" cType="1" res="-0.0227135" purity="0.495355" nType="0">
              <Node pos="l" depth="4" NCoef="0" IVar="-1" Cut="0" cType="1" res="-0.00403708" purity="0.352355" nType="-99"/>
              <Node pos="r" depth="4" NCoef="0" IVar="-1" Cut="0" cType="1" res="-0.000520043" purity="0.533018" nType="-99"/>
            </Node>
            <Node pos="r" depth="3" NCoef="0" IVar="-1" Cut="0" cType="1" res="0.00145286" purity="0.498322" nType="-99"/>
          </Node>
        </Node>
        <Node pos="r" depth="1" NCoef="0" IVar="0" Cut="124392" cType="1" res="0.0231367" purity="0.485669" nType="0">
          <Node pos="l" depth="2" NCoef="0" IVar="0" Cut="105949" cType="1" res="0.0551613" purity="0.464895" nType="0">
            <Node pos="l" depth="3" NCoef="0" IVar="-1" Cut="0" cType="1" res="-0.00210751" purity="0.342844" nType="-99"/>
            <Node pos="r" depth="3" NCoef="0" IVar="6" Cut="2.66513" cType="1" res="0.0826996" purity="0.503296" nType="0">
              <Node pos="l" depth="4" NCoef="0" IVar="-1" Cut="0" cType="1" res="0.00444754" purity="0.548235" nType="-99"/>
              <Node pos="r" depth="4" NCoef="0" IVar="-1" Cut="0" cType="1" res="0.00260745" purity="0.429249" nType="-99"/>
            </Node>
          </Node>
          <Node pos="r" depth="2" NCoef="0" IVar="0" Cut="137241" cType="1" res="0.00332902" purity="0.498518" nType="0">
            <Node pos="l" depth="3" NCoef="0" IVar="-1" Cut="0" cType="1" res="-0.00484146" purity="0.357593" nType="-99"/>
            <Node pos="r" depth="3" NCoef="0" IVar="4" Cut="187916" cType="1" res="0.0219416" purity="0.530515" nType="0">
              <Node pos="l" depth="4" NCoef="0" IVar="-1" Cut="0" cType="1" res="-0.00123091" purity="0.511839" nType="-99"/>
              <Node pos="r" depth="4" NCoef="0" IVar="-1" Cut="0" cType="1" res="0.00167469" purity="0.536969" nType="-99"/>
            </Node>
          </Node>
        </Node>
      </Node>
    </BinaryTree>
    <BinaryTree type="DecisionTree" boostWeight="1.0" itree="197">
      <Node pos="s" depth="0" NCoef="0" IVar="0" Cut="134130" cType="1" res="-0.00493275" purity="0.489443" nType="0">
        <Node pos="l" depth="1" NCoef="0" IVar="6" Cut="2.68155" cType="1" res="-0.0222337" purity="0.43901" nType="0">
          <Node pos="l" depth="2" NCoef="0" IVar="1" Cut="115529" cType="1" res="-0.011807" purity="0.464862" nType="0">
            <Node pos="l" depth="3" NCoef="0" IVar="5" Cut="1.15145" cType="1" res="-0.0293748" purity="0.438903" nType="0">
              <Node pos="l" depth="4" NCoef="0" IVar="-1" Cut="0" cType="1" res="0.000254343" purity="0.486302" nType="-99"/>
              <Node pos="r" depth="4" NCoef="0" IVar="-1" Cut="0" cType="1" res="-0.0026207" purity="0.41427" nType="-99"/>
            </Node>
            <Node pos="r" depth="3" NCoef="0" IVar="5" Cut="2.20123" cType="1" res="0.00981668" purity="0.496814" nType="0">
              <Node pos="l" depth="4" NCoef="0" IVar="-1" Cut="0" cType="1" res="0.00179825" purity="0.556958" nType="-99"/>
              <Node pos="r" depth="4" NCoef="0" IVar="-1" Cut="0" cType="1" res="-0.00200261" purity="0.410266" nType="-99"/>
            </Node>
          </Node>
          <Node pos="r" depth="2" NCoef="0" IVar="-1" Cut="0" cType="1" res="-0.00616448" purity="0.289771" nType="-99"/>
        </Node>
        <Node pos="r" depth="1" NCoef="0" IVar="6" Cut="1.60913" cType="1" res="0.0123652" purity="0.539868" nType="0">
          <Node pos="l" depth="2" NCoef="0" IVar="1" Cut="161683" cType="1" res="-0.0117855" purity="0.528863" nType="0">
            <Node pos="l" depth="3" NCoef="0" IVar="6" Cut="1.02041" cType="1" res="-0.000557112" purity="0.544727" nType="0">
              <Node pos="l" depth="4" NCoef="0" IVar="-1" Cut="0" cType="1" res="0.00110896" purity="0.54876" nType="-99"/>
              <Node pos="r" depth="4" NCoef="0" IVar="-1" Cut="0" cType="1" res="-0.00153249" purity="0.539631" nType="-99"/>
            </Node>
            <Node pos="r" depth="3" NCoef="0" IVar="-1" Cut="0" cType="1" res="-0.00227854" purity="0.475162" nType="-99"/>
          </Node>
          <Node pos="r" depth="2" NCoef="0" IVar="6" Cut="2.17" cType="1" res="0.0265084" purity="0.546313" nType="0">
            <Node pos="l" depth="3" NCoef="0" IVar="3" Cut="172204" cType="1" res="0.0593971" purity="0.622461" nType="0">
              <Node pos="l" depth="4" NCoef="0" IVar="-1" Cut="0" cType="1" res="0.000222557" purity="0.575614" nType="-99"/>
              <Node pos="r" depth="4" NCoef="0" IVar="-1" Cut="0" cType="1" res="0.00410441" purity="0.665113" nType="-99"/>
            </Node>
            <Node pos="r" depth="3" NCoef="0" IVar="0" Cut="178603" cType="1" res="0.00742333" purity="0.502124" nType="0">
              <Node pos="l" depth="4" NCoef="0" IVar="-1" Cut="0" cType="1" res="-0.000822351" purity="0.445815" nType="-99"/>
              <Node pos="r" depth="4" NCoef="0" IVar="-1" Cut="0" cType="1" res="0.00142879" purity="0.56672" nType="-99"/>
            </Node>
          </Node>
        </Node>
      </Node>
    </BinaryTree>
    <BinaryTree type="DecisionTree" boostWeight="1.0" itree="198">
      <Node pos="s" depth="0" NCoef="0" IVar="1" Cut="161675" cType="1" res="0.00612627" purity="0.500588" nType="0">
        <Node pos="l" depth="1" NCoef="0" IVar="4" Cut="246381" cType="1" res="0.000545525" purity="0.495773" nType="0">
          <Node pos="l" depth="2" NCoef="0" IVar="5" Cut="1.23112" cType="1" res="0.015132" purity="0.534317" nType="0">
            <Node pos="l" depth="3" NCoef="0" IVar="6" Cut="2.60514" cType="1" res="-0.00281444" purity="0.53007" nType="0">
              <Node pos="l" depth="4" NCoef="0" IVar="-1" Cut="0" cType="1" res="-0.000807809" purity="0.538052" nType="-99"/>
              <Node pos="r" depth="4" NCoef="0" IVar="-1" Cut="0" cType="1" res="0.00200471" purity="0.504848" nType="-99"/>
            </Node>
            <Node pos="r" depth="3" NCoef="0" IVar="0" Cut="133745" cType="1" res="0.0295229" purity="0.537723" nType="0">
              <Node pos="l" depth="4" NCoef="0" IVar="-1" Cut="0" cType="1" res="0.000873461" purity="0.506496" nType="-99"/>
              <Node pos="r" depth="4" NCoef="0" IVar="-1" Cut="0" cType="1" res="0.00212319" purity="0.599723" nType="-99"/>
            </Node>
          </Node>
          <Node pos="r" depth="2" NCoef="0" IVar="4" Cut="413398" cType="1" res="-0.0277431" purity="0.421023" nType="0">
            <Node pos="l" depth="3" NCoef="0" IVar="1" Cut="96993.6" cType="1" res="-0.018619" purity="0.434846" nType="0">
              <Node pos="l" depth="4" NCoef="0" IVar="-1" Cut="0" cType="1" res="0.00141747" purity="0.446306" nType="-99"/>
              <Node pos="r" depth="4" NCoef="0" IVar="-1" Cut="0" cType="1" res="-0.00166889" purity="0.431849" nType="-99"/>
            </Node>
            <Node pos="r" depth="3" NCoef="0" IVar="-1" Cut="0" cType="1" res="-0.00513821" purity="0.34268" nType="-99"/>
          </Node>
        </Node>
        <Node pos="r" depth="1" NCoef="0" IVar="6" Cut="1.07202" cType="1" res="0.0403187" purity="0.530086" nType="0">
          <Node pos="l" depth="2" NCoef="0" IVar="-1" Cut="0" cType="1" res="-0.00168669" purity="0.456538" nType="-99"/>
          <Node pos="r" depth="2" NCoef="0" IVar="2" Cut="-24.9359" cType="1" res="0.0725981" purity="0.561205" nType="0">
            <Node pos="l" depth="3" NCoef="0" IVar="-1" Cut="0" cType="1" res="0.00187803" purity="0.452639" nType="-99"/>
            <Node pos="r" depth="3" NCoef="0" IVar="-1" Cut="0" cType="1" res="0.00421725" purity="0.666097" nType="-99"/>
          </Node>
        </Node>
      </Node>
    </BinaryTree>
    <BinaryTree type="DecisionTree" boostWeight="1.0" itree="199">
      <Node pos="s" depth="0" NCoef="0" IVar="6" Cut="1.07275" cType="1" res="0.00264239" purity="0.496119" nType="0">
        <Node pos="l" depth="1" NCoef="0" IVar="5" Cut="2.07511" cType="1" res="-0.031006" purity="0.470033" nType="0">
          <Node pos="l" depth="2" NCoef="0" IVar="3" Cut="167852" cType="1" res="-0.0478286" purity="0.451545" nType="0">
            <Node pos="l" depth="3" NCoef="0" IVar="1" Cut="105019" cType="1" res="-0.0848549" purity="0.419132" nType="0">
              <Node pos="l" depth="4" NCoef="0" IVar="-1" Cut="0" cType="1" res="-0.00247964" purity="0.428642" nType="-99"/>
              <Node pos="r" depth="4" NCoef="0" IVar="-1" Cut="0" cType="1" res="-0.00688191" purity="0.409481" nType="-99"/>
            </Node>
            <Node pos="r" depth="3" NCoef="0" IVar="-1" Cut="0" cType="1" res="-0.000564292" purity="0.48301" nType="-99"/>
          </Node>
          <Node pos="r" depth="2" NCoef="0" IVar="-1" Cut="0" cType="1" res="5.08076e-05" purity="0.505315" nType="-99"/>
        </Node>
        <Node pos="r" depth="1" NCoef="0" IVar="1" Cut="166749" cType="1" res="0.0140378" purity="0.504953" nType="0">
          <Node pos="l" depth="2" NCoef="0" IVar="1" Cut="95612.1" cType="1" res="0.00896013" purity="0.501301" nType="0">
            <Node pos="l" depth="3" NCoef="0" IVar="1" Cut="93969.5" cType="1" res="0.04511" purity="0.502186" nType="0">
              <Node pos="l" depth="4" NCoef="0" IVar="-1" Cut="0" cType="1" res="0.000776052" purity="0.472817" nType="-99"/>
              <Node pos="r" depth="4" NCoef="0" IVar="-1" Cut="0" cType="1" res="0.00454884" purity="0.567092" nType="-99"/>
            </Node>
            <Node pos="r" depth="3" NCoef="0" IVar="2" Cut="7730.73" cType="1" res="-0.000965182" purity="0.501058" nType="0">
              <Node pos="l" depth="4" NCoef="0" IVar="-1" Cut="0" cType="1" res="-0.000740824" purity="0.428846" nType="-99"/>
              <Node pos="r" depth="4" NCoef="0" IVar="-1" Cut="0" cType="1" res="0.00102616" purity="0.642374" nType="-99"/>
            </Node>
          </Node>
          <Node pos="r" depth="2" NCoef="0" IVar="-1" Cut="0" cType="1" res="0.00248179" purity="0.535515" nType="-99"/>
        </Node>
      </Node>
    </BinaryTree>
    <BinaryTree type="DecisionTree" boostWeight="1.0" itree="200">
      <Node pos="s" depth="0" NCoef="0" IVar="5" Cut="0.691705" cType="1" res="0.00858644" purity="0.502106" nType="0">
        <Node pos="l" depth="1" NCoef="0" IVar="-1" Cut="0" cType="1" res="-0.00199437" purity="0.523346" nType="-99"/>
        <Node pos="r" depth="1" NCoef="0" IVar="1" Cut="95121.1" cType="1" res="0.0123036" purity="0.500541" nType="0">
          <Node pos="l" depth="2" NCoef="0" IVar="1" Cut="92623.5" cType="1" res="0.0461353" purity="0.494" nType="0">
            <Node pos="l" depth="3" NCoef="0" IVar="-1" Cut="0" cType="1" res="0.00325017" purity="0.531905" nType="-99"/>
            <Node pos="r" depth="3" NCoef="0" IVar="-1" Cut="0" cType="1" res="0.000346773" purity="0.444379" nType="-99"/>
          </Node>
          <Node pos="r" depth="2" NCoef="0" IVar="2" Cut="21180.3" cType="1" res="0.00610106" purity="0.50174" nType="0">
            <Node pos="l" depth="3" NCoef="0" IVar="6" Cut="0.689624" cType="1" res="0.000543602" purity="0.477432" nType="0">
              <Node pos="l" depth="4" NCoef="0" IVar="-1" Cut="0" cType="1" res="-0.00156864" purity="0.453378" nType="-99"/>
              <Node pos="r" depth="4" NCoef="0" IVar="-1" Cut="0" cType="1" res="0.000291226" purity="0.481569" nType="-99"/>
            </Node>
            <Node pos="r" depth="3" NCoef="0" IVar="-1" Cut="0" cType="1" res="0.00189768" purity="0.681933" nType="-99"/>
          </Node>
        </Node>
      </Node>
    </BinaryTree>
    <BinaryTree type="DecisionTree" boostWeight="1.0" itree="201">
      <Node pos="s" depth="0" NCoef="0" IVar="4" Cut="431645" cType="1" res="0.010572" purity="0.505224" nType="0">
        <Node pos="l" depth="1" NCoef="0" IVar="3" Cut="143083" cType="1" res="0.0150219" purity="0.512251" nType="0">
          <Node pos="l" depth="2" NCoef="0" IVar="5" Cut="1.15869" cType="1" res="-0.0149244" purity="0.484425" nType="0">
            <Node pos="l" depth="3" NCoef="0" IVar="-1" Cut="0" cType="1" res="-0.00298302" purity="0.457605" nType="-99"/>
            <Node pos="r" depth="3" NCoef="0" IVar="0" Cut="129175" cType="1" res="0.00575584" purity="0.496574" nType="0">
              <Node pos="l" depth="4" NCoef="0" IVar="-1" Cut="0" cType="1" res="-0.000984443" purity="0.443343" nType="-99"/>
              <Node pos="r" depth="4" NCoef="0" IVar="-1" Cut="0" cType="1" res="0.00147638" purity="0.559029" nType="-99"/>
            </Node>
          </Node>
          <Node pos="r" depth="2" NCoef="0" IVar="3" Cut="173662" cType="1" res="0.022388" purity="0.519095" nType="0">
            <Node pos="l" depth="3" NCoef="0" IVar="0" Cut="168272" cType="1" res="0.0382832" purity="0.547305" nType="0">
              <Node pos="l" depth="4" NCoef="0" IVar="-1" Cut="0" cType="1" res="0.00214431" purity="0.542208" nType="-99"/>
              <Node pos="r" depth="4" NCoef="0" IVar="-1" Cut="0" cType="1" res="-7.4091e-05" purity="0.565721" nType="-99"/>
            </Node>
            <Node pos="r" depth="3" NCoef="0" IVar="2" Cut="-2532.5" cType="1" res="0.00726562" purity="0.492257" nType="0">
              <Node pos="l" depth="4" NCoef="0" IVar="-1" Cut="0" cType="1" res="0.00211584" purity="0.454497" nType="-99"/>
              <Node pos="r" depth="4" NCoef="0" IVar="-1" Cut="0" cType="1" res="-0.000367255" purity="0.508061" nType="-99"/>
            </Node>
          </Node>
        </Node>
        <Node pos="r" depth="1" NCoef="0" IVar="-1" Cut="0" cType="1" res="-0.00575651" purity="0.347758" nType="-99"/>
      </Node>
    </BinaryTree>
    <BinaryTree type="DecisionTree" boostWeight="1.0" itree="202">
      <Node pos="s" depth="0" NCoef="0" IVar="4" Cut="431642" cType="1" res="0.00414078" purity="0.498916" nType="0">
        <Node pos="l" depth="1" NCoef="0" IVar="2" Cut="28130.9" cType="1" res="0.00722791" purity="0.505279" nType="0">
          <Node pos="l" depth="2" NCoef="0" IVar="1" Cut="166749" cType="1" res="0.00369578" purity="0.490791" nType="0">
            <Node pos="l" depth="3" NCoef="0" IVar="5" Cut="2.50985" cType="1" res="0.00844089" purity="0.49715" nType="0">
              <Node pos="l" depth="4" NCoef="0" IVar="-1" Cut="0" cType="1" res="0.000110152" purity="0.494118" nType="-99"/>
              <Node pos="r" depth="4" NCoef="0" IVar="-1" Cut="0" cType="1" res="0.00330404" purity="0.528511" nType="-99"/>
            </Node>
            <Node pos="r" depth="3" NCoef="0" IVar="3" Cut="170868" cType="1" res="-0.0402979" purity="0.431831" nType="0">
              <Node pos="l" depth="4" NCoef="0" IVar="-1" Cut="0" cType="1" res="-0.00386661" purity="0.39616" nType="-99"/>
              <Node pos="r" depth="4" NCoef="0" IVar="-1" Cut="0" cType="1" res="-0.000328292" purity="0.471562" nType="-99"/>
            </Node>
          </Node>
          <Node pos="r" depth="2" NCoef="0" IVar="-1" Cut="0" cType="1" res="0.00217559" purity="0.70022" nType="-99"/>
        </Node>
        <Node pos="r" depth="1" NCoef="0" IVar="-1" Cut="0" cType="1" res="-0.0040337" purity="0.356214" nType="-99"/>
      </Node>
    </BinaryTree>
    <BinaryTree type="DecisionTree" boostWeight="1.0" itree="203">
      <Node pos="s" depth="0" NCoef="0" IVar="1" Cut="182158" cType="1" res="-2.40517e-05" purity="0.493556" nType="0">
        <Node pos="l" depth="1" NCoef="0" IVar="4" Cut="295283" cType="1" res="-0.00600883" purity="0.488801" nType="0">
          <Node pos="l" depth="2" NCoef="0" IVar="2" Cut="-16112.2" cType="1" res="0.00399767" purity="0.513272" nType="0">
            <Node pos="l" depth="3" NCoef="0" IVar="-1" Cut="0" cType="1" res="0.00350013" purity="0.481957" nType="-99"/>
            <Node pos="r" depth="3" NCoef="0" IVar="6" Cut="0.383128" cType="1" res="-0.000627522" purity="0.515314" nType="0">
              <Node pos="l" depth="4" NCoef="0" IVar="-1" Cut="0" cType="1" res="0.00214897" purity="0.563655" nType="-99"/>
              <Node pos="r" depth="4" NCoef="0" IVar="-1" Cut="0" cType="1" res="-0.000329072" purity="0.509447" nType="-99"/>
            </Node>
          </Node>
          <Node pos="r" depth="2" NCoef="0" IVar="5" Cut="1.53872" cType="1" res="-0.041399" purity="0.402256" nType="0">
            <Node pos="l" depth="3" NCoef="0" IVar="0" Cut="139013" cType="1" res="-0.0180456" purity="0.444821" nType="0">
              <Node pos="l" depth="4" NCoef="0" IVar="-1" Cut="0" cType="1" res="-0.00307263" purity="0.357781" nType="-99"/>
              <Node pos="r" depth="4" NCoef="0" IVar="-1" Cut="0" cType="1" res="0.000131207" purity="0.50244" nType="-99"/>
            </Node>
            <Node pos="r" depth="3" NCoef="0" IVar="-1" Cut="0" cType="1" res="-0.00595796" purity="0.319968" nType="-99"/>
          </Node>
        </Node>
        <Node pos="r" depth="1" NCoef="0" IVar="5" Cut="2.43536" cType="1" res="0.0590634" purity="0.5405" nType="0">
          <Node pos="l" depth="2" NCoef="0" IVar="-1" Cut="0" cType="1" res="0.00371756" purity="0.607885" nType="-99"/>
          <Node pos="r" depth="2" NCoef="0" IVar="-1" Cut="0" cType="1" res="0.000781889" purity="0.466366" nType="-99"/>
        </Node>
      </Node>
    </BinaryTree>
    <BinaryTree type="DecisionTree" boostWeight="1.0" itree="204">
      <Node pos="s" depth="0" NCoef="0" IVar="5" Cut="1.46102" cType="1" res="-0.000608428" purity="0.491914" nType="0">
        <Node pos="l" depth="1" NCoef="0" IVar="0" Cut="109753" cType="1" res="0.0122543" purity="0.520988" nType="0">
          <Node pos="l" depth="2" NCoef="0" IVar="-1" Cut="0" cType="1" res="-0.00310622" purity="0.394322" nType="-99"/>
          <Node pos="r" depth="2" NCoef="0" IVar="5" Cut="1.14226" cType="1" res="0.0203682" purity="0.536801" nType="0">
            <Node pos="l" depth="3" NCoef="0" IVar="2" Cut="18044.1" cType="1" res="0.000764104" purity="0.524589" nType="0">
              <Node pos="l" depth="4" NCoef="0" IVar="-1" Cut="0" cType="1" res="-0.000589093" purity="0.467913" nType="-99"/>
              <Node pos="r" depth="4" NCoef="0" IVar="-1" Cut="0" cType="1" res="0.00172402" purity="0.708886" nType="-99"/>
            </Node>
            <Node pos="r" depth="3" NCoef="0" IVar="4" Cut="227625" cType="1" res="0.0546793" purity="0.558175" nType="0">
              <Node pos="l" depth="4" NCoef="0" IVar="-1" Cut="0" cType="1" res="0.00109699" purity="0.552604" nType="-99"/>
              <Node pos="r" depth="4" NCoef="0" IVar="-1" Cut="0" cType="1" res="0.00375228" purity="0.564468" nType="-99"/>
            </Node>
          </Node>
        </Node>
        <Node pos="r" depth="1" NCoef="0" IVar="0" Cut="109752" cType="1" res="-0.0164666" purity="0.45607" nType="0">
          <Node pos="l" depth="2" NCoef="0" IVar="6" Cut="1.91448" cType="1" res="0.0264596" purity="0.441403" nType="0">
            <Node pos="l" depth="3" NCoef="0" IVar="-1" Cut="0" cType="1" res="-0.000945668" purity="0.433381" nType="-99"/>
            <Node pos="r" depth="3" NCoef="0" IVar="-1" Cut="0" cType="1" res="0.00406343" purity="0.450724" nType="-99"/>
          </Node>
          <Node pos="r" depth="2" NCoef="0" IVar="6" Cut="2.52824" cType="1" res="-0.0317366" purity="0.461287" nType="0">
            <Node pos="l" depth="3" NCoef="0" IVar="3" Cut="197256" cType="1" res="-0.0207386" purity="0.487668" nType="0">
              <Node pos="l" depth="4" NCoef="0" IVar="-1" Cut="0" cType="1" res="-0.000280082" purity="0.505381" nType="-99"/>
              <Node pos="r" depth="4" NCoef="0" IVar="-1" Cut="0" cType="1" res="-0.00578125" purity="0.392735" nType="-99"/>
            </Node>
            <Node pos="r" depth="3" NCoef="0" IVar="-1" Cut="0" cType="1" res="-0.00567859" purity="0.326417" nType="-99"/>
          </Node>
        </Node>
      </Node>
    </BinaryTree>
    <BinaryTree type="DecisionTree" boostWeight="1.0" itree="205">
      <Node pos="s" depth="0" NCoef="0" IVar="4" Cut="295192" cType="1" res="0.00964094" purity="0.502753" nType="0">
        <Node pos="l" depth="1" NCoef="0" IVar="6" Cut="1.76229" cType="1" res="-0.000801492" purity="0.511083" nType="0">
          <Node pos="l" depth="2" NCoef="0" IVar="5" Cut="2.14836" cType="1" res="0.0098417" purity="0.544433" nType="0">
            <Node pos="l" depth="3" NCoef="0" IVar="6" Cut="1.41842" cType="1" res="0.0215407" purity="0.561573" nType="0">
              <Node pos="l" depth="4" NCoef="0" IVar="-1" Cut="0" cType="1" res="0.000321922" purity="0.537782" nType="-99"/>
              <Node pos="r" depth="4" NCoef="0" IVar="-1" Cut="0" cType="1" res="0.0024091" purity="0.623125" nType="-99"/>
            </Node>
            <Node pos="r" depth="3" NCoef="0" IVar="-1" Cut="0" cType="1" res="-0.00161284" purity="0.482017" nType="-99"/>
          </Node>
          <Node pos="r" depth="2" NCoef="0" IVar="4" Cut="162679" cType="1" res="-0.011345" purity="0.478046" nType="0">
            <Node pos="l" depth="3" NCoef="0" IVar="-1" Cut="0" cType="1" res="-0.00351062" purity="0.452165" nType="-99"/>
            <Node pos="r" depth="3" NCoef="0" IVar="4" Cut="185302" cType="1" res="-0.00137117" purity="0.482725" nType="0">
              <Node pos="l" depth="4" NCoef="0" IVar="-1" Cut="0" cType="1" res="0.00180974" purity="0.561862" nType="-99"/>
              <Node pos="r" depth="4" NCoef="0" IVar="-1" Cut="0" cType="1" res="-0.000800464" purity="0.456124" nType="-99"/>
            </Node>
          </Node>
        </Node>
        <Node pos="r" depth="1" NCoef="0" IVar="6" Cut="0.766295" cType="1" res="0.0363401" purity="0.481453" nType="0">
          <Node pos="l" depth="2" NCoef="0" IVar="-1" Cut="0" cType="1" res="-0.00131495" purity="0.414864" nType="-99"/>
          <Node pos="r" depth="2" NCoef="0" IVar="0" Cut="163412" cType="1" res="0.0486512" purity="0.494662" nType="0">
            <Node pos="l" depth="3" NCoef="0" IVar="3" Cut="169512" cType="1" res="0.0680488" purity="0.476815" nType="0">
              <Node pos="l" depth="4" NCoef="0" IVar="-1" Cut="0" cType="1" res="0.00167811" purity="0.450255" nType="-99"/>
              <Node pos="r" depth="4" NCoef="0" IVar="-1" Cut="0" cType="1" res="0.00453911" purity="0.499213" nType="-99"/>
            </Node>
            <Node pos="r" depth="3" NCoef="0" IVar="-1" Cut="0" cType="1" res="0.000367207" purity="0.532117" nType="-99"/>
          </Node>
        </Node>
      </Node>
    </BinaryTree>
    <BinaryTree type="DecisionTree" boostWeight="1.0" itree="206">
      <Node pos="s" depth="0" NCoef="0" IVar="1" Cut="136077" cType="1" res="0.00592759" purity="0.50068" nType="0">
        <Node pos="l" depth="1" NCoef="0" IVar="4" Cut="148769" cType="1" res="0.0159475" purity="0.509509" nType="0">
          <Node pos="l" depth="2" NCoef="0" IVar="-1" Cut="0" cType="1" res="-0.00212675" purity="0.497219" nType="-99"/>
          <Node pos="r" depth="2" NCoef="0" IVar="0" Cut="231668" cType="1" res="0.0215237" purity="0.510633" nType="0">
            <Node pos="l" depth="3" NCoef="0" IVar="1" Cut="118094" cType="1" res="0.0173673" purity="0.500308" nType="0">
              <Node pos="l" depth="4" NCoef="0" IVar="-1" Cut="0" cType="1" res="0.000425233" purity="0.479302" nType="-99"/>
              <Node pos="r" depth="4" NCoef="0" IVar="-1" Cut="0" cType="1" res="0.0019556" purity="0.568251" nType="-99"/>
            </Node>
            <Node pos="r" depth="3" NCoef="0" IVar="-1" Cut="0" cType="1" res="0.00294257" purity="0.659564" nType="-99"/>
          </Node>
        </Node>
        <Node pos="r" depth="1" NCoef="0" IVar="1" Cut="200013" cType="1" res="-0.0299527" purity="0.469065" nType="0">
          <Node pos="l" depth="2" NCoef="0" IVar="1" Cut="156348" cType="1" res="-0.0482566" purity="0.455987" nType="0">
            <Node pos="l" depth="3" NCoef="0" IVar="1" Cut="144978" cType="1" res="-0.0186373" purity="0.501379" nType="0">
              <Node pos="l" depth="4" NCoef="0" IVar="-1" Cut="0" cType="1" res="-0.0037008" purity="0.456182" nType="-99"/>
              <Node pos="r" depth="4" NCoef="0" IVar="-1" Cut="0" cType="1" res="0.00134688" purity="0.544104" nType="-99"/>
            </Node>
            <Node pos="r" depth="3" NCoef="0" IVar="-1" Cut="0" cType="1" res="-0.00475531" purity="0.40359" nType="-99"/>
          </Node>
          <Node pos="r" depth="2" NCoef="0" IVar="-1" Cut="0" cType="1" res="0.00101342" purity="0.506491" nType="-99"/>
        </Node>
      </Node>
    </BinaryTree>
    <BinaryTree type="DecisionTree" boostWeight="1.0" itree="207">
      <Node pos="s" depth="0" NCoef="0" IVar="4" Cut="158538" cType="1" res="0.0158769" purity="0.510371" nType="0">
        <Node pos="l" depth="1" NCoef="0" IVar="6" Cut="1.76214" cType="1" res="-0.0301088" purity="0.515635" nType="0">
          <Node pos="l" depth="2" NCoef="0" IVar="-1" Cut="0" cType="1" res="0.000394989" purity="0.57607" nType="-99"/>
          <Node pos="r" depth="2" NCoef="0" IVar="-1" Cut="0" cType="1" res="-0.00477329" purity="0.432354" nType="-99"/>
        </Node>
        <Node pos="r" depth="1" NCoef="0" IVar="0" Cut="173150" cType="1" res="0.0209585" purity="0.509789" nType="0">
          <Node pos="l" depth="2" NCoef="0" IVar="4" Cut="175234" cType="1" res="0.0119776" purity="0.481768" nType="0">
            <Node pos="l" depth="3" NCoef="0" IVar="-1" Cut="0" cType="1" res="0.00287723" purity="0.599127" nType="-99"/>
            <Node pos="r" depth="3" NCoef="0" IVar="6" Cut="1.99223" cType="1" res="0.00370993" purity="0.465208" nType="0">
              <Node pos="l" depth="4" NCoef="0" IVar="-1" Cut="0" cType="1" res="0.000915023" purity="0.509047" nType="-99"/>
              <Node pos="r" depth="4" NCoef="0" IVar="-1" Cut="0" cType="1" res="-0.000990051" purity="0.4071" nType="-99"/>
            </Node>
          </Node>
          <Node pos="r" depth="2" NCoef="0" IVar="5" Cut="1.00257" cType="1" res="0.0501111" purity="0.600747" nType="0">
            <Node pos="l" depth="3" NCoef="0" IVar="0" Cut="210267" cType="1" res="0.0160379" purity="0.573689" nType="0">
              <Node pos="l" depth="4" NCoef="0" IVar="-1" Cut="0" cType="1" res="-8.67474e-05" purity="0.544838" nType="-99"/>
              <Node pos="r" depth="4" NCoef="0" IVar="-1" Cut="0" cType="1" res="0.00133124" purity="0.600804" nType="-99"/>
            </Node>
            <Node pos="r" depth="3" NCoef="0" IVar="0" Cut="210247" cType="1" res="0.0747556" purity="0.620318" nType="0">
              <Node pos="l" depth="4" NCoef="0" IVar="-1" Cut="0" cType="1" res="0.00369838" purity="0.631124" nType="-99"/>
              <Node pos="r" depth="4" NCoef="0" IVar="-1" Cut="0" cType="1" res="0.00154494" purity="0.601986" nType="-99"/>
            </Node>
          </Node>
        </Node>
      </Node>
    </BinaryTree>
    <BinaryTree type="DecisionTree" boostWeight="1.0" itree="208">
      <Node pos="s" depth="0" NCoef="0" IVar="4" Cut="431724" cType="1" res="0.000597263" purity="0.494459" nType="0">
        <Node pos="l" depth="1" NCoef="0" IVar="1" Cut="95117.8" cType="1" res="0.00402366" purity="0.501241" nType="0">
          <Node pos="l" depth="2" NCoef="0" IVar="1" Cut="91872.8" cType="1" res="0.0341691" purity="0.500137" nType="0">
            <Node pos="l" depth="3" NCoef="0" IVar="-1" Cut="0" cType="1" res="0.00348809" purity="0.558456" nType="-99"/>
            <Node pos="r" depth="3" NCoef="0" IVar="6" Cut="2.14479" cType="1" res="-0.00220245" purity="0.459325" nType="0">
              <Node pos="l" depth="4" NCoef="0" IVar="-1" Cut="0" cType="1" res="-0.0019006" purity="0.449114" nType="-99"/>
              <Node pos="r" depth="4" NCoef="0" IVar="-1" Cut="0" cType="1" res="0.00174636" purity="0.470545" nType="-99"/>
            </Node>
          </Node>
          <Node pos="r" depth="2" NCoef="0" IVar="6" Cut="2.91168" cType="1" res="-0.00175616" purity="0.501453" nType="0">
            <Node pos="l" depth="3" NCoef="0" IVar="2" Cut="-12665.6" cType="1" res="-0.00581589" purity="0.505325" nType="0">
              <Node pos="l" depth="4" NCoef="0" IVar="-1" Cut="0" cType="1" res="-0.00449711" purity="0.326458" nType="-99"/>
              <Node pos="r" depth="4" NCoef="0" IVar="-1" Cut="0" cType="1" res="-7.0811e-05" purity="0.517422" nType="-99"/>
            </Node>
            <Node pos="r" depth="3" NCoef="0" IVar="-1" Cut="0" cType="1" res="0.00227176" purity="0.456912" nType="-99"/>
          </Node>
        </Node>
        <Node pos="r" depth="1" NCoef="0" IVar="-1" Cut="0" cType="1" res="-0.00469612" purity="0.34657" nType="-99"/>
      </Node>
    </BinaryTree>
    <BinaryTree type="DecisionTree" boostWeight="1.0" itree="209">
      <Node pos="s" depth="0" NCoef="0" IVar="1" Cut="130959" cType="1" res="0.00979068" purity="0.50262" nType="0">
        <Node pos="l" depth="1" NCoef="0" IVar="6" Cut="2.60519" cType="1" res="0.00119177" purity="0.490276" nType="0">
          <Node pos="l" depth="2" NCoef="0" IVar="3" Cut="194149" cType="1" res="-0.00904478" purity="0.499498" nType="0">
            <Node pos="l" depth="3" NCoef="0" IVar="5" Cut="1.60928" cType="1" res="-0.0173021" purity="0.494687" nType="0">
              <Node pos="l" depth="4" NCoef="0" IVar="-1" Cut="0" cType="1" res="-0.0016013" purity="0.490779" nType="-99"/>
              <Node pos="r" depth="4" NCoef="0" IVar="-1" Cut="0" cType="1" res="0.000960695" purity="0.503921" nType="-99"/>
            </Node>
            <Node pos="r" depth="3" NCoef="0" IVar="1" Cut="101989" cType="1" res="0.0275997" purity="0.520851" nType="0">
              <Node pos="l" depth="4" NCoef="0" IVar="-1" Cut="0" cType="1" res="-0.000279287" purity="0.4614" nType="-99"/>
              <Node pos="r" depth="4" NCoef="0" IVar="-1" Cut="0" cType="1" res="0.00219418" purity="0.565103" nType="-99"/>
            </Node>
          </Node>
          <Node pos="r" depth="2" NCoef="0" IVar="0" Cut="129262" cType="1" res="0.0359852" purity="0.458928" nType="0">
            <Node pos="l" depth="3" NCoef="0" IVar="-1" Cut="0" cType="1" res="-0.00223328" purity="0.341451" nType="-99"/>
            <Node pos="r" depth="3" NCoef="0" IVar="4" Cut="248595" cType="1" res="0.0798644" purity="0.532703" nType="0">
              <Node pos="l" depth="4" NCoef="0" IVar="-1" Cut="0" cType="1" res="0.00215985" purity="0.521037" nType="-99"/>
              <Node pos="r" depth="4" NCoef="0" IVar="-1" Cut="0" cType="1" res="0.00519564" purity="0.547969" nType="-99"/>
            </Node>
          </Node>
        </Node>
        <Node pos="r" depth="1" NCoef="0" IVar="0" Cut="114627" cType="1" res="0.0320452" purity="0.534567" nType="0">
          <Node pos="l" depth="2" NCoef="0" IVar="-1" Cut="0" cType="1" res="0.0034037" purity="0.509774" nType="-99"/>
          <Node pos="r" depth="2" NCoef="0" IVar="2" Cut="-2177.57" cType="1" res="0.0174001" purity="0.542888" nType="0">
            <Node pos="l" depth="3" NCoef="0" IVar="-1" Cut="0" cType="1" res="-0.00262277" purity="0.387808" nType="-99"/>
            <Node pos="r" depth="3" NCoef="0" IVar="4" Cut="280405" cType="1" res="0.0370108" purity="0.589206" nType="0">
              <Node pos="l" depth="4" NCoef="0" IVar="-1" Cut="0" cType="1" res="0.00275996" purity="0.653751" nType="-99"/>
              <Node pos="r" depth="4" NCoef="0" IVar="-1" Cut="0" cType="1" res="-0.000358325" purity="0.503862" nType="-99"/>
            </Node>
          </Node>
        </Node>
      </Node>
    </BinaryTree>
    <BinaryTree type="DecisionTree" boostWeight="1.0" itree="210">
      <Node pos="s" depth="0" NCoef="0" IVar="2" Cut="11139.3" cType="1" res="0.0110543" purity="0.507452" nType="0">
        <Node pos="l" depth="1" NCoef="0" IVar="0" Cut="153643" cType="1" res="0.00226528" purity="0.449743" nType="0">
          <Node pos="l" depth="2" NCoef="0" IVar="0" Cut="144484" cType="1" res="0.0124602" purity="0.437624" nType="0">
            <Node pos="l" depth="3" NCoef="0" IVar="5" Cut="0.945894" cType="1" res="0.00430441" purity="0.42487" nType="0">
              <Node pos="l" depth="4" NCoef="0" IVar="-1" Cut="0" cType="1" res="0.00339319" purity="0.475382" nType="-99"/>
              <Node pos="r" depth="4" NCoef="0" IVar="-1" Cut="0" cType="1" res="-0.000185434" purity="0.419199" nType="-99"/>
            </Node>
            <Node pos="r" depth="3" NCoef="0" IVar="-1" Cut="0" cType="1" res="0.00323748" purity="0.539776" nType="-99"/>
          </Node>
          <Node pos="r" depth="2" NCoef="0" IVar="5" Cut="0.84632" cType="1" res="-0.0201146" purity="0.476349" nType="0">
            <Node pos="l" depth="3" NCoef="0" IVar="-1" Cut="0" cType="1" res="-0.00437243" purity="0.401855" nType="-99"/>
            <Node pos="r" depth="3" NCoef="0" IVar="0" Cut="175052" cType="1" res="-0.00145078" purity="0.498685" nType="0">
              <Node pos="l" depth="4" NCoef="0" IVar="-1" Cut="0" cType="1" res="-0.00257667" purity="0.420563" nType="-99"/>
              <Node pos="r" depth="4" NCoef="0" IVar="-1" Cut="0" cType="1" res="0.00119561" purity="0.545665" nType="-99"/>
            </Node>
          </Node>
        </Node>
        <Node pos="r" depth="1" NCoef="0" IVar="1" Cut="110481" cType="1" res="0.0307296" purity="0.636641" nType="0">
          <Node pos="l" depth="2" NCoef="0" IVar="0" Cut="139045" cType="1" res="0.00740622" purity="0.604238" nType="0">
            <Node pos="l" depth="3" NCoef="0" IVar="-1" Cut="0" cType="1" res="-0.0010704" purity="0.542305" nType="-99"/>
            <Node pos="r" depth="3" NCoef="0" IVar="-1" Cut="0" cType="1" res="0.00171789" purity="0.674492" nType="-99"/>
          </Node>
          <Node pos="r" depth="2" NCoef="0" IVar="6" Cut="0.888923" cType="1" res="0.0459" purity="0.657717" nType="0">
            <Node pos="l" depth="3" NCoef="0" IVar="-1" Cut="0" cType="1" res="0.000539119" purity="0.562088" nType="-99"/>
            <Node pos="r" depth="3" NCoef="0" IVar="0" Cut="158498" cType="1" res="0.0666676" purity="0.717144" nType="0">
              <Node pos="l" depth="4" NCoef="0" IVar="-1" Cut="0" cType="1" res="0.00178927" purity="0.664018" nType="-99"/>
              <Node pos="r" depth="4" NCoef="0" IVar="-1" Cut="0" cType="1" res="0.00354391" purity="0.781211" nType="-99"/>
            </Node>
          </Node>
        </Node>
      </Node>
    </BinaryTree>
    <BinaryTree type="DecisionTree" boostWeight="1.0" itree="211">
      <Node pos="s" depth="0" NCoef="0" IVar="6" Cut="2.29868" cType="1" res="0.0116959" purity="0.505503" nType="0">
        <Node pos="l" depth="1" NCoef="0" IVar="6" Cut="0.336536" cType="1" res="-0.00155943" purity="0.516557" nType="0">
          <Node pos="l" depth="2" NCoef="0" IVar="-1" Cut="0" cType="1" res="-0.00227171" purity="0.452602" nType="-99"/>
          <Node pos="r" depth="2" NCoef="0" IVar="4" Cut="324350" cType="1" res="0.00418086" purity="0.524731" nType="0">
            <Node pos="l" depth="3" NCoef="0" IVar="4" Cut="253213" cType="1" res="-0.00245987" purity="0.533291" nType="0">
              <Node pos="l" depth="4" NCoef="0" IVar="-1" Cut="0" cType="1" res="0.000476465" purity="0.555793" nType="-99"/>
              <Node pos="r" depth="4" NCoef="0" IVar="-1" Cut="0" cType="1" res="-0.00290893" purity="0.442492" nType="-99"/>
            </Node>
            <Node pos="r" depth="3" NCoef="0" IVar="6" Cut="1.24577" cType="1" res="0.0308649" purity="0.490337" nType="0">
              <Node pos="l" depth="4" NCoef="0" IVar="-1" Cut="0" cType="1" res="0.00405344" purity="0.543157" nType="-99"/>
              <Node pos="r" depth="4" NCoef="0" IVar="-1" Cut="0" cType="1" res="-0.00115556" purity="0.449669" nType="-99"/>
            </Node>
          </Node>
        </Node>
        <Node pos="r" depth="1" NCoef="0" IVar="0" Cut="207283" cType="1" res="0.0382206" purity="0.483383" nType="0">
          <Node pos="l" depth="2" NCoef="0" IVar="1" Cut="141017" cType="1" res="0.0270445" purity="0.455528" nType="0">
            <Node pos="l" depth="3" NCoef="0" IVar="4" Cut="178295" cType="1" res="0.0138757" purity="0.443811" nType="0">
              <Node pos="l" depth="4" NCoef="0" IVar="-1" Cut="0" cType="1" res="0.00317801" purity="0.541949" nType="-99"/>
              <Node pos="r" depth="4" NCoef="0" IVar="-1" Cut="0" cType="1" res="-0.000178956" purity="0.414997" nType="-99"/>
            </Node>
            <Node pos="r" depth="3" NCoef="0" IVar="-1" Cut="0" cType="1" res="0.00400153" purity="0.50934" nType="-99"/>
          </Node>
          <Node pos="r" depth="2" NCoef="0" IVar="-1" Cut="0" cType="1" res="0.00383808" purity="0.642398" nType="-99"/>
        </Node>
      </Node>
    </BinaryTree>
    <BinaryTree type="DecisionTree" boostWeight="1.0" itree="212">
      <Node pos="s" depth="0" NCoef="0" IVar="0" Cut="163413" cType="1" res="0.0184953" purity="0.514011" nType="0">
        <Node pos="l" depth="1" NCoef="0" IVar="1" Cut="115510" cType="1" res="0.00762727" purity="0.480744" nType="0">
          <Node pos="l" depth="2" NCoef="0" IVar="4" Cut="178295" cType="1" res="-0.00803939" purity="0.453632" nType="0">
            <Node pos="l" depth="3" NCoef="0" IVar="0" Cut="123193" cType="1" res="0.0364019" purity="0.549373" nType="0">
              <Node pos="l" depth="4" NCoef="0" IVar="-1" Cut="0" cType="1" res="-0.000254228" purity="0.49003" nType="-99"/>
              <Node pos="r" depth="4" NCoef="0" IVar="-1" Cut="0" cType="1" res="0.00307673" purity="0.606281" nType="-99"/>
            </Node>
            <Node pos="r" depth="3" NCoef="0" IVar="0" Cut="107735" cType="1" res="-0.03016" purity="0.405977" nType="0">
              <Node pos="l" depth="4" NCoef="0" IVar="-1" Cut="0" cType="1" res="0.00237472" purity="0.442069" nType="-99"/>
              <Node pos="r" depth="4" NCoef="0" IVar="-1" Cut="0" cType="1" res="-0.00299666" purity="0.395413" nType="-99"/>
            </Node>
          </Node>
          <Node pos="r" depth="2" NCoef="0" IVar="0" Cut="127831" cType="1" res="0.027377" purity="0.514923" nType="0">
            <Node pos="l" depth="3" NCoef="0" IVar="0" Cut="116289" cType="1" res="0.0486175" purity="0.516104" nType="0">
              <Node pos="l" depth="4" NCoef="0" IVar="-1" Cut="0" cType="1" res="0.00144431" purity="0.47795" nType="-99"/>
              <Node pos="r" depth="4" NCoef="0" IVar="-1" Cut="0" cType="1" res="0.00320538" purity="0.578453" nType="-99"/>
            </Node>
            <Node pos="r" depth="3" NCoef="0" IVar="3" Cut="163601" cType="1" res="-0.00745313" purity="0.512986" nType="0">
              <Node pos="l" depth="4" NCoef="0" IVar="-1" Cut="0" cType="1" res="0.00133262" purity="0.559816" nType="-99"/>
              <Node pos="r" depth="4" NCoef="0" IVar="-1" Cut="0" cType="1" res="-0.00196378" purity="0.473674" nType="-99"/>
            </Node>
          </Node>
        </Node>
        <Node pos="r" depth="1" NCoef="0" IVar="6" Cut="1.53231" cType="1" res="0.046199" purity="0.598813" nType="0">
          <Node pos="l" depth="2" NCoef="0" IVar="4" Cut="237977" cType="1" res="0.0158927" purity="0.567725" nType="0">
            <Node pos="l" depth="3" NCoef="0" IVar="-1" Cut="0" cType="1" res="0.00199576" purity="0.637256" nType="-99"/>
            <Node pos="r" depth="3" NCoef="0" IVar="-1" Cut="0" cType="1" res="-0.000813919" purity="0.499896" nType="-99"/>
          </Node>
          <Node pos="r" depth="2" NCoef="0" IVar="3" Cut="149063" cType="1" res="0.0587394" purity="0.611677" nType="0">
            <Node pos="l" depth="3" NCoef="0" IVar="-1" Cut="0" cType="1" res="0.000354244" purity="0.562431" nType="-99"/>
            <Node pos="r" depth="3" NCoef="0" IVar="4" Cut="217173" cType="1" res="0.0721234" purity="0.624686" nType="0">
              <Node pos="l" depth="4" NCoef="0" IVar="-1" Cut="0" cType="1" res="0.00183307" purity="0.622669" nType="-99"/>
              <Node pos="r" depth="4" NCoef="0" IVar="-1" Cut="0" cType="1" res="0.00357583" purity="0.626181" nType="-99"/>
            </Node>
          </Node>
        </Node>
      </Node>
    </BinaryTree>
    <BinaryTree type="DecisionTree" boostWeight="1.0" itree="213">
      <Node pos="s" depth="0" NCoef="0" IVar="4" Cut="295150" cType="1" res="0.00555994" purity="0.500059" nType="0">
        <Node pos="l" depth="1" NCoef="0" IVar="2" Cut="-12791.7" cType="1" res="-0.00370403" purity="0.510473" nType="0">
          <Node pos="l" depth="2" NCoef="0" IVar="-1" Cut="0" cType="1" res="-0.00689239" purity="0.303825" nType="-99"/>
          <Node pos="r" depth="2" NCoef="0" IVar="1" Cut="105038" cType="1" res="0.00348988" purity="0.526211" nType="0">
            <Node pos="l" depth="3" NCoef="0" IVar="5" Cut="1.52501" cType="1" res="0.0257266" purity="0.52222" nType="0">
              <Node pos="l" depth="4" NCoef="0" IVar="-1" Cut="0" cType="1" res="0.000288737" purity="0.51294" nType="-99"/>
              <Node pos="r" depth="4" NCoef="0" IVar="-1" Cut="0" cType="1" res="0.00401819" purity="0.55294" nType="-99"/>
            </Node>
            <Node pos="r" depth="3" NCoef="0" IVar="1" Cut="109684" cType="1" res="-0.0147415" purity="0.529483" nType="0">
              <Node pos="l" depth="4" NCoef="0" IVar="-1" Cut="0" cType="1" res="-0.00511705" purity="0.412415" nType="-99"/>
              <Node pos="r" depth="4" NCoef="0" IVar="-1" Cut="0" cType="1" res="-6.38802e-06" purity="0.550402" nType="-99"/>
            </Node>
          </Node>
        </Node>
        <Node pos="r" depth="1" NCoef="0" IVar="0" Cut="148766" cType="1" res="0.0294474" purity="0.473205" nType="0">
          <Node pos="l" depth="2" NCoef="0" IVar="2" Cut="6834.37" cType="1" res="0.056261" purity="0.456028" nType="0">
            <Node pos="l" depth="3" NCoef="0" IVar="0" Cut="119031" cType="1" res="0.0813401" purity="0.446134" nType="0">
              <Node pos="l" depth="4" NCoef="0" IVar="-1" Cut="0" cType="1" res="0.00230919" purity="0.366589" nType="-99"/>
              <Node pos="r" depth="4" NCoef="0" IVar="-1" Cut="0" cType="1" res="0.00535768" purity="0.512158" nType="-99"/>
            </Node>
            <Node pos="r" depth="3" NCoef="0" IVar="-1" Cut="0" cType="1" res="-9.52264e-05" purity="0.479016" nType="-99"/>
          </Node>
          <Node pos="r" depth="2" NCoef="0" IVar="0" Cut="207780" cType="1" res="-0.00975753" purity="0.498319" nType="0">
            <Node pos="l" depth="3" NCoef="0" IVar="-1" Cut="0" cType="1" res="-0.00181528" purity="0.450403" nType="-99"/>
            <Node pos="r" depth="3" NCoef="0" IVar="-1" Cut="0" cType="1" res="0.00155695" purity="0.584343" nType="-99"/>
          </Node>
        </Node>
      </Node>
    </BinaryTree>
    <BinaryTree type="DecisionTree" boostWeight="1.0" itree="214">
      <Node pos="s" depth="0" NCoef="0" IVar="5" Cut="1.91666" cType="1" res="0.00338616" purity="0.498631" nType="0">
        <Node pos="l" depth="1" NCoef="0" IVar="4" Cut="265852" cType="1" res="-0.00455305" purity="0.50087" nType="0">
          <Node pos="l" depth="2" NCoef="0" IVar="4" Cut="241578" cType="1" res="-0.015074" purity="0.508063" nType="0">
            <Node pos="l" depth="3" NCoef="0" IVar="4" Cut="227748" cType="1" res="-0.00829557" purity="0.519302" nType="0">
              <Node pos="l" depth="4" NCoef="0" IVar="-1" Cut="0" cType="1" res="-0.000760476" purity="0.514959" nType="-99"/>
              <Node pos="r" depth="4" NCoef="0" IVar="-1" Cut="0" cType="1" res="0.00275778" purity="0.557519" nType="-99"/>
            </Node>
            <Node pos="r" depth="3" NCoef="0" IVar="-1" Cut="0" cType="1" res="-0.00448754" purity="0.400914" nType="-99"/>
          </Node>
          <Node pos="r" depth="2" NCoef="0" IVar="5" Cut="0.796198" cType="1" res="0.0192407" purity="0.484602" nType="0">
            <Node pos="l" depth="3" NCoef="0" IVar="-1" Cut="0" cType="1" res="0.00304175" purity="0.583079" nType="-99"/>
            <Node pos="r" depth="3" NCoef="0" IVar="4" Cut="385777" cType="1" res="0.00524763" purity="0.458492" nType="0">
              <Node pos="l" depth="4" NCoef="0" IVar="-1" Cut="0" cType="1" res="0.00155263" purity="0.494255" nType="-99"/>
              <Node pos="r" depth="4" NCoef="0" IVar="-1" Cut="0" cType="1" res="-0.00517583" purity="0.349889" nType="-99"/>
            </Node>
          </Node>
        </Node>
        <Node pos="r" depth="1" NCoef="0" IVar="5" Cut="2.30516" cType="1" res="0.0240833" purity="0.492795" nType="0">
          <Node pos="l" depth="2" NCoef="0" IVar="1" Cut="140333" cType="1" res="0.0694235" purity="0.553151" nType="0">
            <Node pos="l" depth="3" NCoef="0" IVar="-1" Cut="0" cType="1" res="0.00404015" purity="0.569326" nType="-99"/>
            <Node pos="r" depth="3" NCoef="0" IVar="-1" Cut="0" cType="1" res="0.00116358" purity="0.522572" nType="-99"/>
          </Node>
          <Node pos="r" depth="2" NCoef="0" IVar="2" Cut="659.988" cType="1" res="-0.010019" purity="0.447398" nType="0">
            <Node pos="l" depth="3" NCoef="0" IVar="-1" Cut="0" cType="1" res="-0.00479668" purity="0.320879" nType="-99"/>
            <Node pos="r" depth="3" NCoef="0" IVar="6" Cut="0.71542" cType="1" res="0.0223698" purity="0.51534" nType="0">
              <Node pos="l" depth="4" NCoef="0" IVar="-1" Cut="0" cType="1" res="-0.0016046" purity="0.469208" nType="-99"/>
              <Node pos="r" depth="4" NCoef="0" IVar="-1" Cut="0" cType="1" res="0.00267784" purity="0.549997" nType="-99"/>
            </Node>
          </Node>
        </Node>
      </Node>
    </BinaryTree>
    <BinaryTree type="DecisionTree" boostWeight="1.0" itree="215">
      <Node pos="s" depth="0" NCoef="0" IVar="1" Cut="110467" cType="1" res="0.00582893" purity="0.499868" nType="0">
        <Node pos="l" depth="1" NCoef="0" IVar="6" Cut="0.459794" cType="1" res="-0.0074194" purity="0.464987" nType="0">
          <Node pos="l" depth="2" NCoef="0" IVar="-1" Cut="0" cType="1" res="0.00265127" purity="0.5264" nType="-99"/>
          <Node pos="r" depth="2" NCoef="0" IVar="6" Cut="2.81453" cType="1" res="-0.016102" purity="0.457203" nType="0">
            <Node pos="l" depth="3" NCoef="0" IVar="4" Cut="148828" cType="1" res="-0.0259712" purity="0.461344" nType="0">
              <Node pos="l" depth="4" NCoef="0" IVar="-1" Cut="0" cType="1" res="0.000925548" purity="0.556143" nType="-99"/>
              <Node pos="r" depth="4" NCoef="0" IVar="-1" Cut="0" cType="1" res="-0.00173916" purity="0.446353" nType="-99"/>
            </Node>
            <Node pos="r" depth="3" NCoef="0" IVar="-1" Cut="0" cType="1" res="0.00172161" purity="0.436117" nType="-99"/>
          </Node>
        </Node>
        <Node pos="r" depth="1" NCoef="0" IVar="3" Cut="212303" cType="1" res="0.0181598" purity="0.532332" nType="0">
          <Node pos="l" depth="2" NCoef="0" IVar="3" Cut="193773" cType="1" res="0.0124998" purity="0.528797" nType="0">
            <Node pos="l" depth="3" NCoef="0" IVar="4" Cut="189461" cType="1" res="0.0193092" purity="0.538398" nType="0">
              <Node pos="l" depth="4" NCoef="0" IVar="-1" Cut="0" cType="1" res="0.00233383" purity="0.65522" nType="-99"/>
              <Node pos="r" depth="4" NCoef="0" IVar="-1" Cut="0" cType="1" res="0.000384442" purity="0.504719" nType="-99"/>
            </Node>
            <Node pos="r" depth="3" NCoef="0" IVar="-1" Cut="0" cType="1" res="-0.00268237" purity="0.441596" nType="-99"/>
          </Node>
          <Node pos="r" depth="2" NCoef="0" IVar="-1" Cut="0" cType="1" res="0.00278265" purity="0.56238" nType="-99"/>
        </Node>
      </Node>
    </BinaryTree>
    <BinaryTree type="DecisionTree" boostWeight="1.0" itree="216">
      <Node pos="s" depth="0" NCoef="0" IVar="0" Cut="221945" cType="1" res="0.000608087" purity="0.493272" nType="0">
        <Node pos="l" depth="1" NCoef="0" IVar="5" Cut="2.06977" cType="1" res="-0.00456441" purity="0.480035" nType="0">
          <Node pos="l" depth="2" NCoef="0" IVar="1" Cut="140933" cType="1" res="0.00122906" purity="0.492735" nType="0">
            <Node pos="l" depth="3" NCoef="0" IVar="1" Cut="92485.4" cType="1" res="-0.00401403" purity="0.482481" nType="0">
              <Node pos="l" depth="4" NCoef="0" IVar="-1" Cut="0" cType="1" res="0.00190927" purity="0.503754" nType="-99"/>
              <Node pos="r" depth="4" NCoef="0" IVar="-1" Cut="0" cType="1" res="-0.000506617" purity="0.479514" nType="-99"/>
            </Node>
            <Node pos="r" depth="3" NCoef="0" IVar="-1" Cut="0" cType="1" res="0.00180524" purity="0.572751" nType="-99"/>
          </Node>
          <Node pos="r" depth="2" NCoef="0" IVar="6" Cut="1.22515" cType="1" res="-0.0243281" purity="0.43671" nType="0">
            <Node pos="l" depth="3" NCoef="0" IVar="-1" Cut="0" cType="1" res="0.000808819" purity="0.522566" nType="-99"/>
            <Node pos="r" depth="3" NCoef="0" IVar="6" Cut="2.06565" cType="1" res="-0.0586166" purity="0.367009" nType="0">
              <Node pos="l" depth="4" NCoef="0" IVar="-1" Cut="0" cType="1" res="-0.00605583" purity="0.363815" nType="-99"/>
              <Node pos="r" depth="4" NCoef="0" IVar="-1" Cut="0" cType="1" res="-0.00145912" purity="0.36981" nType="-99"/>
            </Node>
          </Node>
        </Node>
        <Node pos="r" depth="1" NCoef="0" IVar="4" Cut="237201" cType="1" res="0.0548656" purity="0.632126" nType="0">
          <Node pos="l" depth="2" NCoef="0" IVar="-1" Cut="0" cType="1" res="0.0027505" purity="0.681214" nType="-99"/>
          <Node pos="r" depth="2" NCoef="0" IVar="-1" Cut="0" cType="1" res="0.00149368" purity="0.583393" nType="-99"/>
        </Node>
      </Node>
    </BinaryTree>
    <BinaryTree type="DecisionTree" boostWeight="1.0" itree="217">
      <Node pos="s" depth="0" NCoef="0" IVar="4" Cut="148907" cType="1" res="0.0143799" purity="0.509009" nType="0">
        <Node pos="l" depth="1" NCoef="0" IVar="-1" Cut="0" cType="1" res="-0.0019254" purity="0.504947" nType="-99"/>
        <Node pos="r" depth="1" NCoef="0" IVar="3" Cut="189316" cType="1" res="0.0177986" purity="0.509269" nType="0">
          <Node pos="l" depth="2" NCoef="0" IVar="3" Cut="126838" cType="1" res="0.0102439" purity="0.505616" nType="0">
            <Node pos="l" depth="3" NCoef="0" IVar="1" Cut="120699" cType="1" res="0.0595246" purity="0.548676" nType="0">
              <Node pos="l" depth="4" NCoef="0" IVar="-1" Cut="0" cType="1" res="0.000803737" purity="0.478785" nType="-99"/>
              <Node pos="r" depth="4" NCoef="0" IVar="-1" Cut="0" cType="1" res="0.00409683" purity="0.622417" nType="-99"/>
            </Node>
            <Node pos="r" depth="3" NCoef="0" IVar="3" Cut="135985" cType="1" res="0.0011883" purity="0.497704" nType="0">
              <Node pos="l" depth="4" NCoef="0" IVar="-1" Cut="0" cType="1" res="-0.00413725" purity="0.427163" nType="-99"/>
              <Node pos="r" depth="4" NCoef="0" IVar="-1" Cut="0" cType="1" res="0.000319957" purity="0.502695" nType="-99"/>
            </Node>
          </Node>
          <Node pos="r" depth="2" NCoef="0" IVar="5" Cut="0.953975" cType="1" res="0.0429049" purity="0.521406" nType="0">
            <Node pos="l" depth="3" NCoef="0" IVar="-1" Cut="0" cType="1" res="-0.0016694" purity="0.481958" nType="-99"/>
            <Node pos="r" depth="3" NCoef="0" IVar="5" Cut="1.64755" cType="1" res="0.0611657" purity="0.530786" nType="0">
              <Node pos="l" depth="4" NCoef="0" IVar="-1" Cut="0" cType="1" res="0.00404959" purity="0.584477" nType="-99"/>
              <Node pos="r" depth="4" NCoef="0" IVar="-1" Cut="0" cType="1" res="0.000738228" purity="0.469052" nType="-99"/>
            </Node>
          </Node>
        </Node>
      </Node>
    </BinaryTree>
    <BinaryTree type="DecisionTree" boostWeight="1.0" itree="218">
      <Node pos="s" depth="0" NCoef="0" IVar="3" Cut="200565" cType="1" res="0.0143273" purity="0.507273" nType="0">
        <Node pos="l" depth="1" NCoef="0" IVar="1" Cut="176983" cType="1" res="0.0207632" purity="0.515235" nType="0">
          <Node pos="l" depth="2" NCoef="0" IVar="1" Cut="130309" cType="1" res="0.0256696" purity="0.520464" nType="0">
            <Node pos="l" depth="3" NCoef="0" IVar="1" Cut="92951.4" cType="1" res="0.0138605" purity="0.501683" nType="0">
              <Node pos="l" depth="4" NCoef="0" IVar="-1" Cut="0" cType="1" res="0.00240322" purity="0.522308" nType="-99"/>
              <Node pos="r" depth="4" NCoef="0" IVar="-1" Cut="0" cType="1" res="0.000337413" purity="0.498203" nType="-99"/>
            </Node>
            <Node pos="r" depth="3" NCoef="0" IVar="1" Cut="145110" cType="1" res="0.0688261" purity="0.589099" nType="0">
              <Node pos="l" depth="4" NCoef="0" IVar="-1" Cut="0" cType="1" res="0.00379526" purity="0.627186" nType="-99"/>
              <Node pos="r" depth="4" NCoef="0" IVar="-1" Cut="0" cType="1" res="0.00176667" purity="0.547908" nType="-99"/>
            </Node>
          </Node>
          <Node pos="r" depth="2" NCoef="0" IVar="-1" Cut="0" cType="1" res="-0.00168403" purity="0.457359" nType="-99"/>
        </Node>
        <Node pos="r" depth="1" NCoef="0" IVar="1" Cut="125812" cType="1" res="-0.0264299" purity="0.456854" nType="0">
          <Node pos="l" depth="2" NCoef="0" IVar="3" Cut="217487" cType="1" res="-0.0637144" purity="0.415628" nType="0">
            <Node pos="l" depth="3" NCoef="0" IVar="-1" Cut="0" cType="1" res="-0.00580164" purity="0.378695" nType="-99"/>
            <Node pos="r" depth="3" NCoef="0" IVar="-1" Cut="0" cType="1" res="-0.00160048" purity="0.451874" nType="-99"/>
          </Node>
          <Node pos="r" depth="2" NCoef="0" IVar="-1" Cut="0" cType="1" res="0.00147026" purity="0.52253" nType="-99"/>
        </Node>
      </Node>
    </BinaryTree>
    <BinaryTree type="DecisionTree" boostWeight="1.0" itree="219">
      <Node pos="s" depth="0" NCoef="0" IVar="4" Cut="392715" cType="1" res="0.00697061" purity="0.502026" nType="0">
        <Node pos="l" depth="1" NCoef="0" IVar="3" Cut="118838" cType="1" res="0.0113465" purity="0.512643" nType="0">
          <Node pos="l" depth="2" NCoef="0" IVar="-1" Cut="0" cType="1" res="-0.00162693" purity="0.462328" nType="-99"/>
          <Node pos="r" depth="2" NCoef="0" IVar="6" Cut="0.229928" cType="1" res="0.0145703" purity="0.5165" nType="0">
            <Node pos="l" depth="3" NCoef="0" IVar="-1" Cut="0" cType="1" res="0.00261498" purity="0.568483" nType="-99"/>
            <Node pos="r" depth="3" NCoef="0" IVar="0" Cut="139016" cType="1" res="0.0112606" purity="0.512949" nType="0">
              <Node pos="l" depth="4" NCoef="0" IVar="-1" Cut="0" cType="1" res="-0.000201215" purity="0.463071" nType="-99"/>
              <Node pos="r" depth="4" NCoef="0" IVar="-1" Cut="0" cType="1" res="0.00127985" purity="0.573393" nType="-99"/>
            </Node>
          </Node>
        </Node>
        <Node pos="r" depth="1" NCoef="0" IVar="3" Cut="171515" cType="1" res="-0.0404962" purity="0.38686" nType="0">
          <Node pos="l" depth="2" NCoef="0" IVar="-1" Cut="0" cType="1" res="-0.00491272" purity="0.35272" nType="-99"/>
          <Node pos="r" depth="2" NCoef="0" IVar="-1" Cut="0" cType="1" res="-0.000122155" purity="0.420359" nType="-99"/>
        </Node>
      </Node>
    </BinaryTree>
    <BinaryTree type="DecisionTree" boostWeight="1.0" itree="220">
      <Node pos="s" depth="0" NCoef="0" IVar="3" Cut="118753" cType="1" res="-0.00240528" purity="0.491815" nType="0">
        <Node pos="l" depth="1" NCoef="0" IVar="-1" Cut="0" cType="1" res="-0.00391252" purity="0.408425" nType="-99"/>
        <Node pos="r" depth="1" NCoef="0" IVar="5" Cut="2.4527" cType="1" res="0.00278139" purity="0.498068" nType="0">
          <Node pos="l" depth="2" NCoef="0" IVar="5" Cut="2.15386" cType="1" res="0.00866287" purity="0.509902" nType="0">
            <Node pos="l" depth="3" NCoef="0" IVar="5" Cut="1.21011" cType="1" res="0.00338301" purity="0.507303" nType="0">
              <Node pos="l" depth="4" NCoef="0" IVar="-1" Cut="0" cType="1" res="0.000909051" purity="0.537466" nType="-99"/>
              <Node pos="r" depth="4" NCoef="0" IVar="-1" Cut="0" cType="1" res="-0.000663809" purity="0.477425" nType="-99"/>
            </Node>
            <Node pos="r" depth="3" NCoef="0" IVar="-1" Cut="0" cType="1" res="0.00281902" purity="0.536612" nType="-99"/>
          </Node>
          <Node pos="r" depth="2" NCoef="0" IVar="2" Cut="3934.15" cType="1" res="-0.0428258" purity="0.406307" nType="0">
            <Node pos="l" depth="3" NCoef="0" IVar="-1" Cut="0" cType="1" res="-0.00590472" purity="0.309838" nType="-99"/>
            <Node pos="r" depth="3" NCoef="0" IVar="-1" Cut="0" cType="1" res="-0.000418649" purity="0.483695" nType="-99"/>
          </Node>
        </Node>
      </Node>
    </BinaryTree>
    <BinaryTree type="DecisionTree" boostWeight="1.0" itree="221">
      <Node pos="s" depth="0" NCoef="0" IVar="6" Cut="2.60519" cType="1" res="0.00726945" purity="0.501521" nType="0">
        <Node pos="l" depth="1" NCoef="0" IVar="1" Cut="95121.5" cType="1" res="-0.00041546" purity="0.512833" nType="0">
          <Node pos="l" depth="2" NCoef="0" IVar="1" Cut="91874.5" cType="1" res="-0.0366862" purity="0.444706" nType="0">
            <Node pos="l" depth="3" NCoef="0" IVar="-1" Cut="0" cType="1" res="0.00059365" purity="0.503923" nType="-99"/>
            <Node pos="r" depth="3" NCoef="0" IVar="-1" Cut="0" cType="1" res="-0.00441264" purity="0.4" nType="-99"/>
          </Node>
          <Node pos="r" depth="2" NCoef="0" IVar="1" Cut="105113" cType="1" res="0.00592486" purity="0.524742" nType="0">
            <Node pos="l" depth="3" NCoef="0" IVar="3" Cut="171196" cType="1" res="0.0291467" purity="0.522706" nType="0">
              <Node pos="l" depth="4" NCoef="0" IVar="-1" Cut="0" cType="1" res="-8.22309e-05" purity="0.501254" nType="-99"/>
              <Node pos="r" depth="4" NCoef="0" IVar="-1" Cut="0" cType="1" res="0.00265255" purity="0.544777" nType="-99"/>
            </Node>
            <Node pos="r" depth="3" NCoef="0" IVar="3" Cut="125428" cType="1" res="-0.00311812" purity="0.525535" nType="0">
              <Node pos="l" depth="4" NCoef="0" IVar="-1" Cut="0" cType="1" res="0.00198083" purity="0.568871" nType="-99"/>
              <Node pos="r" depth="4" NCoef="0" IVar="-1" Cut="0" cType="1" res="-0.000474597" purity="0.519267" nType="-99"/>
            </Node>
          </Node>
        </Node>
        <Node pos="r" depth="1" NCoef="0" IVar="1" Cut="95105.6" cType="1" res="0.0362178" purity="0.458909" nType="0">
          <Node pos="l" depth="2" NCoef="0" IVar="-1" Cut="0" cType="1" res="0.00446108" purity="0.523712" nType="-99"/>
          <Node pos="r" depth="2" NCoef="0" IVar="2" Cut="-8633.09" cType="1" res="0.0183158" purity="0.440898" nType="0">
            <Node pos="l" depth="3" NCoef="0" IVar="4" Cut="270585" cType="1" res="0.0545232" purity="0.448664" nType="0">
              <Node pos="l" depth="4" NCoef="0" IVar="-1" Cut="0" cType="1" res="0.0017898" purity="0.445268" nType="-99"/>
              <Node pos="r" depth="4" NCoef="0" IVar="-1" Cut="0" cType="1" res="0.00394784" purity="0.452089" nType="-99"/>
            </Node>
            <Node pos="r" depth="3" NCoef="0" IVar="-1" Cut="0" cType="1" res="-0.00102452" purity="0.432687" nType="-99"/>
          </Node>
        </Node>
      </Node>
    </BinaryTree>
    <BinaryTree type="DecisionTree" boostWeight="1.0" itree="222">
      <Node pos="s" depth="0" NCoef="0" IVar="4" Cut="373163" cType="1" res="0.012062" purity="0.506807" nType="0">
        <Node pos="l" depth="1" NCoef="0" IVar="3" Cut="165570" cType="1" res="0.0154135" purity="0.518517" nType="0">
          <Node pos="l" depth="2" NCoef="0" IVar="5" Cut="0.845927" cType="1" res="0.00207997" purity="0.511104" nType="0">
            <Node pos="l" depth="3" NCoef="0" IVar="-1" Cut="0" cType="1" res="-0.00189273" purity="0.519058" nType="-99"/>
            <Node pos="r" depth="3" NCoef="0" IVar="3" Cut="129660" cType="1" res="0.00872641" purity="0.50981" nType="0">
              <Node pos="l" depth="4" NCoef="0" IVar="-1" Cut="0" cType="1" res="0.00191649" purity="0.540248" nType="-99"/>
              <Node pos="r" depth="4" NCoef="0" IVar="-1" Cut="0" cType="1" res="-0.000255911" purity="0.496953" nType="-99"/>
            </Node>
          </Node>
          <Node pos="r" depth="2" NCoef="0" IVar="4" Cut="227038" cType="1" res="0.0260038" purity="0.524406" nType="0">
            <Node pos="l" depth="3" NCoef="0" IVar="0" Cut="129143" cType="1" res="0.0102979" purity="0.532795" nType="0">
              <Node pos="l" depth="4" NCoef="0" IVar="-1" Cut="0" cType="1" res="-0.00104248" purity="0.469766" nType="-99"/>
              <Node pos="r" depth="4" NCoef="0" IVar="-1" Cut="0" cType="1" res="0.00150372" purity="0.584833" nType="-99"/>
            </Node>
            <Node pos="r" depth="3" NCoef="0" IVar="1" Cut="130541" cType="1" res="0.0458489" purity="0.513806" nType="0">
              <Node pos="l" depth="4" NCoef="0" IVar="-1" Cut="0" cType="1" res="0.00301428" purity="0.526444" nType="-99"/>
              <Node pos="r" depth="4" NCoef="0" IVar="-1" Cut="0" cType="1" res="0.00048387" purity="0.49223" nType="-99"/>
            </Node>
          </Node>
        </Node>
        <Node pos="r" depth="1" NCoef="0" IVar="5" Cut="1.31491" cType="1" res="-0.0144502" purity="0.414174" nType="0">
          <Node pos="l" depth="2" NCoef="0" IVar="-1" Cut="0" cType="1" res="-0.00277002" purity="0.39395" nType="-99"/>
          <Node pos="r" depth="2" NCoef="0" IVar="-1" Cut="0" cType="1" res="0.000959135" purity="0.43298" nType="-99"/>
        </Node>
      </Node>
    </BinaryTree>
    <BinaryTree type="DecisionTree" boostWeight="1.0" itree="223">
      <Node pos="s" depth="0" NCoef="0" IVar="0" Cut="178045" cType="1" res="0.00893497" purity="0.504726" nType="0">
        <Node pos="l" depth="1" NCoef="0" IVar="0" Cut="105711" cType="1" res="-0.00157478" purity="0.476333" nType="0">
          <Node pos="l" depth="2" NCoef="0" IVar="5" Cut="1.63621" cType="1" res="-0.0445697" purity="0.379783" nType="0">
            <Node pos="l" depth="3" NCoef="0" IVar="-1" Cut="0" cType="1" res="-0.00509978" purity="0.357101" nType="-99"/>
            <Node pos="r" depth="3" NCoef="0" IVar="-1" Cut="0" cType="1" res="-0.00082089" purity="0.398169" nType="-99"/>
          </Node>
          <Node pos="r" depth="2" NCoef="0" IVar="0" Cut="109239" cType="1" res="0.00475496" purity="0.490548" nType="0">
            <Node pos="l" depth="3" NCoef="0" IVar="-1" Cut="0" cType="1" res="0.0031779" purity="0.526773" nType="-99"/>
            <Node pos="r" depth="3" NCoef="0" IVar="0" Cut="112597" cType="1" res="-0.0031874" purity="0.486327" nType="0">
              <Node pos="l" depth="4" NCoef="0" IVar="-1" Cut="0" cType="1" res="-0.0063949" purity="0.353288" nType="-99"/>
              <Node pos="r" depth="4" NCoef="0" IVar="-1" Cut="0" cType="1" res="0.000255736" purity="0.497793" nType="-99"/>
            </Node>
          </Node>
        </Node>
        <Node pos="r" depth="1" NCoef="0" IVar="3" Cut="189090" cType="1" res="0.0468693" purity="0.607205" nType="0">
          <Node pos="l" depth="2" NCoef="0" IVar="0" Cut="195894" cType="1" res="0.0626254" purity="0.624188" nType="0">
            <Node pos="l" depth="3" NCoef="0" IVar="-1" Cut="0" cType="1" res="0.00425858" purity="0.657073" nType="-99"/>
            <Node pos="r" depth="3" NCoef="0" IVar="4" Cut="285371" cType="1" res="0.0347401" purity="0.606133" nType="0">
              <Node pos="l" depth="4" NCoef="0" IVar="-1" Cut="0" cType="1" res="0.000237604" purity="0.594743" nType="-99"/>
              <Node pos="r" depth="4" NCoef="0" IVar="-1" Cut="0" cType="1" res="0.00307772" purity="0.622616" nType="-99"/>
            </Node>
          </Node>
          <Node pos="r" depth="2" NCoef="0" IVar="-1" Cut="0" cType="1" res="-0.000370399" purity="0.547476" nType="-99"/>
        </Node>
      </Node>
    </BinaryTree>
    <BinaryTree type="DecisionTree" boostWeight="1.0" itree="224">
      <Node pos="s" depth="0" NCoef="0" IVar="3" Cut="183031" cType="1" res="-0.00179222" purity="0.493939" nType="0">
        <Node pos="l" depth="1" NCoef="0" IVar="2" Cut="-12682.3" cType="1" res="0.00777628" purity="0.508854" nType="0">
          <Node pos="l" depth="2" NCoef="0" IVar="-1" Cut="0" cType="1" res="-0.0044759" purity="0.319101" nType="-99"/>
          <Node pos="r" depth="2" NCoef="0" IVar="5" Cut="1.30391" cType="1" res="0.0151422" purity="0.52779" nType="0">
            <Node pos="l" depth="3" NCoef="0" IVar="2" Cut="1048.6" cType="1" res="-0.00332196" purity="0.524301" nType="0">
              <Node pos="l" depth="4" NCoef="0" IVar="-1" Cut="0" cType="1" res="0.00208006" purity="0.481202" nType="-99"/>
              <Node pos="r" depth="4" NCoef="0" IVar="-1" Cut="0" cType="1" res="-0.00118731" purity="0.544294" nType="-99"/>
            </Node>
            <Node pos="r" depth="3" NCoef="0" IVar="1" Cut="166750" cType="1" res="0.029677" purity="0.530536" nType="0">
              <Node pos="l" depth="4" NCoef="0" IVar="-1" Cut="0" cType="1" res="0.00184424" purity="0.543766" nType="-99"/>
              <Node pos="r" depth="4" NCoef="0" IVar="-1" Cut="0" cType="1" res="-0.00112051" purity="0.466784" nType="-99"/>
            </Node>
          </Node>
        </Node>
        <Node pos="r" depth="1" NCoef="0" IVar="3" Cut="194436" cType="1" res="-0.0265905" purity="0.455282" nType="0">
          <Node pos="l" depth="2" NCoef="0" IVar="6" Cut="1.68556" cType="1" res="-0.0645882" purity="0.421726" nType="0">
            <Node pos="l" depth="3" NCoef="0" IVar="-1" Cut="0" cType="1" res="-0.00121293" purity="0.481816" nType="-99"/>
            <Node pos="r" depth="3" NCoef="0" IVar="-1" Cut="0" cType="1" res="-0.00584597" purity="0.373536" nType="-99"/>
          </Node>
          <Node pos="r" depth="2" NCoef="0" IVar="2" Cut="-2473.54" cType="1" res="-0.00522971" purity="0.474146" nType="0">
            <Node pos="l" depth="3" NCoef="0" IVar="-1" Cut="0" cType="1" res="0.00234609" purity="0.460695" nType="-99"/>
            <Node pos="r" depth="3" NCoef="0" IVar="4" Cut="219295" cType="1" res="-0.0295794" purity="0.480239" nType="0">
              <Node pos="l" depth="4" NCoef="0" IVar="-1" Cut="0" cType="1" res="0.000574217" purity="0.550768" nType="-99"/>
              <Node pos="r" depth="4" NCoef="0" IVar="-1" Cut="0" cType="1" res="-0.00377737" purity="0.414269" nType="-99"/>
            </Node>
          </Node>
        </Node>
      </Node>
    </BinaryTree>
    <BinaryTree type="DecisionTree" boostWeight="1.0" itree="225">
      <Node pos="s" depth="0" NCoef="0" IVar="3" Cut="182810" cType="1" res="0.00603245" purity="0.501441" nType="0">
        <Node pos="l" depth="1" NCoef="0" IVar="1" Cut="95116.2" cType="1" res="0.0156602" purity="0.515858" nType="0">
          <Node pos="l" depth="2" NCoef="0" IVar="4" Cut="178116" cType="1" res="-0.0151402" purity="0.452264" nType="0">
            <Node pos="l" depth="3" NCoef="0" IVar="-1" Cut="0" cType="1" res="0.000807719" purity="0.528447" nType="-99"/>
            <Node pos="r" depth="3" NCoef="0" IVar="-1" Cut="0" cType="1" res="-0.00220213" purity="0.401227" nType="-99"/>
          </Node>
          <Node pos="r" depth="2" NCoef="0" IVar="3" Cut="126744" cType="1" res="0.0211399" purity="0.527172" nType="0">
            <Node pos="l" depth="3" NCoef="0" IVar="3" Cut="112491" cType="1" res="0.0553607" purity="0.557818" nType="0">
              <Node pos="l" depth="4" NCoef="0" IVar="-1" Cut="0" cType="1" res="0.00165265" purity="0.53254" nType="-99"/>
              <Node pos="r" depth="4" NCoef="0" IVar="-1" Cut="0" cType="1" res="0.00309003" purity="0.581957" nType="-99"/>
            </Node>
            <Node pos="r" depth="3" NCoef="0" IVar="3" Cut="139053" cType="1" res="0.0142184" purity="0.520974" nType="0">
              <Node pos="l" depth="4" NCoef="0" IVar="-1" Cut="0" cType="1" res="-0.00396403" purity="0.426813" nType="-99"/>
              <Node pos="r" depth="4" NCoef="0" IVar="-1" Cut="0" cType="1" res="0.00108351" purity="0.531625" nType="-99"/>
            </Node>
          </Node>
        </Node>
        <Node pos="r" depth="1" NCoef="0" IVar="5" Cut="2.38028" cType="1" res="-0.0184738" purity="0.464746" nType="0">
          <Node pos="l" depth="2" NCoef="0" IVar="4" Cut="295681" cType="1" res="-0.032065" purity="0.459576" nType="0">
            <Node pos="l" depth="3" NCoef="0" IVar="5" Cut="0.990453" cType="1" res="-0.0129481" purity="0.492403" nType="0">
              <Node pos="l" depth="4" NCoef="0" IVar="-1" Cut="0" cType="1" res="-0.00289604" purity="0.469561" nType="-99"/>
              <Node pos="r" depth="4" NCoef="0" IVar="-1" Cut="0" cType="1" res="0.000107736" purity="0.500005" nType="-99"/>
            </Node>
            <Node pos="r" depth="3" NCoef="0" IVar="-1" Cut="0" cType="1" res="-0.00568224" purity="0.358573" nType="-99"/>
          </Node>
          <Node pos="r" depth="2" NCoef="0" IVar="-1" Cut="0" cType="1" res="0.00251249" purity="0.491934" nType="-99"/>
        </Node>
      </Node>
    </BinaryTree>
    <BinaryTree type="DecisionTree" boostWeight="1.0" itree="226">
      <Node pos="s" depth="0" NCoef="0" IVar="2" Cut="21429.2" cType="1" res="0.00506603" purity="0.500653" nType="0">
        <Node pos="l" depth="1" NCoef="0" IVar="1" Cut="151440" cType="1" res="-0.00107048" purity="0.474527" nType="0">
          <Node pos="l" depth="2" NCoef="0" IVar="0" Cut="143900" cType="1" res="0.00679848" purity="0.484659" nType="0">
            <Node pos="l" depth="3" NCoef="0" IVar="3" Cut="163694" cType="1" res="0.0179984" purity="0.471627" nType="0">
              <Node pos="l" depth="4" NCoef="0" IVar="-1" Cut="0" cType="1" res="-0.000257096" purity="0.45773" nType="-99"/>
              <Node pos="r" depth="4" NCoef="0" IVar="-1" Cut="0" cType="1" res="0.00162865" purity="0.480975" nType="-99"/>
            </Node>
            <Node pos="r" depth="3" NCoef="0" IVar="3" Cut="181679" cType="1" res="-0.0122651" purity="0.506843" nType="0">
              <Node pos="l" depth="4" NCoef="0" IVar="-1" Cut="0" cType="1" res="0.00013077" purity="0.524516" nType="-99"/>
              <Node pos="r" depth="4" NCoef="0" IVar="-1" Cut="0" cType="1" res="-0.00234713" purity="0.465925" nType="-99"/>
            </Node>
          </Node>
          <Node pos="r" depth="2" NCoef="0" IVar="4" Cut="320987" cType="1" res="-0.0472109" purity="0.415117" nType="0">
            <Node pos="l" depth="3" NCoef="0" IVar="-1" Cut="0" cType="1" res="-0.0054295" purity="0.391539" nType="-99"/>
            <Node pos="r" depth="3" NCoef="0" IVar="-1" Cut="0" cType="1" res="6.56476e-05" purity="0.438644" nType="-99"/>
          </Node>
        </Node>
        <Node pos="r" depth="1" NCoef="0" IVar="3" Cut="167949" cType="1" res="0.0491766" purity="0.688446" nType="0">
          <Node pos="l" depth="2" NCoef="0" IVar="-1" Cut="0" cType="1" res="0.00276072" purity="0.712932" nType="-99"/>
          <Node pos="r" depth="2" NCoef="0" IVar="-1" Cut="0" cType="1" res="0.000640744" purity="0.649947" nType="-99"/>
        </Node>
      </Node>
    </BinaryTree>
    <BinaryTree type="DecisionTree" boostWeight="1.0" itree="227">
      <Node pos="s" depth="0" NCoef="0" IVar="1" Cut="182090" cType="1" res="0.0137724" purity="0.509594" nType="0">
        <Node pos="l" depth="1" NCoef="0" IVar="4" Cut="363707" cType="1" res="0.00833257" purity="0.505575" nType="0">
          <Node pos="l" depth="2" NCoef="0" IVar="3" Cut="200377" cType="1" res="0.0136018" purity="0.518673" nType="0">
            <Node pos="l" depth="3" NCoef="0" IVar="5" Cut="1.53898" cType="1" res="0.0209535" purity="0.527921" nType="0">
              <Node pos="l" depth="4" NCoef="0" IVar="-1" Cut="0" cType="1" res="0.000310477" purity="0.526455" nType="-99"/>
              <Node pos="r" depth="4" NCoef="0" IVar="-1" Cut="0" cType="1" res="0.00197644" purity="0.530194" nType="-99"/>
            </Node>
            <Node pos="r" depth="3" NCoef="0" IVar="4" Cut="230433" cType="1" res="-0.038576" purity="0.453035" nType="0">
              <Node pos="l" depth="4" NCoef="0" IVar="-1" Cut="0" cType="1" res="-0.000311127" purity="0.503038" nType="-99"/>
              <Node pos="r" depth="4" NCoef="0" IVar="-1" Cut="0" cType="1" res="-0.00519734" purity="0.37695" nType="-99"/>
            </Node>
          </Node>
          <Node pos="r" depth="2" NCoef="0" IVar="1" Cut="112443" cType="1" res="-0.0370114" purity="0.392859" nType="0">
            <Node pos="l" depth="3" NCoef="0" IVar="-1" Cut="0" cType="1" res="-0.000616942" purity="0.392208" nType="-99"/>
            <Node pos="r" depth="3" NCoef="0" IVar="-1" Cut="0" cType="1" res="-0.003948" purity="0.393651" nType="-99"/>
          </Node>
        </Node>
        <Node pos="r" depth="1" NCoef="0" IVar="6" Cut="1.37905" cType="1" res="0.0669904" purity="0.548909" nType="0">
          <Node pos="l" depth="2" NCoef="0" IVar="-1" Cut="0" cType="1" res="0.00122403" purity="0.522785" nType="-99"/>
          <Node pos="r" depth="2" NCoef="0" IVar="-1" Cut="0" cType="1" res="0.00395967" purity="0.568291" nType="-99"/>
        </Node>
      </Node>
    </BinaryTree>
    <BinaryTree type="DecisionTree" boostWeight="1.0" itree="228">
      <Node pos="s" depth="0" NCoef="0" IVar="0" Cut="129267" cType="1" res="0.00700433" purity="0.498042" nType="0">
        <Node pos="l" depth="1" NCoef="0" IVar="2" Cut="17639.1" cType="1" res="0.0224525" purity="0.477274" nType="0">
          <Node pos="l" depth="2" NCoef="0" IVar="3" Cut="188891" cType="1" res="0.0307471" purity="0.462313" nType="0">
            <Node pos="l" depth="3" NCoef="0" IVar="1" Cut="100206" cType="1" res="0.0210606" purity="0.45638" nType="0">
              <Node pos="l" depth="4" NCoef="0" IVar="-1" Cut="0" cType="1" res="0.00230887" purity="0.470111" nType="-99"/>
              <Node pos="r" depth="4" NCoef="0" IVar="-1" Cut="0" cType="1" res="0.000514384" purity="0.450639" nType="-99"/>
            </Node>
            <Node pos="r" depth="3" NCoef="0" IVar="-1" Cut="0" cType="1" res="0.00296043" purity="0.481017" nType="-99"/>
          </Node>
          <Node pos="r" depth="2" NCoef="0" IVar="-1" Cut="0" cType="1" res="-0.0011056" purity="0.562911" nType="-99"/>
        </Node>
        <Node pos="r" depth="1" NCoef="0" IVar="4" Cut="373121" cType="1" res="-0.00668992" purity="0.516453" nType="0">
          <Node pos="l" depth="2" NCoef="0" IVar="5" Cut="0.92234" cType="1" res="-0.0188625" purity="0.516013" nType="0">
            <Node pos="l" depth="3" NCoef="0" IVar="6" Cut="2.52851" cType="1" res="0.0233761" purity="0.577302" nType="0">
              <Node pos="l" depth="4" NCoef="0" IVar="-1" Cut="0" cType="1" res="-3.46952e-05" purity="0.586774" nType="-99"/>
              <Node pos="r" depth="4" NCoef="0" IVar="-1" Cut="0" cType="1" res="0.00292211" purity="0.559565" nType="-99"/>
            </Node>
            <Node pos="r" depth="3" NCoef="0" IVar="5" Cut="1.08473" cType="1" res="-0.0370474" purity="0.489626" nType="0">
              <Node pos="l" depth="4" NCoef="0" IVar="-1" Cut="0" cType="1" res="-0.00612487" purity="0.411921" nType="-99"/>
              <Node pos="r" depth="4" NCoef="0" IVar="-1" Cut="0" cType="1" res="-0.00111397" purity="0.504192" nType="-99"/>
            </Node>
          </Node>
          <Node pos="r" depth="2" NCoef="0" IVar="5" Cut="1.41454" cType="1" res="0.0571337" purity="0.518762" nType="0">
            <Node pos="l" depth="3" NCoef="0" IVar="-1" Cut="0" cType="1" res="0.000460137" purity="0.472938" nType="-99"/>
            <Node pos="r" depth="3" NCoef="0" IVar="-1" Cut="0" cType="1" res="0.00435261" purity="0.565303" nType="-99"/>
          </Node>
        </Node>
      </Node>
    </BinaryTree>
    <BinaryTree type="DecisionTree" boostWeight="1.0" itree="229">
      <Node pos="s" depth="0" NCoef="0" IVar="0" Cut="134137" cType="1" res="0.0207557" purity="0.515634" nType="0">
        <Node pos="l" depth="1" NCoef="0" IVar="5" Cut="2.60518" cType="1" res="0.00640596" purity="0.467803" nType="0">
          <Node pos="l" depth="2" NCoef="0" IVar="5" Cut="2.03409" cType="1" res="-2.32693e-05" purity="0.466639" nType="0">
            <Node pos="l" depth="3" NCoef="0" IVar="0" Cut="109991" cType="1" res="0.0118486" purity="0.480986" nType="0">
              <Node pos="l" depth="4" NCoef="0" IVar="-1" Cut="0" cType="1" res="0.00214551" purity="0.49517" nType="-99"/>
              <Node pos="r" depth="4" NCoef="0" IVar="-1" Cut="0" cType="1" res="-0.000360109" purity="0.472935" nType="-99"/>
            </Node>
            <Node pos="r" depth="3" NCoef="0" IVar="-1" Cut="0" cType="1" res="-0.00295015" purity="0.402795" nType="-99"/>
          </Node>
          <Node pos="r" depth="2" NCoef="0" IVar="-1" Cut="0" cType="1" res="0.00248558" purity="0.475875" nType="-99"/>
        </Node>
        <Node pos="r" depth="1" NCoef="0" IVar="4" Cut="168400" cType="1" res="0.0349626" purity="0.562989" nType="0">
          <Node pos="l" depth="2" NCoef="0" IVar="-1" Cut="0" cType="1" res="-0.000658443" purity="0.557707" nType="-99"/>
          <Node pos="r" depth="2" NCoef="0" IVar="0" Cut="198843" cType="1" res="0.043605" purity="0.563914" nType="0">
            <Node pos="l" depth="3" NCoef="0" IVar="6" Cut="1.37925" cType="1" res="0.0555819" purity="0.558295" nType="0">
              <Node pos="l" depth="4" NCoef="0" IVar="-1" Cut="0" cType="1" res="0.00335175" purity="0.605215" nType="-99"/>
              <Node pos="r" depth="4" NCoef="0" IVar="-1" Cut="0" cType="1" res="0.00172944" purity="0.534045" nType="-99"/>
            </Node>
            <Node pos="r" depth="3" NCoef="0" IVar="2" Cut="6762.72" cType="1" res="0.00819654" purity="0.580526" nType="0">
              <Node pos="l" depth="4" NCoef="0" IVar="-1" Cut="0" cType="1" res="-0.00131674" purity="0.492751" nType="-99"/>
              <Node pos="r" depth="4" NCoef="0" IVar="-1" Cut="0" cType="1" res="0.00189101" purity="0.67428" nType="-99"/>
            </Node>
          </Node>
        </Node>
      </Node>
    </BinaryTree>
    <BinaryTree type="DecisionTree" boostWeight="1.0" itree="230">
      <Node pos="s" depth="0" NCoef="0" IVar="4" Cut="382940" cType="1" res="-0.00177559" purity="0.491777" nType="0">
        <Node pos="l" depth="1" NCoef="0" IVar="6" Cut="1.37926" cType="1" res="-0.00922246" purity="0.492065" nType="0">
          <Node pos="l" depth="2" NCoef="0" IVar="2" Cut="2512.8" cType="1" res="-0.0329469" purity="0.486743" nType="0">
            <Node pos="l" depth="3" NCoef="0" IVar="-1" Cut="0" cType="1" res="-0.00572058" purity="0.332244" nType="-99"/>
            <Node pos="r" depth="3" NCoef="0" IVar="2" Cut="18496.8" cType="1" res="-0.0200094" purity="0.520389" nType="0">
              <Node pos="l" depth="4" NCoef="0" IVar="-1" Cut="0" cType="1" res="-0.000286186" purity="0.506091" nType="-99"/>
              <Node pos="r" depth="4" NCoef="0" IVar="-1" Cut="0" cType="1" res="-0.00241002" purity="0.555329" nType="-99"/>
            </Node>
          </Node>
          <Node pos="r" depth="2" NCoef="0" IVar="0" Cut="109752" cType="1" res="0.00332513" purity="0.49488" nType="0">
            <Node pos="l" depth="3" NCoef="0" IVar="4" Cut="231155" cType="1" res="0.0384126" purity="0.458664" nType="0">
              <Node pos="l" depth="4" NCoef="0" IVar="-1" Cut="0" cType="1" res="0.00343416" purity="0.519156" nType="-99"/>
              <Node pos="r" depth="4" NCoef="0" IVar="-1" Cut="0" cType="1" res="-0.000937542" purity="0.367486" nType="-99"/>
            </Node>
            <Node pos="r" depth="3" NCoef="0" IVar="3" Cut="141725" cType="1" res="-0.00452286" purity="0.50298" nType="0">
              <Node pos="l" depth="4" NCoef="0" IVar="-1" Cut="0" cType="1" res="0.00148681" purity="0.540638" nType="-99"/>
              <Node pos="r" depth="4" NCoef="0" IVar="-1" Cut="0" cType="1" res="-0.000608631" purity="0.494726" nType="-99"/>
            </Node>
          </Node>
        </Node>
        <Node pos="r" depth="1" NCoef="0" IVar="6" Cut="2.29848" cType="1" res="0.0563742" purity="0.489529" nType="0">
          <Node pos="l" depth="2" NCoef="0" IVar="-1" Cut="0" cType="1" res="0.00365447" purity="0.537615" nType="-99"/>
          <Node pos="r" depth="2" NCoef="0" IVar="-1" Cut="0" cType="1" res="0.000251147" purity="0.407198" nType="-99"/>
        </Node>
      </Node>
    </BinaryTree>
    <BinaryTree type="DecisionTree" boostWeight="1.0" itree="231">
      <Node pos="s" depth="0" NCoef="0" IVar="3" Cut="200485" cType="1" res="0.00284481" purity="0.498929" nType="0">
        <Node pos="l" depth="1" NCoef="0" IVar="4" Cut="275664" cType="1" res="0.00893816" purity="0.507703" nType="0">
          <Node pos="l" depth="2" NCoef="0" IVar="5" Cut="0.704271" cType="1" res="-0.00183385" purity="0.51743" nType="0">
            <Node pos="l" depth="3" NCoef="0" IVar="-1" Cut="0" cType="1" res="0.00271732" purity="0.664737" nType="-99"/>
            <Node pos="r" depth="3" NCoef="0" IVar="1" Cut="99606.5" cType="1" res="-0.00891047" purity="0.502769" nType="0">
              <Node pos="l" depth="4" NCoef="0" IVar="-1" Cut="0" cType="1" res="-0.00160776" purity="0.443172" nType="-99"/>
              <Node pos="r" depth="4" NCoef="0" IVar="-1" Cut="0" cType="1" res="3.87877e-06" purity="0.526915" nType="-99"/>
            </Node>
          </Node>
          <Node pos="r" depth="2" NCoef="0" IVar="4" Cut="297565" cType="1" res="0.031652" purity="0.487193" nType="0">
            <Node pos="l" depth="3" NCoef="0" IVar="-1" Cut="0" cType="1" res="0.00362855" purity="0.558354" nType="-99"/>
            <Node pos="r" depth="3" NCoef="0" IVar="4" Cut="322254" cType="1" res="0.0183342" purity="0.469105" nType="0">
              <Node pos="l" depth="4" NCoef="0" IVar="-1" Cut="0" cType="1" res="-0.00160823" purity="0.440184" nType="-99"/>
              <Node pos="r" depth="4" NCoef="0" IVar="-1" Cut="0" cType="1" res="0.00145336" purity="0.476" nType="-99"/>
            </Node>
          </Node>
        </Node>
        <Node pos="r" depth="1" NCoef="0" IVar="3" Cut="224707" cType="1" res="-0.039024" purity="0.438644" nType="0">
          <Node pos="l" depth="2" NCoef="0" IVar="-1" Cut="0" cType="1" res="-0.00426179" purity="0.402144" nType="-99"/>
          <Node pos="r" depth="2" NCoef="0" IVar="-1" Cut="0" cType="1" res="0.000603662" purity="0.492" nType="-99"/>
        </Node>
      </Node>
    </BinaryTree>
    <BinaryTree type="DecisionTree" boostWeight="1.0" itree="232">
      <Node pos="s" depth="0" NCoef="0" IVar="0" Cut="192657" cType="1" res="0.00385829" purity="0.499307" nType="0">
        <Node pos="l" depth="1" NCoef="0" IVar="3" Cut="223986" cType="1" res="-0.00579071" purity="0.475111" nType="0">
          <Node pos="l" depth="2" NCoef="0" IVar="6" Cut="2.75845" cType="1" res="-0.00967647" purity="0.472424" nType="0">
            <Node pos="l" depth="3" NCoef="0" IVar="3" Cut="160591" cType="1" res="-0.00283354" purity="0.492721" nType="0">
              <Node pos="l" depth="4" NCoef="0" IVar="-1" Cut="0" cType="1" res="0.000825989" purity="0.519205" nType="-99"/>
              <Node pos="r" depth="4" NCoef="0" IVar="-1" Cut="0" cType="1" res="-0.000908712" purity="0.472995" nType="-99"/>
            </Node>
            <Node pos="r" depth="3" NCoef="0" IVar="6" Cut="2.99214" cType="1" res="-0.0551664" purity="0.337497" nType="0">
              <Node pos="l" depth="4" NCoef="0" IVar="-1" Cut="0" cType="1" res="-0.00663811" purity="0.301372" nType="-99"/>
              <Node pos="r" depth="4" NCoef="0" IVar="-1" Cut="0" cType="1" res="-4.9451e-05" purity="0.389782" nType="-99"/>
            </Node>
          </Node>
          <Node pos="r" depth="2" NCoef="0" IVar="-1" Cut="0" cType="1" res="0.00226886" purity="0.515195" nType="-99"/>
        </Node>
        <Node pos="r" depth="1" NCoef="0" IVar="3" Cut="177732" cType="1" res="0.0536132" purity="0.624073" nType="0">
          <Node pos="l" depth="2" NCoef="0" IVar="2" Cut="4805.32" cType="1" res="0.0297198" purity="0.606605" nType="0">
            <Node pos="l" depth="3" NCoef="0" IVar="-1" Cut="0" cType="1" res="0.00241512" purity="0.569712" nType="-99"/>
            <Node pos="r" depth="3" NCoef="0" IVar="-1" Cut="0" cType="1" res="0.000214455" purity="0.636949" nType="-99"/>
          </Node>
          <Node pos="r" depth="2" NCoef="0" IVar="-1" Cut="0" cType="1" res="0.00316828" purity="0.649043" nType="-99"/>
        </Node>
      </Node>
    </BinaryTree>
    <BinaryTree type="DecisionTree" boostWeight="1.0" itree="233">
      <Node pos="s" depth="0" NCoef="0" IVar="1" Cut="100231" cType="1" res="0.00661649" purity="0.503761" nType="0">
        <Node pos="l" depth="1" NCoef="0" IVar="6" Cut="2.52852" cType="1" res="-0.0138345" purity="0.451878" nType="0">
          <Node pos="l" depth="2" NCoef="0" IVar="4" Cut="256057" cType="1" res="-0.0295108" purity="0.456253" nType="0">
            <Node pos="l" depth="3" NCoef="0" IVar="5" Cut="0.953813" cType="1" res="-0.00748064" purity="0.495029" nType="0">
              <Node pos="l" depth="4" NCoef="0" IVar="-1" Cut="0" cType="1" res="0.00155354" purity="0.569911" nType="-99"/>
              <Node pos="r" depth="4" NCoef="0" IVar="-1" Cut="0" cType="1" res="-0.00163931" purity="0.453613" nType="-99"/>
            </Node>
            <Node pos="r" depth="3" NCoef="0" IVar="-1" Cut="0" cType="1" res="-0.00709818" purity="0.324119" nType="-99"/>
          </Node>
          <Node pos="r" depth="2" NCoef="0" IVar="4" Cut="218883" cType="1" res="0.0233945" purity="0.44149" nType="0">
            <Node pos="l" depth="3" NCoef="0" IVar="-1" Cut="0" cType="1" res="-9.21488e-05" purity="0.440698" nType="-99"/>
            <Node pos="r" depth="3" NCoef="0" IVar="-1" Cut="0" cType="1" res="0.00256243" purity="0.442302" nType="-99"/>
          </Node>
        </Node>
        <Node pos="r" depth="1" NCoef="0" IVar="5" Cut="1.38671" cType="1" res="0.0144841" purity="0.523721" nType="0">
          <Node pos="l" depth="2" NCoef="0" IVar="0" Cut="173169" cType="1" res="0.0352733" purity="0.577625" nType="0">
            <Node pos="l" depth="3" NCoef="0" IVar="2" Cut="11233.9" cType="1" res="0.0162861" purity="0.53349" nType="0">
              <Node pos="l" depth="4" NCoef="0" IVar="-1" Cut="0" cType="1" res="-0.000357236" purity="0.436534" nType="-99"/>
              <Node pos="r" depth="4" NCoef="0" IVar="-1" Cut="0" cType="1" res="0.00194279" purity="0.670642" nType="-99"/>
            </Node>
            <Node pos="r" depth="3" NCoef="0" IVar="0" Cut="204114" cType="1" res="0.0730011" purity="0.665321" nType="0">
              <Node pos="l" depth="4" NCoef="0" IVar="-1" Cut="0" cType="1" res="0.0045752" purity="0.698933" nType="-99"/>
              <Node pos="r" depth="4" NCoef="0" IVar="-1" Cut="0" cType="1" res="0.000814124" purity="0.629432" nType="-99"/>
            </Node>
          </Node>
          <Node pos="r" depth="2" NCoef="0" IVar="5" Cut="1.85763" cType="1" res="-0.000237575" purity="0.485549" nType="0">
            <Node pos="l" depth="3" NCoef="0" IVar="0" Cut="124370" cType="1" res="-0.0209945" purity="0.485989" nType="0">
              <Node pos="l" depth="4" NCoef="0" IVar="-1" Cut="0" cType="1" res="0.000292715" purity="0.473579" nType="-99"/>
              <Node pos="r" depth="4" NCoef="0" IVar="-1" Cut="0" cType="1" res="-0.00229042" purity="0.497601" nType="-99"/>
            </Node>
            <Node pos="r" depth="3" NCoef="0" IVar="3" Cut="142172" cType="1" res="0.011388" purity="0.485302" nType="0">
              <Node pos="l" depth="4" NCoef="0" IVar="-1" Cut="0" cType="1" res="0.00242748" purity="0.530733" nType="-99"/>
              <Node pos="r" depth="4" NCoef="0" IVar="-1" Cut="0" cType="1" res="-0.000132143" purity="0.470033" nType="-99"/>
            </Node>
          </Node>
        </Node>
      </Node>
    </BinaryTree>
    <BinaryTree type="DecisionTree" boostWeight="1.0" itree="234">
      <Node pos="s" depth="0" NCoef="0" IVar="4" Cut="324386" cType="1" res="-0.000901477" purity="0.492202" nType="0">
        <Node pos="l" depth="1" NCoef="0" IVar="5" Cut="1.2275" cType="1" res="-0.0116047" purity="0.497296" nType="0">
          <Node pos="l" depth="2" NCoef="0" IVar="3" Cut="196331" cType="1" res="0.0143624" purity="0.545803" nType="0">
            <Node pos="l" depth="3" NCoef="0" IVar="3" Cut="170558" cType="1" res="0.0223231" purity="0.555331" nType="0">
              <Node pos="l" depth="4" NCoef="0" IVar="-1" Cut="0" cType="1" res="0.000134907" purity="0.538642" nType="-99"/>
              <Node pos="r" depth="4" NCoef="0" IVar="-1" Cut="0" cType="1" res="0.0021682" purity="0.581032" nType="-99"/>
            </Node>
            <Node pos="r" depth="3" NCoef="0" IVar="-1" Cut="0" cType="1" res="-0.00155453" purity="0.489398" nType="-99"/>
          </Node>
          <Node pos="r" depth="2" NCoef="0" IVar="1" Cut="164589" cType="1" res="-0.0304554" purity="0.462083" nType="0">
            <Node pos="l" depth="3" NCoef="0" IVar="5" Cut="2.11371" cType="1" res="-0.0231752" purity="0.468682" nType="0">
              <Node pos="l" depth="4" NCoef="0" IVar="-1" Cut="0" cType="1" res="-0.00212978" purity="0.454283" nType="-99"/>
              <Node pos="r" depth="4" NCoef="0" IVar="-1" Cut="0" cType="1" res="0.00105089" purity="0.50531" nType="-99"/>
            </Node>
            <Node pos="r" depth="3" NCoef="0" IVar="-1" Cut="0" cType="1" res="-0.00459016" purity="0.410554" nType="-99"/>
          </Node>
        </Node>
        <Node pos="r" depth="1" NCoef="0" IVar="3" Cut="148134" cType="1" res="0.0371825" purity="0.474077" nType="0">
          <Node pos="l" depth="2" NCoef="0" IVar="-1" Cut="0" cType="1" res="0.00436839" purity="0.547317" nType="-99"/>
          <Node pos="r" depth="2" NCoef="0" IVar="3" Cut="170102" cType="1" res="0.0107477" purity="0.444461" nType="0">
            <Node pos="l" depth="3" NCoef="0" IVar="-1" Cut="0" cType="1" res="-0.00324247" purity="0.381606" nType="-99"/>
            <Node pos="r" depth="3" NCoef="0" IVar="1" Cut="141205" cType="1" res="0.0397148" purity="0.472339" nType="0">
              <Node pos="l" depth="4" NCoef="0" IVar="-1" Cut="0" cType="1" res="0.000221019" purity="0.425849" nType="-99"/>
              <Node pos="r" depth="4" NCoef="0" IVar="-1" Cut="0" cType="1" res="0.003859" purity="0.544231" nType="-99"/>
            </Node>
          </Node>
        </Node>
      </Node>
    </BinaryTree>
    <BinaryTree type="DecisionTree" boostWeight="1.0" itree="235">
      <Node pos="s" depth="0" NCoef="0" IVar="6" Cut="0.229929" cType="1" res="0.0100418" purity="0.504648" nType="0">
        <Node pos="l" depth="1" NCoef="0" IVar="-1" Cut="0" cType="1" res="0.00273889" purity="0.565348" nType="-99"/>
        <Node pos="r" depth="1" NCoef="0" IVar="3" Cut="130037" cType="1" res="0.00642909" purity="0.500649" nType="0">
          <Node pos="l" depth="2" NCoef="0" IVar="6" Cut="1.72173" cType="1" res="-0.0370143" purity="0.461384" nType="0">
            <Node pos="l" depth="3" NCoef="0" IVar="-1" Cut="0" cType="1" res="0.000378088" purity="0.529102" nType="-99"/>
            <Node pos="r" depth="3" NCoef="0" IVar="-1" Cut="0" cType="1" res="-0.00594787" purity="0.376218" nType="-99"/>
          </Node>
          <Node pos="r" depth="2" NCoef="0" IVar="6" Cut="2.99922" cType="1" res="0.0121702" purity="0.505838" nType="0">
            <Node pos="l" depth="3" NCoef="0" IVar="3" Cut="158818" cType="1" res="0.00796453" purity="0.507575" nType="0">
              <Node pos="l" depth="4" NCoef="0" IVar="-1" Cut="0" cType="1" res="0.00162556" purity="0.5498" nType="-99"/>
              <Node pos="r" depth="4" NCoef="0" IVar="-1" Cut="0" cType="1" res="-0.000149059" purity="0.491374" nType="-99"/>
            </Node>
            <Node pos="r" depth="3" NCoef="0" IVar="-1" Cut="0" cType="1" res="0.00346436" purity="0.4803" nType="-99"/>
          </Node>
        </Node>
      </Node>
    </BinaryTree>
    <BinaryTree type="DecisionTree" boostWeight="1.0" itree="236">
      <Node pos="s" depth="0" NCoef="0" IVar="5" Cut="1.07553" cType="1" res="0.0155073" purity="0.510137" nType="0">
        <Node pos="l" depth="1" NCoef="0" IVar="4" Cut="363408" cType="1" res="-0.00813722" purity="0.511932" nType="0">
          <Node pos="l" depth="2" NCoef="0" IVar="6" Cut="1.45588" cType="1" res="-0.0205202" purity="0.512437" nType="0">
            <Node pos="l" depth="3" NCoef="0" IVar="5" Cut="0.830279" cType="1" res="0.0125746" purity="0.539228" nType="0">
              <Node pos="l" depth="4" NCoef="0" IVar="-1" Cut="0" cType="1" res="0.00179794" purity="0.593731" nType="-99"/>
              <Node pos="r" depth="4" NCoef="0" IVar="-1" Cut="0" cType="1" res="-0.000935835" purity="0.484717" nType="-99"/>
            </Node>
            <Node pos="r" depth="3" NCoef="0" IVar="5" Cut="0.866507" cType="1" res="-0.0390043" purity="0.497474" nType="0">
              <Node pos="l" depth="4" NCoef="0" IVar="-1" Cut="0" cType="1" res="-0.00330147" purity="0.496968" nType="-99"/>
              <Node pos="r" depth="4" NCoef="0" IVar="-1" Cut="0" cType="1" res="-0.00055057" purity="0.498031" nType="-99"/>
            </Node>
          </Node>
          <Node pos="r" depth="2" NCoef="0" IVar="-1" Cut="0" cType="1" res="0.00238556" purity="0.509496" nType="-99"/>
        </Node>
        <Node pos="r" depth="1" NCoef="0" IVar="4" Cut="373265" cType="1" res="0.0251448" purity="0.509406" nType="0">
          <Node pos="l" depth="2" NCoef="0" IVar="4" Cut="153582" cType="1" res="0.0327286" purity="0.524402" nType="0">
            <Node pos="l" depth="3" NCoef="0" IVar="-1" Cut="0" cType="1" res="-0.00226269" purity="0.482782" nType="-99"/>
            <Node pos="r" depth="3" NCoef="0" IVar="1" Cut="166726" cType="1" res="0.0395487" purity="0.527999" nType="0">
              <Node pos="l" depth="4" NCoef="0" IVar="-1" Cut="0" cType="1" res="0.00211758" purity="0.5359" nType="-99"/>
              <Node pos="r" depth="4" NCoef="0" IVar="-1" Cut="0" cType="1" res="-0.000562206" purity="0.476054" nType="-99"/>
            </Node>
          </Node>
          <Node pos="r" depth="2" NCoef="0" IVar="-1" Cut="0" cType="1" res="-0.00273455" purity="0.370633" nType="-99"/>
        </Node>
      </Node>
    </BinaryTree>
    <BinaryTree type="DecisionTree" boostWeight="1.0" itree="237">
      <Node pos="s" depth="0" NCoef="0" IVar="2" Cut="18017.1" cType="1" res="-0.000708619" purity="0.495832" nType="0">
        <Node pos="l" depth="1" NCoef="0" IVar="5" Cut="1.04757" cType="1" res="-0.00775194" purity="0.460175" nType="0">
          <Node pos="l" depth="2" NCoef="0" IVar="5" Cut="0.897685" cType="1" res="-0.0420891" purity="0.438675" nType="0">
            <Node pos="l" depth="3" NCoef="0" IVar="2" Cut="5274.17" cType="1" res="-0.015239" purity="0.470467" nType="0">
              <Node pos="l" depth="4" NCoef="0" IVar="-1" Cut="0" cType="1" res="-0.00258329" purity="0.397022" nType="-99"/>
              <Node pos="r" depth="4" NCoef="0" IVar="-1" Cut="0" cType="1" res="0.00103928" purity="0.557091" nType="-99"/>
            </Node>
            <Node pos="r" depth="3" NCoef="0" IVar="-1" Cut="0" cType="1" res="-0.00518412" purity="0.381634" nType="-99"/>
          </Node>
          <Node pos="r" depth="2" NCoef="0" IVar="2" Cut="-15931.2" cType="1" res="0.00302308" purity="0.466922" nType="0">
            <Node pos="l" depth="3" NCoef="0" IVar="-1" Cut="0" cType="1" res="0.0030778" purity="0.454037" nType="-99"/>
            <Node pos="r" depth="3" NCoef="0" IVar="3" Cut="212617" cType="1" res="-0.00355939" purity="0.468363" nType="0">
              <Node pos="l" depth="4" NCoef="0" IVar="-1" Cut="0" cType="1" res="-0.000524419" purity="0.462957" nType="-99"/>
              <Node pos="r" depth="4" NCoef="0" IVar="-1" Cut="0" cType="1" res="0.00237809" purity="0.512571" nType="-99"/>
            </Node>
          </Node>
        </Node>
        <Node pos="r" depth="1" NCoef="0" IVar="0" Cut="129254" cType="1" res="0.0341744" purity="0.672427" nType="0">
          <Node pos="l" depth="2" NCoef="0" IVar="-1" Cut="0" cType="1" res="-0.000463592" purity="0.580641" nType="-99"/>
          <Node pos="r" depth="2" NCoef="0" IVar="-1" Cut="0" cType="1" res="0.00259689" purity="0.738622" nType="-99"/>
        </Node>
      </Node>
    </BinaryTree>
    <BinaryTree type="DecisionTree" boostWeight="1.0" itree="238">
      <Node pos="s" depth="0" NCoef="0" IVar="4" Cut="226852" cType="1" res="-0.00111517" purity="0.493792" nType="0">
        <Node pos="l" depth="1" NCoef="0" IVar="1" Cut="109606" cType="1" res="-0.0162203" purity="0.512282" nType="0">
          <Node pos="l" depth="2" NCoef="0" IVar="6" Cut="1.22599" cType="1" res="-0.0382874" purity="0.459504" nType="0">
            <Node pos="l" depth="3" NCoef="0" IVar="-1" Cut="0" cType="1" res="-0.00436019" purity="0.424047" nType="-99"/>
            <Node pos="r" depth="3" NCoef="0" IVar="3" Cut="170727" cType="1" res="-0.021047" purity="0.472093" nType="0">
              <Node pos="l" depth="4" NCoef="0" IVar="-1" Cut="0" cType="1" res="-0.00247594" purity="0.45184" nType="-99"/>
              <Node pos="r" depth="4" NCoef="0" IVar="-1" Cut="0" cType="1" res="0.000278096" purity="0.492344" nType="-99"/>
            </Node>
          </Node>
          <Node pos="r" depth="2" NCoef="0" IVar="6" Cut="2.22232" cType="1" res="0.0140663" purity="0.584719" nType="0">
            <Node pos="l" depth="3" NCoef="0" IVar="4" Cut="200062" cType="1" res="0.0284366" purity="0.615728" nType="0">
              <Node pos="l" depth="4" NCoef="0" IVar="-1" Cut="0" cType="1" res="0.000490802" purity="0.616744" nType="-99"/>
              <Node pos="r" depth="4" NCoef="0" IVar="-1" Cut="0" cType="1" res="0.00228114" purity="0.614016" nType="-99"/>
            </Node>
            <Node pos="r" depth="3" NCoef="0" IVar="-1" Cut="0" cType="1" res="-0.00140857" purity="0.491635" nType="-99"/>
          </Node>
        </Node>
        <Node pos="r" depth="1" NCoef="0" IVar="5" Cut="1.23749" cType="1" res="0.0137571" purity="0.475586" nType="0">
          <Node pos="l" depth="2" NCoef="0" IVar="4" Cut="360061" cType="1" res="0.0419754" purity="0.51873" nType="0">
            <Node pos="l" depth="3" NCoef="0" IVar="5" Cut="0.910517" cType="1" res="0.0206638" purity="0.517682" nType="0">
              <Node pos="l" depth="4" NCoef="0" IVar="-1" Cut="0" cType="1" res="-0.00138732" purity="0.495588" nType="-99"/>
              <Node pos="r" depth="4" NCoef="0" IVar="-1" Cut="0" cType="1" res="0.0023951" purity="0.532644" nType="-99"/>
            </Node>
            <Node pos="r" depth="3" NCoef="0" IVar="-1" Cut="0" cType="1" res="0.00346632" purity="0.520527" nType="-99"/>
          </Node>
          <Node pos="r" depth="2" NCoef="0" IVar="4" Cut="360069" cType="1" res="-0.00172915" purity="0.451908" nType="0">
            <Node pos="l" depth="3" NCoef="0" IVar="6" Cut="0.919492" cType="1" res="0.0148742" purity="0.47715" nType="0">
              <Node pos="l" depth="4" NCoef="0" IVar="-1" Cut="0" cType="1" res="-0.00190635" purity="0.446358" nType="-99"/>
              <Node pos="r" depth="4" NCoef="0" IVar="-1" Cut="0" cType="1" res="0.00144296" purity="0.48568" nType="-99"/>
            </Node>
            <Node pos="r" depth="3" NCoef="0" IVar="-1" Cut="0" cType="1" res="-0.00348133" purity="0.366832" nType="-99"/>
          </Node>
        </Node>
      </Node>
    </BinaryTree>
    <BinaryTree type="DecisionTree" boostWeight="1.0" itree="239">
      <Node pos="s" depth="0" NCoef="0" IVar="4" Cut="324448" cType="1" res="0.00741344" purity="0.502561" nType="0">
        <Node pos="l" depth="1" NCoef="0" IVar="5" Cut="2.0006" cType="1" res="0.000267267" purity="0.509359" nType="0">
          <Node pos="l" depth="2" NCoef="0" IVar="4" Cut="193139" cType="1" res="0.00871607" purity="0.524595" nType="0">
            <Node pos="l" depth="3" NCoef="0" IVar="5" Cut="1.0362" cType="1" res="-0.0154951" purity="0.526215" nType="0">
              <Node pos="l" depth="4" NCoef="0" IVar="-1" Cut="0" cType="1" res="-0.00253345" purity="0.508198" nType="-99"/>
              <Node pos="r" depth="4" NCoef="0" IVar="-1" Cut="0" cType="1" res="0.000335758" purity="0.53751" nType="-99"/>
            </Node>
            <Node pos="r" depth="3" NCoef="0" IVar="6" Cut="2.75843" cType="1" res="0.0272176" purity="0.523356" nType="0">
              <Node pos="l" depth="4" NCoef="0" IVar="-1" Cut="0" cType="1" res="0.00160651" purity="0.548203" nType="-99"/>
              <Node pos="r" depth="4" NCoef="0" IVar="-1" Cut="0" cType="1" res="-0.00126687" purity="0.395852" nType="-99"/>
            </Node>
          </Node>
          <Node pos="r" depth="2" NCoef="0" IVar="4" Cut="254247" cType="1" res="-0.0320028" purity="0.451168" nType="0">
            <Node pos="l" depth="3" NCoef="0" IVar="3" Cut="167880" cType="1" res="-0.00869149" purity="0.49772" nType="0">
              <Node pos="l" depth="4" NCoef="0" IVar="-1" Cut="0" cType="1" res="5.17323e-05" purity="0.520458" nType="-99"/>
              <Node pos="r" depth="4" NCoef="0" IVar="-1" Cut="0" cType="1" res="-0.000980896" purity="0.473763" nType="-99"/>
            </Node>
            <Node pos="r" depth="3" NCoef="0" IVar="-1" Cut="0" cType="1" res="-0.00529276" purity="0.351849" nType="-99"/>
          </Node>
        </Node>
        <Node pos="r" depth="1" NCoef="0" IVar="4" Cut="435768" cType="1" res="0.0340532" purity="0.477217" nType="0">
          <Node pos="l" depth="2" NCoef="0" IVar="2" Cut="-3318.71" cType="1" res="0.0507854" purity="0.496873" nType="0">
            <Node pos="l" depth="3" NCoef="0" IVar="-1" Cut="0" cType="1" res="0.00422757" purity="0.464771" nType="-99"/>
            <Node pos="r" depth="3" NCoef="0" IVar="0" Cut="168201" cType="1" res="0.0322917" purity="0.513718" nType="0">
              <Node pos="l" depth="4" NCoef="0" IVar="-1" Cut="0" cType="1" res="8.07415e-05" purity="0.446009" nType="-99"/>
              <Node pos="r" depth="4" NCoef="0" IVar="-1" Cut="0" cType="1" res="0.00323372" purity="0.622023" nType="-99"/>
            </Node>
          </Node>
          <Node pos="r" depth="2" NCoef="0" IVar="-1" Cut="0" cType="1" res="-0.00198023" purity="0.39642" nType="-99"/>
        </Node>
      </Node>
    </BinaryTree>
    <BinaryTree type="DecisionTree" boostWeight="1.0" itree="240">
      <Node pos="s" depth="0" NCoef="0" IVar="1" Cut="105350" cType="1" res="-0.000978765" purity="0.494383" nType="0">
        <Node pos="l" depth="1" NCoef="0" IVar="6" Cut="2.52851" cType="1" res="0.0143247" purity="0.482281" nType="0">
          <Node pos="l" depth="2" NCoef="0" IVar="1" Cut="94118.3" cType="1" res="-0.00401656" purity="0.483314" nType="0">
            <Node pos="l" depth="3" NCoef="0" IVar="1" Cut="91908.3" cType="1" res="-0.0416074" purity="0.431767" nType="0">
              <Node pos="l" depth="4" NCoef="0" IVar="-1" Cut="0" cType="1" res="2.09559e-05" purity="0.483405" nType="-99"/>
              <Node pos="r" depth="4" NCoef="0" IVar="-1" Cut="0" cType="1" res="-0.00542379" purity="0.3757" nType="-99"/>
            </Node>
            <Node pos="r" depth="3" NCoef="0" IVar="2" Cut="904.749" cType="1" res="0.0129048" purity="0.506518" nType="0">
              <Node pos="l" depth="4" NCoef="0" IVar="-1" Cut="0" cType="1" res="-0.00268117" purity="0.352285" nType="-99"/>
              <Node pos="r" depth="4" NCoef="0" IVar="-1" Cut="0" cType="1" res="0.00127602" purity="0.552098" nType="-99"/>
            </Node>
          </Node>
          <Node pos="r" depth="2" NCoef="0" IVar="6" Cut="2.8724" cType="1" res="0.0585719" purity="0.479789" nType="0">
            <Node pos="l" depth="3" NCoef="0" IVar="-1" Cut="0" cType="1" res="0.00416088" purity="0.524632" nType="-99"/>
            <Node pos="r" depth="3" NCoef="0" IVar="-1" Cut="0" cType="1" res="0.00025036" purity="0.408424" nType="-99"/>
          </Node>
        </Node>
        <Node pos="r" depth="1" NCoef="0" IVar="2" Cut="10985.4" cType="1" res="-0.0116971" purity="0.502859" nType="0">
          <Node pos="l" depth="2" NCoef="0" IVar="1" Cut="133805" cType="1" res="-0.0288453" purity="0.433371" nType="0">
            <Node pos="l" depth="3" NCoef="0" IVar="1" Cut="118533" cType="1" res="-0.0494242" purity="0.417896" nType="0">
              <Node pos="l" depth="4" NCoef="0" IVar="-1" Cut="0" cType="1" res="-0.00376504" purity="0.390401" nType="-99"/>
              <Node pos="r" depth="4" NCoef="0" IVar="-1" Cut="0" cType="1" res="-0.00127871" purity="0.457394" nType="-99"/>
            </Node>
            <Node pos="r" depth="3" NCoef="0" IVar="4" Cut="278004" cType="1" res="0.00160427" purity="0.456268" nType="0">
              <Node pos="l" depth="4" NCoef="0" IVar="-1" Cut="0" cType="1" res="0.00249553" purity="0.545964" nType="-99"/>
              <Node pos="r" depth="4" NCoef="0" IVar="-1" Cut="0" cType="1" res="-0.00268595" purity="0.381071" nType="-99"/>
            </Node>
          </Node>
          <Node pos="r" depth="2" NCoef="0" IVar="2" Cut="26071.7" cType="1" res="0.0198276" purity="0.630603" nType="0">
            <Node pos="l" depth="3" NCoef="0" IVar="1" Cut="138481" cType="1" res="0.00503492" purity="0.602094" nType="0">
              <Node pos="l" depth="4" NCoef="0" IVar="-1" Cut="0" cType="1" res="0.00107824" purity="0.642675" nType="-99"/>
              <Node pos="r" depth="4" NCoef="0" IVar="-1" Cut="0" cType="1" res="-0.00147777" purity="0.52888" nType="-99"/>
            </Node>
            <Node pos="r" depth="3" NCoef="0" IVar="-1" Cut="0" cType="1" res="0.00218683" purity="0.70017" nType="-99"/>
          </Node>
        </Node>
      </Node>
    </BinaryTree>
    <BinaryTree type="DecisionTree" boostWeight="1.0" itree="241">
      <Node pos="s" depth="0" NCoef="0" IVar="4" Cut="431700" cType="1" res="-0.00633256" purity="0.489186" nType="0">
        <Node pos="l" depth="1" NCoef="0" IVar="3" Cut="118716" cType="1" res="-0.00336473" purity="0.495546" nType="0">
          <Node pos="l" depth="2" NCoef="0" IVar="-1" Cut="0" cType="1" res="-0.00317315" purity="0.427702" nType="-99"/>
          <Node pos="r" depth="2" NCoef="0" IVar="0" Cut="109751" cType="1" res="0.000618513" purity="0.50056" nType="0">
            <Node pos="l" depth="3" NCoef="0" IVar="6" Cut="1.45553" cType="1" res="0.0344322" purity="0.476637" nType="0">
              <Node pos="l" depth="4" NCoef="0" IVar="-1" Cut="0" cType="1" res="0.00370659" purity="0.567015" nType="-99"/>
              <Node pos="r" depth="4" NCoef="0" IVar="-1" Cut="0" cType="1" res="-0.000742983" purity="0.394969" nType="-99"/>
            </Node>
            <Node pos="r" depth="3" NCoef="0" IVar="6" Cut="0.842855" cType="1" res="-0.00764236" purity="0.506405" nType="0">
              <Node pos="l" depth="4" NCoef="0" IVar="-1" Cut="0" cType="1" res="-0.00245178" purity="0.463881" nType="-99"/>
              <Node pos="r" depth="4" NCoef="0" IVar="-1" Cut="0" cType="1" res="7.17819e-05" purity="0.515716" nType="-99"/>
            </Node>
          </Node>
        </Node>
        <Node pos="r" depth="1" NCoef="0" IVar="-1" Cut="0" cType="1" res="-0.00440878" purity="0.355144" nType="-99"/>
      </Node>
    </BinaryTree>
    <BinaryTree type="DecisionTree" boostWeight="1.0" itree="242">
      <Node pos="s" depth="0" NCoef="0" IVar="3" Cut="188466" cType="1" res="-0.0149208" purity="0.479824" nType="0">
        <Node pos="l" depth="1" NCoef="0" IVar="5" Cut="0.692986" cType="1" res="-0.0218062" purity="0.477179" nType="0">
          <Node pos="l" depth="2" NCoef="0" IVar="-1" Cut="0" cType="1" res="-0.00488454" purity="0.489084" nType="-99"/>
          <Node pos="r" depth="2" NCoef="0" IVar="2" Cut="19988.2" cType="1" res="-0.0170218" purity="0.476361" nType="0">
            <Node pos="l" depth="3" NCoef="0" IVar="6" Cut="1.07272" cType="1" res="-0.0261333" purity="0.445543" nType="0">
              <Node pos="l" depth="4" NCoef="0" IVar="-1" Cut="0" cType="1" res="-0.00324317" purity="0.423076" nType="-99"/>
              <Node pos="r" depth="4" NCoef="0" IVar="-1" Cut="0" cType="1" res="-0.000819875" purity="0.452208" nType="-99"/>
            </Node>
            <Node pos="r" depth="3" NCoef="0" IVar="-1" Cut="0" cType="1" res="0.00163082" purity="0.670723" nType="-99"/>
          </Node>
        </Node>
        <Node pos="r" depth="1" NCoef="0" IVar="6" Cut="2.60463" cType="1" res="0.00705473" purity="0.488265" nType="0">
          <Node pos="l" depth="2" NCoef="0" IVar="1" Cut="105351" cType="1" res="-0.00491663" purity="0.492211" nType="0">
            <Node pos="l" depth="3" NCoef="0" IVar="-1" Cut="0" cType="1" res="-0.00253824" purity="0.425256" nType="-99"/>
            <Node pos="r" depth="3" NCoef="0" IVar="4" Cut="241020" cType="1" res="0.0176934" purity="0.527533" nType="0">
              <Node pos="l" depth="4" NCoef="0" IVar="-1" Cut="0" cType="1" res="0.00211192" purity="0.598675" nType="-99"/>
              <Node pos="r" depth="4" NCoef="0" IVar="-1" Cut="0" cType="1" res="-0.000709782" purity="0.460833" nType="-99"/>
            </Node>
          </Node>
          <Node pos="r" depth="2" NCoef="0" IVar="-1" Cut="0" cType="1" res="0.00217634" purity="0.475596" nType="-99"/>
        </Node>
      </Node>
    </BinaryTree>
    <BinaryTree type="DecisionTree" boostWeight="1.0" itree="243">
      <Node pos="s" depth="0" NCoef="0" IVar="2" Cut="31671.6" cType="1" res="0.00607204" purity="0.500932" nType="0">
        <Node pos="l" depth="1" NCoef="0" IVar="5" Cut="1.94649" cType="1" res="0.00307945" purity="0.488431" nType="0">
          <Node pos="l" depth="2" NCoef="0" IVar="1" Cut="136051" cType="1" res="-0.00476198" purity="0.487224" nType="0">
            <Node pos="l" depth="3" NCoef="0" IVar="6" Cut="0.30655" cType="1" res="0.000729858" purity="0.488196" nType="0">
              <Node pos="l" depth="4" NCoef="0" IVar="-1" Cut="0" cType="1" res="0.0022927" purity="0.541339" nType="-99"/>
              <Node pos="r" depth="4" NCoef="0" IVar="-1" Cut="0" cType="1" res="-0.000186593" purity="0.483831" nType="-99"/>
            </Node>
            <Node pos="r" depth="3" NCoef="0" IVar="-1" Cut="0" cType="1" res="-0.00260329" purity="0.478945" nType="-99"/>
          </Node>
          <Node pos="r" depth="2" NCoef="0" IVar="2" Cut="-6701.52" cType="1" res="0.0238917" purity="0.491634" nType="0">
            <Node pos="l" depth="3" NCoef="0" IVar="-1" Cut="0" cType="1" res="-0.00261985" purity="0.338303" nType="-99"/>
            <Node pos="r" depth="3" NCoef="0" IVar="2" Cut="5431.32" cType="1" res="0.0365222" purity="0.522223" nType="0">
              <Node pos="l" depth="4" NCoef="0" IVar="-1" Cut="0" cType="1" res="0.00310989" purity="0.507863" nType="-99"/>
              <Node pos="r" depth="4" NCoef="0" IVar="-1" Cut="0" cType="1" res="0.000274016" purity="0.535571" nType="-99"/>
            </Node>
          </Node>
        </Node>
        <Node pos="r" depth="1" NCoef="0" IVar="-1" Cut="0" cType="1" res="0.00224427" purity="0.707538" nType="-99"/>
      </Node>
    </BinaryTree>
    <BinaryTree type="DecisionTree" boostWeight="1.0" itree="244">
      <Node pos="s" depth="0" NCoef="0" IVar="0" Cut="178045" cType="1" res="0.00867398" purity="0.504923" nType="0">
        <Node pos="l" depth="1" NCoef="0" IVar="2" Cut="-19754.3" cType="1" res="0.00130007" purity="0.479174" nType="0">
          <Node pos="l" depth="2" NCoef="0" IVar="-1" Cut="0" cType="1" res="0.00337415" purity="0.445437" nType="-99"/>
          <Node pos="r" depth="2" NCoef="0" IVar="4" Cut="197534" cType="1" res="-0.00237523" purity="0.481067" nType="0">
            <Node pos="l" depth="3" NCoef="0" IVar="2" Cut="9070.97" cType="1" res="0.0182252" purity="0.54823" nType="0">
              <Node pos="l" depth="4" NCoef="0" IVar="-1" Cut="0" cType="1" res="-0.000776858" purity="0.444878" nType="-99"/>
              <Node pos="r" depth="4" NCoef="0" IVar="-1" Cut="0" cType="1" res="0.00222313" purity="0.665715" nType="-99"/>
            </Node>
            <Node pos="r" depth="3" NCoef="0" IVar="6" Cut="2.91141" cType="1" res="-0.0152047" purity="0.439239" nType="0">
              <Node pos="l" depth="4" NCoef="0" IVar="-1" Cut="0" cType="1" res="-0.00115872" purity="0.439397" nType="-99"/>
              <Node pos="r" depth="4" NCoef="0" IVar="-1" Cut="0" cType="1" res="0.00281398" purity="0.437681" nType="-99"/>
            </Node>
          </Node>
        </Node>
        <Node pos="r" depth="1" NCoef="0" IVar="3" Cut="165939" cType="1" res="0.0357979" purity="0.599637" nType="0">
          <Node pos="l" depth="2" NCoef="0" IVar="5" Cut="1.04612" cType="1" res="0.0147366" purity="0.584594" nType="0">
            <Node pos="l" depth="3" NCoef="0" IVar="-1" Cut="0" cType="1" res="-0.000382881" purity="0.562929" nType="-99"/>
            <Node pos="r" depth="3" NCoef="0" IVar="-1" Cut="0" cType="1" res="0.00156925" purity="0.604848" nType="-99"/>
          </Node>
          <Node pos="r" depth="2" NCoef="0" IVar="6" Cut="1.84043" cType="1" res="0.0513616" purity="0.610754" nType="0">
            <Node pos="l" depth="3" NCoef="0" IVar="-1" Cut="0" cType="1" res="0.000746379" purity="0.58416" nType="-99"/>
            <Node pos="r" depth="3" NCoef="0" IVar="-1" Cut="0" cType="1" res="0.00280779" purity="0.625812" nType="-99"/>
          </Node>
        </Node>
      </Node>
    </BinaryTree>
    <BinaryTree type="DecisionTree" boostWeight="1.0" itree="245">
      <Node pos="s" depth="0" NCoef="0" IVar="6" Cut="0.766277" cType="1" res="0.0137166" purity="0.508355" nType="0">
        <Node pos="l" depth="1" NCoef="0" IVar="0" Cut="134019" cType="1" res="-0.021435" purity="0.474013" nType="0">
          <Node pos="l" depth="2" NCoef="0" IVar="6" Cut="0.355103" cType="1" res="0.00935581" purity="0.497633" nType="0">
            <Node pos="l" depth="3" NCoef="0" IVar="-1" Cut="0" cType="1" res="-0.00120839" purity="0.469746" nType="-99"/>
            <Node pos="r" depth="3" NCoef="0" IVar="-1" Cut="0" cType="1" res="0.00179319" purity="0.522724" nType="-99"/>
          </Node>
          <Node pos="r" depth="2" NCoef="0" IVar="-1" Cut="0" cType="1" res="-0.00375187" purity="0.435076" nType="-99"/>
        </Node>
        <Node pos="r" depth="1" NCoef="0" IVar="6" Cut="1.4615" cType="1" res="0.0213993" purity="0.515861" nType="0">
          <Node pos="l" depth="2" NCoef="0" IVar="1" Cut="100223" cType="1" res="0.0461526" purity="0.575964" nType="0">
            <Node pos="l" depth="3" NCoef="0" IVar="-1" Cut="0" cType="1" res="-0.0002804" purity="0.484174" nType="-99"/>
            <Node pos="r" depth="3" NCoef="0" IVar="5" Cut="2.09329" cType="1" res="0.0616271" purity="0.603314" nType="0">
              <Node pos="l" depth="4" NCoef="0" IVar="-1" Cut="0" cType="1" res="0.00303982" purity="0.636568" nType="-99"/>
              <Node pos="r" depth="4" NCoef="0" IVar="-1" Cut="0" cType="1" res="0.00147653" purity="0.545067" nType="-99"/>
            </Node>
          </Node>
          <Node pos="r" depth="2" NCoef="0" IVar="4" Cut="373184" cType="1" res="0.0134647" purity="0.496596" nType="0">
            <Node pos="l" depth="3" NCoef="0" IVar="4" Cut="273249" cType="1" res="0.0193846" purity="0.510324" nType="0">
              <Node pos="l" depth="4" NCoef="0" IVar="-1" Cut="0" cType="1" res="0.00039303" purity="0.512784" nType="-99"/>
              <Node pos="r" depth="4" NCoef="0" IVar="-1" Cut="0" cType="1" res="0.00245362" purity="0.503174" nType="-99"/>
            </Node>
            <Node pos="r" depth="3" NCoef="0" IVar="-1" Cut="0" cType="1" res="-0.00173304" purity="0.39648" nType="-99"/>
          </Node>
        </Node>
      </Node>
    </BinaryTree>
    <BinaryTree type="DecisionTree" boostWeight="1.0" itree="246">
      <Node pos="s" depth="0" NCoef="0" IVar="3" Cut="212255" cType="1" res="0.0101093" purity="0.502982" nType="0">
        <Node pos="l" depth="1" NCoef="0" IVar="1" Cut="100234" cType="1" res="0.00668891" purity="0.500512" nType="0">
          <Node pos="l" depth="2" NCoef="0" IVar="3" Cut="182529" cType="1" res="0.024123" purity="0.491364" nType="0">
            <Node pos="l" depth="3" NCoef="0" IVar="6" Cut="2.60534" cType="1" res="0.0412266" purity="0.512884" nType="0">
              <Node pos="l" depth="4" NCoef="0" IVar="-1" Cut="0" cType="1" res="0.00117222" purity="0.516561" nType="-99"/>
              <Node pos="r" depth="4" NCoef="0" IVar="-1" Cut="0" cType="1" res="0.00405366" purity="0.501836" nType="-99"/>
            </Node>
            <Node pos="r" depth="3" NCoef="0" IVar="-1" Cut="0" cType="1" res="-0.0021852" purity="0.410281" nType="-99"/>
          </Node>
          <Node pos="r" depth="2" NCoef="0" IVar="0" Cut="163413" cType="1" res="-0.000926297" purity="0.504508" nType="0">
            <Node pos="l" depth="3" NCoef="0" IVar="5" Cut="1.69908" cType="1" res="-0.00917996" purity="0.47454" nType="0">
              <Node pos="l" depth="4" NCoef="0" IVar="-1" Cut="0" cType="1" res="-0.00182585" purity="0.463017" nType="-99"/>
              <Node pos="r" depth="4" NCoef="0" IVar="-1" Cut="0" cType="1" res="0.00067851" purity="0.484646" nType="-99"/>
            </Node>
            <Node pos="r" depth="3" NCoef="0" IVar="5" Cut="1.64472" cType="1" res="0.0221998" purity="0.588477" nType="0">
              <Node pos="l" depth="4" NCoef="0" IVar="-1" Cut="0" cType="1" res="0.00166947" purity="0.620209" nType="-99"/>
              <Node pos="r" depth="4" NCoef="0" IVar="-1" Cut="0" cType="1" res="-0.00132701" purity="0.505422" nType="-99"/>
            </Node>
          </Node>
        </Node>
        <Node pos="r" depth="1" NCoef="0" IVar="2" Cut="3895.64" cType="1" res="0.0431035" purity="0.526804" nType="0">
          <Node pos="l" depth="2" NCoef="0" IVar="-1" Cut="0" cType="1" res="0.00313148" purity="0.50908" nType="-99"/>
          <Node pos="r" depth="2" NCoef="0" IVar="-1" Cut="0" cType="1" res="0.000368055" purity="0.549409" nType="-99"/>
        </Node>
      </Node>
    </BinaryTree>
    <BinaryTree type="DecisionTree" boostWeight="1.0" itree="247">
      <Node pos="s" depth="0" NCoef="0" IVar="1" Cut="95122.9" cType="1" res="0.00848673" purity="0.504124" nType="0">
        <Node pos="l" depth="1" NCoef="0" IVar="0" Cut="134060" cType="1" res="-0.0367877" purity="0.42556" nType="0">
          <Node pos="l" depth="2" NCoef="0" IVar="-1" Cut="0" cType="1" res="-0.00416545" purity="0.367645" nType="-99"/>
          <Node pos="r" depth="2" NCoef="0" IVar="3" Cut="171291" cType="1" res="-0.0109329" purity="0.472585" nType="0">
            <Node pos="l" depth="3" NCoef="0" IVar="-1" Cut="0" cType="1" res="-0.0027538" purity="0.428526" nType="-99"/>
            <Node pos="r" depth="3" NCoef="0" IVar="-1" Cut="0" cType="1" res="0.00120037" purity="0.514719" nType="-99"/>
          </Node>
        </Node>
        <Node pos="r" depth="1" NCoef="0" IVar="4" Cut="275687" cType="1" res="0.0163519" purity="0.517772" nType="0">
          <Node pos="l" depth="2" NCoef="0" IVar="4" Cut="254254" cType="1" res="0.00681463" purity="0.531251" nType="0">
            <Node pos="l" depth="3" NCoef="0" IVar="0" Cut="114619" cType="1" res="0.0138575" purity="0.544073" nType="0">
              <Node pos="l" depth="4" NCoef="0" IVar="-1" Cut="0" cType="1" res="-0.000513675" purity="0.472726" nType="-99"/>
              <Node pos="r" depth="4" NCoef="0" IVar="-1" Cut="0" cType="1" res="0.000999444" purity="0.571794" nType="-99"/>
            </Node>
            <Node pos="r" depth="3" NCoef="0" IVar="-1" Cut="0" cType="1" res="-0.00354744" purity="0.40582" nType="-99"/>
          </Node>
          <Node pos="r" depth="2" NCoef="0" IVar="2" Cut="-9280.05" cType="1" res="0.034463" purity="0.492175" nType="0">
            <Node pos="l" depth="3" NCoef="0" IVar="-1" Cut="0" cType="1" res="-0.0006482" purity="0.372184" nType="-99"/>
            <Node pos="r" depth="3" NCoef="0" IVar="2" Cut="6700.43" cType="1" res="0.0449918" purity="0.520108" nType="0">
              <Node pos="l" depth="4" NCoef="0" IVar="-1" Cut="0" cType="1" res="0.00295324" purity="0.492235" nType="-99"/>
              <Node pos="r" depth="4" NCoef="0" IVar="-1" Cut="0" cType="1" res="0.000897863" purity="0.554323" nType="-99"/>
            </Node>
          </Node>
        </Node>
      </Node>
    </BinaryTree>
    <BinaryTree type="DecisionTree" boostWeight="1.0" itree="248">
      <Node pos="s" depth="0" NCoef="0" IVar="4" Cut="148907" cType="1" res="0.00471419" purity="0.497927" nType="0">
        <Node pos="l" depth="1" NCoef="0" IVar="-1" Cut="0" cType="1" res="-0.00168133" purity="0.509593" nType="-99"/>
        <Node pos="r" depth="1" NCoef="0" IVar="1" Cut="146319" cType="1" res="0.0075251" purity="0.497101" nType="0">
          <Node pos="l" depth="2" NCoef="0" IVar="1" Cut="129833" cType="1" res="0.0134295" purity="0.503229" nType="0">
            <Node pos="l" depth="3" NCoef="0" IVar="6" Cut="0.842864" cType="1" res="0.00556577" purity="0.489074" nType="0">
              <Node pos="l" depth="4" NCoef="0" IVar="-1" Cut="0" cType="1" res="0.00221293" purity="0.534513" nType="-99"/>
              <Node pos="r" depth="4" NCoef="0" IVar="-1" Cut="0" cType="1" res="-0.000276179" purity="0.477786" nType="-99"/>
            </Node>
            <Node pos="r" depth="3" NCoef="0" IVar="6" Cut="1.83842" cType="1" res="0.0614209" purity="0.589611" nType="0">
              <Node pos="l" depth="4" NCoef="0" IVar="-1" Cut="0" cType="1" res="0.00140388" purity="0.586274" nType="-99"/>
              <Node pos="r" depth="4" NCoef="0" IVar="-1" Cut="0" cType="1" res="0.00386406" purity="0.59359" nType="-99"/>
            </Node>
          </Node>
          <Node pos="r" depth="2" NCoef="0" IVar="5" Cut="2.40136" cType="1" res="-0.0180572" purity="0.470552" nType="0">
            <Node pos="l" depth="3" NCoef="0" IVar="5" Cut="1.71225" cType="1" res="-0.0509194" purity="0.473521" nType="0">
              <Node pos="l" depth="4" NCoef="0" IVar="-1" Cut="0" cType="1" res="-0.000154548" purity="0.563656" nType="-99"/>
              <Node pos="r" depth="4" NCoef="0" IVar="-1" Cut="0" cType="1" res="-0.00503066" purity="0.400594" nType="-99"/>
            </Node>
            <Node pos="r" depth="3" NCoef="0" IVar="-1" Cut="0" cType="1" res="0.00103845" purity="0.46695" nType="-99"/>
          </Node>
        </Node>
      </Node>
    </BinaryTree>
    <BinaryTree type="DecisionTree" boostWeight="1.0" itree="249">
      <Node pos="s" depth="0" NCoef="0" IVar="4" Cut="421957" cType="1" res="0.0047997" purity="0.50082" nType="0">
        <Node pos="l" depth="1" NCoef="0" IVar="4" Cut="170726" cType="1" res="0.00083583" purity="0.501508" nType="0">
          <Node pos="l" depth="2" NCoef="0" IVar="2" Cut="10510.6" cType="1" res="0.0290376" purity="0.57558" nType="0">
            <Node pos="l" depth="3" NCoef="0" IVar="3" Cut="169922" cType="1" res="0.00533583" purity="0.484364" nType="0">
              <Node pos="l" depth="4" NCoef="0" IVar="-1" Cut="0" cType="1" res="0.00115752" purity="0.503582" nType="-99"/>
              <Node pos="r" depth="4" NCoef="0" IVar="-1" Cut="0" cType="1" res="-0.000813865" purity="0.46306" nType="-99"/>
            </Node>
            <Node pos="r" depth="3" NCoef="0" IVar="-1" Cut="0" cType="1" res="0.00222273" purity="0.682435" nType="-99"/>
          </Node>
          <Node pos="r" depth="2" NCoef="0" IVar="6" Cut="1.60909" cType="1" res="-0.00616036" purity="0.483132" nType="0">
            <Node pos="l" depth="3" NCoef="0" IVar="5" Cut="1.23739" cType="1" res="-0.0197374" purity="0.494313" nType="0">
              <Node pos="l" depth="4" NCoef="0" IVar="-1" Cut="0" cType="1" res="0.0011114" purity="0.543807" nType="-99"/>
              <Node pos="r" depth="4" NCoef="0" IVar="-1" Cut="0" cType="1" res="-0.00216205" purity="0.46846" nType="-99"/>
            </Node>
            <Node pos="r" depth="3" NCoef="0" IVar="4" Cut="232005" cType="1" res="0.00339942" purity="0.47526" nType="0">
              <Node pos="l" depth="4" NCoef="0" IVar="-1" Cut="0" cType="1" res="-0.00116514" purity="0.4716" nType="-99"/>
              <Node pos="r" depth="4" NCoef="0" IVar="-1" Cut="0" cType="1" res="0.00116459" purity="0.478008" nType="-99"/>
            </Node>
          </Node>
        </Node>
        <Node pos="r" depth="1" NCoef="0" IVar="-1" Cut="0" cType="1" res="0.00309604" purity="0.490426" nType="-99"/>
      </Node>
    </BinaryTree>
    <BinaryTree type="DecisionTree" boostWeight="1.0" itree="250">
      <Node pos="s" depth="0" NCoef="0" IVar="0" Cut="158522" cType="1" res="0.0111928" purity="0.50435" nType="0">
        <Node pos="l" depth="1" NCoef="0" IVar="1" Cut="156466" cType="1" res="0.0216355" purity="0.492234" nType="0">
          <Node pos="l" depth="2" NCoef="0" IVar="4" Cut="314524" cType="1" res="0.0127645" purity="0.486016" nType="0">
            <Node pos="l" depth="3" NCoef="0" IVar="0" Cut="147095" cType="1" res="0.00522953" purity="0.493568" nType="0">
              <Node pos="l" depth="4" NCoef="0" IVar="-1" Cut="0" cType="1" res="-4.75464e-05" purity="0.483753" nType="-99"/>
              <Node pos="r" depth="4" NCoef="0" IVar="-1" Cut="0" cType="1" res="0.00240003" purity="0.574596" nType="-99"/>
            </Node>
            <Node pos="r" depth="3" NCoef="0" IVar="4" Cut="373256" cType="1" res="0.0484051" purity="0.450295" nType="0">
              <Node pos="l" depth="4" NCoef="0" IVar="-1" Cut="0" cType="1" res="0.00419656" purity="0.505546" nType="-99"/>
              <Node pos="r" depth="4" NCoef="0" IVar="-1" Cut="0" cType="1" res="0.000307046" purity="0.39142" nType="-99"/>
            </Node>
          </Node>
          <Node pos="r" depth="2" NCoef="0" IVar="-1" Cut="0" cType="1" res="0.00323475" purity="0.531177" nType="-99"/>
        </Node>
        <Node pos="r" depth="1" NCoef="0" IVar="2" Cut="10985.4" cType="1" res="-0.0147416" purity="0.534438" nType="0">
          <Node pos="l" depth="2" NCoef="0" IVar="1" Cut="141167" cType="1" res="-0.0337704" purity="0.464959" nType="0">
            <Node pos="l" depth="3" NCoef="0" IVar="2" Cut="2270.45" cType="1" res="-0.0184224" purity="0.477393" nType="0">
              <Node pos="l" depth="4" NCoef="0" IVar="-1" Cut="0" cType="1" res="0.000406552" purity="0.482696" nType="-99"/>
              <Node pos="r" depth="4" NCoef="0" IVar="-1" Cut="0" cType="1" res="-0.00289054" purity="0.469651" nType="-99"/>
            </Node>
            <Node pos="r" depth="3" NCoef="0" IVar="-1" Cut="0" cType="1" res="-0.00503206" purity="0.418089" nType="-99"/>
          </Node>
          <Node pos="r" depth="2" NCoef="0" IVar="3" Cut="171159" cType="1" res="0.0241999" purity="0.676624" nType="0">
            <Node pos="l" depth="3" NCoef="0" IVar="-1" Cut="0" cType="1" res="-1.53477e-05" purity="0.655313" nType="-99"/>
            <Node pos="r" depth="3" NCoef="0" IVar="-1" Cut="0" cType="1" res="0.00195817" purity="0.699472" nType="-99"/>
          </Node>
        </Node>
      </Node>
    </BinaryTree>
    <BinaryTree type="DecisionTree" boostWeight="1.0" itree="251">
      <Node pos="s" depth="0" NCoef="0" IVar="5" Cut="1.07452" cType="1" res="-0.00271103" purity="0.493312" nType="0">
        <Node pos="l" depth="1" NCoef="0" IVar="2" Cut="17938.2" cType="1" res="-0.0357715" purity="0.485703" nType="0">
          <Node pos="l" depth="2" NCoef="0" IVar="5" Cut="0.780771" cType="1" res="-0.0523013" purity="0.419585" nType="0">
            <Node pos="l" depth="3" NCoef="0" IVar="-1" Cut="0" cType="1" res="-0.00473906" purity="0.404041" nType="-99"/>
            <Node pos="r" depth="3" NCoef="0" IVar="5" Cut="0.94555" cType="1" res="-0.0366311" purity="0.42669" nType="0">
              <Node pos="l" depth="4" NCoef="0" IVar="-1" Cut="0" cType="1" res="-0.00031548" purity="0.459413" nType="-99"/>
              <Node pos="r" depth="4" NCoef="0" IVar="-1" Cut="0" cType="1" res="-0.00421071" purity="0.385066" nType="-99"/>
            </Node>
          </Node>
          <Node pos="r" depth="2" NCoef="0" IVar="-1" Cut="0" cType="1" res="0.000417678" purity="0.669019" nType="-99"/>
        </Node>
        <Node pos="r" depth="1" NCoef="0" IVar="2" Cut="8501.88" cType="1" res="0.0102683" purity="0.496299" nType="0">
          <Node pos="l" depth="2" NCoef="0" IVar="5" Cut="1.52843" cType="1" res="0.00166594" purity="0.440836" nType="0">
            <Node pos="l" depth="3" NCoef="0" IVar="0" Cut="143783" cType="1" res="-0.0237384" purity="0.426714" nType="0">
              <Node pos="l" depth="4" NCoef="0" IVar="-1" Cut="0" cType="1" res="-0.00354566" purity="0.362209" nType="-99"/>
              <Node pos="r" depth="4" NCoef="0" IVar="-1" Cut="0" cType="1" res="0.00119554" purity="0.518471" nType="-99"/>
            </Node>
            <Node pos="r" depth="3" NCoef="0" IVar="0" Cut="109746" cType="1" res="0.0180811" purity="0.449961" nType="0">
              <Node pos="l" depth="4" NCoef="0" IVar="-1" Cut="0" cType="1" res="0.00327803" purity="0.445832" nType="-99"/>
              <Node pos="r" depth="4" NCoef="0" IVar="-1" Cut="0" cType="1" res="3.3882e-05" purity="0.451626" nType="-99"/>
            </Node>
          </Node>
          <Node pos="r" depth="2" NCoef="0" IVar="0" Cut="114628" cType="1" res="0.026656" purity="0.601958" nType="0">
            <Node pos="l" depth="3" NCoef="0" IVar="-1" Cut="0" cType="1" res="-0.000715296" purity="0.508434" nType="-99"/>
            <Node pos="r" depth="3" NCoef="0" IVar="3" Cut="176823" cType="1" res="0.042903" purity="0.637842" nType="0">
              <Node pos="l" depth="4" NCoef="0" IVar="-1" Cut="0" cType="1" res="0.00257257" purity="0.665137" nType="-99"/>
              <Node pos="r" depth="4" NCoef="0" IVar="-1" Cut="0" cType="1" res="-0.000421507" purity="0.57267" nType="-99"/>
            </Node>
          </Node>
        </Node>
      </Node>
    </BinaryTree>
    <BinaryTree type="DecisionTree" boostWeight="1.0" itree="252">
      <Node pos="s" depth="0" NCoef="0" IVar="2" Cut="-19506" cType="1" res="0.00699138" purity="0.50136" nType="0">
        <Node pos="l" depth="1" NCoef="0" IVar="-1" Cut="0" cType="1" res="0.00366024" purity="0.464683" nType="-99"/>
        <Node pos="r" depth="1" NCoef="0" IVar="5" Cut="2.682" cType="1" res="0.00335774" purity="0.503338" nType="0">
          <Node pos="l" depth="2" NCoef="0" IVar="3" Cut="171351" cType="1" res="-0.000539877" purity="0.504188" nType="0">
            <Node pos="l" depth="3" NCoef="0" IVar="4" Cut="382876" cType="1" res="0.0137753" purity="0.523509" nType="0">
              <Node pos="l" depth="4" NCoef="0" IVar="-1" Cut="0" cType="1" res="0.000300664" purity="0.523259" nType="-99"/>
              <Node pos="r" depth="4" NCoef="0" IVar="-1" Cut="0" cType="1" res="0.00340442" purity="0.525704" nType="-99"/>
            </Node>
            <Node pos="r" depth="3" NCoef="0" IVar="0" Cut="197533" cType="1" res="-0.0178626" purity="0.480808" nType="0">
              <Node pos="l" depth="4" NCoef="0" IVar="-1" Cut="0" cType="1" res="-0.00151343" purity="0.452537" nType="-99"/>
              <Node pos="r" depth="4" NCoef="0" IVar="-1" Cut="0" cType="1" res="0.00171628" purity="0.624712" nType="-99"/>
            </Node>
          </Node>
          <Node pos="r" depth="2" NCoef="0" IVar="-1" Cut="0" cType="1" res="0.00205487" purity="0.494472" nType="-99"/>
        </Node>
      </Node>
    </BinaryTree>
    <BinaryTree type="DecisionTree" boostWeight="1.0" itree="253">
      <Node pos="s" depth="0" NCoef="0" IVar="6" Cut="2.75843" cType="1" res="-0.00782031" purity="0.48768" nType="0">
        <Node pos="l" depth="1" NCoef="0" IVar="2" Cut="21337.1" cType="1" res="-0.000577779" purity="0.507724" nType="0">
          <Node pos="l" depth="2" NCoef="0" IVar="0" Cut="148778" cType="1" res="-0.00573195" purity="0.480436" nType="0">
            <Node pos="l" depth="3" NCoef="0" IVar="0" Cut="105947" cType="1" res="0.00438656" purity="0.466103" nType="0">
              <Node pos="l" depth="4" NCoef="0" IVar="-1" Cut="0" cType="1" res="-0.0027752" purity="0.37276" nType="-99"/>
              <Node pos="r" depth="4" NCoef="0" IVar="-1" Cut="0" cType="1" res="0.000658844" purity="0.484167" nType="-99"/>
            </Node>
            <Node pos="r" depth="3" NCoef="0" IVar="0" Cut="174609" cType="1" res="-0.0245659" purity="0.507116" nType="0">
              <Node pos="l" depth="4" NCoef="0" IVar="-1" Cut="0" cType="1" res="-0.0038476" purity="0.425284" nType="-99"/>
              <Node pos="r" depth="4" NCoef="0" IVar="-1" Cut="0" cType="1" res="0.000161396" purity="0.556011" nType="-99"/>
            </Node>
          </Node>
          <Node pos="r" depth="2" NCoef="0" IVar="0" Cut="143759" cType="1" res="0.0309496" purity="0.674641" nType="0">
            <Node pos="l" depth="3" NCoef="0" IVar="-1" Cut="0" cType="1" res="0.000209987" purity="0.607822" nType="-99"/>
            <Node pos="r" depth="3" NCoef="0" IVar="-1" Cut="0" cType="1" res="0.00243432" purity="0.756504" nType="-99"/>
          </Node>
        </Node>
        <Node pos="r" depth="1" NCoef="0" IVar="6" Cut="2.88933" cType="1" res="-0.056127" purity="0.353991" nType="0">
          <Node pos="l" depth="2" NCoef="0" IVar="-1" Cut="0" cType="1" res="-0.00934549" purity="0.282248" nType="-99"/>
          <Node pos="r" depth="2" NCoef="0" IVar="4" Cut="249511" cType="1" res="-0.0231894" purity="0.387831" nType="0">
            <Node pos="l" depth="3" NCoef="0" IVar="-1" Cut="0" cType="1" res="-0.00416952" purity="0.359037" nType="-99"/>
            <Node pos="r" depth="3" NCoef="0" IVar="-1" Cut="0" cType="1" res="0.00119151" purity="0.415667" nType="-99"/>
          </Node>
        </Node>
      </Node>
    </BinaryTree>
    <BinaryTree type="DecisionTree" boostWeight="1.0" itree="254">
      <Node pos="s" depth="0" NCoef="0" IVar="5" Cut="2.83539" cType="1" res="0.0114942" purity="0.504912" nType="0">
        <Node pos="l" depth="1" NCoef="0" IVar="2" Cut="-9312.15" cType="1" res="0.00858488" purity="0.504679" nType="0">
          <Node pos="l" depth="2" NCoef="0" IVar="2" Cut="-13064.1" cType="1" res="0.0397048" purity="0.432401" nType="0">
            <Node pos="l" depth="3" NCoef="0" IVar="6" Cut="2.74673" cType="1" res="-0.00777864" purity="0.38342" nType="0">
              <Node pos="l" depth="4" NCoef="0" IVar="-1" Cut="0" cType="1" res="0.00138987" purity="0.417983" nType="-99"/>
              <Node pos="r" depth="4" NCoef="0" IVar="-1" Cut="0" cType="1" res="-0.00245759" purity="0.350058" nType="-99"/>
            </Node>
            <Node pos="r" depth="3" NCoef="0" IVar="-1" Cut="0" cType="1" res="0.0054556" purity="0.513768" nType="-99"/>
          </Node>
          <Node pos="r" depth="2" NCoef="0" IVar="0" Cut="104877" cType="1" res="0.00326509" purity="0.517034" nType="0">
            <Node pos="l" depth="3" NCoef="0" IVar="-1" Cut="0" cType="1" res="-0.00211362" purity="0.403111" nType="-99"/>
            <Node pos="r" depth="3" NCoef="0" IVar="4" Cut="158816" cType="1" res="0.00673338" purity="0.527099" nType="0">
              <Node pos="l" depth="4" NCoef="0" IVar="-1" Cut="0" cType="1" res="-0.00166654" purity="0.520717" nType="-99"/>
              <Node pos="r" depth="4" NCoef="0" IVar="-1" Cut="0" cType="1" res="0.000559662" purity="0.527969" nType="-99"/>
            </Node>
          </Node>
        </Node>
        <Node pos="r" depth="1" NCoef="0" IVar="-1" Cut="0" cType="1" res="0.00277297" purity="0.508684" nType="-99"/>
      </Node>
    </BinaryTree>
    <BinaryTree type="DecisionTree" boostWeight="1.0" itree="255">
      <Node pos="s" depth="0" NCoef="0" IVar="2" Cut="31529.2" cType="1" res="0.00674251" purity="0.501989" nType="0">
        <Node pos="l" depth="1" NCoef="0" IVar="6" Cut="2.37511" cType="1" res="0.00340392" purity="0.488672" nType="0">
          <Node pos="l" depth="2" NCoef="0" IVar="5" Cut="1.02761" cType="1" res="-0.00624387" purity="0.50076" nType="0">
            <Node pos="l" depth="3" NCoef="0" IVar="2" Cut="12466.9" cType="1" res="0.0229749" purity="0.544527" nType="0">
              <Node pos="l" depth="4" NCoef="0" IVar="-1" Cut="0" cType="1" res="0.00190905" purity="0.501468" nType="-99"/>
              <Node pos="r" depth="4" NCoef="0" IVar="-1" Cut="0" cType="1" res="-0.000386836" purity="0.610823" nType="-99"/>
            </Node>
            <Node pos="r" depth="3" NCoef="0" IVar="5" Cut="2.00717" cType="1" res="-0.0150703" purity="0.487539" nType="0">
              <Node pos="l" depth="4" NCoef="0" IVar="-1" Cut="0" cType="1" res="-0.00133949" purity="0.486114" nType="-99"/>
              <Node pos="r" depth="4" NCoef="0" IVar="-1" Cut="0" cType="1" res="0.000303265" purity="0.489951" nType="-99"/>
            </Node>
          </Node>
          <Node pos="r" depth="2" NCoef="0" IVar="5" Cut="1.3056" cType="1" res="0.0238664" purity="0.463035" nType="0">
            <Node pos="l" depth="3" NCoef="0" IVar="0" Cut="148758" cType="1" res="0.00373056" purity="0.472645" nType="0">
              <Node pos="l" depth="4" NCoef="0" IVar="-1" Cut="0" cType="1" res="-0.00296222" purity="0.36538" nType="-99"/>
              <Node pos="r" depth="4" NCoef="0" IVar="-1" Cut="0" cType="1" res="0.00156285" purity="0.541825" nType="-99"/>
            </Node>
            <Node pos="r" depth="3" NCoef="0" IVar="4" Cut="250083" cType="1" res="0.0456312" purity="0.452648" nType="0">
              <Node pos="l" depth="4" NCoef="0" IVar="-1" Cut="0" cType="1" res="0.000840763" purity="0.442683" nType="-99"/>
              <Node pos="r" depth="4" NCoef="0" IVar="-1" Cut="0" cType="1" res="0.00361587" purity="0.460981" nType="-99"/>
            </Node>
          </Node>
        </Node>
        <Node pos="r" depth="1" NCoef="0" IVar="-1" Cut="0" cType="1" res="0.00243258" purity="0.716815" nType="-99"/>
      </Node>
    </BinaryTree>
    <BinaryTree type="DecisionTree" boostWeight="1.0" itree="256">
      <Node pos="s" depth="0" NCoef="0" IVar="1" Cut="115584" cType="1" res="0.000913026" purity="0.496532" nType="0">
        <Node pos="l" depth="1" NCoef="0" IVar="2" Cut="-13064.7" cType="1" res="-0.0155474" purity="0.460572" nType="0">
          <Node pos="l" depth="2" NCoef="0" IVar="-1" Cut="0" cType="1" res="-0.00497269" purity="0.29771" nType="-99"/>
          <Node pos="r" depth="2" NCoef="0" IVar="2" Cut="-4943.25" cType="1" res="-0.01111" purity="0.474103" nType="0">
            <Node pos="l" depth="3" NCoef="0" IVar="-1" Cut="0" cType="1" res="0.00159569" purity="0.420301" nType="-99"/>
            <Node pos="r" depth="3" NCoef="0" IVar="2" Cut="7593.2" cType="1" res="-0.0185166" purity="0.483995" nType="0">
              <Node pos="l" depth="4" NCoef="0" IVar="-1" Cut="0" cType="1" res="-0.00193596" purity="0.409037" nType="-99"/>
              <Node pos="r" depth="4" NCoef="0" IVar="-1" Cut="0" cType="1" res="4.06697e-05" purity="0.569735" nType="-99"/>
            </Node>
          </Node>
        </Node>
        <Node pos="r" depth="1" NCoef="0" IVar="2" Cut="21445.7" cType="1" res="0.0210388" purity="0.5405" nType="0">
          <Node pos="l" depth="2" NCoef="0" IVar="5" Cut="1.32544" cType="1" res="0.0138028" purity="0.509765" nType="0">
            <Node pos="l" depth="3" NCoef="0" IVar="-1" Cut="0" cType="1" res="-0.00141204" purity="0.50406" nType="-99"/>
            <Node pos="r" depth="3" NCoef="0" IVar="1" Cut="151540" cType="1" res="0.0242597" purity="0.511154" nType="0">
              <Node pos="l" depth="4" NCoef="0" IVar="-1" Cut="0" cType="1" res="0.00218805" purity="0.554918" nType="-99"/>
              <Node pos="r" depth="4" NCoef="0" IVar="-1" Cut="0" cType="1" res="-0.00064278" purity="0.449238" nType="-99"/>
            </Node>
          </Node>
          <Node pos="r" depth="2" NCoef="0" IVar="-1" Cut="0" cType="1" res="0.00232961" purity="0.706433" nType="-99"/>
        </Node>
      </Node>
    </BinaryTree>
    <BinaryTree type="DecisionTree" boostWeight="1.0" itree="257">
      <Node pos="s" depth="0" NCoef="0" IVar="0" Cut="178027" cType="1" res="-0.00135213" purity="0.493795" nType="0">
        <Node pos="l" depth="1" NCoef="0" IVar="6" Cut="2.75846" cType="1" res="-0.00826266" purity="0.468582" nType="0">
          <Node pos="l" depth="2" NCoef="0" IVar="3" Cut="136238" cType="1" res="-0.000792229" purity="0.489597" nType="0">
            <Node pos="l" depth="3" NCoef="0" IVar="5" Cut="1.61518" cType="1" res="0.0487257" purity="0.541791" nType="0">
              <Node pos="l" depth="4" NCoef="0" IVar="-1" Cut="0" cType="1" res="0.00101238" purity="0.527174" nType="-99"/>
              <Node pos="r" depth="4" NCoef="0" IVar="-1" Cut="0" cType="1" res="0.00324761" purity="0.556937" nType="-99"/>
            </Node>
            <Node pos="r" depth="3" NCoef="0" IVar="6" Cut="0.336427" cType="1" res="-0.0121767" purity="0.477597" nType="0">
              <Node pos="l" depth="4" NCoef="0" IVar="-1" Cut="0" cType="1" res="-0.00363466" purity="0.428182" nType="-99"/>
              <Node pos="r" depth="4" NCoef="0" IVar="-1" Cut="0" cType="1" res="-0.000316084" purity="0.482401" nType="-99"/>
            </Node>
          </Node>
          <Node pos="r" depth="2" NCoef="0" IVar="0" Cut="124728" cType="1" res="-0.059088" purity="0.325607" nType="0">
            <Node pos="l" depth="3" NCoef="0" IVar="-1" Cut="0" cType="1" res="-0.000751274" purity="0.349502" nType="-99"/>
            <Node pos="r" depth="3" NCoef="0" IVar="-1" Cut="0" cType="1" res="-0.00783136" purity="0.298887" nType="-99"/>
          </Node>
        </Node>
        <Node pos="r" depth="1" NCoef="0" IVar="6" Cut="1.22624" cType="1" res="0.0240817" purity="0.58659" nType="0">
          <Node pos="l" depth="2" NCoef="0" IVar="-1" Cut="0" cType="1" res="-0.00239365" purity="0.489669" nType="-99"/>
          <Node pos="r" depth="2" NCoef="0" IVar="6" Cut="2.34694" cType="1" res="0.0419819" purity="0.610438" nType="0">
            <Node pos="l" depth="3" NCoef="0" IVar="6" Cut="1.99152" cType="1" res="0.0648078" purity="0.667409" nType="0">
              <Node pos="l" depth="4" NCoef="0" IVar="-1" Cut="0" cType="1" res="0.00174065" purity="0.655113" nType="-99"/>
              <Node pos="r" depth="4" NCoef="0" IVar="-1" Cut="0" cType="1" res="0.00358085" purity="0.68348" nType="-99"/>
            </Node>
            <Node pos="r" depth="3" NCoef="0" IVar="-1" Cut="0" cType="1" res="0.000444469" purity="0.531842" nType="-99"/>
          </Node>
        </Node>
      </Node>
    </BinaryTree>
    <BinaryTree type="DecisionTree" boostWeight="1.0" itree="258">
      <Node pos="s" depth="0" NCoef="0" IVar="4" Cut="304873" cType="1" res="0.00087499" purity="0.494514" nType="0">
        <Node pos="l" depth="1" NCoef="0" IVar="4" Cut="174955" cType="1" res="0.0103176" purity="0.518699" nType="0">
          <Node pos="l" depth="2" NCoef="0" IVar="6" Cut="1.83948" cType="1" res="-0.0181262" purity="0.523463" nType="0">
            <Node pos="l" depth="3" NCoef="0" IVar="0" Cut="129150" cType="1" res="0.0156861" purity="0.576338" nType="0">
              <Node pos="l" depth="4" NCoef="0" IVar="-1" Cut="0" cType="1" res="0.0014434" purity="0.577611" nType="-99"/>
              <Node pos="r" depth="4" NCoef="0" IVar="-1" Cut="0" cType="1" res="-0.000267708" purity="0.574769" nType="-99"/>
            </Node>
            <Node pos="r" depth="3" NCoef="0" IVar="1" Cut="98707.7" cType="1" res="-0.0642951" purity="0.451266" nType="0">
              <Node pos="l" depth="4" NCoef="0" IVar="-1" Cut="0" cType="1" res="-0.000482842" purity="0.47583" nType="-99"/>
              <Node pos="r" depth="4" NCoef="0" IVar="-1" Cut="0" cType="1" res="-0.00663226" purity="0.427175" nType="-99"/>
            </Node>
          </Node>
          <Node pos="r" depth="2" NCoef="0" IVar="3" Cut="120132" cType="1" res="0.0204018" purity="0.51701" nType="0">
            <Node pos="l" depth="3" NCoef="0" IVar="-1" Cut="0" cType="1" res="-0.00176262" purity="0.445844" nType="-99"/>
            <Node pos="r" depth="3" NCoef="0" IVar="0" Cut="163397" cType="1" res="0.0248269" purity="0.52293" nType="0">
              <Node pos="l" depth="4" NCoef="0" IVar="-1" Cut="0" cType="1" res="0.000716402" purity="0.49267" nType="-99"/>
              <Node pos="r" depth="4" NCoef="0" IVar="-1" Cut="0" cType="1" res="0.00210136" purity="0.609655" nType="-99"/>
            </Node>
          </Node>
        </Node>
        <Node pos="r" depth="1" NCoef="0" IVar="3" Cut="170553" cType="1" res="-0.0304587" purity="0.414261" nType="0">
          <Node pos="l" depth="2" NCoef="0" IVar="0" Cut="143918" cType="1" res="-0.0648618" purity="0.383353" nType="0">
            <Node pos="l" depth="3" NCoef="0" IVar="-1" Cut="0" cType="1" res="-0.00861703" purity="0.279262" nType="-99"/>
            <Node pos="r" depth="3" NCoef="0" IVar="-1" Cut="0" cType="1" res="-0.000854414" purity="0.485376" nType="-99"/>
          </Node>
          <Node pos="r" depth="2" NCoef="0" IVar="4" Cut="400056" cType="1" res="0.00105475" purity="0.442573" nType="0">
            <Node pos="l" depth="3" NCoef="0" IVar="-1" Cut="0" cType="1" res="-0.00138061" purity="0.42697" nType="-99"/>
            <Node pos="r" depth="3" NCoef="0" IVar="-1" Cut="0" cType="1" res="0.00226646" purity="0.469503" nType="-99"/>
          </Node>
        </Node>
      </Node>
    </BinaryTree>
    <BinaryTree type="DecisionTree" boostWeight="1.0" itree="259">
      <Node pos="s" depth="0" NCoef="0" IVar="4" Cut="402430" cType="1" res="0.00700015" purity="0.499391" nType="0">
        <Node pos="l" depth="1" NCoef="0" IVar="4" Cut="277033" cType="1" res="0.00169286" purity="0.500245" nType="0">
          <Node pos="l" depth="2" NCoef="0" IVar="2" Cut="10778.4" cType="1" res="0.0111444" purity="0.523671" nType="0">
            <Node pos="l" depth="3" NCoef="0" IVar="3" Cut="124679" cType="1" res="0.0220368" purity="0.483942" nType="0">
              <Node pos="l" depth="4" NCoef="0" IVar="-1" Cut="0" cType="1" res="0.00348841" purity="0.521972" nType="-99"/>
              <Node pos="r" depth="4" NCoef="0" IVar="-1" Cut="0" cType="1" res="0.000738154" purity="0.479512" nType="-99"/>
            </Node>
            <Node pos="r" depth="3" NCoef="0" IVar="2" Cut="15071.5" cType="1" res="-0.0128717" purity="0.611268" nType="0">
              <Node pos="l" depth="4" NCoef="0" IVar="-1" Cut="0" cType="1" res="-0.00331667" purity="0.503412" nType="-99"/>
              <Node pos="r" depth="4" NCoef="0" IVar="-1" Cut="0" cType="1" res="0.000502975" purity="0.660573" nType="-99"/>
            </Node>
          </Node>
          <Node pos="r" depth="2" NCoef="0" IVar="1" Cut="141166" cType="1" res="-0.0266567" purity="0.42998" nType="0">
            <Node pos="l" depth="3" NCoef="0" IVar="1" Cut="108720" cType="1" res="-0.0488359" purity="0.401863" nType="0">
              <Node pos="l" depth="4" NCoef="0" IVar="-1" Cut="0" cType="1" res="-0.00102963" purity="0.406573" nType="-99"/>
              <Node pos="r" depth="4" NCoef="0" IVar="-1" Cut="0" cType="1" res="-0.00504076" purity="0.396211" nType="-99"/>
            </Node>
            <Node pos="r" depth="3" NCoef="0" IVar="5" Cut="2.15232" cType="1" res="0.0061244" purity="0.471537" nType="0">
              <Node pos="l" depth="4" NCoef="0" IVar="-1" Cut="0" cType="1" res="0.00208682" purity="0.548906" nType="-99"/>
              <Node pos="r" depth="4" NCoef="0" IVar="-1" Cut="0" cType="1" res="-0.00129723" purity="0.411861" nType="-99"/>
            </Node>
          </Node>
        </Node>
        <Node pos="r" depth="1" NCoef="0" IVar="3" Cut="168947" cType="1" res="0.0637091" purity="0.490261" nType="0">
          <Node pos="l" depth="2" NCoef="0" IVar="-1" Cut="0" cType="1" res="0.00488209" purity="0.541592" nType="-99"/>
          <Node pos="r" depth="2" NCoef="0" IVar="-1" Cut="0" cType="1" res="0.00084837" purity="0.439129" nType="-99"/>
        </Node>
      </Node>
    </BinaryTree>
    <BinaryTree type="DecisionTree" boostWeight="1.0" itree="260">
      <Node pos="s" depth="0" NCoef="0" IVar="1" Cut="156559" cType="1" res="0.00655774" purity="0.497966" nType="0">
        <Node pos="l" depth="1" NCoef="0" IVar="6" Cut="0.229884" cType="1" res="-0.000860336" purity="0.491904" nType="0">
          <Node pos="l" depth="2" NCoef="0" IVar="-1" Cut="0" cType="1" res="0.00278107" purity="0.558025" nType="-99"/>
          <Node pos="r" depth="2" NCoef="0" IVar="3" Cut="177186" cType="1" res="-0.00548183" purity="0.487399" nType="0">
            <Node pos="l" depth="3" NCoef="0" IVar="1" Cut="127328" cType="1" res="0.00694083" purity="0.505537" nType="0">
              <Node pos="l" depth="4" NCoef="0" IVar="-1" Cut="0" cType="1" res="-8.7467e-05" purity="0.487039" nType="-99"/>
              <Node pos="r" depth="4" NCoef="0" IVar="-1" Cut="0" cType="1" res="0.00185851" purity="0.582207" nType="-99"/>
            </Node>
            <Node pos="r" depth="3" NCoef="0" IVar="5" Cut="1.35225" cType="1" res="-0.0275034" purity="0.455247" nType="0">
              <Node pos="l" depth="4" NCoef="0" IVar="-1" Cut="0" cType="1" res="-0.000169357" purity="0.493068" nType="-99"/>
              <Node pos="r" depth="4" NCoef="0" IVar="-1" Cut="0" cType="1" res="-0.00332082" purity="0.406294" nType="-99"/>
            </Node>
          </Node>
        </Node>
        <Node pos="r" depth="1" NCoef="0" IVar="4" Cut="374524" cType="1" res="0.046404" purity="0.530529" nType="0">
          <Node pos="l" depth="2" NCoef="0" IVar="6" Cut="1.30051" cType="1" res="0.0216729" purity="0.5157" nType="0">
            <Node pos="l" depth="3" NCoef="0" IVar="-1" Cut="0" cType="1" res="-0.0013275" purity="0.477717" nType="-99"/>
            <Node pos="r" depth="3" NCoef="0" IVar="-1" Cut="0" cType="1" res="0.00267643" purity="0.544232" nType="-99"/>
          </Node>
          <Node pos="r" depth="2" NCoef="0" IVar="-1" Cut="0" cType="1" res="0.00422689" purity="0.567839" nType="-99"/>
        </Node>
      </Node>
    </BinaryTree>
    <BinaryTree type="DecisionTree" boostWeight="1.0" itree="261">
      <Node pos="s" depth="0" NCoef="0" IVar="4" Cut="343921" cType="1" res="0.0103448" purity="0.504215" nType="0">
        <Node pos="l" depth="1" NCoef="0" IVar="0" Cut="104880" cType="1" res="0.00349207" purity="0.510217" nType="0">
          <Node pos="l" depth="2" NCoef="0" IVar="-1" Cut="0" cType="1" res="-0.00267352" purity="0.386624" nType="-99"/>
          <Node pos="r" depth="2" NCoef="0" IVar="4" Cut="147679" cType="1" res="0.008605" purity="0.523009" nType="0">
            <Node pos="l" depth="3" NCoef="0" IVar="-1" Cut="0" cType="1" res="-0.00161267" purity="0.520993" nType="-99"/>
            <Node pos="r" depth="3" NCoef="0" IVar="1" Cut="166000" cType="1" res="0.011957" purity="0.523171" nType="0">
              <Node pos="l" depth="4" NCoef="0" IVar="-1" Cut="0" cType="1" res="0.000733364" purity="0.528038" nType="-99"/>
              <Node pos="r" depth="4" NCoef="0" IVar="-1" Cut="0" cType="1" res="-0.00148405" purity="0.47115" nType="-99"/>
            </Node>
          </Node>
        </Node>
        <Node pos="r" depth="1" NCoef="0" IVar="2" Cut="7575.28" cType="1" res="0.0427333" purity="0.475848" nType="0">
          <Node pos="l" depth="2" NCoef="0" IVar="6" Cut="1.9922" cType="1" res="0.0637849" purity="0.453914" nType="0">
            <Node pos="l" depth="3" NCoef="0" IVar="-1" Cut="0" cType="1" res="0.00561326" purity="0.505134" nType="-99"/>
            <Node pos="r" depth="3" NCoef="0" IVar="-1" Cut="0" cType="1" res="0.00158181" purity="0.424286" nType="-99"/>
          </Node>
          <Node pos="r" depth="2" NCoef="0" IVar="-1" Cut="0" cType="1" res="-0.000120119" purity="0.523119" nType="-99"/>
        </Node>
      </Node>
    </BinaryTree>
    <BinaryTree type="DecisionTree" boostWeight="1.0" itree="262">
      <Node pos="s" depth="0" NCoef="0" IVar="6" Cut="2.98832" cType="1" res="0.00369848" purity="0.498322" nType="0">
        <Node pos="l" depth="1" NCoef="0" IVar="4" Cut="226873" cType="1" res="0.00669547" purity="0.505988" nType="0">
          <Node pos="l" depth="2" NCoef="0" IVar="2" Cut="17654.5" cType="1" res="-0.00515679" purity="0.524896" nType="0">
            <Node pos="l" depth="3" NCoef="0" IVar="5" Cut="1.60066" cType="1" res="-0.0167411" purity="0.478212" nType="0">
              <Node pos="l" depth="4" NCoef="0" IVar="-1" Cut="0" cType="1" res="-0.00192186" purity="0.455917" nType="-99"/>
              <Node pos="r" depth="4" NCoef="0" IVar="-1" Cut="0" cType="1" res="0.00104951" purity="0.517557" nType="-99"/>
            </Node>
            <Node pos="r" depth="3" NCoef="0" IVar="-1" Cut="0" cType="1" res="0.00162648" purity="0.705524" nType="-99"/>
          </Node>
          <Node pos="r" depth="2" NCoef="0" IVar="6" Cut="2.40521" cType="1" res="0.0185627" purity="0.487056" nType="0">
            <Node pos="l" depth="3" NCoef="0" IVar="0" Cut="148778" cType="1" res="0.00324526" purity="0.486122" nType="0">
              <Node pos="l" depth="4" NCoef="0" IVar="-1" Cut="0" cType="1" res="0.00096168" purity="0.467223" nType="-99"/>
              <Node pos="r" depth="4" NCoef="0" IVar="-1" Cut="0" cType="1" res="-0.00113413" purity="0.516625" nType="-99"/>
            </Node>
            <Node pos="r" depth="3" NCoef="0" IVar="4" Cut="300150" cType="1" res="0.056967" purity="0.489397" nType="0">
              <Node pos="l" depth="4" NCoef="0" IVar="-1" Cut="0" cType="1" res="0.00464149" purity="0.556993" nType="-99"/>
              <Node pos="r" depth="4" NCoef="0" IVar="-1" Cut="0" cType="1" res="0.000335587" purity="0.424584" nType="-99"/>
            </Node>
          </Node>
        </Node>
        <Node pos="r" depth="1" NCoef="0" IVar="-1" Cut="0" cType="1" res="-0.00340381" purity="0.352146" nType="-99"/>
      </Node>
    </BinaryTree>
    <BinaryTree type="DecisionTree" boostWeight="1.0" itree="263">
      <Node pos="s" depth="0" NCoef="0" IVar="0" Cut="178044" cType="1" res="0.0108139" purity="0.506268" nType="0">
        <Node pos="l" depth="1" NCoef="0" IVar="2" Cut="-2446.77" cType="1" res="0.00301236" purity="0.479429" nType="0">
          <Node pos="l" depth="2" NCoef="0" IVar="5" Cut="2.20921" cType="1" res="-0.0228716" purity="0.366269" nType="0">
            <Node pos="l" depth="3" NCoef="0" IVar="1" Cut="100140" cType="1" res="-0.0443073" purity="0.347577" nType="0">
              <Node pos="l" depth="4" NCoef="0" IVar="-1" Cut="0" cType="1" res="0.000554217" purity="0.382753" nType="-99"/>
              <Node pos="r" depth="4" NCoef="0" IVar="-1" Cut="0" cType="1" res="-0.00505413" purity="0.326974" nType="-99"/>
            </Node>
            <Node pos="r" depth="3" NCoef="0" IVar="-1" Cut="0" cType="1" res="0.00252285" purity="0.427958" nType="-99"/>
          </Node>
          <Node pos="r" depth="2" NCoef="0" IVar="2" Cut="27510.9" cType="1" res="0.0135921" purity="0.525681" nType="0">
            <Node pos="l" depth="3" NCoef="0" IVar="3" Cut="143675" cType="1" res="0.0207433" purity="0.519864" nType="0">
              <Node pos="l" depth="4" NCoef="0" IVar="-1" Cut="0" cType="1" res="0.00242327" purity="0.562032" nType="-99"/>
              <Node pos="r" depth="4" NCoef="0" IVar="-1" Cut="0" cType="1" res="0.000493341" purity="0.50847" nType="-99"/>
            </Node>
            <Node pos="r" depth="3" NCoef="0" IVar="-1" Cut="0" cType="1" res="-0.0028525" purity="0.585719" nType="-99"/>
          </Node>
        </Node>
        <Node pos="r" depth="1" NCoef="0" IVar="2" Cut="1080.99" cType="1" res="0.0397706" purity="0.605885" nType="0">
          <Node pos="l" depth="2" NCoef="0" IVar="-1" Cut="0" cType="1" res="0.00293263" purity="0.575314" nType="-99"/>
          <Node pos="r" depth="2" NCoef="0" IVar="2" Cut="15502.5" cType="1" res="0.0213911" purity="0.622059" nType="0">
            <Node pos="l" depth="3" NCoef="0" IVar="2" Cut="7061" cType="1" res="-0.000358173" purity="0.550523" nType="0">
              <Node pos="l" depth="4" NCoef="0" IVar="-1" Cut="0" cType="1" res="-0.00128112" purity="0.497146" nType="-99"/>
              <Node pos="r" depth="4" NCoef="0" IVar="-1" Cut="0" cType="1" res="0.000925816" purity="0.596" nType="-99"/>
            </Node>
            <Node pos="r" depth="3" NCoef="0" IVar="-1" Cut="0" cType="1" res="0.00250152" purity="0.758365" nType="-99"/>
          </Node>
        </Node>
      </Node>
    </BinaryTree>
    <BinaryTree type="DecisionTree" boostWeight="1.0" itree="264">
      <Node pos="s" depth="0" NCoef="0" IVar="3" Cut="147990" cType="1" res="0.0167682" purity="0.509184" nType="0">
        <Node pos="l" depth="1" NCoef="0" IVar="4" Cut="179051" cType="1" res="-0.0154131" purity="0.475611" nType="0">
          <Node pos="l" depth="2" NCoef="0" IVar="-1" Cut="0" cType="1" res="-0.00449847" purity="0.459627" nType="-99"/>
          <Node pos="r" depth="2" NCoef="0" IVar="6" Cut="1.60895" cType="1" res="0.00191843" purity="0.479582" nType="0">
            <Node pos="l" depth="3" NCoef="0" IVar="6" Cut="0.784812" cType="1" res="-0.0534313" purity="0.450209" nType="0">
              <Node pos="l" depth="4" NCoef="0" IVar="-1" Cut="0" cType="1" res="-0.00232362" purity="0.443214" nType="-99"/>
              <Node pos="r" depth="4" NCoef="0" IVar="-1" Cut="0" cType="1" res="-0.00312692" purity="0.457231" nType="-99"/>
            </Node>
            <Node pos="r" depth="3" NCoef="0" IVar="4" Cut="249524" cType="1" res="0.0445545" purity="0.502209" nType="0">
              <Node pos="l" depth="4" NCoef="0" IVar="-1" Cut="0" cType="1" res="0.00311159" purity="0.547829" nType="-99"/>
              <Node pos="r" depth="4" NCoef="0" IVar="-1" Cut="0" cType="1" res="0.00108908" purity="0.462679" nType="-99"/>
            </Node>
          </Node>
        </Node>
        <Node pos="r" depth="1" NCoef="0" IVar="3" Cut="170207" cType="1" res="0.0264478" purity="0.519282" nType="0">
          <Node pos="l" depth="2" NCoef="0" IVar="3" Cut="160995" cType="1" res="0.0040654" purity="0.507324" nType="0">
            <Node pos="l" depth="3" NCoef="0" IVar="1" Cut="115494" cType="1" res="0.0344999" purity="0.54213" nType="0">
              <Node pos="l" depth="4" NCoef="0" IVar="-1" Cut="0" cType="1" res="0.00242599" purity="0.551955" nType="-99"/>
              <Node pos="r" depth="4" NCoef="0" IVar="-1" Cut="0" cType="1" res="1.30273e-05" purity="0.526571" nType="-99"/>
            </Node>
            <Node pos="r" depth="3" NCoef="0" IVar="1" Cut="105363" cType="1" res="-0.0321146" purity="0.465948" nType="0">
              <Node pos="l" depth="4" NCoef="0" IVar="-1" Cut="0" cType="1" res="-0.00404306" purity="0.403327" nType="-99"/>
              <Node pos="r" depth="4" NCoef="0" IVar="-1" Cut="0" cType="1" res="-0.000284081" purity="0.506921" nType="-99"/>
            </Node>
          </Node>
          <Node pos="r" depth="2" NCoef="0" IVar="6" Cut="2.9117" cType="1" res="0.0387135" purity="0.525834" nType="0">
            <Node pos="l" depth="3" NCoef="0" IVar="5" Cut="1.15096" cType="1" res="0.0311436" purity="0.526307" nType="0">
              <Node pos="l" depth="4" NCoef="0" IVar="-1" Cut="0" cType="1" res="0.000167914" purity="0.526158" nType="-99"/>
              <Node pos="r" depth="4" NCoef="0" IVar="-1" Cut="0" cType="1" res="0.0020153" purity="0.526383" nType="-99"/>
            </Node>
            <Node pos="r" depth="3" NCoef="0" IVar="-1" Cut="0" cType="1" res="0.00496277" purity="0.521528" nType="-99"/>
          </Node>
        </Node>
      </Node>
    </BinaryTree>
    <BinaryTree type="DecisionTree" boostWeight="1.0" itree="265">
      <Node pos="s" depth="0" NCoef="0" IVar="6" Cut="0.383129" cType="1" res="0.00268076" purity="0.495937" nType="0">
        <Node pos="l" depth="1" NCoef="0" IVar="1" Cut="110418" cType="1" res="0.0519267" purity="0.551654" nType="0">
          <Node pos="l" depth="2" NCoef="0" IVar="-1" Cut="0" cType="1" res="0.00363128" purity="0.562823" nType="-99"/>
          <Node pos="r" depth="2" NCoef="0" IVar="-1" Cut="0" cType="1" res="0.000870246" purity="0.542429" nType="-99"/>
        </Node>
        <Node pos="r" depth="1" NCoef="0" IVar="0" Cut="187776" cType="1" res="-0.00340887" purity="0.489048" nType="0">
          <Node pos="l" depth="2" NCoef="0" IVar="6" Cut="1.39232" cType="1" res="0.00404926" purity="0.4812" nType="0">
            <Node pos="l" depth="3" NCoef="0" IVar="4" Cut="305030" cType="1" res="-0.023251" purity="0.481965" nType="0">
              <Node pos="l" depth="4" NCoef="0" IVar="-1" Cut="0" cType="1" res="-0.00194283" purity="0.483729" nType="-99"/>
              <Node pos="r" depth="4" NCoef="0" IVar="-1" Cut="0" cType="1" res="0.00149744" purity="0.476097" nType="-99"/>
            </Node>
            <Node pos="r" depth="3" NCoef="0" IVar="3" Cut="194580" cType="1" res="0.0152458" purity="0.480886" nType="0">
              <Node pos="l" depth="4" NCoef="0" IVar="-1" Cut="0" cType="1" res="0.000267629" purity="0.474277" nType="-99"/>
              <Node pos="r" depth="4" NCoef="0" IVar="-1" Cut="0" cType="1" res="0.00255655" purity="0.507389" nType="-99"/>
            </Node>
          </Node>
          <Node pos="r" depth="2" NCoef="0" IVar="0" Cut="234281" cType="1" res="-0.043798" purity="0.531548" nType="0">
            <Node pos="l" depth="3" NCoef="0" IVar="0" Cut="205923" cType="1" res="-0.066191" purity="0.499467" nType="0">
              <Node pos="l" depth="4" NCoef="0" IVar="-1" Cut="0" cType="1" res="-0.00592739" purity="0.451588" nType="-99"/>
              <Node pos="r" depth="4" NCoef="0" IVar="-1" Cut="0" cType="1" res="-0.00122248" purity="0.544279" nType="-99"/>
            </Node>
            <Node pos="r" depth="3" NCoef="0" IVar="-1" Cut="0" cType="1" res="-0.000357529" purity="0.582873" nType="-99"/>
          </Node>
        </Node>
      </Node>
    </BinaryTree>
    <BinaryTree type="DecisionTree" boostWeight="1.0" itree="266">
      <Node pos="s" depth="0" NCoef="0" IVar="5" Cut="1.07919" cType="1" res="-0.000677483" purity="0.493788" nType="0">
        <Node pos="l" depth="1" NCoef="0" IVar="5" Cut="1.00093" cType="1" res="-0.0198519" purity="0.500131" nType="0">
          <Node pos="l" depth="2" NCoef="0" IVar="3" Cut="176455" cType="1" res="-0.00575106" purity="0.517995" nType="0">
            <Node pos="l" depth="3" NCoef="0" IVar="3" Cut="150954" cType="1" res="0.00948853" purity="0.535364" nType="0">
              <Node pos="l" depth="4" NCoef="0" IVar="-1" Cut="0" cType="1" res="-0.00172675" purity="0.480994" nType="-99"/>
              <Node pos="r" depth="4" NCoef="0" IVar="-1" Cut="0" cType="1" res="0.00160328" purity="0.568818" nType="-99"/>
            </Node>
            <Node pos="r" depth="3" NCoef="0" IVar="2" Cut="7730.73" cType="1" res="-0.0327529" purity="0.487219" nType="0">
              <Node pos="l" depth="4" NCoef="0" IVar="-1" Cut="0" cType="1" res="-0.0037472" purity="0.37643" nType="-99"/>
              <Node pos="r" depth="4" NCoef="0" IVar="-1" Cut="0" cType="1" res="0.000174684" purity="0.60488" nType="-99"/>
            </Node>
          </Node>
          <Node pos="r" depth="2" NCoef="0" IVar="-1" Cut="0" cType="1" res="-0.00571583" purity="0.401386" nType="-99"/>
        </Node>
        <Node pos="r" depth="1" NCoef="0" IVar="4" Cut="402511" cType="1" res="0.00745822" purity="0.491097" nType="0">
          <Node pos="l" depth="2" NCoef="0" IVar="6" Cut="2.2219" cType="1" res="0.0116269" purity="0.499559" nType="0">
            <Node pos="l" depth="3" NCoef="0" IVar="0" Cut="134068" cType="1" res="0.00146395" purity="0.516823" nType="0">
              <Node pos="l" depth="4" NCoef="0" IVar="-1" Cut="0" cType="1" res="-0.000860578" purity="0.470587" nType="-99"/>
              <Node pos="r" depth="4" NCoef="0" IVar="-1" Cut="0" cType="1" res="0.00115664" purity="0.578686" nType="-99"/>
            </Node>
            <Node pos="r" depth="3" NCoef="0" IVar="3" Cut="188170" cType="1" res="0.0319712" purity="0.465" nType="0">
              <Node pos="l" depth="4" NCoef="0" IVar="-1" Cut="0" cType="1" res="0.000770091" purity="0.446595" nType="-99"/>
              <Node pos="r" depth="4" NCoef="0" IVar="-1" Cut="0" cType="1" res="0.00357373" purity="0.514817" nType="-99"/>
            </Node>
          </Node>
          <Node pos="r" depth="2" NCoef="0" IVar="-1" Cut="0" cType="1" res="-0.00316982" purity="0.368947" nType="-99"/>
        </Node>
      </Node>
    </BinaryTree>
    <BinaryTree type="DecisionTree" boostWeight="1.0" itree="267">
      <Node pos="s" depth="0" NCoef="0" IVar="0" Cut="119511" cType="1" res="0.00879525" purity="0.501502" nType="0">
        <Node pos="l" depth="1" NCoef="0" IVar="2" Cut="14587.4" cType="1" res="0.0332324" purity="0.478467" nType="0">
          <Node pos="l" depth="2" NCoef="0" IVar="5" Cut="1.31958" cType="1" res="0.0465657" purity="0.463356" nType="0">
            <Node pos="l" depth="3" NCoef="0" IVar="-1" Cut="0" cType="1" res="0.00385437" purity="0.495709" nType="-99"/>
            <Node pos="r" depth="3" NCoef="0" IVar="1" Cut="125333" cType="1" res="0.0308673" purity="0.450562" nType="0">
              <Node pos="l" depth="4" NCoef="0" IVar="-1" Cut="0" cType="1" res="0.000295894" purity="0.428048" nType="-99"/>
              <Node pos="r" depth="4" NCoef="0" IVar="-1" Cut="0" cType="1" res="0.00363374" purity="0.491158" nType="-99"/>
            </Node>
          </Node>
          <Node pos="r" depth="2" NCoef="0" IVar="-1" Cut="0" cType="1" res="-0.00116575" purity="0.545519" nType="-99"/>
        </Node>
        <Node pos="r" depth="1" NCoef="0" IVar="1" Cut="156517" cType="1" res="-0.00413958" purity="0.513695" nType="0">
          <Node pos="l" depth="2" NCoef="0" IVar="4" Cut="343896" cType="1" res="-0.0110831" purity="0.508241" nType="0">
            <Node pos="l" depth="3" NCoef="0" IVar="1" Cut="137023" cType="1" res="-7.84131e-05" purity="0.529205" nType="0">
              <Node pos="l" depth="4" NCoef="0" IVar="-1" Cut="0" cType="1" res="0.000229212" purity="0.530407" nType="-99"/>
              <Node pos="r" depth="4" NCoef="0" IVar="-1" Cut="0" cType="1" res="-0.0025667" purity="0.516922" nType="-99"/>
            </Node>
            <Node pos="r" depth="3" NCoef="0" IVar="-1" Cut="0" cType="1" res="-0.00531223" purity="0.365603" nType="-99"/>
          </Node>
          <Node pos="r" depth="2" NCoef="0" IVar="4" Cut="356601" cType="1" res="0.0293314" purity="0.539987" nType="0">
            <Node pos="l" depth="3" NCoef="0" IVar="-1" Cut="0" cType="1" res="-0.000319037" purity="0.523579" nType="-99"/>
            <Node pos="r" depth="3" NCoef="0" IVar="-1" Cut="0" cType="1" res="0.00347578" purity="0.565648" nType="-99"/>
          </Node>
        </Node>
      </Node>
    </BinaryTree>
    <BinaryTree type="DecisionTree" boostWeight="1.0" itree="268">
      <Node pos="s" depth="0" NCoef="0" IVar="0" Cut="192677" cType="1" res="0.00279287" purity="0.497239" nType="0">
        <Node pos="l" depth="1" NCoef="0" IVar="4" Cut="334075" cType="1" res="0.0100355" purity="0.491947" nType="0">
          <Node pos="l" depth="2" NCoef="0" IVar="1" Cut="140916" cType="1" res="0.0163157" purity="0.51172" nType="0">
            <Node pos="l" depth="3" NCoef="0" IVar="2" Cut="-12923.1" cType="1" res="0.00819773" purity="0.50223" nType="0">
              <Node pos="l" depth="4" NCoef="0" IVar="-1" Cut="0" cType="1" res="-0.00283722" purity="0.339614" nType="-99"/>
              <Node pos="r" depth="4" NCoef="0" IVar="-1" Cut="0" cType="1" res="0.00059643" purity="0.516309" nType="-99"/>
            </Node>
            <Node pos="r" depth="3" NCoef="0" IVar="2" Cut="4531.07" cType="1" res="0.0566251" purity="0.558839" nType="0">
              <Node pos="l" depth="4" NCoef="0" IVar="-1" Cut="0" cType="1" res="0.00431353" purity="0.544066" nType="-99"/>
              <Node pos="r" depth="4" NCoef="0" IVar="-1" Cut="0" cType="1" res="0.000585202" purity="0.572011" nType="-99"/>
            </Node>
          </Node>
          <Node pos="r" depth="2" NCoef="0" IVar="4" Cut="382605" cType="1" res="-0.0223013" purity="0.39014" nType="0">
            <Node pos="l" depth="3" NCoef="0" IVar="-1" Cut="0" cType="1" res="-0.00484348" purity="0.337559" nType="-99"/>
            <Node pos="r" depth="3" NCoef="0" IVar="1" Cut="120566" cType="1" res="0.0161047" purity="0.428131" nType="0">
              <Node pos="l" depth="4" NCoef="0" IVar="-1" Cut="0" cType="1" res="0.00221532" purity="0.435034" nType="-99"/>
              <Node pos="r" depth="4" NCoef="0" IVar="-1" Cut="0" cType="1" res="-0.000475634" purity="0.42108" nType="-99"/>
            </Node>
          </Node>
        </Node>
        <Node pos="r" depth="1" NCoef="0" IVar="5" Cut="1.23159" cType="1" res="-0.0441139" purity="0.531506" nType="0">
          <Node pos="l" depth="2" NCoef="0" IVar="0" Cut="234557" cType="1" res="-0.0188836" purity="0.561259" nType="0">
            <Node pos="l" depth="3" NCoef="0" IVar="-1" Cut="0" cType="1" res="-0.00261557" purity="0.514432" nType="-99"/>
            <Node pos="r" depth="3" NCoef="0" IVar="-1" Cut="0" cType="1" res="0.000806413" purity="0.61412" nType="-99"/>
          </Node>
          <Node pos="r" depth="2" NCoef="0" IVar="-1" Cut="0" cType="1" res="-0.00531884" purity="0.465857" nType="-99"/>
        </Node>
      </Node>
    </BinaryTree>
    <BinaryTree type="DecisionTree" boostWeight="1.0" itree="269">
      <Node pos="s" depth="0" NCoef="0" IVar="2" Cut="-9302.55" cType="1" res="0.0144681" purity="0.508529" nType="0">
        <Node pos="l" depth="1" NCoef="0" IVar="0" Cut="124323" cType="1" res="0.0471278" purity="0.434594" nType="0">
          <Node pos="l" depth="2" NCoef="0" IVar="-1" Cut="0" cType="1" res="0.00432145" purity="0.441682" nType="-99"/>
          <Node pos="r" depth="2" NCoef="0" IVar="-1" Cut="0" cType="1" res="0.000454665" purity="0.426657" nType="-99"/>
        </Node>
        <Node pos="r" depth="1" NCoef="0" IVar="3" Cut="223974" cType="1" res="0.00883316" purity="0.521285" nType="0">
          <Node pos="l" depth="2" NCoef="0" IVar="6" Cut="2.29872" cType="1" res="0.012776" purity="0.526178" nType="0">
            <Node pos="l" depth="3" NCoef="0" IVar="6" Cut="2.13048" cType="1" res="0.0190335" purity="0.547558" nType="0">
              <Node pos="l" depth="4" NCoef="0" IVar="-1" Cut="0" cType="1" res="0.000666243" purity="0.544365" nType="-99"/>
              <Node pos="r" depth="4" NCoef="0" IVar="-1" Cut="0" cType="1" res="0.00234262" purity="0.576624" nType="-99"/>
            </Node>
            <Node pos="r" depth="3" NCoef="0" IVar="6" Cut="2.60715" cType="1" res="-0.0060237" purity="0.461943" nType="0">
              <Node pos="l" depth="4" NCoef="0" IVar="-1" Cut="0" cType="1" res="-0.00216265" purity="0.45681" nType="-99"/>
              <Node pos="r" depth="4" NCoef="0" IVar="-1" Cut="0" cType="1" res="0.00120536" purity="0.4663" nType="-99"/>
            </Node>
          </Node>
          <Node pos="r" depth="2" NCoef="0" IVar="-1" Cut="0" cType="1" res="-0.00340777" purity="0.429638" nType="-99"/>
        </Node>
      </Node>
    </BinaryTree>
    <BinaryTree type="DecisionTree" boostWeight="1.0" itree="270">
      <Node pos="s" depth="0" NCoef="0" IVar="1" Cut="166794" cType="1" res="0.00884297" purity="0.50349" nType="0">
        <Node pos="l" depth="1" NCoef="0" IVar="4" Cut="226872" cType="1" res="0.0136911" purity="0.508947" nType="0">
          <Node pos="l" depth="2" NCoef="0" IVar="3" Cut="199956" cType="1" res="-0.000564544" purity="0.525369" nType="0">
            <Node pos="l" depth="3" NCoef="0" IVar="4" Cut="205219" cType="1" res="0.00777686" purity="0.536644" nType="0">
              <Node pos="l" depth="4" NCoef="0" IVar="-1" Cut="0" cType="1" res="0.000840026" purity="0.556528" nType="-99"/>
              <Node pos="r" depth="4" NCoef="0" IVar="-1" Cut="0" cType="1" res="-0.00217368" purity="0.446477" nType="-99"/>
            </Node>
            <Node pos="r" depth="3" NCoef="0" IVar="-1" Cut="0" cType="1" res="-0.00334101" purity="0.436678" nType="-99"/>
          </Node>
          <Node pos="r" depth="2" NCoef="0" IVar="0" Cut="129247" cType="1" res="0.0310048" purity="0.489003" nType="0">
            <Node pos="l" depth="3" NCoef="0" IVar="3" Cut="191139" cType="1" res="0.0531743" purity="0.465937" nType="0">
              <Node pos="l" depth="4" NCoef="0" IVar="-1" Cut="0" cType="1" res="0.00156196" purity="0.446766" nType="-99"/>
              <Node pos="r" depth="4" NCoef="0" IVar="-1" Cut="0" cType="1" res="0.0052334" purity="0.521622" nType="-99"/>
            </Node>
            <Node pos="r" depth="3" NCoef="0" IVar="3" Cut="148234" cType="1" res="0.010733" purity="0.510095" nType="0">
              <Node pos="l" depth="4" NCoef="0" IVar="-1" Cut="0" cType="1" res="0.00295513" purity="0.57923" nType="-99"/>
              <Node pos="r" depth="4" NCoef="0" IVar="-1" Cut="0" cType="1" res="-0.000502321" purity="0.485221" nType="-99"/>
            </Node>
          </Node>
        </Node>
        <Node pos="r" depth="1" NCoef="0" IVar="6" Cut="1.37914" cType="1" res="-0.0316566" purity="0.457898" nType="0">
          <Node pos="l" depth="2" NCoef="0" IVar="-1" Cut="0" cType="1" res="-0.00545238" purity="0.398627" nType="-99"/>
          <Node pos="r" depth="2" NCoef="0" IVar="-1" Cut="0" cType="1" res="0.000706899" purity="0.497565" nType="-99"/>
        </Node>
      </Node>
    </BinaryTree>
    <BinaryTree type="DecisionTree" boostWeight="1.0" itree="271">
      <Node pos="s" depth="0" NCoef="0" IVar="3" Cut="124543" cType="1" res="0.00631782" purity="0.501782" nType="0">
        <Node pos="l" depth="1" NCoef="0" IVar="3" Cut="113567" cType="1" res="0.0408427" purity="0.529866" nType="0">
          <Node pos="l" depth="2" NCoef="0" IVar="-1" Cut="0" cType="1" res="0.000290884" purity="0.491514" nType="-99"/>
          <Node pos="r" depth="2" NCoef="0" IVar="-1" Cut="0" cType="1" res="0.00332959" purity="0.579943" nType="-99"/>
        </Node>
        <Node pos="r" depth="1" NCoef="0" IVar="6" Cut="0.383178" cType="1" res="0.00204947" purity="0.49831" nType="0">
          <Node pos="l" depth="2" NCoef="0" IVar="-1" Cut="0" cType="1" res="-0.00222792" purity="0.45218" nType="-99"/>
          <Node pos="r" depth="2" NCoef="0" IVar="2" Cut="17789.2" cType="1" res="0.00655625" purity="0.50271" nType="0">
            <Node pos="l" depth="3" NCoef="0" IVar="1" Cut="125837" cType="1" res="0.0005115" purity="0.466594" nType="0">
              <Node pos="l" depth="4" NCoef="0" IVar="-1" Cut="0" cType="1" res="0.000502462" purity="0.470564" nType="-99"/>
              <Node pos="r" depth="4" NCoef="0" IVar="-1" Cut="0" cType="1" res="-0.00125925" purity="0.456239" nType="-99"/>
            </Node>
            <Node pos="r" depth="3" NCoef="0" IVar="6" Cut="1.278" cType="1" res="0.0375867" purity="0.688108" nType="0">
              <Node pos="l" depth="4" NCoef="0" IVar="-1" Cut="0" cType="1" res="-0.000112172" purity="0.607568" nType="-99"/>
              <Node pos="r" depth="4" NCoef="0" IVar="-1" Cut="0" cType="1" res="0.00247159" purity="0.738862" nType="-99"/>
            </Node>
          </Node>
        </Node>
      </Node>
    </BinaryTree>
    <BinaryTree type="DecisionTree" boostWeight="1.0" itree="272">
      <Node pos="s" depth="0" NCoef="0" IVar="5" Cut="2.3758" cType="1" res="0.00942829" purity="0.503021" nType="0">
        <Node pos="l" depth="1" NCoef="0" IVar="6" Cut="1.3026" cType="1" res="0.00294806" purity="0.502841" nType="0">
          <Node pos="l" depth="2" NCoef="0" IVar="4" Cut="275759" cType="1" res="-0.0164418" purity="0.490599" nType="0">
            <Node pos="l" depth="3" NCoef="0" IVar="3" Cut="172170" cType="1" res="0.000115138" purity="0.525631" nType="0">
              <Node pos="l" depth="4" NCoef="0" IVar="-1" Cut="0" cType="1" res="-0.0017363" purity="0.493957" nType="-99"/>
              <Node pos="r" depth="4" NCoef="0" IVar="-1" Cut="0" cType="1" res="0.002081" purity="0.568584" nType="-99"/>
            </Node>
            <Node pos="r" depth="3" NCoef="0" IVar="-1" Cut="0" cType="1" res="-0.00403287" purity="0.381061" nType="-99"/>
          </Node>
          <Node pos="r" depth="2" NCoef="0" IVar="2" Cut="17937.3" cType="1" res="0.0106018" purity="0.507674" nType="0">
            <Node pos="l" depth="3" NCoef="0" IVar="3" Cut="159589" cType="1" res="0.00346984" purity="0.473021" nType="0">
              <Node pos="l" depth="4" NCoef="0" IVar="-1" Cut="0" cType="1" res="0.00131596" purity="0.499048" nType="-99"/>
              <Node pos="r" depth="4" NCoef="0" IVar="-1" Cut="0" cType="1" res="-0.000507381" purity="0.458517" nType="-99"/>
            </Node>
            <Node pos="r" depth="3" NCoef="0" IVar="-1" Cut="0" cType="1" res="0.00236947" purity="0.739817" nType="-99"/>
          </Node>
        </Node>
        <Node pos="r" depth="1" NCoef="0" IVar="6" Cut="1.83871" cType="1" res="0.0454151" purity="0.504023" nType="0">
          <Node pos="l" depth="2" NCoef="0" IVar="4" Cut="288220" cType="1" res="0.0662944" purity="0.549523" nType="0">
            <Node pos="l" depth="3" NCoef="0" IVar="-1" Cut="0" cType="1" res="0.00202848" purity="0.555391" nType="-99"/>
            <Node pos="r" depth="3" NCoef="0" IVar="-1" Cut="0" cType="1" res="0.00394065" purity="0.540676" nType="-99"/>
          </Node>
          <Node pos="r" depth="2" NCoef="0" IVar="-1" Cut="0" cType="1" res="-0.000231148" purity="0.396383" nType="-99"/>
        </Node>
      </Node>
    </BinaryTree>
    <BinaryTree type="DecisionTree" boostWeight="1.0" itree="273">
      <Node pos="s" depth="0" NCoef="0" IVar="6" Cut="0.612997" cType="1" res="0.0116903" purity="0.506205" nType="0">
        <Node pos="l" depth="1" NCoef="0" IVar="1" Cut="110471" cType="1" res="0.0418336" purity="0.535372" nType="0">
          <Node pos="l" depth="2" NCoef="0" IVar="-1" Cut="0" cType="1" res="0.00366986" purity="0.557714" nType="-99"/>
          <Node pos="r" depth="2" NCoef="0" IVar="-1" Cut="0" cType="1" res="0.000151399" purity="0.51673" nType="-99"/>
        </Node>
        <Node pos="r" depth="1" NCoef="0" IVar="5" Cut="2.22498" cType="1" res="0.00611511" purity="0.50081" nType="0">
          <Node pos="l" depth="2" NCoef="0" IVar="3" Cut="212049" cType="1" res="-0.000431579" purity="0.502916" nType="0">
            <Node pos="l" depth="3" NCoef="0" IVar="0" Cut="173119" cType="1" res="-0.00574689" purity="0.497871" nType="0">
              <Node pos="l" depth="4" NCoef="0" IVar="-1" Cut="0" cType="1" res="-0.000648837" purity="0.46714" nType="-99"/>
              <Node pos="r" depth="4" NCoef="0" IVar="-1" Cut="0" cType="1" res="0.000633952" purity="0.585392" nType="-99"/>
            </Node>
            <Node pos="r" depth="3" NCoef="0" IVar="-1" Cut="0" cType="1" res="0.00199114" purity="0.549062" nType="-99"/>
          </Node>
          <Node pos="r" depth="2" NCoef="0" IVar="5" Cut="2.51583" cType="1" res="0.0375708" purity="0.490694" nType="0">
            <Node pos="l" depth="3" NCoef="0" IVar="-1" Cut="0" cType="1" res="0.00321551" purity="0.550384" nType="-99"/>
            <Node pos="r" depth="3" NCoef="0" IVar="-1" Cut="0" cType="1" res="0.000651349" purity="0.451679" nType="-99"/>
          </Node>
        </Node>
      </Node>
    </BinaryTree>
    <BinaryTree type="DecisionTree" boostWeight="1.0" itree="274">
      <Node pos="s" depth="0" NCoef="0" IVar="6" Cut="1.6091" cType="1" res="0.0079811" purity="0.504798" nType="0">
        <Node pos="l" depth="1" NCoef="0" IVar="1" Cut="136044" cType="1" res="0.023045" purity="0.542217" nType="0">
          <Node pos="l" depth="2" NCoef="0" IVar="1" Cut="94491.7" cType="1" res="0.0376705" purity="0.556046" nType="0">
            <Node pos="l" depth="3" NCoef="0" IVar="-1" Cut="0" cType="1" res="0.00323787" purity="0.550918" nType="-99"/>
            <Node pos="r" depth="3" NCoef="0" IVar="6" Cut="0.706286" cType="1" res="0.0298823" purity="0.557094" nType="0">
              <Node pos="l" depth="4" NCoef="0" IVar="-1" Cut="0" cType="1" res="0.000110347" purity="0.501866" nType="-99"/>
              <Node pos="r" depth="4" NCoef="0" IVar="-1" Cut="0" cType="1" res="0.00195816" purity="0.58832" nType="-99"/>
            </Node>
          </Node>
          <Node pos="r" depth="2" NCoef="0" IVar="4" Cut="275212" cType="1" res="-0.0170886" purity="0.50427" nType="0">
            <Node pos="l" depth="3" NCoef="0" IVar="-1" Cut="0" cType="1" res="0.000410346" purity="0.570885" nType="-99"/>
            <Node pos="r" depth="3" NCoef="0" IVar="-1" Cut="0" cType="1" res="-0.00230102" purity="0.432647" nType="-99"/>
          </Node>
        </Node>
        <Node pos="r" depth="1" NCoef="0" IVar="3" Cut="218000" cType="1" res="-0.00362077" purity="0.475978" nType="0">
          <Node pos="l" depth="2" NCoef="0" IVar="6" Cut="2.95473" cType="1" res="-0.0104004" purity="0.468677" nType="0">
            <Node pos="l" depth="3" NCoef="0" IVar="2" Cut="-2522.39" cType="1" res="-0.00431424" purity="0.483279" nType="0">
              <Node pos="l" depth="4" NCoef="0" IVar="-1" Cut="0" cType="1" res="0.00128899" purity="0.434109" nType="-99"/>
              <Node pos="r" depth="4" NCoef="0" IVar="-1" Cut="0" cType="1" res="-0.00100259" purity="0.511591" nType="-99"/>
            </Node>
            <Node pos="r" depth="3" NCoef="0" IVar="-1" Cut="0" cType="1" res="-0.00383777" purity="0.349398" nType="-99"/>
          </Node>
          <Node pos="r" depth="2" NCoef="0" IVar="-1" Cut="0" cType="1" res="0.00275425" purity="0.550662" nType="-99"/>
        </Node>
      </Node>
    </BinaryTree>
    <BinaryTree type="DecisionTree" boostWeight="1.0" itree="275">
      <Node pos="s" depth="0" NCoef="0" IVar="4" Cut="451257" cType="1" res="0.00244578" purity="0.499645" nType="0">
        <Node pos="l" depth="1" NCoef="0" IVar="3" Cut="118702" cType="1" res="-0.00245941" purity="0.497407" nType="0">
          <Node pos="l" depth="2" NCoef="0" IVar="-1" Cut="0" cType="1" res="-0.00343737" purity="0.423754" nType="-99"/>
          <Node pos="r" depth="2" NCoef="0" IVar="5" Cut="1.3806" cType="1" res="0.00203202" purity="0.503011" nType="0">
            <Node pos="l" depth="3" NCoef="0" IVar="4" Cut="160765" cType="1" res="0.0167759" purity="0.533702" nType="0">
              <Node pos="l" depth="4" NCoef="0" IVar="-1" Cut="0" cType="1" res="-0.00125053" purity="0.524054" nType="-99"/>
              <Node pos="r" depth="4" NCoef="0" IVar="-1" Cut="0" cType="1" res="0.00108654" purity="0.535364" nType="-99"/>
            </Node>
            <Node pos="r" depth="3" NCoef="0" IVar="2" Cut="13329.7" cType="1" res="-0.0129162" purity="0.471893" nType="0">
              <Node pos="l" depth="4" NCoef="0" IVar="-1" Cut="0" cType="1" res="-0.00127439" purity="0.430974" nType="-99"/>
              <Node pos="r" depth="4" NCoef="0" IVar="-1" Cut="0" cType="1" res="0.0011814" purity="0.618164" nType="-99"/>
            </Node>
          </Node>
        </Node>
        <Node pos="r" depth="1" NCoef="0" IVar="-1" Cut="0" cType="1" res="0.00485778" purity="0.551915" nType="-99"/>
      </Node>
    </BinaryTree>
    <BinaryTree type="DecisionTree" boostWeight="1.0" itree="276">
      <Node pos="s" depth="0" NCoef="0" IVar="0" Cut="104878" cType="1" res="0.00327123" purity="0.497746" nType="0">
        <Node pos="l" depth="1" NCoef="0" IVar="5" Cut="1.69226" cType="1" res="0.0543052" purity="0.467163" nType="0">
          <Node pos="l" depth="2" NCoef="0" IVar="-1" Cut="0" cType="1" res="0.00373357" purity="0.498875" nType="-99"/>
          <Node pos="r" depth="2" NCoef="0" IVar="-1" Cut="0" cType="1" res="0.00182268" purity="0.43686" nType="-99"/>
        </Node>
        <Node pos="r" depth="1" NCoef="0" IVar="0" Cut="157226" cType="1" res="-0.00245171" purity="0.501175" nType="0">
          <Node pos="l" depth="2" NCoef="0" IVar="6" Cut="1.22587" cType="1" res="-0.0133171" purity="0.468004" nType="0">
            <Node pos="l" depth="3" NCoef="0" IVar="4" Cut="265994" cType="1" res="0.0151331" purity="0.523623" nType="0">
              <Node pos="l" depth="4" NCoef="0" IVar="-1" Cut="0" cType="1" res="-0.000256427" purity="0.53158" nType="-99"/>
              <Node pos="r" depth="4" NCoef="0" IVar="-1" Cut="0" cType="1" res="0.00251411" purity="0.507643" nType="-99"/>
            </Node>
            <Node pos="r" depth="3" NCoef="0" IVar="2" Cut="618.675" cType="1" res="-0.028963" purity="0.437417" nType="0">
              <Node pos="l" depth="4" NCoef="0" IVar="-1" Cut="0" cType="1" res="-0.000408989" purity="0.397536" nType="-99"/>
              <Node pos="r" depth="4" NCoef="0" IVar="-1" Cut="0" cType="1" res="-0.00277922" purity="0.486682" nType="-99"/>
            </Node>
          </Node>
          <Node pos="r" depth="2" NCoef="0" IVar="6" Cut="2.75838" cType="1" res="0.0175823" purity="0.562337" nType="0">
            <Node pos="l" depth="3" NCoef="0" IVar="3" Cut="170809" cType="1" res="0.00729343" purity="0.566312" nType="0">
              <Node pos="l" depth="4" NCoef="0" IVar="-1" Cut="0" cType="1" res="-0.000739664" purity="0.550309" nType="-99"/>
              <Node pos="r" depth="4" NCoef="0" IVar="-1" Cut="0" cType="1" res="0.00131104" purity="0.582395" nType="-99"/>
            </Node>
            <Node pos="r" depth="3" NCoef="0" IVar="-1" Cut="0" cType="1" res="0.00305456" purity="0.540833" nType="-99"/>
          </Node>
        </Node>
      </Node>
    </BinaryTree>
    <BinaryTree type="DecisionTree" boostWeight="1.0" itree="277">
      <Node pos="s" depth="0" NCoef="0" IVar="2" Cut="31596.7" cType="1" res="-0.000381327" purity="0.493807" nType="0">
        <Node pos="l" depth="1" NCoef="0" IVar="3" Cut="124583" cType="1" res="-0.00433731" purity="0.479762" nType="0">
          <Node pos="l" depth="2" NCoef="0" IVar="5" Cut="1.52746" cType="1" res="0.0402861" purity="0.51675" nType="0">
            <Node pos="l" depth="3" NCoef="0" IVar="-1" Cut="0" cType="1" res="-0.000723726" purity="0.457808" nType="-99"/>
            <Node pos="r" depth="3" NCoef="0" IVar="-1" Cut="0" cType="1" res="0.00368742" purity="0.565835" nType="-99"/>
          </Node>
          <Node pos="r" depth="2" NCoef="0" IVar="2" Cut="21121.5" cType="1" res="-0.00972713" purity="0.475295" nType="0">
            <Node pos="l" depth="3" NCoef="0" IVar="6" Cut="2.91168" cType="1" res="-0.00557474" purity="0.46921" nType="0">
              <Node pos="l" depth="4" NCoef="0" IVar="-1" Cut="0" cType="1" res="-0.000488156" purity="0.472182" nType="-99"/>
              <Node pos="r" depth="4" NCoef="0" IVar="-1" Cut="0" cType="1" res="0.00179694" purity="0.442676" nType="-99"/>
            </Node>
            <Node pos="r" depth="3" NCoef="0" IVar="-1" Cut="0" cType="1" res="-0.00352343" purity="0.567606" nType="-99"/>
          </Node>
        </Node>
        <Node pos="r" depth="1" NCoef="0" IVar="-1" Cut="0" cType="1" res="0.00245416" purity="0.718558" nType="-99"/>
      </Node>
    </BinaryTree>
    <BinaryTree type="DecisionTree" boostWeight="1.0" itree="278">
      <Node pos="s" depth="0" NCoef="0" IVar="2" Cut="4368.52" cType="1" res="0.00831683" purity="0.505384" nType="0">
        <Node pos="l" depth="1" NCoef="0" IVar="3" Cut="177253" cType="1" res="-0.00813442" purity="0.420771" nType="0">
          <Node pos="l" depth="2" NCoef="0" IVar="3" Cut="165852" cType="1" res="-0.0222559" purity="0.407732" nType="0">
            <Node pos="l" depth="3" NCoef="0" IVar="6" Cut="2.07115" cType="1" res="-0.00508251" purity="0.425516" nType="0">
              <Node pos="l" depth="4" NCoef="0" IVar="-1" Cut="0" cType="1" res="-0.00247283" purity="0.379568" nType="-99"/>
              <Node pos="r" depth="4" NCoef="0" IVar="-1" Cut="0" cType="1" res="0.000816491" purity="0.450497" nType="-99"/>
            </Node>
            <Node pos="r" depth="3" NCoef="0" IVar="-1" Cut="0" cType="1" res="-0.00432697" purity="0.3574" nType="-99"/>
          </Node>
          <Node pos="r" depth="2" NCoef="0" IVar="4" Cut="247714" cType="1" res="0.0127159" purity="0.440025" nType="0">
            <Node pos="l" depth="3" NCoef="0" IVar="1" Cut="105199" cType="1" res="0.042712" purity="0.489385" nType="0">
              <Node pos="l" depth="4" NCoef="0" IVar="-1" Cut="0" cType="1" res="0.00371735" purity="0.517375" nType="-99"/>
              <Node pos="r" depth="4" NCoef="0" IVar="-1" Cut="0" cType="1" res="-0.00062994" purity="0.450134" nType="-99"/>
            </Node>
            <Node pos="r" depth="3" NCoef="0" IVar="6" Cut="2.60609" cType="1" res="-0.0246213" purity="0.378584" nType="0">
              <Node pos="l" depth="4" NCoef="0" IVar="-1" Cut="0" cType="1" res="-0.00389635" purity="0.341029" nType="-99"/>
              <Node pos="r" depth="4" NCoef="0" IVar="-1" Cut="0" cType="1" res="0.000971597" purity="0.422098" nType="-99"/>
            </Node>
          </Node>
        </Node>
        <Node pos="r" depth="1" NCoef="0" IVar="2" Cut="6704.46" cType="1" res="0.0238479" purity="0.585264" nType="0">
          <Node pos="l" depth="2" NCoef="0" IVar="-1" Cut="0" cType="1" res="0.00235353" purity="0.531411" nType="-99"/>
          <Node pos="r" depth="2" NCoef="0" IVar="1" Cut="136050" cType="1" res="0.0186066" purity="0.594733" nType="0">
            <Node pos="l" depth="3" NCoef="0" IVar="5" Cut="1.60878" cType="1" res="0.028079" purity="0.606269" nType="0">
              <Node pos="l" depth="4" NCoef="0" IVar="-1" Cut="0" cType="1" res="0.000564983" purity="0.599111" nType="-99"/>
              <Node pos="r" depth="4" NCoef="0" IVar="-1" Cut="0" cType="1" res="0.00286837" purity="0.626439" nType="-99"/>
            </Node>
            <Node pos="r" depth="3" NCoef="0" IVar="0" Cut="168279" cType="1" res="-0.00881763" purity="0.561336" nType="0">
              <Node pos="l" depth="4" NCoef="0" IVar="-1" Cut="0" cType="1" res="-0.00165832" purity="0.516079" nType="-99"/>
              <Node pos="r" depth="4" NCoef="0" IVar="-1" Cut="0" cType="1" res="0.00168048" purity="0.643121" nType="-99"/>
            </Node>
          </Node>
        </Node>
      </Node>
    </BinaryTree>
    <BinaryTree type="DecisionTree" boostWeight="1.0" itree="279">
      <Node pos="s" depth="0" NCoef="0" IVar="1" Cut="166748" cType="1" res="0.0125604" purity="0.50695" nType="0">
        <Node pos="l" depth="1" NCoef="0" IVar="4" Cut="373165" cType="1" res="0.02111" purity="0.516996" nType="0">
          <Node pos="l" depth="2" NCoef="0" IVar="1" Cut="91872.7" cType="1" res="0.0274645" purity="0.529873" nType="0">
            <Node pos="l" depth="3" NCoef="0" IVar="-1" Cut="0" cType="1" res="0.00337901" purity="0.55905" nType="-99"/>
            <Node pos="r" depth="3" NCoef="0" IVar="3" Cut="130384" cType="1" res="0.0226757" purity="0.527424" nType="0">
              <Node pos="l" depth="4" NCoef="0" IVar="-1" Cut="0" cType="1" res="0.0023306" purity="0.563771" nType="-99"/>
              <Node pos="r" depth="4" NCoef="0" IVar="-1" Cut="0" cType="1" res="0.000808386" purity="0.521702" nType="-99"/>
            </Node>
          </Node>
          <Node pos="r" depth="2" NCoef="0" IVar="-1" Cut="0" cType="1" res="-0.00259801" purity="0.384031" nType="-99"/>
        </Node>
        <Node pos="r" depth="1" NCoef="0" IVar="0" Cut="148701" cType="1" res="-0.0648505" purity="0.415992" nType="0">
          <Node pos="l" depth="2" NCoef="0" IVar="-1" Cut="0" cType="1" res="-0.00564357" purity="0.334585" nType="-99"/>
          <Node pos="r" depth="2" NCoef="0" IVar="-1" Cut="0" cType="1" res="-0.00203045" purity="0.491058" nType="-99"/>
        </Node>
      </Node>
    </BinaryTree>
    <BinaryTree type="DecisionTree" boostWeight="1.0" itree="280">
      <Node pos="s" depth="0" NCoef="0" IVar="6" Cut="0.766287" cType="1" res="-0.00192525" purity="0.494129" nType="0">
        <Node pos="l" depth="1" NCoef="0" IVar="6" Cut="0.317655" cType="1" res="-0.0369838" purity="0.460921" nType="0">
          <Node pos="l" depth="2" NCoef="0" IVar="-1" Cut="0" cType="1" res="0.00079948" purity="0.517024" nType="-99"/>
          <Node pos="r" depth="2" NCoef="0" IVar="1" Cut="120679" cType="1" res="-0.0855346" purity="0.411669" nType="0">
            <Node pos="l" depth="3" NCoef="0" IVar="-1" Cut="0" cType="1" res="-0.00618859" purity="0.373761" nType="-99"/>
            <Node pos="r" depth="3" NCoef="0" IVar="-1" Cut="0" cType="1" res="-0.0031434" purity="0.455396" nType="-99"/>
          </Node>
        </Node>
        <Node pos="r" depth="1" NCoef="0" IVar="4" Cut="373138" cType="1" res="0.00557732" purity="0.501236" nType="0">
          <Node pos="l" depth="2" NCoef="0" IVar="2" Cut="7744.28" cType="1" res="0.0120253" purity="0.515822" nType="0">
            <Node pos="l" depth="3" NCoef="0" IVar="6" Cut="1.92551" cType="1" res="-0.00219361" purity="0.441157" nType="0">
              <Node pos="l" depth="4" NCoef="0" IVar="-1" Cut="0" cType="1" res="-0.0035308" purity="0.378825" nType="-99"/>
              <Node pos="r" depth="4" NCoef="0" IVar="-1" Cut="0" cType="1" res="0.000933625" purity="0.463713" nType="-99"/>
            </Node>
            <Node pos="r" depth="3" NCoef="0" IVar="6" Cut="1.90234" cType="1" res="0.0364092" purity="0.643865" nType="0">
              <Node pos="l" depth="4" NCoef="0" IVar="-1" Cut="0" cType="1" res="0.00212669" purity="0.657769" nType="-99"/>
              <Node pos="r" depth="4" NCoef="0" IVar="-1" Cut="0" cType="1" res="-0.000358541" purity="0.606558" nType="-99"/>
            </Node>
          </Node>
          <Node pos="r" depth="2" NCoef="0" IVar="2" Cut="723.939" cType="1" res="-0.044179" purity="0.388675" nType="0">
            <Node pos="l" depth="3" NCoef="0" IVar="-1" Cut="0" cType="1" res="-0.00543029" purity="0.297935" nType="-99"/>
            <Node pos="r" depth="3" NCoef="0" IVar="-1" Cut="0" cType="1" res="-0.00060516" purity="0.483363" nType="-99"/>
          </Node>
        </Node>
      </Node>
    </BinaryTree>
    <BinaryTree type="DecisionTree" boostWeight="1.0" itree="281">
      <Node pos="s" depth="0" NCoef="0" IVar="3" Cut="217597" cType="1" res="0.00354515" purity="0.49828" nType="0">
        <Node pos="l" depth="1" NCoef="0" IVar="5" Cut="2.0744" cType="1" res="0.00793272" purity="0.50296" nType="0">
          <Node pos="l" depth="2" NCoef="0" IVar="0" Cut="104881" cType="1" res="-0.000116498" purity="0.501791" nType="0">
            <Node pos="l" depth="3" NCoef="0" IVar="-1" Cut="0" cType="1" res="-0.00220573" purity="0.386621" nType="-99"/>
            <Node pos="r" depth="3" NCoef="0" IVar="0" Cut="219091" cType="1" res="0.00308432" purity="0.511583" nType="0">
              <Node pos="l" depth="4" NCoef="0" IVar="-1" Cut="0" cType="1" res="0.000309499" purity="0.506683" nType="-99"/>
              <Node pos="r" depth="4" NCoef="0" IVar="-1" Cut="0" cType="1" res="-0.00139438" purity="0.55889" nType="-99"/>
            </Node>
          </Node>
          <Node pos="r" depth="2" NCoef="0" IVar="4" Cut="278323" cType="1" res="0.0348256" purity="0.506868" nType="0">
            <Node pos="l" depth="3" NCoef="0" IVar="0" Cut="119104" cType="1" res="0.0594531" purity="0.564191" nType="0">
              <Node pos="l" depth="4" NCoef="0" IVar="-1" Cut="0" cType="1" res="0.000968955" purity="0.490366" nType="-99"/>
              <Node pos="r" depth="4" NCoef="0" IVar="-1" Cut="0" cType="1" res="0.00397916" purity="0.638361" nType="-99"/>
            </Node>
            <Node pos="r" depth="3" NCoef="0" IVar="3" Cut="163913" cType="1" res="0.000202436" purity="0.426278" nType="0">
              <Node pos="l" depth="4" NCoef="0" IVar="-1" Cut="0" cType="1" res="0.00165609" purity="0.466697" nType="-99"/>
              <Node pos="r" depth="4" NCoef="0" IVar="-1" Cut="0" cType="1" res="-0.00228878" purity="0.379636" nType="-99"/>
            </Node>
          </Node>
        </Node>
        <Node pos="r" depth="1" NCoef="0" IVar="-1" Cut="0" cType="1" res="-0.00288969" purity="0.43449" nType="-99"/>
      </Node>
    </BinaryTree>
    <BinaryTree type="DecisionTree" boostWeight="1.0" itree="282">
      <Node pos="s" depth="0" NCoef="0" IVar="4" Cut="314631" cType="1" res="0.000896451" purity="0.496429" nType="0">
        <Node pos="l" depth="1" NCoef="0" IVar="2" Cut="-9301.36" cType="1" res="-0.00806965" purity="0.501887" nType="0">
          <Node pos="l" depth="2" NCoef="0" IVar="5" Cut="1.22681" cType="1" res="0.0454886" purity="0.451389" nType="0">
            <Node pos="l" depth="3" NCoef="0" IVar="-1" Cut="0" cType="1" res="0.00420141" purity="0.515701" nType="-99"/>
            <Node pos="r" depth="3" NCoef="0" IVar="-1" Cut="0" cType="1" res="0.000414549" purity="0.405591" nType="-99"/>
          </Node>
          <Node pos="r" depth="2" NCoef="0" IVar="2" Cut="-1309.45" cType="1" res="-0.016437" purity="0.509776" nType="0">
            <Node pos="l" depth="3" NCoef="0" IVar="5" Cut="1.25955" cType="1" res="-0.0704185" purity="0.362121" nType="0">
              <Node pos="l" depth="4" NCoef="0" IVar="-1" Cut="0" cType="1" res="-0.00912567" purity="0.304001" nType="-99"/>
              <Node pos="r" depth="4" NCoef="0" IVar="-1" Cut="0" cType="1" res="-0.00199721" purity="0.393645" nType="-99"/>
            </Node>
            <Node pos="r" depth="3" NCoef="0" IVar="3" Cut="148229" cType="1" res="-0.00471599" purity="0.541836" nType="0">
              <Node pos="l" depth="4" NCoef="0" IVar="-1" Cut="0" cType="1" res="-0.00281863" purity="0.492506" nType="-99"/>
              <Node pos="r" depth="4" NCoef="0" IVar="-1" Cut="0" cType="1" res="0.000423418" purity="0.55531" nType="-99"/>
            </Node>
          </Node>
        </Node>
        <Node pos="r" depth="1" NCoef="0" IVar="6" Cut="1.22583" cType="1" res="0.0314954" purity="0.477806" nType="0">
          <Node pos="l" depth="2" NCoef="0" IVar="-1" Cut="0" cType="1" res="0.00330779" purity="0.517555" nType="-99"/>
          <Node pos="r" depth="2" NCoef="0" IVar="2" Cut="-2824.81" cType="1" res="0.0129219" purity="0.460752" nType="0">
            <Node pos="l" depth="3" NCoef="0" IVar="-1" Cut="0" cType="1" res="-0.00165009" purity="0.350588" nType="-99"/>
            <Node pos="r" depth="3" NCoef="0" IVar="4" Cut="377952" cType="1" res="0.0428189" purity="0.544564" nType="0">
              <Node pos="l" depth="4" NCoef="0" IVar="-1" Cut="0" cType="1" res="0.000818934" purity="0.539351" nType="-99"/>
              <Node pos="r" depth="4" NCoef="0" IVar="-1" Cut="0" cType="1" res="0.00299958" purity="0.54959" nType="-99"/>
            </Node>
          </Node>
        </Node>
      </Node>
    </BinaryTree>
    <BinaryTree type="DecisionTree" boostWeight="1.0" itree="283">
      <Node pos="s" depth="0" NCoef="0" IVar="2" Cut="31665.6" cType="1" res="0.0106243" purity="0.507659" nType="0">
        <Node pos="l" depth="1" NCoef="0" IVar="1" Cut="166749" cType="1" res="0.00636988" purity="0.492371" nType="0">
          <Node pos="l" depth="2" NCoef="0" IVar="3" Cut="176841" cType="1" res="0.0116968" purity="0.500349" nType="0">
            <Node pos="l" depth="3" NCoef="0" IVar="3" Cut="165510" cType="1" res="0.0228056" purity="0.516744" nType="0">
              <Node pos="l" depth="4" NCoef="0" IVar="-1" Cut="0" cType="1" res="0.000527563" purity="0.507086" nType="-99"/>
              <Node pos="r" depth="4" NCoef="0" IVar="-1" Cut="0" cType="1" res="0.00216569" purity="0.539182" nType="-99"/>
            </Node>
            <Node pos="r" depth="3" NCoef="0" IVar="3" Cut="212531" cType="1" res="-0.00833261" purity="0.470787" nType="0">
              <Node pos="l" depth="4" NCoef="0" IVar="-1" Cut="0" cType="1" res="-0.0011784" purity="0.456773" nType="-99"/>
              <Node pos="r" depth="4" NCoef="0" IVar="-1" Cut="0" cType="1" res="0.00156152" purity="0.511973" nType="-99"/>
            </Node>
          </Node>
          <Node pos="r" depth="2" NCoef="0" IVar="4" Cut="323463" cType="1" res="-0.0395449" purity="0.423607" nType="0">
            <Node pos="l" depth="3" NCoef="0" IVar="-1" Cut="0" cType="1" res="-0.00528689" purity="0.391481" nType="-99"/>
            <Node pos="r" depth="3" NCoef="0" IVar="-1" Cut="0" cType="1" res="0.000262077" purity="0.449679" nType="-99"/>
          </Node>
        </Node>
        <Node pos="r" depth="1" NCoef="0" IVar="-1" Cut="0" cType="1" res="0.00290981" purity="0.738199" nType="-99"/>
      </Node>
    </BinaryTree>
    <BinaryTree type="DecisionTree" boostWeight="1.0" itree="284">
      <Node pos="s" depth="0" NCoef="0" IVar="4" Cut="207392" cType="1" res="0.00131411" purity="0.495956" nType="0">
        <Node pos="l" depth="1" NCoef="0" IVar="5" Cut="1.9984" cType="1" res="0.0163421" purity="0.550628" nType="0">
          <Node pos="l" depth="2" NCoef="0" IVar="1" Cut="110217" cType="1" res="0.00507186" purity="0.538553" nType="0">
            <Node pos="l" depth="3" NCoef="0" IVar="3" Cut="165666" cType="1" res="0.0196222" purity="0.523381" nType="0">
              <Node pos="l" depth="4" NCoef="0" IVar="-1" Cut="0" cType="1" res="0.00188189" purity="0.549194" nType="-99"/>
              <Node pos="r" depth="4" NCoef="0" IVar="-1" Cut="0" cType="1" res="-6.60326e-05" purity="0.500943" nType="-99"/>
            </Node>
            <Node pos="r" depth="3" NCoef="0" IVar="-1" Cut="0" cType="1" res="-0.00144729" purity="0.57704" nType="-99"/>
          </Node>
          <Node pos="r" depth="2" NCoef="0" IVar="-1" Cut="0" cType="1" res="0.00307833" purity="0.611001" nType="-99"/>
        </Node>
        <Node pos="r" depth="1" NCoef="0" IVar="4" Cut="271620" cType="1" res="-0.00963509" purity="0.456123" nType="0">
          <Node pos="l" depth="2" NCoef="0" IVar="4" Cut="246547" cType="1" res="-0.0328728" purity="0.453286" nType="0">
            <Node pos="l" depth="3" NCoef="0" IVar="3" Cut="157649" cType="1" res="-0.0123975" purity="0.483907" nType="0">
              <Node pos="l" depth="4" NCoef="0" IVar="-1" Cut="0" cType="1" res="-0.00357303" purity="0.429358" nType="-99"/>
              <Node pos="r" depth="4" NCoef="0" IVar="-1" Cut="0" cType="1" res="0.000603223" purity="0.508946" nType="-99"/>
            </Node>
            <Node pos="r" depth="3" NCoef="0" IVar="-1" Cut="0" cType="1" res="-0.00499681" purity="0.378052" nType="-99"/>
          </Node>
          <Node pos="r" depth="2" NCoef="0" IVar="4" Cut="321757" cType="1" res="0.00752681" purity="0.458219" nType="0">
            <Node pos="l" depth="3" NCoef="0" IVar="1" Cut="134760" cType="1" res="0.0361584" purity="0.505211" nType="0">
              <Node pos="l" depth="4" NCoef="0" IVar="-1" Cut="0" cType="1" res="0.00306539" purity="0.531803" nType="-99"/>
              <Node pos="r" depth="4" NCoef="0" IVar="-1" Cut="0" cType="1" res="-0.000824711" purity="0.460341" nType="-99"/>
            </Node>
            <Node pos="r" depth="3" NCoef="0" IVar="6" Cut="2.60452" cType="1" res="-0.0110925" purity="0.427659" nType="0">
              <Node pos="l" depth="4" NCoef="0" IVar="-1" Cut="0" cType="1" res="-0.0012476" purity="0.429167" nType="-99"/>
              <Node pos="r" depth="4" NCoef="0" IVar="-1" Cut="0" cType="1" res="0.00127084" purity="0.42324" nType="-99"/>
            </Node>
          </Node>
        </Node>
      </Node>
    </BinaryTree>
    <BinaryTree type="DecisionTree" boostWeight="1.0" itree="285">
      <Node pos="s" depth="0" NCoef="0" IVar="6" Cut="2.60496" cType="1" res="0.0105295" purity="0.504227" nType="0">
        <Node pos="l" depth="1" NCoef="0" IVar="0" Cut="104878" cType="1" res="0.00387084" purity="0.515959" nType="0">
          <Node pos="l" depth="2" NCoef="0" IVar="-1" Cut="0" cType="1" res="-0.0025759" purity="0.392689" nType="-99"/>
          <Node pos="r" depth="2" NCoef="0" IVar="0" Cut="128681" cType="1" res="0.00862737" purity="0.528101" nType="0">
            <Node pos="l" depth="3" NCoef="0" IVar="1" Cut="115353" cType="1" res="0.0267182" purity="0.514349" nType="0">
              <Node pos="l" depth="4" NCoef="0" IVar="-1" Cut="0" cType="1" res="0.00216903" purity="0.520565" nType="-99"/>
              <Node pos="r" depth="4" NCoef="0" IVar="-1" Cut="0" cType="1" res="-3.97403e-05" purity="0.506008" nType="-99"/>
            </Node>
            <Node pos="r" depth="3" NCoef="0" IVar="0" Cut="183002" cType="1" res="-0.00424833" purity="0.537889" nType="0">
              <Node pos="l" depth="4" NCoef="0" IVar="-1" Cut="0" cType="1" res="-0.0008842" purity="0.503664" nType="-99"/>
              <Node pos="r" depth="4" NCoef="0" IVar="-1" Cut="0" cType="1" res="0.00103777" purity="0.604409" nType="-99"/>
            </Node>
          </Node>
        </Node>
        <Node pos="r" depth="1" NCoef="0" IVar="2" Cut="-16172" cType="1" res="0.0357334" purity="0.459821" nType="0">
          <Node pos="l" depth="2" NCoef="0" IVar="-1" Cut="0" cType="1" res="0.00497241" purity="0.499729" nType="-99"/>
          <Node pos="r" depth="2" NCoef="0" IVar="4" Cut="298203" cType="1" res="0.0144814" purity="0.447859" nType="0">
            <Node pos="l" depth="3" NCoef="0" IVar="1" Cut="107080" cType="1" res="0.0327107" purity="0.473142" nType="0">
              <Node pos="l" depth="4" NCoef="0" IVar="-1" Cut="0" cType="1" res="0.000681152" purity="0.442586" nType="-99"/>
              <Node pos="r" depth="4" NCoef="0" IVar="-1" Cut="0" cType="1" res="0.00262795" purity="0.514331" nType="-99"/>
            </Node>
            <Node pos="r" depth="3" NCoef="0" IVar="-1" Cut="0" cType="1" res="-0.00214979" purity="0.379388" nType="-99"/>
          </Node>
        </Node>
      </Node>
    </BinaryTree>
    <BinaryTree type="DecisionTree" boostWeight="1.0" itree="286">
      <Node pos="s" depth="0" NCoef="0" IVar="4" Cut="431698" cType="1" res="-0.000848456" purity="0.493884" nType="0">
        <Node pos="l" depth="1" NCoef="0" IVar="6" Cut="0.613056" cType="1" res="0.00201556" purity="0.50003" nType="0">
          <Node pos="l" depth="2" NCoef="0" IVar="5" Cut="1.28353" cType="1" res="0.0303083" purity="0.527502" nType="0">
            <Node pos="l" depth="3" NCoef="0" IVar="-1" Cut="0" cType="1" res="0.00295634" purity="0.557011" nType="-99"/>
            <Node pos="r" depth="3" NCoef="0" IVar="-1" Cut="0" cType="1" res="5.08232e-05" purity="0.507518" nType="-99"/>
          </Node>
          <Node pos="r" depth="2" NCoef="0" IVar="3" Cut="176626" cType="1" res="-0.0033771" purity="0.494793" nType="0">
            <Node pos="l" depth="3" NCoef="0" IVar="3" Cut="170950" cType="1" res="-0.0144925" purity="0.490443" nType="0">
              <Node pos="l" depth="4" NCoef="0" IVar="-1" Cut="0" cType="1" res="-0.00032735" purity="0.499313" nType="-99"/>
              <Node pos="r" depth="4" NCoef="0" IVar="-1" Cut="0" cType="1" res="-0.0034788" purity="0.436295" nType="-99"/>
            </Node>
            <Node pos="r" depth="3" NCoef="0" IVar="0" Cut="119491" cType="1" res="0.0143514" purity="0.501732" nType="0">
              <Node pos="l" depth="4" NCoef="0" IVar="-1" Cut="0" cType="1" res="0.00284203" purity="0.487658" nType="-99"/>
              <Node pos="r" depth="4" NCoef="0" IVar="-1" Cut="0" cType="1" res="-0.000357177" purity="0.508842" nType="-99"/>
            </Node>
          </Node>
        </Node>
        <Node pos="r" depth="1" NCoef="0" IVar="-1" Cut="0" cType="1" res="-0.0036297" purity="0.367688" nType="-99"/>
      </Node>
    </BinaryTree>
    <BinaryTree type="DecisionTree" boostWeight="1.0" itree="287">
      <Node pos="s" depth="0" NCoef="0" IVar="3" Cut="206921" cType="1" res="0.00780775" purity="0.501291" nType="0">
        <Node pos="l" depth="1" NCoef="0" IVar="6" Cut="2.45196" cType="1" res="0.012051" purity="0.507484" nType="0">
          <Node pos="l" depth="2" NCoef="0" IVar="6" Cut="2.21271" cType="1" res="0.0189838" purity="0.536269" nType="0">
            <Node pos="l" depth="3" NCoef="0" IVar="3" Cut="171534" cType="1" res="0.0122302" purity="0.532914" nType="0">
              <Node pos="l" depth="4" NCoef="0" IVar="-1" Cut="0" cType="1" res="0.00103437" purity="0.548439" nType="-99"/>
              <Node pos="r" depth="4" NCoef="0" IVar="-1" Cut="0" cType="1" res="-0.00032931" purity="0.505374" nType="-99"/>
            </Node>
            <Node pos="r" depth="3" NCoef="0" IVar="4" Cut="227102" cType="1" res="0.0598273" purity="0.55656" nType="0">
              <Node pos="l" depth="4" NCoef="0" IVar="-1" Cut="0" cType="1" res="0.00106983" purity="0.547078" nType="-99"/>
              <Node pos="r" depth="4" NCoef="0" IVar="-1" Cut="0" cType="1" res="0.00396845" purity="0.565901" nType="-99"/>
            </Node>
          </Node>
          <Node pos="r" depth="2" NCoef="0" IVar="6" Cut="2.78846" cType="1" res="-0.00850857" purity="0.422123" nType="0">
            <Node pos="l" depth="3" NCoef="0" IVar="1" Cut="115585" cType="1" res="-0.0422519" purity="0.412367" nType="0">
              <Node pos="l" depth="4" NCoef="0" IVar="-1" Cut="0" cType="1" res="-0.00422022" purity="0.377766" nType="-99"/>
              <Node pos="r" depth="4" NCoef="0" IVar="-1" Cut="0" cType="1" res="0.000142549" purity="0.467375" nType="-99"/>
            </Node>
            <Node pos="r" depth="3" NCoef="0" IVar="2" Cut="-10170" cType="1" res="0.0224216" purity="0.431065" nType="0">
              <Node pos="l" depth="4" NCoef="0" IVar="-1" Cut="0" cType="1" res="0.00294995" purity="0.447299" nType="-99"/>
              <Node pos="r" depth="4" NCoef="0" IVar="-1" Cut="0" cType="1" res="-0.000518608" purity="0.415283" nType="-99"/>
            </Node>
          </Node>
        </Node>
        <Node pos="r" depth="1" NCoef="0" IVar="1" Cut="115512" cType="1" res="-0.0297667" purity="0.446446" nType="0">
          <Node pos="l" depth="2" NCoef="0" IVar="-1" Cut="0" cType="1" res="-0.00332021" purity="0.392776" nType="-99"/>
          <Node pos="r" depth="2" NCoef="0" IVar="-1" Cut="0" cType="1" res="8.75629e-05" purity="0.500794" nType="-99"/>
        </Node>
      </Node>
    </BinaryTree>
    <BinaryTree type="DecisionTree" boostWeight="1.0" itree="288">
      <Node pos="s" depth="0" NCoef="0" IVar="4" Cut="373113" cType="1" res="0.00639989" purity="0.50418" nType="0">
        <Node pos="l" depth="1" NCoef="0" IVar="3" Cut="112963" cType="1" res="0.0129643" purity="0.518639" nType="0">
          <Node pos="l" depth="2" NCoef="0" IVar="-1" Cut="0" cType="1" res="-0.00256182" purity="0.440859" nType="-99"/>
          <Node pos="r" depth="2" NCoef="0" IVar="3" Cut="131208" cType="1" res="0.0162327" purity="0.522806" nType="0">
            <Node pos="l" depth="3" NCoef="0" IVar="-1" Cut="0" cType="1" res="0.00338513" purity="0.601704" nType="-99"/>
            <Node pos="r" depth="3" NCoef="0" IVar="1" Cut="95116.8" cType="1" res="0.00963476" purity="0.514896" nType="0">
              <Node pos="l" depth="4" NCoef="0" IVar="-1" Cut="0" cType="1" res="0.00188815" purity="0.508569" nType="-99"/>
              <Node pos="r" depth="4" NCoef="0" IVar="-1" Cut="0" cType="1" res="0.00013478" purity="0.516251" nType="-99"/>
            </Node>
          </Node>
        </Node>
        <Node pos="r" depth="1" NCoef="0" IVar="3" Cut="159995" cType="1" res="-0.048429" purity="0.383421" nType="0">
          <Node pos="l" depth="2" NCoef="0" IVar="-1" Cut="0" cType="1" res="0.000142713" purity="0.440604" nType="-99"/>
          <Node pos="r" depth="2" NCoef="0" IVar="-1" Cut="0" cType="1" res="-0.00527159" purity="0.34613" nType="-99"/>
        </Node>
      </Node>
    </BinaryTree>
    <BinaryTree type="DecisionTree" boostWeight="1.0" itree="289">
      <Node pos="s" depth="0" NCoef="0" IVar="0" Cut="143889" cType="1" res="0.00670882" purity="0.502682" nType="0">
        <Node pos="l" depth="1" NCoef="0" IVar="3" Cut="125003" cType="1" res="0.0219814" purity="0.487467" nType="0">
          <Node pos="l" depth="2" NCoef="0" IVar="-1" Cut="0" cType="1" res="0.00330548" purity="0.538043" nType="-99"/>
          <Node pos="r" depth="2" NCoef="0" IVar="4" Cut="169088" cType="1" res="0.015733" purity="0.480931" nType="0">
            <Node pos="l" depth="3" NCoef="0" IVar="-1" Cut="0" cType="1" res="0.00225599" purity="0.574512" nType="-99"/>
            <Node pos="r" depth="3" NCoef="0" IVar="4" Cut="273986" cType="1" res="0.00716127" purity="0.459102" nType="0">
              <Node pos="l" depth="4" NCoef="0" IVar="-1" Cut="0" cType="1" res="-0.000218156" purity="0.476048" nType="-99"/>
              <Node pos="r" depth="4" NCoef="0" IVar="-1" Cut="0" cType="1" res="0.00142864" purity="0.429716" nType="-99"/>
            </Node>
          </Node>
        </Node>
        <Node pos="r" depth="1" NCoef="0" IVar="2" Cut="18005.2" cType="1" res="-0.017416" purity="0.526716" nType="0">
          <Node pos="l" depth="2" NCoef="0" IVar="2" Cut="9543.21" cType="1" res="-0.0337166" purity="0.475108" nType="0">
            <Node pos="l" depth="3" NCoef="0" IVar="1" Cut="95121.2" cType="1" res="-0.0459033" purity="0.436584" nType="0">
              <Node pos="l" depth="4" NCoef="0" IVar="-1" Cut="0" cType="1" res="-8.33774e-05" purity="0.450522" nType="-99"/>
              <Node pos="r" depth="4" NCoef="0" IVar="-1" Cut="0" cType="1" res="-0.00298614" purity="0.432834" nType="-99"/>
            </Node>
            <Node pos="r" depth="3" NCoef="0" IVar="-1" Cut="0" cType="1" res="0.000138004" purity="0.591942" nType="-99"/>
          </Node>
          <Node pos="r" depth="2" NCoef="0" IVar="-1" Cut="0" cType="1" res="0.00197372" purity="0.741627" nType="-99"/>
        </Node>
      </Node>
    </BinaryTree>
    <BinaryTree type="DecisionTree" boostWeight="1.0" itree="290">
      <Node pos="s" depth="0" NCoef="0" IVar="4" Cut="168294" cType="1" res="0.0036407" purity="0.496597" nType="0">
        <Node pos="l" depth="1" NCoef="0" IVar="6" Cut="1.53327" cType="1" res="0.0312436" purity="0.571696" nType="0">
          <Node pos="l" depth="2" NCoef="0" IVar="-1" Cut="0" cType="1" res="0.00258101" purity="0.624504" nType="-99"/>
          <Node pos="r" depth="2" NCoef="0" IVar="6" Cut="2.35788" cType="1" res="0.00271586" purity="0.526281" nType="0">
            <Node pos="l" depth="3" NCoef="0" IVar="-1" Cut="0" cType="1" res="-0.00142092" purity="0.537932" nType="-99"/>
            <Node pos="r" depth="3" NCoef="0" IVar="-1" Cut="0" cType="1" res="0.00201165" purity="0.511474" nType="-99"/>
          </Node>
        </Node>
        <Node pos="r" depth="1" NCoef="0" IVar="0" Cut="104877" cType="1" res="-0.0020537" purity="0.481104" nType="0">
          <Node pos="l" depth="2" NCoef="0" IVar="-1" Cut="0" cType="1" res="-0.00320742" purity="0.352825" nType="-99"/>
          <Node pos="r" depth="2" NCoef="0" IVar="6" Cut="2.22187" cType="1" res="0.00234847" purity="0.49321" nType="0">
            <Node pos="l" depth="3" NCoef="0" IVar="4" Cut="338151" cType="1" res="-0.013074" purity="0.502245" nType="0">
              <Node pos="l" depth="4" NCoef="0" IVar="-1" Cut="0" cType="1" res="-0.000182884" purity="0.525375" nType="-99"/>
              <Node pos="r" depth="4" NCoef="0" IVar="-1" Cut="0" cType="1" res="-0.00283229" purity="0.406026" nType="-99"/>
            </Node>
            <Node pos="r" depth="3" NCoef="0" IVar="2" Cut="-7866.6" cType="1" res="0.0269238" purity="0.478814" nType="0">
              <Node pos="l" depth="4" NCoef="0" IVar="-1" Cut="0" cType="1" res="-0.000221387" purity="0.401594" nType="-99"/>
              <Node pos="r" depth="4" NCoef="0" IVar="-1" Cut="0" cType="1" res="0.00196415" purity="0.520863" nType="-99"/>
            </Node>
          </Node>
        </Node>
      </Node>
    </BinaryTree>
    <BinaryTree type="DecisionTree" boostWeight="1.0" itree="291">
      <Node pos="s" depth="0" NCoef="0" IVar="6" Cut="0.306489" cType="1" res="0.0115451" purity="0.507259" nType="0">
        <Node pos="l" depth="1" NCoef="0" IVar="-1" Cut="0" cType="1" res="0.0029806" purity="0.571635" nType="-99"/>
        <Node pos="r" depth="1" NCoef="0" IVar="2" Cut="21365" cType="1" res="0.00555727" purity="0.501025" nType="0">
          <Node pos="l" depth="2" NCoef="0" IVar="4" Cut="431646" cType="1" res="-0.000227832" purity="0.472443" nType="0">
            <Node pos="l" depth="3" NCoef="0" IVar="2" Cut="16865.9" cType="1" res="-0.00357125" purity="0.472948" nType="0">
              <Node pos="l" depth="4" NCoef="0" IVar="-1" Cut="0" cType="1" res="-2.59246e-05" purity="0.466929" nType="-99"/>
              <Node pos="r" depth="4" NCoef="0" IVar="-1" Cut="0" cType="1" res="-0.00254191" purity="0.572839" nType="-99"/>
            </Node>
            <Node pos="r" depth="3" NCoef="0" IVar="-1" Cut="0" cType="1" res="0.00304838" purity="0.463378" nType="-99"/>
          </Node>
          <Node pos="r" depth="2" NCoef="0" IVar="6" Cut="1.4124" cType="1" res="0.046463" purity="0.703123" nType="0">
            <Node pos="l" depth="3" NCoef="0" IVar="-1" Cut="0" cType="1" res="0.000247745" purity="0.630694" nType="-99"/>
            <Node pos="r" depth="3" NCoef="0" IVar="-1" Cut="0" cType="1" res="0.0033832" purity="0.775186" nType="-99"/>
          </Node>
        </Node>
      </Node>
    </BinaryTree>
    <BinaryTree type="DecisionTree" boostWeight="1.0" itree="292">
      <Node pos="s" depth="0" NCoef="0" IVar="3" Cut="224434" cType="1" res="0.00997415" purity="0.506131" nType="0">
        <Node pos="l" depth="1" NCoef="0" IVar="0" Cut="134149" cType="1" res="0.00550789" purity="0.503403" nType="0">
          <Node pos="l" depth="2" NCoef="0" IVar="1" Cut="95115.4" cType="1" res="-0.00675023" purity="0.456542" nType="0">
            <Node pos="l" depth="3" NCoef="0" IVar="-1" Cut="0" cType="1" res="0.00220155" purity="0.482596" nType="-99"/>
            <Node pos="r" depth="3" NCoef="0" IVar="4" Cut="266232" cType="1" res="-0.0164315" purity="0.451663" nType="0">
              <Node pos="l" depth="4" NCoef="0" IVar="-1" Cut="0" cType="1" res="-0.00168899" purity="0.466969" nType="-99"/>
              <Node pos="r" depth="4" NCoef="0" IVar="-1" Cut="0" cType="1" res="0.0009205" purity="0.42106" nType="-99"/>
            </Node>
          </Node>
          <Node pos="r" depth="2" NCoef="0" IVar="0" Cut="154376" cType="1" res="0.0178867" purity="0.550725" nType="0">
            <Node pos="l" depth="3" NCoef="0" IVar="5" Cut="1.23738" cType="1" res="0.0537802" purity="0.559783" nType="0">
              <Node pos="l" depth="4" NCoef="0" IVar="-1" Cut="0" cType="1" res="0.000569394" purity="0.506102" nType="-99"/>
              <Node pos="r" depth="4" NCoef="0" IVar="-1" Cut="0" cType="1" res="0.00317749" purity="0.592183" nType="-99"/>
            </Node>
            <Node pos="r" depth="3" NCoef="0" IVar="1" Cut="100240" cType="1" res="-0.00324649" purity="0.545392" nType="0">
              <Node pos="l" depth="4" NCoef="0" IVar="-1" Cut="0" cType="1" res="-0.00271068" purity="0.457065" nType="-99"/>
              <Node pos="r" depth="4" NCoef="0" IVar="-1" Cut="0" cType="1" res="0.000753493" purity="0.582386" nType="-99"/>
            </Node>
          </Node>
        </Node>
        <Node pos="r" depth="1" NCoef="0" IVar="-1" Cut="0" cType="1" res="0.00321592" purity="0.546825" nType="-99"/>
      </Node>
    </BinaryTree>
    <BinaryTree type="DecisionTree" boostWeight="1.0" itree="293">
      <Node pos="s" depth="0" NCoef="0" IVar="0" Cut="158521" cType="1" res="0.00215136" purity="0.49588" nType="0">
        <Node pos="l" depth="1" NCoef="0" IVar="0" Cut="105712" cType="1" res="0.0109735" purity="0.482699" nType="0">
          <Node pos="l" depth="2" NCoef="0" IVar="5" Cut="1.7235" cType="1" res="-0.0372813" purity="0.374569" nType="0">
            <Node pos="l" depth="3" NCoef="0" IVar="-1" Cut="0" cType="1" res="-0.00466691" purity="0.351208" nType="-99"/>
            <Node pos="r" depth="3" NCoef="0" IVar="-1" Cut="0" cType="1" res="-0.000125889" purity="0.397185" nType="-99"/>
          </Node>
          <Node pos="r" depth="2" NCoef="0" IVar="6" Cut="2.60496" cType="1" res="0.0190683" purity="0.500838" nType="0">
            <Node pos="l" depth="3" NCoef="0" IVar="6" Cut="1.4613" cType="1" res="0.0117113" purity="0.513127" nType="0">
              <Node pos="l" depth="4" NCoef="0" IVar="-1" Cut="0" cType="1" res="0.00134276" purity="0.543745" nType="-99"/>
              <Node pos="r" depth="4" NCoef="0" IVar="-1" Cut="0" cType="1" res="-0.000401979" purity="0.480367" nType="-99"/>
            </Node>
            <Node pos="r" depth="3" NCoef="0" IVar="0" Cut="130181" cType="1" res="0.0492887" purity="0.450356" nType="0">
              <Node pos="l" depth="4" NCoef="0" IVar="-1" Cut="0" cType="1" res="0.000413236" purity="0.393299" nType="-99"/>
              <Node pos="r" depth="4" NCoef="0" IVar="-1" Cut="0" cType="1" res="0.00441159" purity="0.517985" nType="-99"/>
            </Node>
          </Node>
        </Node>
        <Node pos="r" depth="1" NCoef="0" IVar="0" Cut="175770" cType="1" res="-0.0197231" purity="0.528563" nType="0">
          <Node pos="l" depth="2" NCoef="0" IVar="-1" Cut="0" cType="1" res="-0.00461658" purity="0.423903" nType="-99"/>
          <Node pos="r" depth="2" NCoef="0" IVar="6" Cut="1.91505" cType="1" res="0.00339018" purity="0.565864" nType="0">
            <Node pos="l" depth="3" NCoef="0" IVar="2" Cut="10519.9" cType="1" res="-0.0344675" purity="0.53972" nType="0">
              <Node pos="l" depth="4" NCoef="0" IVar="-1" Cut="0" cType="1" res="-0.00305298" purity="0.435413" nType="-99"/>
              <Node pos="r" depth="4" NCoef="0" IVar="-1" Cut="0" cType="1" res="-0.000442949" purity="0.635621" nType="-99"/>
            </Node>
            <Node pos="r" depth="3" NCoef="0" IVar="6" Cut="2.36344" cType="1" res="0.028382" purity="0.583123" nType="0">
              <Node pos="l" depth="4" NCoef="0" IVar="-1" Cut="0" cType="1" res="0.00285606" purity="0.658839" nType="-99"/>
              <Node pos="r" depth="4" NCoef="0" IVar="-1" Cut="0" cType="1" res="-0.000137137" purity="0.526133" nType="-99"/>
            </Node>
          </Node>
        </Node>
      </Node>
    </BinaryTree>
    <BinaryTree type="DecisionTree" boostWeight="1.0" itree="294">
      <Node pos="s" depth="0" NCoef="0" IVar="3" Cut="118964" cType="1" res="0.00620216" purity="0.502043" nType="0">
        <Node pos="l" depth="1" NCoef="0" IVar="-1" Cut="0" cType="1" res="-0.00199213" purity="0.445863" nType="-99"/>
        <Node pos="r" depth="1" NCoef="0" IVar="6" Cut="0.613004" cType="1" res="0.009631" purity="0.506479" nType="0">
          <Node pos="l" depth="2" NCoef="0" IVar="5" Cut="1.28465" cType="1" res="-0.0217099" purity="0.472856" nType="0">
            <Node pos="l" depth="3" NCoef="0" IVar="-1" Cut="0" cType="1" res="0.000795571" purity="0.502796" nType="-99"/>
            <Node pos="r" depth="3" NCoef="0" IVar="-1" Cut="0" cType="1" res="-0.00244214" purity="0.451425" nType="-99"/>
          </Node>
          <Node pos="r" depth="2" NCoef="0" IVar="6" Cut="2.95637" cType="1" res="0.0145317" purity="0.511736" nType="0">
            <Node pos="l" depth="3" NCoef="0" IVar="5" Cut="1.07441" cType="1" res="0.0181753" purity="0.521935" nType="0">
              <Node pos="l" depth="4" NCoef="0" IVar="-1" Cut="0" cType="1" res="-7.34076e-06" purity="0.539682" nType="-99"/>
              <Node pos="r" depth="4" NCoef="0" IVar="-1" Cut="0" cType="1" res="0.00117441" purity="0.514835" nType="-99"/>
            </Node>
            <Node pos="r" depth="3" NCoef="0" IVar="-1" Cut="0" cType="1" res="-0.00170638" purity="0.386883" nType="-99"/>
          </Node>
        </Node>
      </Node>
    </BinaryTree>
    <BinaryTree type="DecisionTree" boostWeight="1.0" itree="295">
      <Node pos="s" depth="0" NCoef="0" IVar="3" Cut="153784" cType="1" res="-0.00132586" purity="0.493509" nType="0">
        <Node pos="l" depth="1" NCoef="0" IVar="2" Cut="-5858.61" cType="1" res="-0.0197596" purity="0.48006" nType="0">
          <Node pos="l" depth="2" NCoef="0" IVar="-1" Cut="0" cType="1" res="-0.0052925" purity="0.321362" nType="-99"/>
          <Node pos="r" depth="2" NCoef="0" IVar="2" Cut="7042.15" cType="1" res="-0.00597519" purity="0.518426" nType="0">
            <Node pos="l" depth="3" NCoef="0" IVar="6" Cut="1.83805" cType="1" res="0.0252474" purity="0.481527" nType="0">
              <Node pos="l" depth="4" NCoef="0" IVar="-1" Cut="0" cType="1" res="-0.000184785" purity="0.439547" nType="-99"/>
              <Node pos="r" depth="4" NCoef="0" IVar="-1" Cut="0" cType="1" res="0.00209259" purity="0.512566" nType="-99"/>
            </Node>
            <Node pos="r" depth="3" NCoef="0" IVar="5" Cut="1.54485" cType="1" res="-0.0333991" purity="0.550835" nType="0">
              <Node pos="l" depth="4" NCoef="0" IVar="-1" Cut="0" cType="1" res="-0.00281496" purity="0.541896" nType="-99"/>
              <Node pos="r" depth="4" NCoef="0" IVar="-1" Cut="0" cType="1" res="-4.37105e-05" purity="0.561886" nType="-99"/>
            </Node>
          </Node>
        </Node>
        <Node pos="r" depth="1" NCoef="0" IVar="0" Cut="104877" cType="1" res="0.00615557" purity="0.498966" nType="0">
          <Node pos="l" depth="2" NCoef="0" IVar="-1" Cut="0" cType="1" res="-0.00315175" purity="0.356093" nType="-99"/>
          <Node pos="r" depth="2" NCoef="0" IVar="6" Cut="2.60521" cType="1" res="0.0111098" purity="0.511715" nType="0">
            <Node pos="l" depth="3" NCoef="0" IVar="6" Cut="1.90597" cType="1" res="0.00245497" purity="0.521756" nType="0">
              <Node pos="l" depth="4" NCoef="0" IVar="-1" Cut="0" cType="1" res="0.000719283" purity="0.542833" nType="-99"/>
              <Node pos="r" depth="4" NCoef="0" IVar="-1" Cut="0" cType="1" res="-0.00113415" purity="0.482591" nType="-99"/>
            </Node>
            <Node pos="r" depth="3" NCoef="0" IVar="6" Cut="2.7753" cType="1" res="0.0420643" purity="0.475802" nType="0">
              <Node pos="l" depth="4" NCoef="0" IVar="-1" Cut="0" cType="1" res="0.00388793" purity="0.54817" nType="-99"/>
              <Node pos="r" depth="4" NCoef="0" IVar="-1" Cut="0" cType="1" res="0.000611723" purity="0.433051" nType="-99"/>
            </Node>
          </Node>
        </Node>
      </Node>
    </BinaryTree>
    <BinaryTree type="DecisionTree" boostWeight="1.0" itree="296">
      <Node pos="s" depth="0" NCoef="0" IVar="3" Cut="171186" cType="1" res="0.0100018" purity="0.503548" nType="0">
        <Node pos="l" depth="1" NCoef="0" IVar="2" Cut="11200.6" cType="1" res="0.0238983" purity="0.522023" nType="0">
          <Node pos="l" depth="2" NCoef="0" IVar="2" Cut="2455.59" cType="1" res="0.0349977" purity="0.483952" nType="0">
            <Node pos="l" depth="3" NCoef="0" IVar="4" Cut="296646" cType="1" res="0.0168174" purity="0.436143" nType="0">
              <Node pos="l" depth="4" NCoef="0" IVar="-1" Cut="0" cType="1" res="0.0015615" purity="0.466135" nType="-99"/>
              <Node pos="r" depth="4" NCoef="0" IVar="-1" Cut="0" cType="1" res="-0.00147165" purity="0.359216" nType="-99"/>
            </Node>
            <Node pos="r" depth="3" NCoef="0" IVar="5" Cut="1.26263" cType="1" res="0.0625593" purity="0.556432" nType="0">
              <Node pos="l" depth="4" NCoef="0" IVar="-1" Cut="0" cType="1" res="0.00376539" purity="0.593431" nType="-99"/>
              <Node pos="r" depth="4" NCoef="0" IVar="-1" Cut="0" cType="1" res="0.00154457" purity="0.528184" nType="-99"/>
            </Node>
          </Node>
          <Node pos="r" depth="2" NCoef="0" IVar="3" Cut="150609" cType="1" res="-0.0018279" purity="0.610264" nType="0">
            <Node pos="l" depth="3" NCoef="0" IVar="-1" Cut="0" cType="1" res="-0.00121479" purity="0.577773" nType="-99"/>
            <Node pos="r" depth="3" NCoef="0" IVar="-1" Cut="0" cType="1" res="0.000927833" purity="0.642545" nType="-99"/>
          </Node>
        </Node>
        <Node pos="r" depth="1" NCoef="0" IVar="0" Cut="163411" cType="1" res="-0.00677992" purity="0.481236" nType="0">
          <Node pos="l" depth="2" NCoef="0" IVar="4" Cut="294990" cType="1" res="-0.0238513" purity="0.437142" nType="0">
            <Node pos="l" depth="3" NCoef="0" IVar="1" Cut="107564" cType="1" res="-0.0453345" purity="0.437397" nType="0">
              <Node pos="l" depth="4" NCoef="0" IVar="-1" Cut="0" cType="1" res="-0.0010274" purity="0.443401" nType="-99"/>
              <Node pos="r" depth="4" NCoef="0" IVar="-1" Cut="0" cType="1" res="-0.00372655" purity="0.431352" nType="-99"/>
            </Node>
            <Node pos="r" depth="3" NCoef="0" IVar="0" Cut="124737" cType="1" res="0.030205" purity="0.436501" nType="0">
              <Node pos="l" depth="4" NCoef="0" IVar="-1" Cut="0" cType="1" res="0.0036113" purity="0.442396" nType="-99"/>
              <Node pos="r" depth="4" NCoef="0" IVar="-1" Cut="0" cType="1" res="-0.000971837" purity="0.429275" nType="-99"/>
            </Node>
          </Node>
          <Node pos="r" depth="2" NCoef="0" IVar="4" Cut="256658" cType="1" res="0.0331305" purity="0.584321" nType="0">
            <Node pos="l" depth="3" NCoef="0" IVar="-1" Cut="0" cType="1" res="0.00203014" purity="0.625338" nType="-99"/>
            <Node pos="r" depth="3" NCoef="0" IVar="-1" Cut="0" cType="1" res="0.000380989" purity="0.529964" nType="-99"/>
          </Node>
        </Node>
      </Node>
    </BinaryTree>
    <BinaryTree type="DecisionTree" boostWeight="1.0" itree="297">
      <Node pos="s" depth="0" NCoef="0" IVar="2" Cut="-19655.9" cType="1" res="0.00136459" purity="0.496492" nType="0">
        <Node pos="l" depth="1" NCoef="0" IVar="-1" Cut="0" cType="1" res="-0.00709181" purity="0.292404" nType="-99"/>
        <Node pos="r" depth="1" NCoef="0" IVar="6" Cut="2.52831" cType="1" res="0.00553799" purity="0.505161" nType="0">
          <Node pos="l" depth="2" NCoef="0" IVar="2" Cut="-5179.14" cType="1" res="0.0105921" purity="0.527016" nType="0">
            <Node pos="l" depth="3" NCoef="0" IVar="-1" Cut="0" cType="1" res="0.00275239" purity="0.439665" nType="-99"/>
            <Node pos="r" depth="3" NCoef="0" IVar="4" Cut="334102" cType="1" res="0.00624452" purity="0.536058" nType="0">
              <Node pos="l" depth="4" NCoef="0" IVar="-1" Cut="0" cType="1" res="0.000489716" purity="0.551314" nType="-99"/>
              <Node pos="r" depth="4" NCoef="0" IVar="-1" Cut="0" cType="1" res="-0.00105992" purity="0.451359" nType="-99"/>
            </Node>
          </Node>
          <Node pos="r" depth="2" NCoef="0" IVar="3" Cut="170718" cType="1" res="-0.0151444" purity="0.415726" nType="0">
            <Node pos="l" depth="3" NCoef="0" IVar="3" Cut="149185" cType="1" res="-0.0506552" purity="0.381697" nType="0">
              <Node pos="l" depth="4" NCoef="0" IVar="-1" Cut="0" cType="1" res="-0.000582035" purity="0.419894" nType="-99"/>
              <Node pos="r" depth="4" NCoef="0" IVar="-1" Cut="0" cType="1" res="-0.00535468" purity="0.349633" nType="-99"/>
            </Node>
            <Node pos="r" depth="3" NCoef="0" IVar="2" Cut="-4289.95" cType="1" res="0.0163123" purity="0.44587" nType="0">
              <Node pos="l" depth="4" NCoef="0" IVar="-1" Cut="0" cType="1" res="0.00251781" purity="0.456101" nType="-99"/>
              <Node pos="r" depth="4" NCoef="0" IVar="-1" Cut="0" cType="1" res="-0.00170352" purity="0.430958" nType="-99"/>
            </Node>
          </Node>
        </Node>
      </Node>
    </BinaryTree>
    <BinaryTree type="DecisionTree" boostWeight="1.0" itree="298">
      <Node pos="s" depth="0" NCoef="0" IVar="1" Cut="161681" cType="1" res="0.00996668" purity="0.506007" nType="0">
        <Node pos="l" depth="1" NCoef="0" IVar="4" Cut="304925" cType="1" res="0.00447361" purity="0.502729" nType="0">
          <Node pos="l" depth="2" NCoef="0" IVar="2" Cut="-9516.95" cType="1" res="0.0127393" purity="0.523781" nType="0">
            <Node pos="l" depth="3" NCoef="0" IVar="4" Cut="217395" cType="1" res="0.0495948" purity="0.450478" nType="0">
              <Node pos="l" depth="4" NCoef="0" IVar="-1" Cut="0" cType="1" res="0.00391548" purity="0.494689" nType="-99"/>
              <Node pos="r" depth="4" NCoef="0" IVar="-1" Cut="0" cType="1" res="0.000697683" purity="0.404125" nType="-99"/>
            </Node>
            <Node pos="r" depth="3" NCoef="0" IVar="6" Cut="2.68178" cType="1" res="0.0073854" purity="0.53443" nType="0">
              <Node pos="l" depth="4" NCoef="0" IVar="-1" Cut="0" cType="1" res="0.000605153" purity="0.550126" nType="-99"/>
              <Node pos="r" depth="4" NCoef="0" IVar="-1" Cut="0" cType="1" res="-0.00277994" purity="0.38987" nType="-99"/>
            </Node>
          </Node>
          <Node pos="r" depth="2" NCoef="0" IVar="5" Cut="1.15022" cType="1" res="-0.0306802" purity="0.413192" nType="0">
            <Node pos="l" depth="3" NCoef="0" IVar="5" Cut="0.814054" cType="1" res="0.0107576" purity="0.480929" nType="0">
              <Node pos="l" depth="4" NCoef="0" IVar="-1" Cut="0" cType="1" res="0.00218772" purity="0.554746" nType="-99"/>
              <Node pos="r" depth="4" NCoef="0" IVar="-1" Cut="0" cType="1" res="-0.00141775" purity="0.413251" nType="-99"/>
            </Node>
            <Node pos="r" depth="3" NCoef="0" IVar="4" Cut="352504" cType="1" res="-0.0730979" purity="0.343852" nType="0">
              <Node pos="l" depth="4" NCoef="0" IVar="-1" Cut="0" cType="1" res="-0.0016766" purity="0.411015" nType="-99"/>
              <Node pos="r" depth="4" NCoef="0" IVar="-1" Cut="0" cType="1" res="-0.00900754" purity="0.279243" nType="-99"/>
            </Node>
          </Node>
        </Node>
        <Node pos="r" depth="1" NCoef="0" IVar="6" Cut="1.07174" cType="1" res="0.044607" purity="0.526678" nType="0">
          <Node pos="l" depth="2" NCoef="0" IVar="-1" Cut="0" cType="1" res="-0.000971835" purity="0.458226" nType="-99"/>
          <Node pos="r" depth="2" NCoef="0" IVar="1" Cut="202139" cType="1" res="0.0739329" purity="0.557379" nType="0">
            <Node pos="l" depth="3" NCoef="0" IVar="-1" Cut="0" cType="1" res="0.00175993" purity="0.531911" nType="-99"/>
            <Node pos="r" depth="3" NCoef="0" IVar="-1" Cut="0" cType="1" res="0.00487048" purity="0.591533" nType="-99"/>
          </Node>
        </Node>
      </Node>
    </BinaryTree>
    <BinaryTree type="DecisionTree" boostWeight="1.0" itree="299">
      <Node pos="s" depth="0" NCoef="0" IVar="4" Cut="431709" cType="1" res="0.0110734" purity="0.503523" nType="0">
        <Node pos="l" depth="1" NCoef="0" IVar="4" Cut="180956" cType="1" res="0.0145066" purity="0.510061" nType="0">
          <Node pos="l" depth="2" NCoef="0" IVar="3" Cut="177417" cType="1" res="-0.010522" purity="0.532738" nType="0">
            <Node pos="l" depth="3" NCoef="0" IVar="6" Cut="1.83949" cType="1" res="0.00956662" purity="0.559861" nType="0">
              <Node pos="l" depth="4" NCoef="0" IVar="-1" Cut="0" cType="1" res="0.00159737" purity="0.608987" nType="-99"/>
              <Node pos="r" depth="4" NCoef="0" IVar="-1" Cut="0" cType="1" res="-0.00135463" purity="0.494261" nType="-99"/>
            </Node>
            <Node pos="r" depth="3" NCoef="0" IVar="-1" Cut="0" cType="1" res="-0.00269678" purity="0.475414" nType="-99"/>
          </Node>
          <Node pos="r" depth="2" NCoef="0" IVar="3" Cut="130595" cType="1" res="0.0228879" purity="0.502467" nType="0">
            <Node pos="l" depth="3" NCoef="0" IVar="2" Cut="4904.81" cType="1" res="0.0602031" purity="0.539075" nType="0">
              <Node pos="l" depth="4" NCoef="0" IVar="-1" Cut="0" cType="1" res="0.00415096" purity="0.521254" nType="-99"/>
              <Node pos="r" depth="4" NCoef="0" IVar="-1" Cut="0" cType="1" res="0.000479471" purity="0.563028" nType="-99"/>
            </Node>
            <Node pos="r" depth="3" NCoef="0" IVar="0" Cut="221911" cType="1" res="0.016715" purity="0.496411" nType="0">
              <Node pos="l" depth="4" NCoef="0" IVar="-1" Cut="0" cType="1" res="0.00100885" purity="0.493741" nType="-99"/>
              <Node pos="r" depth="4" NCoef="0" IVar="-1" Cut="0" cType="1" res="-0.00227482" purity="0.533605" nType="-99"/>
            </Node>
          </Node>
        </Node>
        <Node pos="r" depth="1" NCoef="0" IVar="-1" Cut="0" cType="1" res="-0.00386462" purity="0.360942" nType="-99"/>
      </Node>
    </BinaryTree>
    <BinaryTree type="DecisionTree" boostWeight="1.0" itree="300">
      <Node pos="s" depth="0" NCoef="0" IVar="5" Cut="2.60584" cType="1" res="0.00365591" purity="0.497392" nType="0">
        <Node pos="l" depth="1" NCoef="0" IVar="4" Cut="402383" cType="1" res="0.00791832" purity="0.506004" nType="0">
          <Node pos="l" depth="2" NCoef="0" IVar="6" Cut="0.459755" cType="1" res="0.00433627" purity="0.508246" nType="0">
            <Node pos="l" depth="3" NCoef="0" IVar="-1" Cut="0" cType="1" res="-0.00190106" purity="0.460504" nType="-99"/>
            <Node pos="r" depth="3" NCoef="0" IVar="3" Cut="118739" cType="1" res="0.00907586" purity="0.513429" nType="0">
              <Node pos="l" depth="4" NCoef="0" IVar="-1" Cut="0" cType="1" res="-0.00197539" purity="0.44184" nType="-99"/>
              <Node pos="r" depth="4" NCoef="0" IVar="-1" Cut="0" cType="1" res="0.000564115" purity="0.518358" nType="-99"/>
            </Node>
          </Node>
          <Node pos="r" depth="2" NCoef="0" IVar="-1" Cut="0" cType="1" res="0.00236144" purity="0.480191" nType="-99"/>
        </Node>
        <Node pos="r" depth="1" NCoef="0" IVar="6" Cut="1.30244" cType="1" res="-0.0390891" purity="0.411022" nType="0">
          <Node pos="l" depth="2" NCoef="0" IVar="-1" Cut="0" cType="1" res="-0.00355602" purity="0.427892" nType="-99"/>
          <Node pos="r" depth="2" NCoef="0" IVar="-1" Cut="0" cType="1" res="-0.000624815" purity="0.39363" nType="-99"/>
        </Node>
      </Node>
    </BinaryTree>
    <BinaryTree type="DecisionTree" boostWeight="1.0" itree="301">
      <Node pos="s" depth="0" NCoef="0" IVar="1" Cut="100236" cType="1" res="-0.00128926" purity="0.493398" nType="0">
        <Node pos="l" depth="1" NCoef="0" IVar="2" Cut="-4228.79" cType="1" res="0.0202344" purity="0.484329" nType="0">
          <Node pos="l" depth="2" NCoef="0" IVar="-1" Cut="0" cType="1" res="0.00318804" purity="0.444963" nType="-99"/>
          <Node pos="r" depth="2" NCoef="0" IVar="5" Cut="1.24101" cType="1" res="0.00617948" purity="0.4978" nType="0">
            <Node pos="l" depth="3" NCoef="0" IVar="0" Cut="129283" cType="1" res="0.0216903" purity="0.522819" nType="0">
              <Node pos="l" depth="4" NCoef="0" IVar="-1" Cut="0" cType="1" res="0.00250236" purity="0.530541" nType="-99"/>
              <Node pos="r" depth="4" NCoef="0" IVar="-1" Cut="0" cType="1" res="0.000163449" purity="0.518885" nType="-99"/>
            </Node>
            <Node pos="r" depth="3" NCoef="0" IVar="-1" Cut="0" cType="1" res="-0.00135641" purity="0.444951" nType="-99"/>
          </Node>
        </Node>
        <Node pos="r" depth="1" NCoef="0" IVar="6" Cut="2.68183" cType="1" res="-0.0105702" purity="0.497309" nType="0">
          <Node pos="l" depth="2" NCoef="0" IVar="6" Cut="2.15823" cType="1" res="-0.000999573" purity="0.521566" nType="0">
            <Node pos="l" depth="3" NCoef="0" IVar="6" Cut="1.42112" cType="1" res="-0.0122021" purity="0.521421" nType="0">
              <Node pos="l" depth="4" NCoef="0" IVar="-1" Cut="0" cType="1" res="0.000310528" purity="0.53276" nType="-99"/>
              <Node pos="r" depth="4" NCoef="0" IVar="-1" Cut="0" cType="1" res="-0.0021298" purity="0.503403" nType="-99"/>
            </Node>
            <Node pos="r" depth="3" NCoef="0" IVar="0" Cut="158520" cType="1" res="0.0314591" purity="0.521989" nType="0">
              <Node pos="l" depth="4" NCoef="0" IVar="-1" Cut="0" cType="1" res="0.00239988" purity="0.509504" nType="-99"/>
              <Node pos="r" depth="4" NCoef="0" IVar="-1" Cut="0" cType="1" res="-0.000886816" purity="0.55075" nType="-99"/>
            </Node>
          </Node>
          <Node pos="r" depth="2" NCoef="0" IVar="6" Cut="2.88374" cType="1" res="-0.0697052" purity="0.34743" nType="0">
            <Node pos="l" depth="3" NCoef="0" IVar="-1" Cut="0" cType="1" res="-0.0100049" purity="0.290915" nType="-99"/>
            <Node pos="r" depth="3" NCoef="0" IVar="-1" Cut="0" cType="1" res="-0.00105284" purity="0.389845" nType="-99"/>
          </Node>
        </Node>
      </Node>
    </BinaryTree>
    <BinaryTree type="DecisionTree" boostWeight="1.0" itree="302">
      <Node pos="s" depth="0" NCoef="0" IVar="4" Cut="236585" cType="1" res="0.0134206" purity="0.508492" nType="0">
        <Node pos="l" depth="1" NCoef="0" IVar="1" Cut="127273" cType="1" res="0.0035937" purity="0.52897" nType="0">
          <Node pos="l" depth="2" NCoef="0" IVar="4" Cut="219886" cType="1" res="-0.00754549" purity="0.50444" nType="0">
            <Node pos="l" depth="3" NCoef="0" IVar="1" Cut="107266" cType="1" res="-0.00110023" purity="0.515662" nType="0">
              <Node pos="l" depth="4" NCoef="0" IVar="-1" Cut="0" cType="1" res="0.000516561" purity="0.507764" nType="-99"/>
              <Node pos="r" depth="4" NCoef="0" IVar="-1" Cut="0" cType="1" res="-0.00119851" purity="0.531489" nType="-99"/>
            </Node>
            <Node pos="r" depth="3" NCoef="0" IVar="-1" Cut="0" cType="1" res="-0.00379509" purity="0.398326" nType="-99"/>
          </Node>
          <Node pos="r" depth="2" NCoef="0" IVar="-1" Cut="0" cType="1" res="0.00198863" purity="0.630555" nType="-99"/>
        </Node>
        <Node pos="r" depth="1" NCoef="0" IVar="1" Cut="130965" cType="1" res="0.0250199" purity="0.48432" nType="0">
          <Node pos="l" depth="2" NCoef="0" IVar="1" Cut="118970" cType="1" res="0.0467622" purity="0.495255" nType="0">
            <Node pos="l" depth="3" NCoef="0" IVar="0" Cut="119491" cType="1" res="0.034879" purity="0.475581" nType="0">
              <Node pos="l" depth="4" NCoef="0" IVar="-1" Cut="0" cType="1" res="-0.00177092" purity="0.353995" nType="-99"/>
              <Node pos="r" depth="4" NCoef="0" IVar="-1" Cut="0" cType="1" res="0.0027946" purity="0.526988" nType="-99"/>
            </Node>
            <Node pos="r" depth="3" NCoef="0" IVar="-1" Cut="0" cType="1" res="0.00382829" purity="0.573997" nType="-99"/>
          </Node>
          <Node pos="r" depth="2" NCoef="0" IVar="5" Cut="2.27704" cType="1" res="-0.00681686" purity="0.468307" nType="0">
            <Node pos="l" depth="3" NCoef="0" IVar="6" Cut="1.76325" cType="1" res="-0.0386413" purity="0.469516" nType="0">
              <Node pos="l" depth="4" NCoef="0" IVar="-1" Cut="0" cType="1" res="-0.00446809" purity="0.434198" nType="-99"/>
              <Node pos="r" depth="4" NCoef="0" IVar="-1" Cut="0" cType="1" res="-0.000244427" purity="0.494744" nType="-99"/>
            </Node>
            <Node pos="r" depth="3" NCoef="0" IVar="3" Cut="170868" cType="1" res="0.028419" purity="0.46697" nType="0">
              <Node pos="l" depth="4" NCoef="0" IVar="-1" Cut="0" cType="1" res="0.000176938" purity="0.444283" nType="-99"/>
              <Node pos="r" depth="4" NCoef="0" IVar="-1" Cut="0" cType="1" res="0.00259149" purity="0.492703" nType="-99"/>
            </Node>
          </Node>
        </Node>
      </Node>
    </BinaryTree>
    <BinaryTree type="DecisionTree" boostWeight="1.0" itree="303">
      <Node pos="s" depth="0" NCoef="0" IVar="0" Cut="109753" cType="1" res="0.00060649" purity="0.495646" nType="0">
        <Node pos="l" depth="1" NCoef="0" IVar="6" Cut="1.37894" cType="1" res="0.0296949" purity="0.463305" nType="0">
          <Node pos="l" depth="2" NCoef="0" IVar="-1" Cut="0" cType="1" res="-0.000956455" purity="0.444953" nType="-99"/>
          <Node pos="r" depth="2" NCoef="0" IVar="3" Cut="166812" cType="1" res="0.0588688" purity="0.474284" nType="0">
            <Node pos="l" depth="3" NCoef="0" IVar="-1" Cut="0" cType="1" res="0.00407105" purity="0.518314" nType="-99"/>
            <Node pos="r" depth="3" NCoef="0" IVar="-1" Cut="0" cType="1" res="0.0016842" purity="0.434121" nType="-99"/>
          </Node>
        </Node>
        <Node pos="r" depth="1" NCoef="0" IVar="5" Cut="0.997868" cType="1" res="-0.00609567" purity="0.503098" nType="0">
          <Node pos="l" depth="2" NCoef="0" IVar="1" Cut="113851" cType="1" res="-0.02754" purity="0.500709" nType="0">
            <Node pos="l" depth="3" NCoef="0" IVar="6" Cut="2.5285" cType="1" res="-0.0454975" purity="0.459572" nType="0">
              <Node pos="l" depth="4" NCoef="0" IVar="-1" Cut="0" cType="1" res="-0.00359172" purity="0.461766" nType="-99"/>
              <Node pos="r" depth="4" NCoef="0" IVar="-1" Cut="0" cType="1" res="0.000330221" purity="0.455093" nType="-99"/>
            </Node>
            <Node pos="r" depth="3" NCoef="0" IVar="-1" Cut="0" cType="1" res="0.00134389" purity="0.641112" nType="-99"/>
          </Node>
          <Node pos="r" depth="2" NCoef="0" IVar="1" Cut="146320" cType="1" res="0.00180679" purity="0.503979" nType="0">
            <Node pos="l" depth="3" NCoef="0" IVar="6" Cut="0.842852" cType="1" res="0.0107333" purity="0.511817" nType="0">
              <Node pos="l" depth="4" NCoef="0" IVar="-1" Cut="0" cType="1" res="0.00270158" purity="0.581145" nType="-99"/>
              <Node pos="r" depth="4" NCoef="0" IVar="-1" Cut="0" cType="1" res="-0.000102982" purity="0.495563" nType="-99"/>
            </Node>
            <Node pos="r" depth="3" NCoef="0" IVar="1" Cut="180067" cType="1" res="-0.0254204" purity="0.480069" nType="0">
              <Node pos="l" depth="4" NCoef="0" IVar="-1" Cut="0" cType="1" res="-0.00353728" purity="0.454646" nType="-99"/>
              <Node pos="r" depth="4" NCoef="0" IVar="-1" Cut="0" cType="1" res="0.000487915" purity="0.501959" nType="-99"/>
            </Node>
          </Node>
        </Node>
      </Node>
    </BinaryTree>
    <BinaryTree type="DecisionTree" boostWeight="1.0" itree="304">
      <Node pos="s" depth="0" NCoef="0" IVar="1" Cut="202638" cType="1" res="0.00262817" purity="0.496922" nType="0">
        <Node pos="l" depth="1" NCoef="0" IVar="6" Cut="0.536387" cType="1" res="-0.000601948" purity="0.49493" nType="0">
          <Node pos="l" depth="2" NCoef="0" IVar="0" Cut="129183" cType="1" res="0.0330383" purity="0.531716" nType="0">
            <Node pos="l" depth="3" NCoef="0" IVar="-1" Cut="0" cType="1" res="0.00029392" purity="0.492931" nType="-99"/>
            <Node pos="r" depth="3" NCoef="0" IVar="-1" Cut="0" cType="1" res="0.00257129" purity="0.578689" nType="-99"/>
          </Node>
          <Node pos="r" depth="2" NCoef="0" IVar="3" Cut="120132" cType="1" res="-0.00570079" purity="0.489354" nType="0">
            <Node pos="l" depth="3" NCoef="0" IVar="-1" Cut="0" cType="1" res="-0.00348953" purity="0.414393" nType="-99"/>
            <Node pos="r" depth="3" NCoef="0" IVar="3" Cut="155226" cType="1" res="-0.0015755" purity="0.494967" nType="0">
              <Node pos="l" depth="4" NCoef="0" IVar="-1" Cut="0" cType="1" res="0.000996175" purity="0.528447" nType="-99"/>
              <Node pos="r" depth="4" NCoef="0" IVar="-1" Cut="0" cType="1" res="-0.00046315" purity="0.483692" nType="-99"/>
            </Node>
          </Node>
        </Node>
        <Node pos="r" depth="1" NCoef="0" IVar="-1" Cut="0" cType="1" res="0.00243454" purity="0.529778" nType="-99"/>
      </Node>
    </BinaryTree>
    <BinaryTree type="DecisionTree" boostWeight="1.0" itree="305">
      <Node pos="s" depth="0" NCoef="0" IVar="3" Cut="165497" cType="1" res="0.0050263" purity="0.501621" nType="0">
        <Node pos="l" depth="1" NCoef="0" IVar="4" Cut="178142" cType="1" res="0.0223927" purity="0.526619" nType="0">
          <Node pos="l" depth="2" NCoef="0" IVar="3" Cut="147910" cType="1" res="0.0644871" purity="0.625714" nType="0">
            <Node pos="l" depth="3" NCoef="0" IVar="-1" Cut="0" cType="1" res="0.00108141" purity="0.5779" nType="-99"/>
            <Node pos="r" depth="3" NCoef="0" IVar="-1" Cut="0" cType="1" res="0.00369769" purity="0.663252" nType="-99"/>
          </Node>
          <Node pos="r" depth="2" NCoef="0" IVar="4" Cut="319400" cType="1" res="0.00800993" purity="0.49276" nType="0">
            <Node pos="l" depth="3" NCoef="0" IVar="2" Cut="-2501.94" cType="1" res="-0.00667247" purity="0.496233" nType="0">
              <Node pos="l" depth="4" NCoef="0" IVar="-1" Cut="0" cType="1" res="-0.00375647" purity="0.34821" nType="-99"/>
              <Node pos="r" depth="4" NCoef="0" IVar="-1" Cut="0" cType="1" res="0.000570367" purity="0.552608" nType="-99"/>
            </Node>
            <Node pos="r" depth="3" NCoef="0" IVar="6" Cut="1.68525" cType="1" res="0.045658" purity="0.483857" nType="0">
              <Node pos="l" depth="4" NCoef="0" IVar="-1" Cut="0" cType="1" res="0.000250867" purity="0.46904" nType="-99"/>
              <Node pos="r" depth="4" NCoef="0" IVar="-1" Cut="0" cType="1" res="0.00363078" purity="0.49416" nType="-99"/>
            </Node>
          </Node>
        </Node>
        <Node pos="r" depth="1" NCoef="0" IVar="4" Cut="285368" cType="1" res="-0.0102922" purity="0.47957" nType="0">
          <Node pos="l" depth="2" NCoef="0" IVar="0" Cut="124380" cType="1" res="-0.0236918" purity="0.486226" nType="0">
            <Node pos="l" depth="3" NCoef="0" IVar="0" Cut="107732" cType="1" res="-0.0545002" purity="0.414098" nType="0">
              <Node pos="l" depth="4" NCoef="0" IVar="-1" Cut="0" cType="1" res="-0.000957512" purity="0.42292" nType="-99"/>
              <Node pos="r" depth="4" NCoef="0" IVar="-1" Cut="0" cType="1" res="-0.00428723" purity="0.408691" nType="-99"/>
            </Node>
            <Node pos="r" depth="3" NCoef="0" IVar="4" Cut="186424" cType="1" res="-0.00366736" purity="0.533107" nType="0">
              <Node pos="l" depth="4" NCoef="0" IVar="-1" Cut="0" cType="1" res="0.00126567" purity="0.586603" nType="-99"/>
              <Node pos="r" depth="4" NCoef="0" IVar="-1" Cut="0" cType="1" res="-0.00142749" purity="0.490847" nType="-99"/>
            </Node>
          </Node>
          <Node pos="r" depth="2" NCoef="0" IVar="0" Cut="148764" cType="1" res="0.0197481" purity="0.46465" nType="0">
            <Node pos="l" depth="3" NCoef="0" IVar="4" Cut="353423" cType="1" res="0.0497075" purity="0.451477" nType="0">
              <Node pos="l" depth="4" NCoef="0" IVar="-1" Cut="0" cType="1" res="0.00328157" purity="0.493057" nType="-99"/>
              <Node pos="r" depth="4" NCoef="0" IVar="-1" Cut="0" cType="1" res="0.00147275" purity="0.405094" nType="-99"/>
            </Node>
            <Node pos="r" depth="3" NCoef="0" IVar="-1" Cut="0" cType="1" res="-0.0012256" purity="0.48409" nType="-99"/>
          </Node>
        </Node>
      </Node>
    </BinaryTree>
    <BinaryTree type="DecisionTree" boostWeight="1.0" itree="306">
      <Node pos="s" depth="0" NCoef="0" IVar="0" Cut="109758" cType="1" res="0.012382" purity="0.50587" nType="0">
        <Node pos="l" depth="1" NCoef="0" IVar="2" Cut="10006.4" cType="1" res="0.0445473" purity="0.472986" nType="0">
          <Node pos="l" depth="2" NCoef="0" IVar="0" Cut="105713" cType="1" res="0.068436" purity="0.458228" nType="0">
            <Node pos="l" depth="3" NCoef="0" IVar="-1" Cut="0" cType="1" res="0.00200049" purity="0.404235" nType="-99"/>
            <Node pos="r" depth="3" NCoef="0" IVar="-1" Cut="0" cType="1" res="0.00488939" purity="0.529357" nType="-99"/>
          </Node>
          <Node pos="r" depth="2" NCoef="0" IVar="-1" Cut="0" cType="1" res="-0.000967488" purity="0.513068" nType="-99"/>
        </Node>
        <Node pos="r" depth="1" NCoef="0" IVar="5" Cut="1.00517" cType="1" res="0.00502146" purity="0.513394" nType="0">
          <Node pos="l" depth="2" NCoef="0" IVar="3" Cut="183034" cType="1" res="-0.0175455" purity="0.510355" nType="0">
            <Node pos="l" depth="3" NCoef="0" IVar="6" Cut="1.83879" cType="1" res="-0.00143405" purity="0.528145" nType="0">
              <Node pos="l" depth="4" NCoef="0" IVar="-1" Cut="0" cType="1" res="0.00119203" purity="0.574086" nType="-99"/>
              <Node pos="r" depth="4" NCoef="0" IVar="-1" Cut="0" cType="1" res="-0.00122305" purity="0.491544" nType="-99"/>
            </Node>
            <Node pos="r" depth="3" NCoef="0" IVar="-1" Cut="0" cType="1" res="-0.00298244" purity="0.464312" nType="-99"/>
          </Node>
          <Node pos="r" depth="2" NCoef="0" IVar="2" Cut="-7664.95" cType="1" res="0.0135085" purity="0.514537" nType="0">
            <Node pos="l" depth="3" NCoef="0" IVar="3" Cut="169891" cType="1" res="-0.0187823" purity="0.387065" nType="0">
              <Node pos="l" depth="4" NCoef="0" IVar="-1" Cut="0" cType="1" res="-0.00372647" purity="0.346176" nType="-99"/>
              <Node pos="r" depth="4" NCoef="0" IVar="-1" Cut="0" cType="1" res="0.00117388" purity="0.429905" nType="-99"/>
            </Node>
            <Node pos="r" depth="3" NCoef="0" IVar="2" Cut="-334.58" cType="1" res="0.0197777" purity="0.539286" nType="0">
              <Node pos="l" depth="4" NCoef="0" IVar="-1" Cut="0" cType="1" res="0.00217433" purity="0.49865" nType="-99"/>
              <Node pos="r" depth="4" NCoef="0" IVar="-1" Cut="0" cType="1" res="0.000476356" purity="0.551816" nType="-99"/>
            </Node>
          </Node>
        </Node>
      </Node>
    </BinaryTree>
    <BinaryTree type="DecisionTree" boostWeight="1.0" itree="307">
      <Node pos="s" depth="0" NCoef="0" IVar="3" Cut="188320" cType="1" res="0.00249705" purity="0.495371" nType="0">
        <Node pos="l" depth="1" NCoef="0" IVar="2" Cut="21447.8" cType="1" res="0.0111088" purity="0.509598" nType="0">
          <Node pos="l" depth="2" NCoef="0" IVar="1" Cut="100206" cType="1" res="0.00480538" purity="0.481137" nType="0">
            <Node pos="l" depth="3" NCoef="0" IVar="4" Cut="265588" cType="1" res="0.0359689" purity="0.492909" nType="0">
              <Node pos="l" depth="4" NCoef="0" IVar="-1" Cut="0" cType="1" res="0.000966006" purity="0.49587" nType="-99"/>
              <Node pos="r" depth="4" NCoef="0" IVar="-1" Cut="0" cType="1" res="0.00382129" purity="0.484171" nType="-99"/>
            </Node>
            <Node pos="r" depth="3" NCoef="0" IVar="4" Cut="178049" cType="1" res="-0.0107782" purity="0.47525" nType="0">
              <Node pos="l" depth="4" NCoef="0" IVar="-1" Cut="0" cType="1" res="0.00185672" purity="0.585014" nType="-99"/>
              <Node pos="r" depth="4" NCoef="0" IVar="-1" Cut="0" cType="1" res="-0.00121251" purity="0.449935" nType="-99"/>
            </Node>
          </Node>
          <Node pos="r" depth="2" NCoef="0" IVar="-1" Cut="0" cType="1" res="0.0020208" purity="0.689921" nType="-99"/>
        </Node>
        <Node pos="r" depth="1" NCoef="0" IVar="5" Cut="1.46586" cType="1" res="-0.0272741" purity="0.446189" nType="0">
          <Node pos="l" depth="2" NCoef="0" IVar="1" Cut="99458.5" cType="1" res="0.00115972" purity="0.488391" nType="0">
            <Node pos="l" depth="3" NCoef="0" IVar="-1" Cut="0" cType="1" res="-0.00444964" purity="0.377335" nType="-99"/>
            <Node pos="r" depth="3" NCoef="0" IVar="-1" Cut="0" cType="1" res="0.00190104" purity="0.549085" nType="-99"/>
          </Node>
          <Node pos="r" depth="2" NCoef="0" IVar="6" Cut="1.53259" cType="1" res="-0.0613529" purity="0.395609" nType="0">
            <Node pos="l" depth="3" NCoef="0" IVar="-1" Cut="0" cType="1" res="-0.00146394" purity="0.451074" nType="-99"/>
            <Node pos="r" depth="3" NCoef="0" IVar="-1" Cut="0" cType="1" res="-0.00540898" purity="0.35228" nType="-99"/>
          </Node>
        </Node>
      </Node>
    </BinaryTree>
    <BinaryTree type="DecisionTree" boostWeight="1.0" itree="308">
      <Node pos="s" depth="0" NCoef="0" IVar="6" Cut="2.29872" cType="1" res="-0.00997915" purity="0.483774" nType="0">
        <Node pos="l" depth="1" NCoef="0" IVar="6" Cut="2.01827" cType="1" res="-0.00068628" purity="0.518252" nType="0">
          <Node pos="l" depth="2" NCoef="0" IVar="4" Cut="285438" cType="1" res="-0.00842289" purity="0.512134" nType="0">
            <Node pos="l" depth="3" NCoef="0" IVar="3" Cut="180105" cType="1" res="0.00583027" purity="0.544176" nType="0">
              <Node pos="l" depth="4" NCoef="0" IVar="-1" Cut="0" cType="1" res="0.000786443" purity="0.562499" nType="-99"/>
              <Node pos="r" depth="4" NCoef="0" IVar="-1" Cut="0" cType="1" res="-0.0011799" purity="0.497078" nType="-99"/>
            </Node>
            <Node pos="r" depth="3" NCoef="0" IVar="3" Cut="164503" cType="1" res="-0.0495789" purity="0.419613" nType="0">
              <Node pos="l" depth="4" NCoef="0" IVar="-1" Cut="0" cType="1" res="-0.00546744" purity="0.385588" nType="-99"/>
              <Node pos="r" depth="4" NCoef="0" IVar="-1" Cut="0" cType="1" res="-0.000926459" purity="0.44394" nType="-99"/>
            </Node>
          </Node>
          <Node pos="r" depth="2" NCoef="0" IVar="4" Cut="256609" cType="1" res="0.0362206" purity="0.547438" nType="0">
            <Node pos="l" depth="3" NCoef="0" IVar="-1" Cut="0" cType="1" res="0.000249931" purity="0.537091" nType="-99"/>
            <Node pos="r" depth="3" NCoef="0" IVar="-1" Cut="0" cType="1" res="0.00361751" purity="0.562861" nType="-99"/>
          </Node>
        </Node>
        <Node pos="r" depth="1" NCoef="0" IVar="4" Cut="217081" cType="1" res="-0.0301467" purity="0.408947" nType="0">
          <Node pos="l" depth="2" NCoef="0" IVar="3" Cut="164279" cType="1" res="-0.0604691" purity="0.405256" nType="0">
            <Node pos="l" depth="3" NCoef="0" IVar="-1" Cut="0" cType="1" res="-7.43316e-06" purity="0.470123" nType="-99"/>
            <Node pos="r" depth="3" NCoef="0" IVar="-1" Cut="0" cType="1" res="-0.00694045" purity="0.352529" nType="-99"/>
          </Node>
          <Node pos="r" depth="2" NCoef="0" IVar="3" Cut="169604" cType="1" res="-0.0107321" purity="0.411311" nType="0">
            <Node pos="l" depth="3" NCoef="0" IVar="4" Cut="293011" cType="1" res="-0.0474721" purity="0.368405" nType="0">
              <Node pos="l" depth="4" NCoef="0" IVar="-1" Cut="0" cType="1" res="-0.000373882" purity="0.429063" nType="-99"/>
              <Node pos="r" depth="4" NCoef="0" IVar="-1" Cut="0" cType="1" res="-0.00643868" purity="0.306709" nType="-99"/>
            </Node>
            <Node pos="r" depth="3" NCoef="0" IVar="6" Cut="2.70947" cType="1" res="0.0203842" purity="0.447648" nType="0">
              <Node pos="l" depth="4" NCoef="0" IVar="-1" Cut="0" cType="1" res="0.00260322" purity="0.508127" nType="-99"/>
              <Node pos="r" depth="4" NCoef="0" IVar="-1" Cut="0" cType="1" res="-0.000842251" purity="0.388064" nType="-99"/>
            </Node>
          </Node>
        </Node>
      </Node>
    </BinaryTree>
    <BinaryTree type="DecisionTree" boostWeight="1.0" itree="309">
      <Node pos="s" depth="0" NCoef="0" IVar="4" Cut="314676" cType="1" res="0.00770488" purity="0.50372" nType="0">
        <Node pos="l" depth="1" NCoef="0" IVar="4" Cut="215238" cType="1" res="-0.00556812" purity="0.507198" nType="0">
          <Node pos="l" depth="2" NCoef="0" IVar="3" Cut="148174" cType="1" res="0.0123049" purity="0.546286" nType="0">
            <Node pos="l" depth="3" NCoef="0" IVar="2" Cut="4873.94" cType="1" res="-0.0416414" purity="0.497355" nType="0">
              <Node pos="l" depth="4" NCoef="0" IVar="-1" Cut="0" cType="1" res="-0.00392323" purity="0.387906" nType="-99"/>
              <Node pos="r" depth="4" NCoef="0" IVar="-1" Cut="0" cType="1" res="-0.000974349" purity="0.576055" nType="-99"/>
            </Node>
            <Node pos="r" depth="3" NCoef="0" IVar="0" Cut="109757" cType="1" res="0.0272075" purity="0.559803" nType="0">
              <Node pos="l" depth="4" NCoef="0" IVar="-1" Cut="0" cType="1" res="0.00315319" purity="0.555948" nType="-99"/>
              <Node pos="r" depth="4" NCoef="0" IVar="-1" Cut="0" cType="1" res="0.000674084" purity="0.560794" nType="-99"/>
            </Node>
          </Node>
          <Node pos="r" depth="2" NCoef="0" IVar="4" Cut="224973" cType="1" res="-0.0335173" purity="0.446074" nType="0">
            <Node pos="l" depth="3" NCoef="0" IVar="-1" Cut="0" cType="1" res="-0.00534378" purity="0.392479" nType="-99"/>
            <Node pos="r" depth="3" NCoef="0" IVar="0" Cut="163387" cType="1" res="-0.0239079" purity="0.454677" nType="0">
              <Node pos="l" depth="4" NCoef="0" IVar="-1" Cut="0" cType="1" res="-0.0019986" purity="0.416646" nType="-99"/>
              <Node pos="r" depth="4" NCoef="0" IVar="-1" Cut="0" cType="1" res="0.00062065" purity="0.560297" nType="-99"/>
            </Node>
          </Node>
        </Node>
        <Node pos="r" depth="1" NCoef="0" IVar="3" Cut="182305" cType="1" res="0.0501505" purity="0.492598" nType="0">
          <Node pos="l" depth="2" NCoef="0" IVar="1" Cut="115600" cType="1" res="0.0265486" purity="0.469921" nType="0">
            <Node pos="l" depth="3" NCoef="0" IVar="-1" Cut="0" cType="1" res="0.00312574" purity="0.482836" nType="-99"/>
            <Node pos="r" depth="3" NCoef="0" IVar="3" Cut="153135" cType="1" res="-0.00526225" purity="0.458992" nType="0">
              <Node pos="l" depth="4" NCoef="0" IVar="-1" Cut="0" cType="1" res="0.00147353" purity="0.503125" nType="-99"/>
              <Node pos="r" depth="4" NCoef="0" IVar="-1" Cut="0" cType="1" res="-0.00247586" purity="0.412402" nType="-99"/>
            </Node>
          </Node>
          <Node pos="r" depth="2" NCoef="0" IVar="1" Cut="130963" cType="1" res="0.091655" purity="0.532477" nType="0">
            <Node pos="l" depth="3" NCoef="0" IVar="-1" Cut="0" cType="1" res="0.00272885" purity="0.482382" nType="-99"/>
            <Node pos="r" depth="3" NCoef="0" IVar="-1" Cut="0" cType="1" res="0.00525725" purity="0.585357" nType="-99"/>
          </Node>
        </Node>
      </Node>
    </BinaryTree>
    <BinaryTree type="DecisionTree" boostWeight="1.0" itree="310">
      <Node pos="s" depth="0" NCoef="0" IVar="1" Cut="141196" cType="1" res="0.013043" purity="0.507614" nType="0">
        <Node pos="l" depth="1" NCoef="0" IVar="0" Cut="114633" cType="1" res="0.0019587" purity="0.496793" nType="0">
          <Node pos="l" depth="2" NCoef="0" IVar="1" Cut="96252.6" cType="1" res="-0.0287836" purity="0.417902" nType="0">
            <Node pos="l" depth="3" NCoef="0" IVar="-1" Cut="0" cType="1" res="0.00156101" purity="0.460657" nType="-99"/>
            <Node pos="r" depth="3" NCoef="0" IVar="1" Cut="118156" cType="1" res="-0.0457025" purity="0.40571" nType="0">
              <Node pos="l" depth="4" NCoef="0" IVar="-1" Cut="0" cType="1" res="-0.00407234" purity="0.370144" nType="-99"/>
              <Node pos="r" depth="4" NCoef="0" IVar="-1" Cut="0" cType="1" res="3.12049e-05" purity="0.473737" nType="-99"/>
            </Node>
          </Node>
          <Node pos="r" depth="2" NCoef="0" IVar="0" Cut="123682" cType="1" res="0.0133265" purity="0.525965" nType="0">
            <Node pos="l" depth="3" NCoef="0" IVar="6" Cut="1.91435" cType="1" res="0.0572841" purity="0.547248" nType="0">
              <Node pos="l" depth="4" NCoef="0" IVar="-1" Cut="0" cType="1" res="0.00170033" purity="0.574904" nType="-99"/>
              <Node pos="r" depth="4" NCoef="0" IVar="-1" Cut="0" cType="1" res="0.00356552" purity="0.5144" nType="-99"/>
            </Node>
            <Node pos="r" depth="3" NCoef="0" IVar="5" Cut="1.61431" cType="1" res="0.00246758" purity="0.520708" nType="0">
              <Node pos="l" depth="4" NCoef="0" IVar="-1" Cut="0" cType="1" res="0.000476385" purity="0.528368" nType="-99"/>
              <Node pos="r" depth="4" NCoef="0" IVar="-1" Cut="0" cType="1" res="-0.00217272" purity="0.478165" nType="-99"/>
            </Node>
          </Node>
        </Node>
        <Node pos="r" depth="1" NCoef="0" IVar="3" Cut="176770" cType="1" res="0.0524238" purity="0.54606" nType="0">
          <Node pos="l" depth="2" NCoef="0" IVar="1" Cut="191520" cType="1" res="0.0742253" purity="0.575679" nType="0">
            <Node pos="l" depth="3" NCoef="0" IVar="5" Cut="1.98331" cType="1" res="0.0958157" purity="0.608926" nType="0">
              <Node pos="l" depth="4" NCoef="0" IVar="-1" Cut="0" cType="1" res="0.00312506" purity="0.634776" nType="-99"/>
              <Node pos="r" depth="4" NCoef="0" IVar="-1" Cut="0" cType="1" res="0.00452305" purity="0.586946" nType="-99"/>
            </Node>
            <Node pos="r" depth="3" NCoef="0" IVar="-1" Cut="0" cType="1" res="0.000942437" purity="0.494302" nType="-99"/>
          </Node>
          <Node pos="r" depth="2" NCoef="0" IVar="-1" Cut="0" cType="1" res="0.000365568" purity="0.485181" nType="-99"/>
        </Node>
      </Node>
    </BinaryTree>
    <BinaryTree type="DecisionTree" boostWeight="1.0" itree="311">
      <Node pos="s" depth="0" NCoef="0" IVar="0" Cut="104878" cType="1" res="0.0026165" purity="0.497136" nType="0">
        <Node pos="l" depth="1" NCoef="0" IVar="-1" Cut="0" cType="1" res="-0.00271231" purity="0.369598" nType="-99"/>
        <Node pos="r" depth="1" NCoef="0" IVar="3" Cut="217320" cType="1" res="0.00727639" purity="0.509275" nType="0">
          <Node pos="l" depth="2" NCoef="0" IVar="4" Cut="168399" cType="1" res="0.0117561" purity="0.514818" nType="0">
            <Node pos="l" depth="3" NCoef="0" IVar="6" Cut="1.76345" cType="1" res="-0.0196596" purity="0.533758" nType="0">
              <Node pos="l" depth="4" NCoef="0" IVar="-1" Cut="0" cType="1" res="0.000364987" purity="0.589021" nType="-99"/>
              <Node pos="r" depth="4" NCoef="0" IVar="-1" Cut="0" cType="1" res="-0.00267174" purity="0.467634" nType="-99"/>
            </Node>
            <Node pos="r" depth="3" NCoef="0" IVar="2" Cut="-12692.2" cType="1" res="0.0175469" purity="0.511327" nType="0">
              <Node pos="l" depth="4" NCoef="0" IVar="-1" Cut="0" cType="1" res="-0.00114553" purity="0.372394" nType="-99"/>
              <Node pos="r" depth="4" NCoef="0" IVar="-1" Cut="0" cType="1" res="0.000989447" purity="0.526743" nType="-99"/>
            </Node>
          </Node>
          <Node pos="r" depth="2" NCoef="0" IVar="-1" Cut="0" cType="1" res="-0.00283834" purity="0.433464" nType="-99"/>
        </Node>
      </Node>
    </BinaryTree>
    <BinaryTree type="DecisionTree" boostWeight="1.0" itree="312">
      <Node pos="s" depth="0" NCoef="0" IVar="1" Cut="176982" cType="1" res="0.0122439" purity="0.506748" nType="0">
        <Node pos="l" depth="1" NCoef="0" IVar="3" Cut="136362" cType="1" res="0.00672024" purity="0.503063" nType="0">
          <Node pos="l" depth="2" NCoef="0" IVar="2" Cut="1253.79" cType="1" res="0.0367089" purity="0.532329" nType="0">
            <Node pos="l" depth="3" NCoef="0" IVar="-1" Cut="0" cType="1" res="-0.000538108" purity="0.408159" nType="-99"/>
            <Node pos="r" depth="3" NCoef="0" IVar="-1" Cut="0" cType="1" res="0.00256457" purity="0.607101" nType="-99"/>
          </Node>
          <Node pos="r" depth="2" NCoef="0" IVar="5" Cut="2.22267" cType="1" res="0.000708677" purity="0.497196" nType="0">
            <Node pos="l" depth="3" NCoef="0" IVar="3" Cut="168287" cType="1" res="0.00673277" purity="0.505894" nType="0">
              <Node pos="l" depth="4" NCoef="0" IVar="-1" Cut="0" cType="1" res="-0.000726113" purity="0.496434" nType="-99"/>
              <Node pos="r" depth="4" NCoef="0" IVar="-1" Cut="0" cType="1" res="0.000916387" purity="0.511691" nType="-99"/>
            </Node>
            <Node pos="r" depth="3" NCoef="0" IVar="-1" Cut="0" cType="1" res="-0.00226523" purity="0.435824" nType="-99"/>
          </Node>
        </Node>
        <Node pos="r" depth="1" NCoef="0" IVar="4" Cut="325776" cType="1" res="0.0606401" purity="0.539034" nType="0">
          <Node pos="l" depth="2" NCoef="0" IVar="-1" Cut="0" cType="1" res="0.000630042" purity="0.521734" nType="-99"/>
          <Node pos="r" depth="2" NCoef="0" IVar="-1" Cut="0" cType="1" res="0.00389669" purity="0.552107" nType="-99"/>
        </Node>
      </Node>
    </BinaryTree>
    <BinaryTree type="DecisionTree" boostWeight="1.0" itree="313">
      <Node pos="s" depth="0" NCoef="0" IVar="6" Cut="2.5285" cType="1" res="0.0151757" purity="0.510006" nType="0">
        <Node pos="l" depth="1" NCoef="0" IVar="4" Cut="148764" cType="1" res="0.00432003" purity="0.520641" nType="0">
          <Node pos="l" depth="2" NCoef="0" IVar="-1" Cut="0" cType="1" res="-0.0036626" purity="0.490716" nType="-99"/>
          <Node pos="r" depth="2" NCoef="0" IVar="0" Cut="109751" cType="1" res="0.00984775" purity="0.522754" nType="0">
            <Node pos="l" depth="3" NCoef="0" IVar="4" Cut="234472" cType="1" res="0.0519101" purity="0.505274" nType="0">
              <Node pos="l" depth="4" NCoef="0" IVar="-1" Cut="0" cType="1" res="0.00124979" purity="0.518206" nType="-99"/>
              <Node pos="r" depth="4" NCoef="0" IVar="-1" Cut="0" cType="1" res="0.00396255" purity="0.488807" nType="-99"/>
            </Node>
            <Node pos="r" depth="3" NCoef="0" IVar="2" Cut="-2597.75" cType="1" res="3.6423e-05" purity="0.526832" nType="0">
              <Node pos="l" depth="4" NCoef="0" IVar="-1" Cut="0" cType="1" res="-0.00288603" purity="0.364257" nType="-99"/>
              <Node pos="r" depth="4" NCoef="0" IVar="-1" Cut="0" cType="1" res="0.000322765" purity="0.551485" nType="-99"/>
            </Node>
          </Node>
        </Node>
        <Node pos="r" depth="1" NCoef="0" IVar="6" Cut="2.76781" cType="1" res="0.0491601" purity="0.476714" nType="0">
          <Node pos="l" depth="2" NCoef="0" IVar="2" Cut="-2914.85" cType="1" res="0.0873739" purity="0.541346" nType="0">
            <Node pos="l" depth="3" NCoef="0" IVar="-1" Cut="0" cType="1" res="0.00507674" purity="0.541237" nType="-99"/>
            <Node pos="r" depth="3" NCoef="0" IVar="-1" Cut="0" cType="1" res="0.00210756" purity="0.541464" nType="-99"/>
          </Node>
          <Node pos="r" depth="2" NCoef="0" IVar="2" Cut="-9149.48" cType="1" res="0.0175927" purity="0.423324" nType="0">
            <Node pos="l" depth="3" NCoef="0" IVar="-1" Cut="0" cType="1" res="0.00300696" purity="0.447988" nType="-99"/>
            <Node pos="r" depth="3" NCoef="0" IVar="-1" Cut="0" cType="1" res="-0.00178325" purity="0.392815" nType="-99"/>
          </Node>
        </Node>
      </Node>
    </BinaryTree>
    <BinaryTree type="DecisionTree" boostWeight="1.0" itree="314">
      <Node pos="s" depth="0" NCoef="0" IVar="4" Cut="197610" cType="1" res="0.00127126" purity="0.498003" nType="0">
        <Node pos="l" depth="1" NCoef="0" IVar="3" Cut="182273" cType="1" res="0.0212282" purity="0.561255" nType="0">
          <Node pos="l" depth="2" NCoef="0" IVar="2" Cut="14909.6" cType="1" res="0.0376018" purity="0.584691" nType="0">
            <Node pos="l" depth="3" NCoef="0" IVar="6" Cut="2.60518" cType="1" res="0.0227091" purity="0.521132" nType="0">
              <Node pos="l" depth="4" NCoef="0" IVar="-1" Cut="0" cType="1" res="0.000299851" purity="0.51811" nType="-99"/>
              <Node pos="r" depth="4" NCoef="0" IVar="-1" Cut="0" cType="1" res="0.00346834" purity="0.532191" nType="-99"/>
            </Node>
            <Node pos="r" depth="3" NCoef="0" IVar="-1" Cut="0" cType="1" res="0.00279402" purity="0.734869" nType="-99"/>
          </Node>
          <Node pos="r" depth="2" NCoef="0" IVar="4" Cut="169266" cType="1" res="-0.0307841" purity="0.486808" nType="0">
            <Node pos="l" depth="3" NCoef="0" IVar="-1" Cut="0" cType="1" res="-0.00206034" purity="0.486668" nType="-99"/>
            <Node pos="r" depth="3" NCoef="0" IVar="-1" Cut="0" cType="1" res="-0.00105317" purity="0.486932" nType="-99"/>
          </Node>
        </Node>
        <Node pos="r" depth="1" NCoef="0" IVar="3" Cut="206526" cType="1" res="-0.0105844" purity="0.460427" nType="0">
          <Node pos="l" depth="2" NCoef="0" IVar="6" Cut="0.68955" cType="1" res="-0.0192879" purity="0.452944" nType="0">
            <Node pos="l" depth="3" NCoef="0" IVar="3" Cut="162009" cType="1" res="-0.0523904" purity="0.422366" nType="0">
              <Node pos="l" depth="4" NCoef="0" IVar="-1" Cut="0" cType="1" res="-0.00146824" purity="0.453585" nType="-99"/>
              <Node pos="r" depth="4" NCoef="0" IVar="-1" Cut="0" cType="1" res="-0.00447197" purity="0.38958" nType="-99"/>
            </Node>
            <Node pos="r" depth="3" NCoef="0" IVar="1" Cut="115581" cType="1" res="-0.0129896" purity="0.458762" nType="0">
              <Node pos="l" depth="4" NCoef="0" IVar="-1" Cut="0" cType="1" res="-0.00185308" purity="0.416895" nType="-99"/>
              <Node pos="r" depth="4" NCoef="0" IVar="-1" Cut="0" cType="1" res="0.000252906" purity="0.496556" nType="-99"/>
            </Node>
          </Node>
          <Node pos="r" depth="2" NCoef="0" IVar="2" Cut="907.401" cType="1" res="0.0441941" purity="0.507524" nType="0">
            <Node pos="l" depth="3" NCoef="0" IVar="-1" Cut="0" cType="1" res="0.00309263" purity="0.487001" nType="-99"/>
            <Node pos="r" depth="3" NCoef="0" IVar="-1" Cut="0" cType="1" res="0.0010938" purity="0.525724" nType="-99"/>
          </Node>
        </Node>
      </Node>
    </BinaryTree>
    <BinaryTree type="DecisionTree" boostWeight="1.0" itree="315">
      <Node pos="s" depth="0" NCoef="0" IVar="4" Cut="431627" cType="1" res="0.0125715" purity="0.509224" nType="0">
        <Node pos="l" depth="1" NCoef="0" IVar="3" Cut="177186" cType="1" res="0.0161108" purity="0.516107" nType="0">
          <Node pos="l" depth="2" NCoef="0" IVar="3" Cut="171484" cType="1" res="0.00550624" purity="0.513477" nType="0">
            <Node pos="l" depth="3" NCoef="0" IVar="3" Cut="166055" cType="1" res="0.0132367" purity="0.522484" nType="0">
              <Node pos="l" depth="4" NCoef="0" IVar="-1" Cut="0" cType="1" res="0.000226092" purity="0.513405" nType="-99"/>
              <Node pos="r" depth="4" NCoef="0" IVar="-1" Cut="0" cType="1" res="0.00235312" purity="0.566638" nType="-99"/>
            </Node>
            <Node pos="r" depth="3" NCoef="0" IVar="3" Cut="174266" cType="1" res="-0.0450589" purity="0.454566" nType="0">
              <Node pos="l" depth="4" NCoef="0" IVar="-1" Cut="0" cType="1" res="-0.00260348" purity="0.449993" nType="-99"/>
              <Node pos="r" depth="4" NCoef="0" IVar="-1" Cut="0" cType="1" res="-0.00215193" purity="0.459211" nType="-99"/>
            </Node>
          </Node>
          <Node pos="r" depth="2" NCoef="0" IVar="4" Cut="358840" cType="1" res="0.033854" purity="0.520508" nType="0">
            <Node pos="l" depth="3" NCoef="0" IVar="6" Cut="2.75847" cType="1" res="0.026558" purity="0.521383" nType="0">
              <Node pos="l" depth="4" NCoef="0" IVar="-1" Cut="0" cType="1" res="0.00156488" purity="0.542363" nType="-99"/>
              <Node pos="r" depth="4" NCoef="0" IVar="-1" Cut="0" cType="1" res="-0.00170181" purity="0.388956" nType="-99"/>
            </Node>
            <Node pos="r" depth="3" NCoef="0" IVar="-1" Cut="0" cType="1" res="0.00405628" purity="0.513445" nType="-99"/>
          </Node>
        </Node>
        <Node pos="r" depth="1" NCoef="0" IVar="-1" Cut="0" cType="1" res="-0.00446482" purity="0.34781" nType="-99"/>
      </Node>
    </BinaryTree>
    <BinaryTree type="DecisionTree" boostWeight="1.0" itree="316">
      <Node pos="s" depth="0" NCoef="0" IVar="2" Cut="4368.52" cType="1" res="0.0155625" purity="0.510306" nType="0">
        <Node pos="l" depth="1" NCoef="0" IVar="3" Cut="159898" cType="1" res="0.0272994" purity="0.453724" nType="0">
          <Node pos="l" depth="2" NCoef="0" IVar="2" Cut="-9692.89" cType="1" res="0.0566833" purity="0.481784" nType="0">
            <Node pos="l" depth="3" NCoef="0" IVar="-1" Cut="0" cType="1" res="-0.000938549" purity="0.373983" nType="-99"/>
            <Node pos="r" depth="3" NCoef="0" IVar="0" Cut="143870" cType="1" res="0.0842474" purity="0.523038" nType="0">
              <Node pos="l" depth="4" NCoef="0" IVar="-1" Cut="0" cType="1" res="0.00515439" purity="0.533492" nType="-99"/>
              <Node pos="r" depth="4" NCoef="0" IVar="-1" Cut="0" cType="1" res="0.00124848" purity="0.504998" nType="-99"/>
            </Node>
          </Node>
          <Node pos="r" depth="2" NCoef="0" IVar="2" Cut="-15106.1" cType="1" res="0.0103063" purity="0.437496" nType="0">
            <Node pos="l" depth="3" NCoef="0" IVar="-1" Cut="0" cType="1" res="0.0035659" purity="0.465011" nType="-99"/>
            <Node pos="r" depth="3" NCoef="0" IVar="1" Cut="95103.3" cType="1" res="-0.000779445" purity="0.432608" nType="0">
              <Node pos="l" depth="4" NCoef="0" IVar="-1" Cut="0" cType="1" res="0.00173882" purity="0.454062" nType="-99"/>
              <Node pos="r" depth="4" NCoef="0" IVar="-1" Cut="0" cType="1" res="-0.000527951" purity="0.427317" nType="-99"/>
            </Node>
          </Node>
        </Node>
        <Node pos="r" depth="1" NCoef="0" IVar="5" Cut="2.29922" cType="1" res="0.00351195" purity="0.5684" nType="0">
          <Node pos="l" depth="2" NCoef="0" IVar="5" Cut="1.73878" cType="1" res="0.0105916" purity="0.583587" nType="0">
            <Node pos="l" depth="3" NCoef="0" IVar="0" Cut="143910" cType="1" res="0.00254793" purity="0.580569" nType="0">
              <Node pos="l" depth="4" NCoef="0" IVar="-1" Cut="0" cType="1" res="-0.000843191" purity="0.527481" nType="-99"/>
              <Node pos="r" depth="4" NCoef="0" IVar="-1" Cut="0" cType="1" res="0.00103217" purity="0.635972" nType="-99"/>
            </Node>
            <Node pos="r" depth="3" NCoef="0" IVar="-1" Cut="0" cType="1" res="0.00179434" purity="0.59535" nType="-99"/>
          </Node>
          <Node pos="r" depth="2" NCoef="0" IVar="-1" Cut="0" cType="1" res="-0.0018206" purity="0.47988" nType="-99"/>
        </Node>
      </Node>
    </BinaryTree>
    <BinaryTree type="DecisionTree" boostWeight="1.0" itree="317">
      <Node pos="s" depth="0" NCoef="0" IVar="5" Cut="0.768259" cType="1" res="-0.00508555" purity="0.489348" nType="0">
        <Node pos="l" depth="1" NCoef="0" IVar="5" Cut="0.67475" cType="1" res="0.0290706" purity="0.583679" nType="0">
          <Node pos="l" depth="2" NCoef="0" IVar="-1" Cut="0" cType="1" res="-6.01005e-06" purity="0.58351" nType="-99"/>
          <Node pos="r" depth="2" NCoef="0" IVar="-1" Cut="0" cType="1" res="0.00280125" purity="0.583908" nType="-99"/>
        </Node>
        <Node pos="r" depth="1" NCoef="0" IVar="2" Cut="-17368.8" cType="1" res="-0.00945876" purity="0.47727" nType="0">
          <Node pos="l" depth="2" NCoef="0" IVar="-1" Cut="0" cType="1" res="0.00177301" purity="0.424128" nType="-99"/>
          <Node pos="r" depth="2" NCoef="0" IVar="2" Cut="22833.3" cType="1" res="-0.0125076" purity="0.480966" nType="0">
            <Node pos="l" depth="3" NCoef="0" IVar="5" Cut="1.86813" cType="1" res="-0.0158876" purity="0.462448" nType="0">
              <Node pos="l" depth="4" NCoef="0" IVar="-1" Cut="0" cType="1" res="-0.00129407" purity="0.45581" nType="-99"/>
              <Node pos="r" depth="4" NCoef="0" IVar="-1" Cut="0" cType="1" res="0.000160602" purity="0.475762" nType="-99"/>
            </Node>
            <Node pos="r" depth="3" NCoef="0" IVar="-1" Cut="0" cType="1" res="0.000892884" purity="0.666472" nType="-99"/>
          </Node>
        </Node>
      </Node>
    </BinaryTree>
    <BinaryTree type="DecisionTree" boostWeight="1.0" itree="318">
      <Node pos="s" depth="0" NCoef="0" IVar="3" Cut="124379" cType="1" res="0.00190033" purity="0.497433" nType="0">
        <Node pos="l" depth="1" NCoef="0" IVar="4" Cut="268654" cType="1" res="0.0380762" purity="0.523974" nType="0">
          <Node pos="l" depth="2" NCoef="0" IVar="-1" Cut="0" cType="1" res="-0.000794042" purity="0.495283" nType="-99"/>
          <Node pos="r" depth="2" NCoef="0" IVar="-1" Cut="0" cType="1" res="0.00473457" purity="0.565681" nType="-99"/>
        </Node>
        <Node pos="r" depth="1" NCoef="0" IVar="6" Cut="1.07279" cType="1" res="-0.00239009" purity="0.494285" nType="0">
          <Node pos="l" depth="2" NCoef="0" IVar="1" Cut="136035" cType="1" res="-0.0463837" purity="0.453609" nType="0">
            <Node pos="l" depth="3" NCoef="0" IVar="1" Cut="105697" cType="1" res="-0.0267508" purity="0.473582" nType="0">
              <Node pos="l" depth="4" NCoef="0" IVar="-1" Cut="0" cType="1" res="-0.00373096" purity="0.404724" nType="-99"/>
              <Node pos="r" depth="4" NCoef="0" IVar="-1" Cut="0" cType="1" res="0.000287752" purity="0.529199" nType="-99"/>
            </Node>
            <Node pos="r" depth="3" NCoef="0" IVar="-1" Cut="0" cType="1" res="-0.00565486" purity="0.398777" nType="-99"/>
          </Node>
          <Node pos="r" depth="2" NCoef="0" IVar="1" Cut="95117.8" cType="1" res="0.011301" purity="0.506944" nType="0">
            <Node pos="l" depth="3" NCoef="0" IVar="1" Cut="92121.5" cType="1" res="0.0413324" purity="0.509015" nType="0">
              <Node pos="l" depth="4" NCoef="0" IVar="-1" Cut="0" cType="1" res="0.00381995" purity="0.566088" nType="-99"/>
              <Node pos="r" depth="4" NCoef="0" IVar="-1" Cut="0" cType="1" res="-0.000387654" purity="0.455034" nType="-99"/>
            </Node>
            <Node pos="r" depth="3" NCoef="0" IVar="5" Cut="1.84801" cType="1" res="0.00478012" purity="0.506494" nType="0">
              <Node pos="l" depth="4" NCoef="0" IVar="-1" Cut="0" cType="1" res="-0.00040158" purity="0.512225" nType="-99"/>
              <Node pos="r" depth="4" NCoef="0" IVar="-1" Cut="0" cType="1" res="0.00172031" purity="0.493027" nType="-99"/>
            </Node>
          </Node>
        </Node>
      </Node>
    </BinaryTree>
    <BinaryTree type="DecisionTree" boostWeight="1.0" itree="319">
      <Node pos="s" depth="0" NCoef="0" IVar="3" Cut="142066" cType="1" res="0.00696099" purity="0.500638" nType="0">
        <Node pos="l" depth="1" NCoef="0" IVar="0" Cut="114621" cType="1" res="-0.0254068" purity="0.472027" nType="0">
          <Node pos="l" depth="2" NCoef="0" IVar="-1" Cut="0" cType="1" res="-0.00567139" purity="0.353218" nType="-99"/>
          <Node pos="r" depth="2" NCoef="0" IVar="1" Cut="105305" cType="1" res="-0.00511998" purity="0.509626" nType="0">
            <Node pos="l" depth="3" NCoef="0" IVar="-1" Cut="0" cType="1" res="-0.00221249" purity="0.434015" nType="-99"/>
            <Node pos="r" depth="3" NCoef="0" IVar="1" Cut="138406" cType="1" res="0.0143616" purity="0.551162" nType="0">
              <Node pos="l" depth="4" NCoef="0" IVar="-1" Cut="0" cType="1" res="0.00147314" purity="0.574634" nType="-99"/>
              <Node pos="r" depth="4" NCoef="0" IVar="-1" Cut="0" cType="1" res="-0.000479099" purity="0.521187" nType="-99"/>
            </Node>
          </Node>
        </Node>
        <Node pos="r" depth="1" NCoef="0" IVar="3" Cut="234384" cType="1" res="0.0146393" purity="0.507425" nType="0">
          <Node pos="l" depth="2" NCoef="0" IVar="3" Cut="180291" cType="1" res="0.0106964" purity="0.503996" nType="0">
            <Node pos="l" depth="3" NCoef="0" IVar="1" Cut="171574" cType="1" res="0.0241886" purity="0.525859" nType="0">
              <Node pos="l" depth="4" NCoef="0" IVar="-1" Cut="0" cType="1" res="0.00137286" purity="0.533512" nType="-99"/>
              <Node pos="r" depth="4" NCoef="0" IVar="-1" Cut="0" cType="1" res="-0.00193618" purity="0.444275" nType="-99"/>
            </Node>
            <Node pos="r" depth="3" NCoef="0" IVar="2" Cut="-5937.67" cType="1" res="-0.0132189" purity="0.465244" nType="0">
              <Node pos="l" depth="4" NCoef="0" IVar="-1" Cut="0" cType="1" res="0.0014476" purity="0.424192" nType="-99"/>
              <Node pos="r" depth="4" NCoef="0" IVar="-1" Cut="0" cType="1" res="-0.00116372" purity="0.475832" nType="-99"/>
            </Node>
          </Node>
          <Node pos="r" depth="2" NCoef="0" IVar="-1" Cut="0" cType="1" res="0.00365262" purity="0.570229" nType="-99"/>
        </Node>
      </Node>
    </BinaryTree>
    <BinaryTree type="DecisionTree" boostWeight="1.0" itree="320">
      <Node pos="s" depth="0" NCoef="0" IVar="3" Cut="188876" cType="1" res="-4.79292e-05" purity="0.493834" nType="0">
        <Node pos="l" depth="1" NCoef="0" IVar="3" Cut="176329" cType="1" res="-0.0111592" purity="0.487348" nType="0">
          <Node pos="l" depth="2" NCoef="0" IVar="6" Cut="2.45191" cType="1" res="-0.00411642" purity="0.498097" nType="0">
            <Node pos="l" depth="3" NCoef="0" IVar="1" Cut="161676" cType="1" res="0.00582953" purity="0.53082" nType="0">
              <Node pos="l" depth="4" NCoef="0" IVar="-1" Cut="0" cType="1" res="-2.61178e-05" purity="0.527397" nType="-99"/>
              <Node pos="r" depth="4" NCoef="0" IVar="-1" Cut="0" cType="1" res="0.00180722" purity="0.549833" nType="-99"/>
            </Node>
            <Node pos="r" depth="3" NCoef="0" IVar="4" Cut="219256" cType="1" res="-0.0348631" purity="0.396938" nType="0">
              <Node pos="l" depth="4" NCoef="0" IVar="-1" Cut="0" cType="1" res="0.000993254" purity="0.479729" nType="-99"/>
              <Node pos="r" depth="4" NCoef="0" IVar="-1" Cut="0" cType="1" res="-0.00532682" purity="0.328976" nType="-99"/>
            </Node>
          </Node>
          <Node pos="r" depth="2" NCoef="0" IVar="1" Cut="120285" cType="1" res="-0.0425978" purity="0.439362" nType="0">
            <Node pos="l" depth="3" NCoef="0" IVar="6" Cut="1.99238" cType="1" res="-0.0135662" purity="0.460748" nType="0">
              <Node pos="l" depth="4" NCoef="0" IVar="-1" Cut="0" cType="1" res="-0.00304024" purity="0.439146" nType="-99"/>
              <Node pos="r" depth="4" NCoef="0" IVar="-1" Cut="0" cType="1" res="0.0011021" purity="0.47937" nType="-99"/>
            </Node>
            <Node pos="r" depth="3" NCoef="0" IVar="-1" Cut="0" cType="1" res="-0.00609231" purity="0.39178" nType="-99"/>
          </Node>
        </Node>
        <Node pos="r" depth="1" NCoef="0" IVar="2" Cut="-5922.1" cType="1" res="0.0353138" purity="0.514476" nType="0">
          <Node pos="l" depth="2" NCoef="0" IVar="-1" Cut="0" cType="1" res="0.00435619" purity="0.500285" nType="-99"/>
          <Node pos="r" depth="2" NCoef="0" IVar="5" Cut="1.01044" cType="1" res="0.0197565" purity="0.518201" nType="0">
            <Node pos="l" depth="3" NCoef="0" IVar="-1" Cut="0" cType="1" res="-0.00117657" purity="0.507874" nType="-99"/>
            <Node pos="r" depth="3" NCoef="0" IVar="2" Cut="6173.93" cType="1" res="0.0350424" purity="0.521769" nType="0">
              <Node pos="l" depth="4" NCoef="0" IVar="-1" Cut="0" cType="1" res="0.00302668" purity="0.516998" nType="-99"/>
              <Node pos="r" depth="4" NCoef="0" IVar="-1" Cut="0" cType="1" res="-0.000499687" purity="0.52827" nType="-99"/>
            </Node>
          </Node>
        </Node>
      </Node>
    </BinaryTree>
    <BinaryTree type="DecisionTree" boostWeight="1.0" itree="321">
      <Node pos="s" depth="0" NCoef="0" IVar="3" Cut="114041" cType="1" res="0.000494164" purity="0.498607" nType="0">
        <Node pos="l" depth="1" NCoef="0" IVar="-1" Cut="0" cType="1" res="-0.00373747" purity="0.421079" nType="-99"/>
        <Node pos="r" depth="1" NCoef="0" IVar="1" Cut="141161" cType="1" res="0.00433025" purity="0.503051" nType="0">
          <Node pos="l" depth="2" NCoef="0" IVar="0" Cut="173152" cType="1" res="-0.00348636" purity="0.494726" nType="0">
            <Node pos="l" depth="3" NCoef="0" IVar="4" Cut="178116" cType="1" res="-0.0125633" purity="0.466883" nType="0">
              <Node pos="l" depth="4" NCoef="0" IVar="-1" Cut="0" cType="1" res="0.000705834" purity="0.547727" nType="-99"/>
              <Node pos="r" depth="4" NCoef="0" IVar="-1" Cut="0" cType="1" res="-0.00127478" purity="0.43386" nType="-99"/>
            </Node>
            <Node pos="r" depth="3" NCoef="0" IVar="5" Cut="0.711835" cType="1" res="0.028355" purity="0.592399" nType="0">
              <Node pos="l" depth="4" NCoef="0" IVar="-1" Cut="0" cType="1" res="-0.000776109" purity="0.569592" nType="-99"/>
              <Node pos="r" depth="4" NCoef="0" IVar="-1" Cut="0" cType="1" res="0.00177292" purity="0.599747" nType="-99"/>
            </Node>
          </Node>
          <Node pos="r" depth="2" NCoef="0" IVar="0" Cut="153653" cType="1" res="0.0342892" purity="0.534958" nType="0">
            <Node pos="l" depth="3" NCoef="0" IVar="5" Cut="2.2041" cType="1" res="0.053869" purity="0.525392" nType="0">
              <Node pos="l" depth="4" NCoef="0" IVar="-1" Cut="0" cType="1" res="0.00322287" purity="0.583328" nType="-99"/>
              <Node pos="r" depth="4" NCoef="0" IVar="-1" Cut="0" cType="1" res="0.00134313" purity="0.466435" nType="-99"/>
            </Node>
            <Node pos="r" depth="3" NCoef="0" IVar="-1" Cut="0" cType="1" res="5.52814e-05" purity="0.551116" nType="-99"/>
          </Node>
        </Node>
      </Node>
    </BinaryTree>
    <BinaryTree type="DecisionTree" boostWeight="1.0" itree="322">
      <Node pos="s" depth="0" NCoef="0" IVar="5" Cut="1.68698" cType="1" res="-0.00702638" purity="0.487543" nType="0">
        <Node pos="l" depth="1" NCoef="0" IVar="5" Cut="1.19394" cType="1" res="0.00437337" purity="0.508997" nType="0">
          <Node pos="l" depth="2" NCoef="0" IVar="4" Cut="334224" cType="1" res="-0.00992598" purity="0.505404" nType="0">
            <Node pos="l" depth="3" NCoef="0" IVar="0" Cut="148756" cType="1" res="-0.0210262" purity="0.508397" nType="0">
              <Node pos="l" depth="4" NCoef="0" IVar="-1" Cut="0" cType="1" res="-0.00218364" purity="0.455067" nType="-99"/>
              <Node pos="r" depth="4" NCoef="0" IVar="-1" Cut="0" cType="1" res="-2.43765e-05" purity="0.556798" nType="-99"/>
            </Node>
            <Node pos="r" depth="3" NCoef="0" IVar="-1" Cut="0" cType="1" res="0.00161071" purity="0.4935" nType="-99"/>
          </Node>
          <Node pos="r" depth="2" NCoef="0" IVar="2" Cut="-4418.55" cType="1" res="0.0233469" purity="0.513763" nType="0">
            <Node pos="l" depth="3" NCoef="0" IVar="-1" Cut="0" cType="1" res="0.00347343" purity="0.47239" nType="-99"/>
            <Node pos="r" depth="3" NCoef="0" IVar="6" Cut="2.21964" cType="1" res="0.00514506" purity="0.529845" nType="0">
              <Node pos="l" depth="4" NCoef="0" IVar="-1" Cut="0" cType="1" res="-0.000418844" purity="0.532501" nType="-99"/>
              <Node pos="r" depth="4" NCoef="0" IVar="-1" Cut="0" cType="1" res="0.00196856" purity="0.522607" nType="-99"/>
            </Node>
          </Node>
        </Node>
        <Node pos="r" depth="1" NCoef="0" IVar="5" Cut="2.68047" cType="1" res="-0.0284309" purity="0.44726" nType="0">
          <Node pos="l" depth="2" NCoef="0" IVar="2" Cut="1378.91" cType="1" res="-0.0466736" purity="0.438885" nType="0">
            <Node pos="l" depth="3" NCoef="0" IVar="6" Cut="2.38763" cType="1" res="-0.0914968" purity="0.322067" nType="0">
              <Node pos="l" depth="4" NCoef="0" IVar="-1" Cut="0" cType="1" res="-0.0125541" purity="0.265956" nType="-99"/>
              <Node pos="r" depth="4" NCoef="0" IVar="-1" Cut="0" cType="1" res="-0.00230734" purity="0.364166" nType="-99"/>
            </Node>
            <Node pos="r" depth="3" NCoef="0" IVar="6" Cut="1.24884" cType="1" res="-0.0171829" purity="0.515744" nType="0">
              <Node pos="l" depth="4" NCoef="0" IVar="-1" Cut="0" cType="1" res="-0.00358985" purity="0.458822" nType="-99"/>
              <Node pos="r" depth="4" NCoef="0" IVar="-1" Cut="0" cType="1" res="0.00185627" purity="0.580093" nType="-99"/>
            </Node>
          </Node>
          <Node pos="r" depth="2" NCoef="0" IVar="-1" Cut="0" cType="1" res="0.00128218" purity="0.472351" nType="-99"/>
        </Node>
      </Node>
    </BinaryTree>
    <BinaryTree type="DecisionTree" boostWeight="1.0" itree="323">
      <Node pos="s" depth="0" NCoef="0" IVar="4" Cut="431724" cType="1" res="0.00359645" purity="0.4968" nType="0">
        <Node pos="l" depth="1" NCoef="0" IVar="5" Cut="2.06977" cType="1" res="0.00766242" purity="0.504288" nType="0">
          <Node pos="l" depth="2" NCoef="0" IVar="2" Cut="-9280.05" cType="1" res="0.000149211" purity="0.50472" nType="0">
            <Node pos="l" depth="3" NCoef="0" IVar="0" Cut="134049" cType="1" res="0.0269914" purity="0.430769" nType="0">
              <Node pos="l" depth="4" NCoef="0" IVar="-1" Cut="0" cType="1" res="-0.000431752" purity="0.368234" nType="-99"/>
              <Node pos="r" depth="4" NCoef="0" IVar="-1" Cut="0" cType="1" res="0.00314612" purity="0.50503" nType="-99"/>
            </Node>
            <Node pos="r" depth="3" NCoef="0" IVar="2" Cut="14689.3" cType="1" res="-0.00443569" purity="0.517351" nType="0">
              <Node pos="l" depth="4" NCoef="0" IVar="-1" Cut="0" cType="1" res="-0.000600368" purity="0.466811" nType="-99"/>
              <Node pos="r" depth="4" NCoef="0" IVar="-1" Cut="0" cType="1" res="0.000731675" purity="0.658128" nType="-99"/>
            </Node>
          </Node>
          <Node pos="r" depth="2" NCoef="0" IVar="0" Cut="153643" cType="1" res="0.0323041" purity="0.50287" nType="0">
            <Node pos="l" depth="3" NCoef="0" IVar="3" Cut="181067" cType="1" res="0.0510287" purity="0.511708" nType="0">
              <Node pos="l" depth="4" NCoef="0" IVar="-1" Cut="0" cType="1" res="0.00102065" purity="0.490027" nType="-99"/>
              <Node pos="r" depth="4" NCoef="0" IVar="-1" Cut="0" cType="1" res="0.0044984" purity="0.552205" nType="-99"/>
            </Node>
            <Node pos="r" depth="3" NCoef="0" IVar="-1" Cut="0" cType="1" res="-0.0026229" purity="0.463746" nType="-99"/>
          </Node>
        </Node>
        <Node pos="r" depth="1" NCoef="0" IVar="-1" Cut="0" cType="1" res="-0.00604606" purity="0.325491" nType="-99"/>
      </Node>
    </BinaryTree>
    <BinaryTree type="DecisionTree" boostWeight="1.0" itree="324">
      <Node pos="s" depth="0" NCoef="0" IVar="5" Cut="0.691733" cType="1" res="-0.0010919" purity="0.492026" nType="0">
        <Node pos="l" depth="1" NCoef="0" IVar="-1" Cut="0" cType="1" res="-0.00370032" purity="0.493499" nType="-99"/>
        <Node pos="r" depth="1" NCoef="0" IVar="5" Cut="1.88679" cType="1" res="0.00369793" purity="0.491925" nType="0">
          <Node pos="l" depth="2" NCoef="0" IVar="4" Cut="314659" cType="1" res="0.0146566" purity="0.50992" nType="0">
            <Node pos="l" depth="3" NCoef="0" IVar="0" Cut="114610" cType="1" res="0.00607465" purity="0.513419" nType="0">
              <Node pos="l" depth="4" NCoef="0" IVar="-1" Cut="0" cType="1" res="-0.000955101" purity="0.436693" nType="-99"/>
              <Node pos="r" depth="4" NCoef="0" IVar="-1" Cut="0" cType="1" res="0.000609865" purity="0.536718" nType="-99"/>
            </Node>
            <Node pos="r" depth="3" NCoef="0" IVar="6" Cut="1.45564" cType="1" res="0.0486235" purity="0.496071" nType="0">
              <Node pos="l" depth="4" NCoef="0" IVar="-1" Cut="0" cType="1" res="0.00528464" purity="0.575786" nType="-99"/>
              <Node pos="r" depth="4" NCoef="0" IVar="-1" Cut="0" cType="1" res="0.000346377" purity="0.454343" nType="-99"/>
            </Node>
          </Node>
          <Node pos="r" depth="2" NCoef="0" IVar="3" Cut="158696" cType="1" res="-0.0232464" purity="0.447682" nType="0">
            <Node pos="l" depth="3" NCoef="0" IVar="3" Cut="135072" cType="1" res="0.0125255" purity="0.495257" nType="0">
              <Node pos="l" depth="4" NCoef="0" IVar="-1" Cut="0" cType="1" res="-0.00114667" purity="0.457639" nType="-99"/>
              <Node pos="r" depth="4" NCoef="0" IVar="-1" Cut="0" cType="1" res="0.00187321" purity="0.526297" nType="-99"/>
            </Node>
            <Node pos="r" depth="3" NCoef="0" IVar="0" Cut="119503" cType="1" res="-0.0492373" purity="0.413115" nType="0">
              <Node pos="l" depth="4" NCoef="0" IVar="-1" Cut="0" cType="1" res="-0.000991816" purity="0.418259" nType="-99"/>
              <Node pos="r" depth="4" NCoef="0" IVar="-1" Cut="0" cType="1" res="-0.0043952" purity="0.408116" nType="-99"/>
            </Node>
          </Node>
        </Node>
      </Node>
    </BinaryTree>
    <BinaryTree type="DecisionTree" boostWeight="1.0" itree="325">
      <Node pos="s" depth="0" NCoef="0" IVar="4" Cut="441465" cType="1" res="0.00428331" purity="0.500357" nType="0">
        <Node pos="l" depth="1" NCoef="0" IVar="4" Cut="191652" cType="1" res="0.000649215" purity="0.501174" nType="0">
          <Node pos="l" depth="2" NCoef="0" IVar="3" Cut="148522" cType="1" res="0.0241645" purity="0.565855" nType="0">
            <Node pos="l" depth="3" NCoef="0" IVar="-1" Cut="0" cType="1" res="-0.00146461" purity="0.514854" nType="-99"/>
            <Node pos="r" depth="3" NCoef="0" IVar="1" Cut="110358" cType="1" res="0.0391121" purity="0.579825" nType="0">
              <Node pos="l" depth="4" NCoef="0" IVar="-1" Cut="0" cType="1" res="0.00233319" purity="0.569781" nType="-99"/>
              <Node pos="r" depth="4" NCoef="0" IVar="-1" Cut="0" cType="1" res="0.000188605" purity="0.601852" nType="-99"/>
            </Node>
          </Node>
          <Node pos="r" depth="2" NCoef="0" IVar="0" Cut="129252" cType="1" res="-0.0117865" purity="0.466968" nType="0">
            <Node pos="l" depth="3" NCoef="0" IVar="4" Cut="331772" cType="1" res="0.00793684" purity="0.444296" nType="0">
              <Node pos="l" depth="4" NCoef="0" IVar="-1" Cut="0" cType="1" res="0.00104905" purity="0.469046" nType="-99"/>
              <Node pos="r" depth="4" NCoef="0" IVar="-1" Cut="0" cType="1" res="-0.00339105" purity="0.330557" nType="-99"/>
            </Node>
            <Node pos="r" depth="3" NCoef="0" IVar="3" Cut="177878" cType="1" res="-0.0289208" purity="0.486664" nType="0">
              <Node pos="l" depth="4" NCoef="0" IVar="-1" Cut="0" cType="1" res="-0.00033826" purity="0.512272" nType="-99"/>
              <Node pos="r" depth="4" NCoef="0" IVar="-1" Cut="0" cType="1" res="-0.00363502" purity="0.440376" nType="-99"/>
            </Node>
          </Node>
        </Node>
        <Node pos="r" depth="1" NCoef="0" IVar="-1" Cut="0" cType="1" res="0.00379722" purity="0.483452" nType="-99"/>
      </Node>
    </BinaryTree>
    <BinaryTree type="DecisionTree" boostWeight="1.0" itree="326">
      <Node pos="s" depth="0" NCoef="0" IVar="1" Cut="95116.4" cType="1" res="0.00328322" purity="0.496417" nType="0">
        <Node pos="l" depth="1" NCoef="0" IVar="1" Cut="93368.7" cType="1" res="-0.0384076" purity="0.420573" nType="0">
          <Node pos="l" depth="2" NCoef="0" IVar="1" Cut="91315.2" cType="1" res="-0.000881181" purity="0.463915" nType="0">
            <Node pos="l" depth="3" NCoef="0" IVar="-1" Cut="0" cType="1" res="-0.00222726" purity="0.421136" nType="-99"/>
            <Node pos="r" depth="3" NCoef="0" IVar="-1" Cut="0" cType="1" res="0.00125858" purity="0.491894" nType="-99"/>
          </Node>
          <Node pos="r" depth="2" NCoef="0" IVar="-1" Cut="0" cType="1" res="-0.00905827" purity="0.314639" nType="-99"/>
        </Node>
        <Node pos="r" depth="1" NCoef="0" IVar="4" Cut="226808" cType="1" res="0.0104877" purity="0.509524" nType="0">
          <Node pos="l" depth="2" NCoef="0" IVar="2" Cut="11542.9" cType="1" res="-0.00218608" purity="0.533255" nType="0">
            <Node pos="l" depth="3" NCoef="0" IVar="1" Cut="105898" cType="1" res="-0.0211603" purity="0.45818" nType="0">
              <Node pos="l" depth="4" NCoef="0" IVar="-1" Cut="0" cType="1" res="0.000799241" purity="0.475254" nType="-99"/>
              <Node pos="r" depth="4" NCoef="0" IVar="-1" Cut="0" cType="1" res="-0.00283275" purity="0.442841" nType="-99"/>
            </Node>
            <Node pos="r" depth="3" NCoef="0" IVar="6" Cut="1.34162" cType="1" res="0.0325413" purity="0.670659" nType="0">
              <Node pos="l" depth="4" NCoef="0" IVar="-1" Cut="0" cType="1" res="0.0021101" purity="0.671485" nType="-99"/>
              <Node pos="r" depth="4" NCoef="0" IVar="-1" Cut="0" cType="1" res="0.000184842" purity="0.669561" nType="-99"/>
            </Node>
          </Node>
          <Node pos="r" depth="2" NCoef="0" IVar="4" Cut="246798" cType="1" res="0.0218411" purity="0.488265" nType="0">
            <Node pos="l" depth="3" NCoef="0" IVar="-1" Cut="0" cType="1" res="0.0024512" purity="0.568149" nType="-99"/>
            <Node pos="r" depth="3" NCoef="0" IVar="4" Cut="271498" cType="1" res="0.0141939" purity="0.470758" nType="0">
              <Node pos="l" depth="4" NCoef="0" IVar="-1" Cut="0" cType="1" res="-0.00178968" purity="0.436268" nType="-99"/>
              <Node pos="r" depth="4" NCoef="0" IVar="-1" Cut="0" cType="1" res="0.0012484" purity="0.478562" nType="-99"/>
            </Node>
          </Node>
        </Node>
      </Node>
    </BinaryTree>
    <BinaryTree type="DecisionTree" boostWeight="1.0" itree="327">
      <Node pos="s" depth="0" NCoef="0" IVar="3" Cut="108591" cType="1" res="0.00737506" purity="0.500302" nType="0">
        <Node pos="l" depth="1" NCoef="0" IVar="-1" Cut="0" cType="1" res="0.00407855" purity="0.567563" nType="-99"/>
        <Node pos="r" depth="1" NCoef="0" IVar="3" Cut="150568" cType="1" res="0.00262383" purity="0.496645" nType="0">
          <Node pos="l" depth="2" NCoef="0" IVar="5" Cut="1.15197" cType="1" res="-0.0283677" purity="0.472189" nType="0">
            <Node pos="l" depth="3" NCoef="0" IVar="-1" Cut="0" cType="1" res="0.000481538" purity="0.525909" nType="-99"/>
            <Node pos="r" depth="3" NCoef="0" IVar="3" Cut="131119" cType="1" res="-0.0507795" purity="0.441291" nType="0">
              <Node pos="l" depth="4" NCoef="0" IVar="-1" Cut="0" cType="1" res="-0.00577688" purity="0.392866" nType="-99"/>
              <Node pos="r" depth="4" NCoef="0" IVar="-1" Cut="0" cType="1" res="-0.001186" purity="0.469016" nType="-99"/>
            </Node>
          </Node>
          <Node pos="r" depth="2" NCoef="0" IVar="5" Cut="2.68368" cType="1" res="0.011307" purity="0.503497" nType="0">
            <Node pos="l" depth="3" NCoef="0" IVar="2" Cut="-9296.08" cType="1" res="0.00577615" purity="0.502794" nType="0">
              <Node pos="l" depth="4" NCoef="0" IVar="-1" Cut="0" cType="1" res="0.00241949" purity="0.44643" nType="-99"/>
              <Node pos="r" depth="4" NCoef="0" IVar="-1" Cut="0" cType="1" res="-4.16698e-05" purity="0.511905" nType="-99"/>
            </Node>
            <Node pos="r" depth="3" NCoef="0" IVar="-1" Cut="0" cType="1" res="0.00328187" purity="0.511225" nType="-99"/>
          </Node>
        </Node>
      </Node>
    </BinaryTree>
    <BinaryTree type="DecisionTree" boostWeight="1.0" itree="328">
      <Node pos="s" depth="0" NCoef="0" IVar="3" Cut="229876" cType="1" res="0.0233976" purity="0.516018" nType="0">
        <Node pos="l" depth="1" NCoef="0" IVar="6" Cut="2.60521" cType="1" res="0.0200504" purity="0.513091" nType="0">
          <Node pos="l" depth="2" NCoef="0" IVar="5" Cut="2.60557" cType="1" res="0.013024" purity="0.52538" nType="0">
            <Node pos="l" depth="3" NCoef="0" IVar="4" Cut="148865" cType="1" res="0.0181593" purity="0.536371" nType="0">
              <Node pos="l" depth="4" NCoef="0" IVar="-1" Cut="0" cType="1" res="-0.00146215" purity="0.529023" nType="-99"/>
              <Node pos="r" depth="4" NCoef="0" IVar="-1" Cut="0" cType="1" res="0.00100391" purity="0.536991" nType="-99"/>
            </Node>
            <Node pos="r" depth="3" NCoef="0" IVar="-1" Cut="0" cType="1" res="-0.00183273" purity="0.425342" nType="-99"/>
          </Node>
          <Node pos="r" depth="2" NCoef="0" IVar="4" Cut="227029" cType="1" res="0.0469259" purity="0.466084" nType="0">
            <Node pos="l" depth="3" NCoef="0" IVar="4" Cut="186849" cType="1" res="0.00654131" purity="0.444395" nType="0">
              <Node pos="l" depth="4" NCoef="0" IVar="-1" Cut="0" cType="1" res="0.00116445" purity="0.473114" nType="-99"/>
              <Node pos="r" depth="4" NCoef="0" IVar="-1" Cut="0" cType="1" res="-0.000566325" purity="0.416032" nType="-99"/>
            </Node>
            <Node pos="r" depth="3" NCoef="0" IVar="0" Cut="124411" cType="1" res="0.0752255" purity="0.481282" nType="0">
              <Node pos="l" depth="4" NCoef="0" IVar="-1" Cut="0" cType="1" res="0.00217547" purity="0.389463" nType="-99"/>
              <Node pos="r" depth="4" NCoef="0" IVar="-1" Cut="0" cType="1" res="0.00416448" purity="0.534541" nType="-99"/>
            </Node>
          </Node>
        </Node>
        <Node pos="r" depth="1" NCoef="0" IVar="-1" Cut="0" cType="1" res="0.00372752" purity="0.574365" nType="-99"/>
      </Node>
    </BinaryTree>
    <BinaryTree type="DecisionTree" boostWeight="1.0" itree="329">
      <Node pos="s" depth="0" NCoef="0" IVar="4" Cut="148783" cType="1" res="0.00680951" purity="0.500025" nType="0">
        <Node pos="l" depth="1" NCoef="0" IVar="-1" Cut="0" cType="1" res="-0.00289044" purity="0.474972" nType="-99"/>
        <Node pos="r" depth="1" NCoef="0" IVar="3" Cut="188795" cType="1" res="0.0108157" purity="0.501568" nType="0">
          <Node pos="l" depth="2" NCoef="0" IVar="4" Cut="345805" cType="1" res="0.00370619" purity="0.499832" nType="0">
            <Node pos="l" depth="3" NCoef="0" IVar="4" Cut="225674" cType="1" res="0.00964402" purity="0.517211" nType="0">
              <Node pos="l" depth="4" NCoef="0" IVar="-1" Cut="0" cType="1" res="-0.000236999" purity="0.526932" nType="-99"/>
              <Node pos="r" depth="4" NCoef="0" IVar="-1" Cut="0" cType="1" res="0.00133953" purity="0.504893" nType="-99"/>
            </Node>
            <Node pos="r" depth="3" NCoef="0" IVar="4" Cut="421025" cType="1" res="-0.0289417" purity="0.404278" nType="0">
              <Node pos="l" depth="4" NCoef="0" IVar="-1" Cut="0" cType="1" res="-0.00403435" purity="0.372006" nType="-99"/>
              <Node pos="r" depth="4" NCoef="0" IVar="-1" Cut="0" cType="1" res="0.00157609" purity="0.456183" nType="-99"/>
            </Node>
          </Node>
          <Node pos="r" depth="2" NCoef="0" IVar="2" Cut="913.577" cType="1" res="0.0332357" purity="0.507042" nType="0">
            <Node pos="l" depth="3" NCoef="0" IVar="1" Cut="115348" cType="1" res="0.0714124" purity="0.498577" nType="0">
              <Node pos="l" depth="4" NCoef="0" IVar="-1" Cut="0" cType="1" res="0.00183748" purity="0.447662" nType="-99"/>
              <Node pos="r" depth="4" NCoef="0" IVar="-1" Cut="0" cType="1" res="0.00439193" purity="0.552901" nType="-99"/>
            </Node>
            <Node pos="r" depth="3" NCoef="0" IVar="0" Cut="153629" cType="1" res="0.000814558" purity="0.51423" nType="0">
              <Node pos="l" depth="4" NCoef="0" IVar="-1" Cut="0" cType="1" res="0.00095112" purity="0.509832" nType="-99"/>
              <Node pos="r" depth="4" NCoef="0" IVar="-1" Cut="0" cType="1" res="-0.0016371" purity="0.521848" nType="-99"/>
            </Node>
          </Node>
        </Node>
      </Node>
    </BinaryTree>
    <BinaryTree type="DecisionTree" boostWeight="1.0" itree="330">
      <Node pos="s" depth="0" NCoef="0" IVar="1" Cut="100242" cType="1" res="0.0061876" purity="0.501046" nType="0">
        <Node pos="l" depth="1" NCoef="0" IVar="0" Cut="109757" cType="1" res="0.0318528" purity="0.500298" nType="0">
          <Node pos="l" depth="2" NCoef="0" IVar="-1" Cut="0" cType="1" res="0.00342977" purity="0.512379" nType="-99"/>
          <Node pos="r" depth="2" NCoef="0" IVar="5" Cut="0.897797" cType="1" res="0.0201125" purity="0.497259" nType="0">
            <Node pos="l" depth="3" NCoef="0" IVar="5" Cut="0.723043" cType="1" res="0.058058" purity="0.560558" nType="0">
              <Node pos="l" depth="4" NCoef="0" IVar="-1" Cut="0" cType="1" res="0.000496247" purity="0.547114" nType="-99"/>
              <Node pos="r" depth="4" NCoef="0" IVar="-1" Cut="0" cType="1" res="0.00423334" purity="0.574052" nType="-99"/>
            </Node>
            <Node pos="r" depth="3" NCoef="0" IVar="6" Cut="2.52852" cType="1" res="-0.00368844" purity="0.457555" nType="0">
              <Node pos="l" depth="4" NCoef="0" IVar="-1" Cut="0" cType="1" res="-0.00101835" purity="0.457225" nType="-99"/>
              <Node pos="r" depth="4" NCoef="0" IVar="-1" Cut="0" cType="1" res="0.00187276" purity="0.458368" nType="-99"/>
            </Node>
          </Node>
        </Node>
        <Node pos="r" depth="1" NCoef="0" IVar="1" Cut="197644" cType="1" res="-0.00518062" purity="0.501378" nType="0">
          <Node pos="l" depth="2" NCoef="0" IVar="6" Cut="2.75844" cType="1" res="-0.0121797" purity="0.497579" nType="0">
            <Node pos="l" depth="3" NCoef="0" IVar="4" Cut="159406" cType="1" res="-0.00499198" purity="0.517965" nType="0">
              <Node pos="l" depth="4" NCoef="0" IVar="-1" Cut="0" cType="1" res="-0.003673" purity="0.504337" nType="-99"/>
              <Node pos="r" depth="4" NCoef="0" IVar="-1" Cut="0" cType="1" res="8.93389e-05" purity="0.519333" nType="-99"/>
            </Node>
            <Node pos="r" depth="3" NCoef="0" IVar="-1" Cut="0" cType="1" res="-0.00428465" purity="0.340143" nType="-99"/>
          </Node>
          <Node pos="r" depth="2" NCoef="0" IVar="-1" Cut="0" cType="1" res="0.00259121" purity="0.536945" nType="-99"/>
        </Node>
      </Node>
    </BinaryTree>
    <BinaryTree type="DecisionTree" boostWeight="1.0" itree="331">
      <Node pos="s" depth="0" NCoef="0" IVar="1" Cut="156559" cType="1" res="-0.00363877" purity="0.491024" nType="0">
        <Node pos="l" depth="1" NCoef="0" IVar="4" Cut="168379" cType="1" res="-0.00986208" purity="0.486055" nType="0">
          <Node pos="l" depth="2" NCoef="0" IVar="6" Cut="1.83816" cType="1" res="0.0253846" purity="0.574018" nType="0">
            <Node pos="l" depth="3" NCoef="0" IVar="-1" Cut="0" cType="1" res="0.0020174" purity="0.620141" nType="-99"/>
            <Node pos="r" depth="3" NCoef="0" IVar="-1" Cut="0" cType="1" res="-0.000309339" purity="0.507296" nType="-99"/>
          </Node>
          <Node pos="r" depth="2" NCoef="0" IVar="4" Cut="225027" cType="1" res="-0.0190638" purity="0.463091" nType="0">
            <Node pos="l" depth="3" NCoef="0" IVar="6" Cut="1.99217" cType="1" res="-0.0470263" purity="0.464253" nType="0">
              <Node pos="l" depth="4" NCoef="0" IVar="-1" Cut="0" cType="1" res="-0.00386867" purity="0.46363" nType="-99"/>
              <Node pos="r" depth="4" NCoef="0" IVar="-1" Cut="0" cType="1" res="-0.000689089" purity="0.464973" nType="-99"/>
            </Node>
            <Node pos="r" depth="3" NCoef="0" IVar="1" Cut="94869" cType="1" res="0.00320765" purity="0.462166" nType="0">
              <Node pos="l" depth="4" NCoef="0" IVar="-1" Cut="0" cType="1" res="-0.00310893" purity="0.374874" nType="-99"/>
              <Node pos="r" depth="4" NCoef="0" IVar="-1" Cut="0" cType="1" res="0.000592789" purity="0.476369" nType="-99"/>
            </Node>
          </Node>
        </Node>
        <Node pos="r" depth="1" NCoef="0" IVar="2" Cut="7894.76" cType="1" res="0.0303605" purity="0.518168" nType="0">
          <Node pos="l" depth="2" NCoef="0" IVar="6" Cut="2.14387" cType="1" res="0.0667422" purity="0.502712" nType="0">
            <Node pos="l" depth="3" NCoef="0" IVar="-1" Cut="0" cType="1" res="0.00491864" purity="0.548658" nType="-99"/>
            <Node pos="r" depth="3" NCoef="0" IVar="-1" Cut="0" cType="1" res="0.000830909" purity="0.455807" nType="-99"/>
          </Node>
          <Node pos="r" depth="2" NCoef="0" IVar="-1" Cut="0" cType="1" res="-0.000851935" purity="0.538902" nType="-99"/>
        </Node>
      </Node>
    </BinaryTree>
    <BinaryTree type="DecisionTree" boostWeight="1.0" itree="332">
      <Node pos="s" depth="0" NCoef="0" IVar="2" Cut="-2479.93" cType="1" res="0.0114801" purity="0.507509" nType="0">
        <Node pos="l" depth="1" NCoef="0" IVar="5" Cut="1.49763" cType="1" res="-0.0147753" purity="0.392006" nType="0">
          <Node pos="l" depth="2" NCoef="0" IVar="6" Cut="2.86345" cType="1" res="0.00859714" purity="0.422355" nType="0">
            <Node pos="l" depth="3" NCoef="0" IVar="1" Cut="104189" cType="1" res="0.0322719" purity="0.444217" nType="0">
              <Node pos="l" depth="4" NCoef="0" IVar="-1" Cut="0" cType="1" res="6.28516e-05" purity="0.390021" nType="-99"/>
              <Node pos="r" depth="4" NCoef="0" IVar="-1" Cut="0" cType="1" res="0.00290123" purity="0.503412" nType="-99"/>
            </Node>
            <Node pos="r" depth="3" NCoef="0" IVar="-1" Cut="0" cType="1" res="-0.0016296" purity="0.387974" nType="-99"/>
          </Node>
          <Node pos="r" depth="2" NCoef="0" IVar="3" Cut="177610" cType="1" res="-0.0418041" purity="0.356909" nType="0">
            <Node pos="l" depth="3" NCoef="0" IVar="-1" Cut="0" cType="1" res="-0.000612098" purity="0.382837" nType="-99"/>
            <Node pos="r" depth="3" NCoef="0" IVar="-1" Cut="0" cType="1" res="-0.00703367" purity="0.305559" nType="-99"/>
          </Node>
        </Node>
        <Node pos="r" depth="1" NCoef="0" IVar="4" Cut="382921" cType="1" res="0.0211731" purity="0.55015" nType="0">
          <Node pos="l" depth="2" NCoef="0" IVar="5" Cut="0.76943" cType="1" res="0.0152382" purity="0.551099" nType="0">
            <Node pos="l" depth="3" NCoef="0" IVar="-1" Cut="0" cType="1" res="-0.00167212" purity="0.562978" nType="-99"/>
            <Node pos="r" depth="3" NCoef="0" IVar="1" Cut="136035" cType="1" res="0.022042" purity="0.549529" nType="0">
              <Node pos="l" depth="4" NCoef="0" IVar="-1" Cut="0" cType="1" res="0.00142786" purity="0.555988" nType="-99"/>
              <Node pos="r" depth="4" NCoef="0" IVar="-1" Cut="0" cType="1" res="-0.00049196" purity="0.529028" nType="-99"/>
            </Node>
          </Node>
          <Node pos="r" depth="2" NCoef="0" IVar="-1" Cut="0" cType="1" res="0.00320113" purity="0.541639" nType="-99"/>
        </Node>
      </Node>
    </BinaryTree>
    <BinaryTree type="DecisionTree" boostWeight="1.0" itree="333">
      <Node pos="s" depth="0" NCoef="0" IVar="3" Cut="223841" cType="1" res="-0.00695314" purity="0.489385" nType="0">
        <Node pos="l" depth="1" NCoef="0" IVar="6" Cut="0.459711" cType="1" res="-0.00384391" purity="0.493094" nType="0">
          <Node pos="l" depth="2" NCoef="0" IVar="5" Cut="1.25557" cType="1" res="0.0360749" purity="0.53057" nType="0">
            <Node pos="l" depth="3" NCoef="0" IVar="-1" Cut="0" cType="1" res="0.00265118" purity="0.55417" nType="-99"/>
            <Node pos="r" depth="3" NCoef="0" IVar="-1" Cut="0" cType="1" res="0.000724969" purity="0.5135" nType="-99"/>
          </Node>
          <Node pos="r" depth="2" NCoef="0" IVar="5" Cut="2.7584" cType="1" res="-0.00931082" purity="0.487961" nType="0">
            <Node pos="l" depth="3" NCoef="0" IVar="0" Cut="104878" cType="1" res="-0.00436834" purity="0.496222" nType="0">
              <Node pos="l" depth="4" NCoef="0" IVar="-1" Cut="0" cType="1" res="-0.0025346" purity="0.370743" nType="-99"/>
              <Node pos="r" depth="4" NCoef="0" IVar="-1" Cut="0" cType="1" res="-4.46185e-05" purity="0.507629" nType="-99"/>
            </Node>
            <Node pos="r" depth="3" NCoef="0" IVar="-1" Cut="0" cType="1" res="-0.00655673" purity="0.335316" nType="-99"/>
          </Node>
        </Node>
        <Node pos="r" depth="1" NCoef="0" IVar="-1" Cut="0" cType="1" res="-0.00341316" purity="0.420394" nType="-99"/>
      </Node>
    </BinaryTree>
    <BinaryTree type="DecisionTree" boostWeight="1.0" itree="334">
      <Node pos="s" depth="0" NCoef="0" IVar="5" Cut="0.921368" cType="1" res="0.00693119" purity="0.502125" nType="0">
        <Node pos="l" depth="1" NCoef="0" IVar="0" Cut="221918" cType="1" res="-0.0153083" purity="0.524076" nType="0">
          <Node pos="l" depth="2" NCoef="0" IVar="4" Cut="207369" cType="1" res="-0.0327058" purity="0.49295" nType="0">
            <Node pos="l" depth="3" NCoef="0" IVar="-1" Cut="0" cType="1" res="-0.000115657" purity="0.549725" nType="-99"/>
            <Node pos="r" depth="3" NCoef="0" IVar="-1" Cut="0" cType="1" res="-0.0038047" purity="0.423108" nType="-99"/>
          </Node>
          <Node pos="r" depth="2" NCoef="0" IVar="-1" Cut="0" cType="1" res="0.00182415" purity="0.636738" nType="-99"/>
        </Node>
        <Node pos="r" depth="1" NCoef="0" IVar="1" Cut="207758" cType="1" res="0.0122868" purity="0.496839" nType="0">
          <Node pos="l" depth="2" NCoef="0" IVar="3" Cut="136315" cType="1" res="0.0150749" purity="0.499836" nType="0">
            <Node pos="l" depth="3" NCoef="0" IVar="2" Cut="-1860.47" cType="1" res="0.0453088" purity="0.529766" nType="0">
              <Node pos="l" depth="4" NCoef="0" IVar="-1" Cut="0" cType="1" res="0.00359446" purity="0.477376" nType="-99"/>
              <Node pos="r" depth="4" NCoef="0" IVar="-1" Cut="0" cType="1" res="0.00125392" purity="0.559008" nType="-99"/>
            </Node>
            <Node pos="r" depth="3" NCoef="0" IVar="3" Cut="148279" cType="1" res="0.00900692" purity="0.49383" nType="0">
              <Node pos="l" depth="4" NCoef="0" IVar="-1" Cut="0" cType="1" res="-0.00296062" purity="0.444725" nType="-99"/>
              <Node pos="r" depth="4" NCoef="0" IVar="-1" Cut="0" cType="1" res="0.000725525" purity="0.498633" nType="-99"/>
            </Node>
          </Node>
          <Node pos="r" depth="2" NCoef="0" IVar="-1" Cut="0" cType="1" res="-0.00188781" purity="0.443835" nType="-99"/>
        </Node>
      </Node>
    </BinaryTree>
    <BinaryTree type="DecisionTree" boostWeight="1.0" itree="335">
      <Node pos="s" depth="0" NCoef="0" IVar="3" Cut="200464" cType="1" res="0.0104" purity="0.504653" nType="0">
        <Node pos="l" depth="1" NCoef="0" IVar="6" Cut="0.996148" cType="1" res="0.0173355" purity="0.514197" nType="0">
          <Node pos="l" depth="2" NCoef="0" IVar="3" Cut="166581" cType="1" res="0.0542602" purity="0.561145" nType="0">
            <Node pos="l" depth="3" NCoef="0" IVar="6" Cut="0.388279" cType="1" res="0.0294802" purity="0.54032" nType="0">
              <Node pos="l" depth="4" NCoef="0" IVar="-1" Cut="0" cType="1" res="0.00287704" purity="0.586759" nType="-99"/>
              <Node pos="r" depth="4" NCoef="0" IVar="-1" Cut="0" cType="1" res="-0.000187421" purity="0.504819" nType="-99"/>
            </Node>
            <Node pos="r" depth="3" NCoef="0" IVar="3" Cut="179807" cType="1" res="0.0845563" purity="0.586606" nType="0">
              <Node pos="l" depth="4" NCoef="0" IVar="-1" Cut="0" cType="1" res="0.00389885" purity="0.61068" nType="-99"/>
              <Node pos="r" depth="4" NCoef="0" IVar="-1" Cut="0" cType="1" res="0.00283104" purity="0.557495" nType="-99"/>
            </Node>
          </Node>
          <Node pos="r" depth="2" NCoef="0" IVar="3" Cut="118486" cType="1" res="0.00393741" purity="0.497161" nType="0">
            <Node pos="l" depth="3" NCoef="0" IVar="-1" Cut="0" cType="1" res="-0.00375257" purity="0.41469" nType="-99"/>
            <Node pos="r" depth="3" NCoef="0" IVar="5" Cut="1.1554" cType="1" res="0.00942692" purity="0.503754" nType="0">
              <Node pos="l" depth="4" NCoef="0" IVar="-1" Cut="0" cType="1" res="-0.000844659" purity="0.507722" nType="-99"/>
              <Node pos="r" depth="4" NCoef="0" IVar="-1" Cut="0" cType="1" res="0.0011717" purity="0.501528" nType="-99"/>
            </Node>
          </Node>
        </Node>
        <Node pos="r" depth="1" NCoef="0" IVar="1" Cut="100157" cType="1" res="-0.0351612" purity="0.44196" nType="0">
          <Node pos="l" depth="2" NCoef="0" IVar="-1" Cut="0" cType="1" res="0.000530321" purity="0.456705" nType="-99"/>
          <Node pos="r" depth="2" NCoef="0" IVar="0" Cut="139002" cType="1" res="-0.0552647" purity="0.435555" nType="0">
            <Node pos="l" depth="3" NCoef="0" IVar="-1" Cut="0" cType="1" res="-0.00483709" purity="0.372416" nType="-99"/>
            <Node pos="r" depth="3" NCoef="0" IVar="-1" Cut="0" cType="1" res="-0.00134395" purity="0.504621" nType="-99"/>
          </Node>
        </Node>
      </Node>
    </BinaryTree>
    <BinaryTree type="DecisionTree" boostWeight="1.0" itree="336">
      <Node pos="s" depth="0" NCoef="0" IVar="6" Cut="1.76234" cType="1" res="-0.00420337" purity="0.489815" nType="0">
        <Node pos="l" depth="1" NCoef="0" IVar="3" Cut="159810" cType="1" res="0.0117982" purity="0.530172" nType="0">
          <Node pos="l" depth="2" NCoef="0" IVar="3" Cut="131696" cType="1" res="-0.0152955" purity="0.513739" nType="0">
            <Node pos="l" depth="3" NCoef="0" IVar="-1" Cut="0" cType="1" res="0.000834192" purity="0.53921" nType="-99"/>
            <Node pos="r" depth="3" NCoef="0" IVar="5" Cut="1.6161" cType="1" res="-0.041484" purity="0.494603" nType="0">
              <Node pos="l" depth="4" NCoef="0" IVar="-1" Cut="0" cType="1" res="-0.00388175" purity="0.46848" nType="-99"/>
              <Node pos="r" depth="4" NCoef="0" IVar="-1" Cut="0" cType="1" res="-0.000116987" purity="0.522943" nType="-99"/>
            </Node>
          </Node>
          <Node pos="r" depth="2" NCoef="0" IVar="2" Cut="14309.9" cType="1" res="0.0284734" purity="0.540286" nType="0">
            <Node pos="l" depth="3" NCoef="0" IVar="1" Cut="100235" cType="1" res="0.0417304" purity="0.509449" nType="0">
              <Node pos="l" depth="4" NCoef="0" IVar="-1" Cut="0" cType="1" res="-0.000347332" purity="0.433381" nType="-99"/>
              <Node pos="r" depth="4" NCoef="0" IVar="-1" Cut="0" cType="1" res="0.00258625" purity="0.536982" nType="-99"/>
            </Node>
            <Node pos="r" depth="3" NCoef="0" IVar="-1" Cut="0" cType="1" res="-5.15954e-05" purity="0.609324" nType="-99"/>
          </Node>
        </Node>
        <Node pos="r" depth="1" NCoef="0" IVar="3" Cut="147840" cType="1" res="-0.0194024" purity="0.451482" nType="0">
          <Node pos="l" depth="2" NCoef="0" IVar="0" Cut="148621" cType="1" res="0.0238198" purity="0.49036" nType="0">
            <Node pos="l" depth="3" NCoef="0" IVar="-1" Cut="0" cType="1" res="0.00259507" purity="0.481131" nType="-99"/>
            <Node pos="r" depth="3" NCoef="0" IVar="-1" Cut="0" cType="1" res="-0.00106329" purity="0.504684" nType="-99"/>
          </Node>
          <Node pos="r" depth="2" NCoef="0" IVar="3" Cut="195962" cType="1" res="-0.0321727" purity="0.439996" nType="0">
            <Node pos="l" depth="3" NCoef="0" IVar="6" Cut="2.8051" cType="1" res="-0.0454837" purity="0.426129" nType="0">
              <Node pos="l" depth="4" NCoef="0" IVar="-1" Cut="0" cType="1" res="-0.00327634" purity="0.434273" nType="-99"/>
              <Node pos="r" depth="4" NCoef="0" IVar="-1" Cut="0" cType="1" res="-3.7703e-05" purity="0.401064" nType="-99"/>
            </Node>
            <Node pos="r" depth="3" NCoef="0" IVar="1" Cut="105237" cType="1" res="0.0075458" purity="0.481372" nType="0">
              <Node pos="l" depth="4" NCoef="0" IVar="-1" Cut="0" cType="1" res="0.00223435" purity="0.508583" nType="-99"/>
              <Node pos="r" depth="4" NCoef="0" IVar="-1" Cut="0" cType="1" res="-0.00154186" purity="0.457758" nType="-99"/>
            </Node>
          </Node>
        </Node>
      </Node>
    </BinaryTree>
    <BinaryTree type="DecisionTree" boostWeight="1.0" itree="337">
      <Node pos="s" depth="0" NCoef="0" IVar="2" Cut="-12733.1" cType="1" res="0.0164726" purity="0.513119" nType="0">
        <Node pos="l" depth="1" NCoef="0" IVar="0" Cut="124197" cType="1" res="-0.0395637" purity="0.349003" nType="0">
          <Node pos="l" depth="2" NCoef="0" IVar="-1" Cut="0" cType="1" res="-0.00605714" purity="0.276091" nType="-99"/>
          <Node pos="r" depth="2" NCoef="0" IVar="-1" Cut="0" cType="1" res="-0.00011619" purity="0.418287" nType="-99"/>
        </Node>
        <Node pos="r" depth="1" NCoef="0" IVar="0" Cut="114637" cType="1" res="0.0218858" purity="0.528973" nType="0">
          <Node pos="l" depth="2" NCoef="0" IVar="6" Cut="1.60876" cType="1" res="0.0529784" purity="0.507907" nType="0">
            <Node pos="l" depth="3" NCoef="0" IVar="2" Cut="11416.7" cType="1" res="0.0267628" purity="0.510098" nType="0">
              <Node pos="l" depth="4" NCoef="0" IVar="-1" Cut="0" cType="1" res="-0.000578001" purity="0.40111" nType="-99"/>
              <Node pos="r" depth="4" NCoef="0" IVar="-1" Cut="0" cType="1" res="0.00236867" purity="0.605752" nType="-99"/>
            </Node>
            <Node pos="r" depth="3" NCoef="0" IVar="5" Cut="1.54799" cType="1" res="0.081851" purity="0.505494" nType="0">
              <Node pos="l" depth="4" NCoef="0" IVar="-1" Cut="0" cType="1" res="0.00202942" purity="0.48496" nType="-99"/>
              <Node pos="r" depth="4" NCoef="0" IVar="-1" Cut="0" cType="1" res="0.00502649" purity="0.520354" nType="-99"/>
            </Node>
          </Node>
          <Node pos="r" depth="2" NCoef="0" IVar="1" Cut="100239" cType="1" res="0.0105494" purity="0.536654" nType="0">
            <Node pos="l" depth="3" NCoef="0" IVar="0" Cut="150772" cType="1" res="-0.0225504" purity="0.466812" nType="0">
              <Node pos="l" depth="4" NCoef="0" IVar="-1" Cut="0" cType="1" res="-0.00296493" purity="0.41259" nType="-99"/>
              <Node pos="r" depth="4" NCoef="0" IVar="-1" Cut="0" cType="1" res="0.000323201" purity="0.516451" nType="-99"/>
            </Node>
            <Node pos="r" depth="3" NCoef="0" IVar="5" Cut="1.31027" cType="1" res="0.0238301" purity="0.564677" nType="0">
              <Node pos="l" depth="4" NCoef="0" IVar="-1" Cut="0" cType="1" res="0.00183217" purity="0.608783" nType="-99"/>
              <Node pos="r" depth="4" NCoef="0" IVar="-1" Cut="0" cType="1" res="0.000440006" purity="0.534092" nType="-99"/>
            </Node>
          </Node>
        </Node>
      </Node>
    </BinaryTree>
    <BinaryTree type="DecisionTree" boostWeight="1.0" itree="338">
      <Node pos="s" depth="0" NCoef="0" IVar="1" Cut="100241" cType="1" res="0.00189951" purity="0.494753" nType="0">
        <Node pos="l" depth="1" NCoef="0" IVar="6" Cut="2.68153" cType="1" res="0.023824" purity="0.487264" nType="0">
          <Node pos="l" depth="2" NCoef="0" IVar="0" Cut="177951" cType="1" res="0.00491666" purity="0.482494" nType="0">
            <Node pos="l" depth="3" NCoef="0" IVar="1" Cut="94744.7" cType="1" res="0.0202852" purity="0.484917" nType="0">
              <Node pos="l" depth="4" NCoef="0" IVar="-1" Cut="0" cType="1" res="-0.000636166" purity="0.446327" nType="-99"/>
              <Node pos="r" depth="4" NCoef="0" IVar="-1" Cut="0" cType="1" res="0.00216779" purity="0.519678" nType="-99"/>
            </Node>
            <Node pos="r" depth="3" NCoef="0" IVar="-1" Cut="0" cType="1" res="-0.00313053" purity="0.471819" nType="-99"/>
          </Node>
          <Node pos="r" depth="2" NCoef="0" IVar="-1" Cut="0" cType="1" res="0.00403157" purity="0.503256" nType="-99"/>
        </Node>
        <Node pos="r" depth="1" NCoef="0" IVar="1" Cut="183028" cType="1" res="-0.00759502" purity="0.497997" nType="0">
          <Node pos="l" depth="2" NCoef="0" IVar="4" Cut="354045" cType="1" res="-0.0115005" purity="0.497673" nType="0">
            <Node pos="l" depth="3" NCoef="0" IVar="4" Cut="267654" cType="1" res="-0.00653575" purity="0.512115" nType="0">
              <Node pos="l" depth="4" NCoef="0" IVar="-1" Cut="0" cType="1" res="-0.000740807" purity="0.516211" nType="-99"/>
              <Node pos="r" depth="4" NCoef="0" IVar="-1" Cut="0" cType="1" res="0.00116943" purity="0.498452" nType="-99"/>
            </Node>
            <Node pos="r" depth="3" NCoef="0" IVar="-1" Cut="0" cType="1" res="-0.00279351" purity="0.390045" nType="-99"/>
          </Node>
          <Node pos="r" depth="2" NCoef="0" IVar="-1" Cut="0" cType="1" res="0.000992853" purity="0.500478" nType="-99"/>
        </Node>
      </Node>
    </BinaryTree>
    <BinaryTree type="DecisionTree" boostWeight="1.0" itree="339">
      <Node pos="s" depth="0" NCoef="0" IVar="0" Cut="178027" cType="1" res="0.00836465" purity="0.503164" nType="0">
        <Node pos="l" depth="1" NCoef="0" IVar="5" Cut="2.68247" cType="1" res="-0.000804368" purity="0.475951" nType="0">
          <Node pos="l" depth="2" NCoef="0" IVar="5" Cut="1.44102" cType="1" res="-0.00750386" purity="0.472904" nType="0">
            <Node pos="l" depth="3" NCoef="0" IVar="0" Cut="119031" cType="1" res="0.00627367" purity="0.492375" nType="0">
              <Node pos="l" depth="4" NCoef="0" IVar="-1" Cut="0" cType="1" res="0.00144391" purity="0.489115" nType="-99"/>
              <Node pos="r" depth="4" NCoef="0" IVar="-1" Cut="0" cType="1" res="-0.000280754" purity="0.494017" nType="-99"/>
            </Node>
            <Node pos="r" depth="3" NCoef="0" IVar="6" Cut="0.99621" cType="1" res="-0.0231153" purity="0.45084" nType="0">
              <Node pos="l" depth="4" NCoef="0" IVar="-1" Cut="0" cType="1" res="-0.00298856" purity="0.453542" nType="-99"/>
              <Node pos="r" depth="4" NCoef="0" IVar="-1" Cut="0" cType="1" res="-0.000615358" purity="0.44994" nType="-99"/>
            </Node>
          </Node>
          <Node pos="r" depth="2" NCoef="0" IVar="-1" Cut="0" cType="1" res="0.00290287" purity="0.50493" nType="-99"/>
        </Node>
        <Node pos="r" depth="1" NCoef="0" IVar="6" Cut="2.68157" cType="1" res="0.0418407" purity="0.602517" nType="0">
          <Node pos="l" depth="2" NCoef="0" IVar="2" Cut="11088.2" cType="1" res="0.0213919" purity="0.59811" nType="0">
            <Node pos="l" depth="3" NCoef="0" IVar="1" Cut="125802" cType="1" res="0.0373397" purity="0.562199" nType="0">
              <Node pos="l" depth="4" NCoef="0" IVar="-1" Cut="0" cType="1" res="0.00068372" purity="0.53004" nType="-99"/>
              <Node pos="r" depth="4" NCoef="0" IVar="-1" Cut="0" cType="1" res="0.00285523" purity="0.616252" nType="-99"/>
            </Node>
            <Node pos="r" depth="3" NCoef="0" IVar="-1" Cut="0" cType="1" res="-0.000275014" purity="0.660314" nType="-99"/>
          </Node>
          <Node pos="r" depth="2" NCoef="0" IVar="-1" Cut="0" cType="1" res="0.00424731" purity="0.618897" nType="-99"/>
        </Node>
      </Node>
    </BinaryTree>
    <BinaryTree type="DecisionTree" boostWeight="1.0" itree="340">
      <Node pos="s" depth="0" NCoef="0" IVar="2" Cut="-16104.3" cType="1" res="0.00504217" purity="0.500117" nType="0">
        <Node pos="l" depth="1" NCoef="0" IVar="-1" Cut="0" cType="1" res="0.00334311" purity="0.462569" nType="-99"/>
        <Node pos="r" depth="1" NCoef="0" IVar="3" Cut="218099" cType="1" res="0.000190946" purity="0.503012" nType="0">
          <Node pos="l" depth="2" NCoef="0" IVar="3" Cut="194992" cType="1" res="0.00358985" purity="0.50762" nType="0">
            <Node pos="l" depth="3" NCoef="0" IVar="5" Cut="1.84002" cType="1" res="-0.000674354" purity="0.506156" nType="0">
              <Node pos="l" depth="4" NCoef="0" IVar="-1" Cut="0" cType="1" res="-0.00044839" purity="0.506251" nType="-99"/>
              <Node pos="r" depth="4" NCoef="0" IVar="-1" Cut="0" cType="1" res="0.000901484" purity="0.505936" nType="-99"/>
            </Node>
            <Node pos="r" depth="3" NCoef="0" IVar="6" Cut="2.14544" cType="1" res="0.0345261" purity="0.518244" nType="0">
              <Node pos="l" depth="4" NCoef="0" IVar="-1" Cut="0" cType="1" res="0.000848466" purity="0.52198" nType="-99"/>
              <Node pos="r" depth="4" NCoef="0" IVar="-1" Cut="0" cType="1" res="0.00258584" purity="0.512481" nType="-99"/>
            </Node>
          </Node>
          <Node pos="r" depth="2" NCoef="0" IVar="-1" Cut="0" cType="1" res="-0.0024014" purity="0.436851" nType="-99"/>
        </Node>
      </Node>
    </BinaryTree>
    <BinaryTree type="DecisionTree" boostWeight="1.0" itree="341">
      <Node pos="s" depth="0" NCoef="0" IVar="1" Cut="100226" cType="1" res="0.010504" purity="0.503341" nType="0">
        <Node pos="l" depth="1" NCoef="0" IVar="2" Cut="6008.97" cType="1" res="0.029441" purity="0.494419" nType="0">
          <Node pos="l" depth="2" NCoef="0" IVar="3" Cut="146212" cType="1" res="0.0498575" purity="0.468369" nType="0">
            <Node pos="l" depth="3" NCoef="0" IVar="-1" Cut="0" cType="1" res="0.00490043" purity="0.515663" nType="-99"/>
            <Node pos="r" depth="3" NCoef="0" IVar="4" Cut="207300" cType="1" res="0.0334818" purity="0.455085" nType="0">
              <Node pos="l" depth="4" NCoef="0" IVar="-1" Cut="0" cType="1" res="0.00316906" purity="0.518084" nType="-99"/>
              <Node pos="r" depth="4" NCoef="0" IVar="-1" Cut="0" cType="1" res="-0.000935209" purity="0.372489" nType="-99"/>
            </Node>
          </Node>
          <Node pos="r" depth="2" NCoef="0" IVar="3" Cut="161075" cType="1" res="-0.00458867" purity="0.537837" nType="0">
            <Node pos="l" depth="3" NCoef="0" IVar="-1" Cut="0" cType="1" res="-0.00210145" purity="0.499557" nType="-99"/>
            <Node pos="r" depth="3" NCoef="0" IVar="-1" Cut="0" cType="1" res="0.000869392" purity="0.561113" nType="-99"/>
          </Node>
        </Node>
        <Node pos="r" depth="1" NCoef="0" IVar="6" Cut="2.75838" cType="1" res="0.00230838" purity="0.507202" nType="0">
          <Node pos="l" depth="2" NCoef="0" IVar="4" Cut="187805" cType="1" res="0.0117567" purity="0.529179" nType="0">
            <Node pos="l" depth="3" NCoef="0" IVar="2" Cut="11972.9" cType="1" res="-0.0283872" purity="0.545868" nType="0">
              <Node pos="l" depth="4" NCoef="0" IVar="-1" Cut="0" cType="1" res="-0.00329557" purity="0.443964" nType="-99"/>
              <Node pos="r" depth="4" NCoef="0" IVar="-1" Cut="0" cType="1" res="0.00059665" purity="0.669506" nType="-99"/>
            </Node>
            <Node pos="r" depth="3" NCoef="0" IVar="5" Cut="1.16774" cType="1" res="0.0239759" purity="0.524099" nType="0">
              <Node pos="l" depth="4" NCoef="0" IVar="-1" Cut="0" cType="1" res="0.0025875" purity="0.610179" nType="-99"/>
              <Node pos="r" depth="4" NCoef="0" IVar="-1" Cut="0" cType="1" res="0.000527608" purity="0.496151" nType="-99"/>
            </Node>
          </Node>
          <Node pos="r" depth="2" NCoef="0" IVar="0" Cut="134122" cType="1" res="-0.0686356" purity="0.342188" nType="0">
            <Node pos="l" depth="3" NCoef="0" IVar="-1" Cut="0" cType="1" res="-0.0070313" purity="0.270974" nType="-99"/>
            <Node pos="r" depth="3" NCoef="0" IVar="-1" Cut="0" cType="1" res="-0.00230418" purity="0.416028" nType="-99"/>
          </Node>
        </Node>
      </Node>
    </BinaryTree>
    <BinaryTree type="DecisionTree" boostWeight="1.0" itree="342">
      <Node pos="s" depth="0" NCoef="0" IVar="4" Cut="392715" cType="1" res="0.00119599" purity="0.495288" nType="0">
        <Node pos="l" depth="1" NCoef="0" IVar="0" Cut="104877" cType="1" res="0.00553668" purity="0.506477" nType="0">
          <Node pos="l" depth="2" NCoef="0" IVar="-1" Cut="0" cType="1" res="0.00237324" purity="0.46974" nType="-99"/>
          <Node pos="r" depth="2" NCoef="0" IVar="6" Cut="0.306506" cType="1" res="0.000753202" purity="0.510754" nType="0">
            <Node pos="l" depth="3" NCoef="0" IVar="-1" Cut="0" cType="1" res="0.00177285" purity="0.558806" nType="-99"/>
            <Node pos="r" depth="3" NCoef="0" IVar="4" Cut="214319" cType="1" res="-0.00318549" purity="0.506296" nType="0">
              <Node pos="l" depth="4" NCoef="0" IVar="-1" Cut="0" cType="1" res="-0.000975535" purity="0.516896" nType="-99"/>
              <Node pos="r" depth="4" NCoef="0" IVar="-1" Cut="0" cType="1" res="0.000648039" purity="0.496268" nType="-99"/>
            </Node>
          </Node>
        </Node>
        <Node pos="r" depth="1" NCoef="0" IVar="1" Cut="120731" cType="1" res="-0.0447196" purity="0.376927" nType="0">
          <Node pos="l" depth="2" NCoef="0" IVar="-1" Cut="0" cType="1" res="-0.000624108" purity="0.385811" nType="-99"/>
          <Node pos="r" depth="2" NCoef="0" IVar="-1" Cut="0" cType="1" res="-0.00466106" purity="0.367496" nType="-99"/>
        </Node>
      </Node>
    </BinaryTree>
    <BinaryTree type="DecisionTree" boostWeight="1.0" itree="343">
      <Node pos="s" depth="0" NCoef="0" IVar="4" Cut="392675" cType="1" res="0.0146187" purity="0.51053" nType="0">
        <Node pos="l" depth="1" NCoef="0" IVar="5" Cut="1.99322" cType="1" res="0.0201326" purity="0.522144" nType="0">
          <Node pos="l" depth="2" NCoef="0" IVar="3" Cut="142027" cType="1" res="0.0280566" purity="0.5359" nType="0">
            <Node pos="l" depth="3" NCoef="0" IVar="6" Cut="1.99202" cType="1" res="-0.00936187" purity="0.499095" nType="0">
              <Node pos="l" depth="4" NCoef="0" IVar="-1" Cut="0" cType="1" res="-0.00224494" purity="0.48522" nType="-99"/>
              <Node pos="r" depth="4" NCoef="0" IVar="-1" Cut="0" cType="1" res="0.00171204" purity="0.516435" nType="-99"/>
            </Node>
            <Node pos="r" depth="3" NCoef="0" IVar="0" Cut="216992" cType="1" res="0.0359968" purity="0.54371" nType="0">
              <Node pos="l" depth="4" NCoef="0" IVar="-1" Cut="0" cType="1" res="0.00184564" purity="0.540675" nType="-99"/>
              <Node pos="r" depth="4" NCoef="0" IVar="-1" Cut="0" cType="1" res="-0.00120139" purity="0.575819" nType="-99"/>
            </Node>
          </Node>
          <Node pos="r" depth="2" NCoef="0" IVar="3" Cut="162765" cType="1" res="-0.00693918" purity="0.475147" nType="0">
            <Node pos="l" depth="3" NCoef="0" IVar="-1" Cut="0" cType="1" res="0.00112428" purity="0.515004" nType="-99"/>
            <Node pos="r" depth="3" NCoef="0" IVar="4" Cut="242499" cType="1" res="-0.0338984" purity="0.4403" nType="0">
              <Node pos="l" depth="4" NCoef="0" IVar="-1" Cut="0" cType="1" res="0.000520344" purity="0.523909" nType="-99"/>
              <Node pos="r" depth="4" NCoef="0" IVar="-1" Cut="0" cType="1" res="-0.00496646" purity="0.352146" nType="-99"/>
            </Node>
          </Node>
        </Node>
        <Node pos="r" depth="1" NCoef="0" IVar="6" Cut="1.99308" cType="1" res="-0.0472076" purity="0.380313" nType="0">
          <Node pos="l" depth="2" NCoef="0" IVar="-1" Cut="0" cType="1" res="-0.00374616" purity="0.383424" nType="-99"/>
          <Node pos="r" depth="2" NCoef="0" IVar="-1" Cut="0" cType="1" res="-0.00175025" purity="0.377396" nType="-99"/>
        </Node>
      </Node>
    </BinaryTree>
    <BinaryTree type="DecisionTree" boostWeight="1.0" itree="344">
      <Node pos="s" depth="0" NCoef="0" IVar="4" Cut="441453" cType="1" res="0.00793888" purity="0.502694" nType="0">
        <Node pos="l" depth="1" NCoef="0" IVar="4" Cut="216596" cType="1" res="0.00477526" purity="0.502952" nType="0">
          <Node pos="l" depth="2" NCoef="0" IVar="5" Cut="1.61006" cType="1" res="0.0178539" purity="0.547087" nType="0">
            <Node pos="l" depth="3" NCoef="0" IVar="6" Cut="2.6052" cType="1" res="-0.00204444" purity="0.527199" nType="0">
              <Node pos="l" depth="4" NCoef="0" IVar="-1" Cut="0" cType="1" res="-0.000750136" purity="0.533886" nType="-99"/>
              <Node pos="r" depth="4" NCoef="0" IVar="-1" Cut="0" cType="1" res="0.00229344" purity="0.503035" nType="-99"/>
            </Node>
            <Node pos="r" depth="3" NCoef="0" IVar="5" Cut="1.94599" cType="1" res="0.0573996" purity="0.586614" nType="0">
              <Node pos="l" depth="4" NCoef="0" IVar="-1" Cut="0" cType="1" res="0.0034878" purity="0.609603" nType="-99"/>
              <Node pos="r" depth="4" NCoef="0" IVar="-1" Cut="0" cType="1" res="0.00162247" purity="0.568632" nType="-99"/>
            </Node>
          </Node>
          <Node pos="r" depth="2" NCoef="0" IVar="4" Cut="227587" cType="1" res="-0.00782844" purity="0.460419" nType="0">
            <Node pos="l" depth="3" NCoef="0" IVar="-1" Cut="0" cType="1" res="-0.00290441" purity="0.42942" nType="-99"/>
            <Node pos="r" depth="3" NCoef="0" IVar="6" Cut="2.68157" cType="1" res="-0.00276687" purity="0.463749" nType="0">
              <Node pos="l" depth="4" NCoef="0" IVar="-1" Cut="0" cType="1" res="0.000274736" purity="0.486504" nType="-99"/>
              <Node pos="r" depth="4" NCoef="0" IVar="-1" Cut="0" cType="1" res="-0.00237807" purity="0.367334" nType="-99"/>
            </Node>
          </Node>
        </Node>
        <Node pos="r" depth="1" NCoef="0" IVar="-1" Cut="0" cType="1" res="0.00351985" purity="0.49734" nType="-99"/>
      </Node>
    </BinaryTree>
    <BinaryTree type="DecisionTree" boostWeight="1.0" itree="345">
      <Node pos="s" depth="0" NCoef="0" IVar="3" Cut="177032" cType="1" res="0.0100248" purity="0.505591" nType="0">
        <Node pos="l" depth="1" NCoef="0" IVar="5" Cut="2.6819" cType="1" res="0.0222993" purity="0.525635" nType="0">
          <Node pos="l" depth="2" NCoef="0" IVar="0" Cut="104880" cType="1" res="0.0279042" purity="0.534551" nType="0">
            <Node pos="l" depth="3" NCoef="0" IVar="-1" Cut="0" cType="1" res="0.00372023" purity="0.501951" nType="-99"/>
            <Node pos="r" depth="3" NCoef="0" IVar="2" Cut="-5858.61" cType="1" res="0.0223633" purity="0.538157" nType="0">
              <Node pos="l" depth="4" NCoef="0" IVar="-1" Cut="0" cType="1" res="-0.000695301" purity="0.388753" nType="-99"/>
              <Node pos="r" depth="4" NCoef="0" IVar="-1" Cut="0" cType="1" res="0.00129793" purity="0.571895" nType="-99"/>
            </Node>
          </Node>
          <Node pos="r" depth="2" NCoef="0" IVar="-1" Cut="0" cType="1" res="-0.00258716" purity="0.416669" nType="-99"/>
        </Node>
        <Node pos="r" depth="1" NCoef="0" IVar="1" Cut="176984" cType="1" res="-0.0124157" purity="0.468945" nType="0">
          <Node pos="l" depth="2" NCoef="0" IVar="0" Cut="178048" cType="1" res="-0.0243173" purity="0.458496" nType="0">
            <Node pos="l" depth="3" NCoef="0" IVar="3" Cut="203937" cType="1" res="-0.00700631" purity="0.458339" nType="0">
              <Node pos="l" depth="4" NCoef="0" IVar="-1" Cut="0" cType="1" res="-0.00136068" purity="0.440553" nType="-99"/>
              <Node pos="r" depth="4" NCoef="0" IVar="-1" Cut="0" cType="1" res="0.00130342" purity="0.49078" nType="-99"/>
            </Node>
            <Node pos="r" depth="3" NCoef="0" IVar="-1" Cut="0" cType="1" res="-0.00566872" purity="0.459224" nType="-99"/>
          </Node>
          <Node pos="r" depth="2" NCoef="0" IVar="-1" Cut="0" cType="1" res="0.00338461" purity="0.549697" nType="-99"/>
        </Node>
      </Node>
    </BinaryTree>
    <BinaryTree type="DecisionTree" boostWeight="1.0" itree="346">
      <Node pos="s" depth="0" NCoef="0" IVar="4" Cut="324415" cType="1" res="0.00509291" purity="0.500402" nType="0">
        <Node pos="l" depth="1" NCoef="0" IVar="4" Cut="291581" cType="1" res="-0.00259323" purity="0.508007" nType="0">
          <Node pos="l" depth="2" NCoef="0" IVar="0" Cut="114630" cType="1" res="0.00334882" purity="0.517917" nType="0">
            <Node pos="l" depth="3" NCoef="0" IVar="4" Cut="207497" cType="1" res="-0.0249491" purity="0.441016" nType="0">
              <Node pos="l" depth="4" NCoef="0" IVar="-1" Cut="0" cType="1" res="0.000634365" purity="0.510466" nType="-99"/>
              <Node pos="r" depth="4" NCoef="0" IVar="-1" Cut="0" cType="1" res="-0.00539193" purity="0.338295" nType="-99"/>
            </Node>
            <Node pos="r" depth="3" NCoef="0" IVar="4" Cut="226189" cType="1" res="0.0135832" purity="0.54573" nType="0">
              <Node pos="l" depth="4" NCoef="0" IVar="-1" Cut="0" cType="1" res="0.000109082" purity="0.54563" nType="-99"/>
              <Node pos="r" depth="4" NCoef="0" IVar="-1" Cut="0" cType="1" res="0.00169545" purity="0.545951" nType="-99"/>
            </Node>
          </Node>
          <Node pos="r" depth="2" NCoef="0" IVar="-1" Cut="0" cType="1" res="-0.00417845" purity="0.391138" nType="-99"/>
        </Node>
        <Node pos="r" depth="1" NCoef="0" IVar="5" Cut="1.39082" cType="1" res="0.0338958" purity="0.471904" nType="0">
          <Node pos="l" depth="2" NCoef="0" IVar="5" Cut="0.956217" cType="1" res="-0.00899026" purity="0.446885" nType="0">
            <Node pos="l" depth="3" NCoef="0" IVar="-1" Cut="0" cType="1" res="0.00125357" purity="0.49999" nType="-99"/>
            <Node pos="r" depth="3" NCoef="0" IVar="-1" Cut="0" cType="1" res="-0.00303389" purity="0.384269" nType="-99"/>
          </Node>
          <Node pos="r" depth="2" NCoef="0" IVar="5" Cut="2.45805" cType="1" res="0.0677789" purity="0.491671" nType="0">
            <Node pos="l" depth="3" NCoef="0" IVar="-1" Cut="0" cType="1" res="0.00445883" purity="0.536801" nType="-99"/>
            <Node pos="r" depth="3" NCoef="0" IVar="-1" Cut="0" cType="1" res="0.000786674" purity="0.41177" nType="-99"/>
          </Node>
        </Node>
      </Node>
    </BinaryTree>
    <BinaryTree type="DecisionTree" boostWeight="1.0" itree="347">
      <Node pos="s" depth="0" NCoef="0" IVar="4" Cut="226828" cType="1" res="-0.00259015" purity="0.491447" nType="0">
        <Node pos="l" depth="1" NCoef="0" IVar="0" Cut="182822" cType="1" res="-0.0151686" purity="0.510155" nType="0">
          <Node pos="l" depth="2" NCoef="0" IVar="6" Cut="0.766247" cType="1" res="-0.0231079" purity="0.488777" nType="0">
            <Node pos="l" depth="3" NCoef="0" IVar="-1" Cut="0" cType="1" res="0.000438467" purity="0.54096" nType="-99"/>
            <Node pos="r" depth="3" NCoef="0" IVar="5" Cut="0.920969" cType="1" res="-0.0329548" purity="0.473237" nType="0">
              <Node pos="l" depth="4" NCoef="0" IVar="-1" Cut="0" cType="1" res="-0.00521699" purity="0.428317" nType="-99"/>
              <Node pos="r" depth="4" NCoef="0" IVar="-1" Cut="0" cType="1" res="-0.00105302" purity="0.481373" nType="-99"/>
            </Node>
          </Node>
          <Node pos="r" depth="2" NCoef="0" IVar="6" Cut="2.06985" cType="1" res="0.0221549" purity="0.610655" nType="0">
            <Node pos="l" depth="3" NCoef="0" IVar="-1" Cut="0" cType="1" res="0.00173017" purity="0.653481" nType="-99"/>
            <Node pos="r" depth="3" NCoef="0" IVar="-1" Cut="0" cType="1" res="6.89013e-05" purity="0.566305" nType="-99"/>
          </Node>
        </Node>
        <Node pos="r" depth="1" NCoef="0" IVar="2" Cut="-2532.5" cType="1" res="0.00961241" purity="0.473298" nType="0">
          <Node pos="l" depth="2" NCoef="0" IVar="4" Cut="320075" cType="1" res="-0.019301" purity="0.372849" nType="0">
            <Node pos="l" depth="3" NCoef="0" IVar="2" Cut="-9845.42" cType="1" res="0.0106352" purity="0.418631" nType="0">
              <Node pos="l" depth="4" NCoef="0" IVar="-1" Cut="0" cType="1" res="0.00281153" purity="0.45314" nType="-99"/>
              <Node pos="r" depth="4" NCoef="0" IVar="-1" Cut="0" cType="1" res="-0.00241648" purity="0.378355" nType="-99"/>
            </Node>
            <Node pos="r" depth="3" NCoef="0" IVar="-1" Cut="0" cType="1" res="-0.00429132" purity="0.308601" nType="-99"/>
          </Node>
          <Node pos="r" depth="2" NCoef="0" IVar="4" Cut="406718" cType="1" res="0.0238038" purity="0.522602" nType="0">
            <Node pos="l" depth="3" NCoef="0" IVar="1" Cut="130928" cType="1" res="0.0137987" purity="0.518484" nType="0">
              <Node pos="l" depth="4" NCoef="0" IVar="-1" Cut="0" cType="1" res="0.00164175" purity="0.533151" nType="-99"/>
              <Node pos="r" depth="4" NCoef="0" IVar="-1" Cut="0" cType="1" res="-0.000971637" purity="0.496854" nType="-99"/>
            </Node>
            <Node pos="r" depth="3" NCoef="0" IVar="-1" Cut="0" cType="1" res="0.0031758" purity="0.543724" nType="-99"/>
          </Node>
        </Node>
      </Node>
    </BinaryTree>
    <BinaryTree type="DecisionTree" boostWeight="1.0" itree="348">
      <Node pos="s" depth="0" NCoef="0" IVar="6" Cut="1.91561" cType="1" res="-0.000819934" purity="0.492378" nType="0">
        <Node pos="l" depth="1" NCoef="0" IVar="2" Cut="-2313.76" cType="1" res="-0.0117152" purity="0.507494" nType="0">
          <Node pos="l" depth="2" NCoef="0" IVar="-1" Cut="0" cType="1" res="-0.00477342" purity="0.31334" nType="-99"/>
          <Node pos="r" depth="2" NCoef="0" IVar="5" Cut="2.22284" cType="1" res="-0.00508247" purity="0.528346" nType="0">
            <Node pos="l" depth="3" NCoef="0" IVar="1" Cut="135281" cType="1" res="-0.0157207" purity="0.531048" nType="0">
              <Node pos="l" depth="4" NCoef="0" IVar="-1" Cut="0" cType="1" res="-0.00023262" purity="0.535124" nType="-99"/>
              <Node pos="r" depth="4" NCoef="0" IVar="-1" Cut="0" cType="1" res="-0.00348937" purity="0.510292" nType="-99"/>
            </Node>
            <Node pos="r" depth="3" NCoef="0" IVar="5" Cut="2.60348" cType="1" res="0.024769" purity="0.520761" nType="0">
              <Node pos="l" depth="4" NCoef="0" IVar="-1" Cut="0" cType="1" res="0.00262757" purity="0.574413" nType="-99"/>
              <Node pos="r" depth="4" NCoef="0" IVar="-1" Cut="0" cType="1" res="-0.000298921" purity="0.474117" nType="-99"/>
            </Node>
          </Node>
        </Node>
        <Node pos="r" depth="1" NCoef="0" IVar="6" Cut="2.27447" cType="1" res="0.0108771" purity="0.47615" nType="0">
          <Node pos="l" depth="2" NCoef="0" IVar="2" Cut="7631.34" cType="1" res="0.039046" purity="0.55482" nType="0">
            <Node pos="l" depth="3" NCoef="0" IVar="-1" Cut="0" cType="1" res="0.0030368" purity="0.5299" nType="-99"/>
            <Node pos="r" depth="3" NCoef="0" IVar="-1" Cut="0" cType="1" res="-0.000485416" purity="0.597283" nType="-99"/>
          </Node>
          <Node pos="r" depth="2" NCoef="0" IVar="2" Cut="-9523.78" cType="1" res="-0.00130358" purity="0.442131" nType="0">
            <Node pos="l" depth="3" NCoef="0" IVar="0" Cut="124391" cType="1" res="0.0273295" purity="0.420437" nType="0">
              <Node pos="l" depth="4" NCoef="0" IVar="-1" Cut="0" cType="1" res="0.00309088" purity="0.412749" nType="-99"/>
              <Node pos="r" depth="4" NCoef="0" IVar="-1" Cut="0" cType="1" res="-8.61269e-05" purity="0.428897" nType="-99"/>
            </Node>
            <Node pos="r" depth="3" NCoef="0" IVar="5" Cut="1.08809" cType="1" res="-0.0149944" purity="0.452505" nType="0">
              <Node pos="l" depth="4" NCoef="0" IVar="-1" Cut="0" cType="1" res="0.000805626" purity="0.506222" nType="-99"/>
              <Node pos="r" depth="4" NCoef="0" IVar="-1" Cut="0" cType="1" res="-0.00245265" purity="0.405239" nType="-99"/>
            </Node>
          </Node>
        </Node>
      </Node>
    </BinaryTree>
    <BinaryTree type="DecisionTree" boostWeight="1.0" itree="349">
      <Node pos="s" depth="0" NCoef="0" IVar="5" Cut="0.692986" cType="1" res="0.00510184" purity="0.500096" nType="0">
        <Node pos="l" depth="1" NCoef="0" IVar="-1" Cut="0" cType="1" res="-0.00250873" purity="0.519447" nType="-99"/>
        <Node pos="r" depth="1" NCoef="0" IVar="6" Cut="2.29877" cType="1" res="0.00893422" purity="0.49878" nType="0">
          <Node pos="l" depth="2" NCoef="0" IVar="2" Cut="10155.1" cType="1" res="0.00107198" purity="0.517075" nType="0">
            <Node pos="l" depth="3" NCoef="0" IVar="4" Cut="314947" cType="1" res="-0.0178363" purity="0.434209" nType="0">
              <Node pos="l" depth="4" NCoef="0" IVar="-1" Cut="0" cType="1" res="-0.00148154" purity="0.437789" nType="-99"/>
              <Node pos="r" depth="4" NCoef="0" IVar="-1" Cut="0" cType="1" res="0.00106936" purity="0.422198" nType="-99"/>
            </Node>
            <Node pos="r" depth="3" NCoef="0" IVar="2" Cut="14373.7" cType="1" res="0.0241455" purity="0.618196" nType="0">
              <Node pos="l" depth="4" NCoef="0" IVar="-1" Cut="0" cType="1" res="0.00240705" purity="0.602208" nType="-99"/>
              <Node pos="r" depth="4" NCoef="0" IVar="-1" Cut="0" cType="1" res="0.000140297" purity="0.627573" nType="-99"/>
            </Node>
          </Node>
          <Node pos="r" depth="2" NCoef="0" IVar="6" Cut="2.83323" cType="1" res="0.0249429" purity="0.461527" nType="0">
            <Node pos="l" depth="3" NCoef="0" IVar="5" Cut="0.991633" cType="1" res="0.0475289" purity="0.500442" nType="0">
              <Node pos="l" depth="4" NCoef="0" IVar="-1" Cut="0" cType="1" res="-0.000980444" purity="0.473529" nType="-99"/>
              <Node pos="r" depth="4" NCoef="0" IVar="-1" Cut="0" cType="1" res="0.00305011" purity="0.508011" nType="-99"/>
            </Node>
            <Node pos="r" depth="3" NCoef="0" IVar="6" Cut="2.96868" cType="1" res="-0.0230298" purity="0.378871" nType="0">
              <Node pos="l" depth="4" NCoef="0" IVar="-1" Cut="0" cType="1" res="-0.00402138" purity="0.337661" nType="-99"/>
              <Node pos="r" depth="4" NCoef="0" IVar="-1" Cut="0" cType="1" res="0.000288151" purity="0.407936" nType="-99"/>
            </Node>
          </Node>
        </Node>
      </Node>
    </BinaryTree>
    <BinaryTree type="DecisionTree" boostWeight="1.0" itree="350">
      <Node pos="s" depth="0" NCoef="0" IVar="6" Cut="2.60515" cType="1" res="0.00801259" purity="0.503393" nType="0">
        <Node pos="l" depth="1" NCoef="0" IVar="6" Cut="1.84251" cType="1" res="0.000380314" purity="0.51439" nType="0">
          <Node pos="l" depth="2" NCoef="0" IVar="3" Cut="164940" cType="1" res="0.0129668" purity="0.536046" nType="0">
            <Node pos="l" depth="3" NCoef="0" IVar="6" Cut="0.449393" cType="1" res="-0.00694049" purity="0.526477" nType="0">
              <Node pos="l" depth="4" NCoef="0" IVar="-1" Cut="0" cType="1" res="-0.0024179" purity="0.465044" nType="-99"/>
              <Node pos="r" depth="4" NCoef="0" IVar="-1" Cut="0" cType="1" res="0.000208384" purity="0.543106" nType="-99"/>
            </Node>
            <Node pos="r" depth="3" NCoef="0" IVar="1" Cut="110469" cType="1" res="0.0297184" purity="0.544098" nType="0">
              <Node pos="l" depth="4" NCoef="0" IVar="-1" Cut="0" cType="1" res="-5.70301e-06" purity="0.492684" nType="-99"/>
              <Node pos="r" depth="4" NCoef="0" IVar="-1" Cut="0" cType="1" res="0.0022049" purity="0.584218" nType="-99"/>
            </Node>
          </Node>
          <Node pos="r" depth="2" NCoef="0" IVar="3" Cut="141669" cType="1" res="-0.0231887" purity="0.473836" nType="0">
            <Node pos="l" depth="3" NCoef="0" IVar="-1" Cut="0" cType="1" res="0.00150993" purity="0.52689" nType="-99"/>
            <Node pos="r" depth="3" NCoef="0" IVar="2" Cut="-5795.6" cType="1" res="-0.0367102" purity="0.461149" nType="0">
              <Node pos="l" depth="4" NCoef="0" IVar="-1" Cut="0" cType="1" res="0.00113765" purity="0.42097" nType="-99"/>
              <Node pos="r" depth="4" NCoef="0" IVar="-1" Cut="0" cType="1" res="-0.00253859" purity="0.469964" nType="-99"/>
            </Node>
          </Node>
        </Node>
        <Node pos="r" depth="1" NCoef="0" IVar="0" Cut="119501" cType="1" res="0.0374361" purity="0.461" nType="0">
          <Node pos="l" depth="2" NCoef="0" IVar="-1" Cut="0" cType="1" res="-0.000370924" purity="0.362635" nType="-99"/>
          <Node pos="r" depth="2" NCoef="0" IVar="5" Cut="1.23437" cType="1" res="0.0563359" purity="0.503968" nType="0">
            <Node pos="l" depth="3" NCoef="0" IVar="0" Cut="176708" cType="1" res="0.0189786" purity="0.478877" nType="0">
              <Node pos="l" depth="4" NCoef="0" IVar="-1" Cut="0" cType="1" res="-0.0012364" purity="0.392308" nType="-99"/>
              <Node pos="r" depth="4" NCoef="0" IVar="-1" Cut="0" cType="1" res="0.00233031" purity="0.564309" nType="-99"/>
            </Node>
            <Node pos="r" depth="3" NCoef="0" IVar="-1" Cut="0" cType="1" res="0.00460518" purity="0.536632" nType="-99"/>
          </Node>
        </Node>
      </Node>
    </BinaryTree>
    <BinaryTree type="DecisionTree" boostWeight="1.0" itree="351">
      <Node pos="s" depth="0" NCoef="0" IVar="5" Cut="2.682" cType="1" res="0.0112536" purity="0.505644" nType="0">
        <Node pos="l" depth="1" NCoef="0" IVar="6" Cut="2.06864" cType="1" res="0.00690035" purity="0.505254" nType="0">
          <Node pos="l" depth="2" NCoef="0" IVar="2" Cut="-2330.59" cType="1" res="-0.00603556" purity="0.519449" nType="0">
            <Node pos="l" depth="3" NCoef="0" IVar="-1" Cut="0" cType="1" res="-0.00547883" purity="0.30253" nType="-99"/>
            <Node pos="r" depth="3" NCoef="0" IVar="1" Cut="95123.3" cType="1" res="0.00289118" purity="0.54674" nType="0">
              <Node pos="l" depth="4" NCoef="0" IVar="-1" Cut="0" cType="1" res="-0.00165489" purity="0.462407" nType="-99"/>
              <Node pos="r" depth="4" NCoef="0" IVar="-1" Cut="0" cType="1" res="0.000378607" purity="0.559783" nType="-99"/>
            </Node>
          </Node>
          <Node pos="r" depth="2" NCoef="0" IVar="3" Cut="130129" cType="1" res="0.0234591" purity="0.487083" nType="0">
            <Node pos="l" depth="3" NCoef="0" IVar="-1" Cut="0" cType="1" res="0.00401346" purity="0.549254" nType="-99"/>
            <Node pos="r" depth="3" NCoef="0" IVar="2" Cut="-12854.6" cType="1" res="0.0144997" purity="0.478892" nType="0">
              <Node pos="l" depth="4" NCoef="0" IVar="-1" Cut="0" cType="1" res="-0.00286558" purity="0.351139" nType="-99"/>
              <Node pos="r" depth="4" NCoef="0" IVar="-1" Cut="0" cType="1" res="0.00120761" purity="0.502757" nType="-99"/>
            </Node>
          </Node>
        </Node>
        <Node pos="r" depth="1" NCoef="0" IVar="-1" Cut="0" cType="1" res="0.00253632" purity="0.509656" nType="-99"/>
      </Node>
    </BinaryTree>
    <BinaryTree type="DecisionTree" boostWeight="1.0" itree="352">
      <Node pos="s" depth="0" NCoef="0" IVar="4" Cut="265912" cType="1" res="0.00213548" purity="0.496539" nType="0">
        <Node pos="l" depth="1" NCoef="0" IVar="6" Cut="2.75845" cType="1" res="-0.00946781" purity="0.50936" nType="0">
          <Node pos="l" depth="2" NCoef="0" IVar="1" Cut="121384" cType="1" res="-0.00260329" purity="0.52878" nType="0">
            <Node pos="l" depth="3" NCoef="0" IVar="1" Cut="95358.5" cType="1" res="-0.0141917" purity="0.499731" nType="0">
              <Node pos="l" depth="4" NCoef="0" IVar="-1" Cut="0" cType="1" res="0.00124345" purity="0.518952" nType="-99"/>
              <Node pos="r" depth="4" NCoef="0" IVar="-1" Cut="0" cType="1" res="-0.00144822" purity="0.492555" nType="-99"/>
            </Node>
            <Node pos="r" depth="3" NCoef="0" IVar="2" Cut="5953.41" cType="1" res="0.0246491" purity="0.597096" nType="0">
              <Node pos="l" depth="4" NCoef="0" IVar="-1" Cut="0" cType="1" res="0.00250626" purity="0.551823" nType="-99"/>
              <Node pos="r" depth="4" NCoef="0" IVar="-1" Cut="0" cType="1" res="0.000154125" purity="0.62334" nType="-99"/>
            </Node>
          </Node>
          <Node pos="r" depth="2" NCoef="0" IVar="-1" Cut="0" cType="1" res="-0.00394581" purity="0.355085" nType="-99"/>
        </Node>
        <Node pos="r" depth="1" NCoef="0" IVar="0" Cut="153642" cType="1" res="0.0224229" purity="0.474122" nType="0">
          <Node pos="l" depth="2" NCoef="0" IVar="5" Cut="2.00947" cType="1" res="0.0508138" purity="0.468865" nType="0">
            <Node pos="l" depth="3" NCoef="0" IVar="0" Cut="123548" cType="1" res="0.0703984" purity="0.494365" nType="0">
              <Node pos="l" depth="4" NCoef="0" IVar="-1" Cut="0" cType="1" res="0.00461647" purity="0.497172" nType="-99"/>
              <Node pos="r" depth="4" NCoef="0" IVar="-1" Cut="0" cType="1" res="0.00175486" purity="0.490862" nType="-99"/>
            </Node>
            <Node pos="r" depth="3" NCoef="0" IVar="-1" Cut="0" cType="1" res="0.00077543" purity="0.421434" nType="-99"/>
          </Node>
          <Node pos="r" depth="2" NCoef="0" IVar="0" Cut="217868" cType="1" res="-0.0283309" purity="0.483521" nType="0">
            <Node pos="l" depth="3" NCoef="0" IVar="3" Cut="172023" cType="1" res="-0.0469302" purity="0.447937" nType="0">
              <Node pos="l" depth="4" NCoef="0" IVar="-1" Cut="0" cType="1" res="-0.00112598" purity="0.470457" nType="-99"/>
              <Node pos="r" depth="4" NCoef="0" IVar="-1" Cut="0" cType="1" res="-0.00432144" purity="0.421063" nType="-99"/>
            </Node>
            <Node pos="r" depth="3" NCoef="0" IVar="-1" Cut="0" cType="1" res="0.000586005" purity="0.56141" nType="-99"/>
          </Node>
        </Node>
      </Node>
    </BinaryTree>
    <BinaryTree type="DecisionTree" boostWeight="1.0" itree="353">
      <Node pos="s" depth="0" NCoef="0" IVar="1" Cut="171919" cType="1" res="0.00902415" purity="0.502613" nType="0">
        <Node pos="l" depth="1" NCoef="0" IVar="3" Cut="183495" cType="1" res="0.00337076" purity="0.498955" nType="0">
          <Node pos="l" depth="2" NCoef="0" IVar="4" Cut="178295" cType="1" res="0.010552" purity="0.512947" nType="0">
            <Node pos="l" depth="3" NCoef="0" IVar="2" Cut="8571.8" cType="1" res="-0.0133793" purity="0.539843" nType="0">
              <Node pos="l" depth="4" NCoef="0" IVar="-1" Cut="0" cType="1" res="-0.00283823" purity="0.418213" nType="-99"/>
              <Node pos="r" depth="4" NCoef="0" IVar="-1" Cut="0" cType="1" res="0.000879669" purity="0.648517" nType="-99"/>
            </Node>
            <Node pos="r" depth="3" NCoef="0" IVar="4" Cut="209675" cType="1" res="0.0190838" purity="0.503359" nType="0">
              <Node pos="l" depth="4" NCoef="0" IVar="-1" Cut="0" cType="1" res="0.00231975" purity="0.575182" nType="-99"/>
              <Node pos="r" depth="4" NCoef="0" IVar="-1" Cut="0" cType="1" res="0.000113699" purity="0.469552" nType="-99"/>
            </Node>
          </Node>
          <Node pos="r" depth="2" NCoef="0" IVar="0" Cut="158504" cType="1" res="-0.0157737" purity="0.461653" nType="0">
            <Node pos="l" depth="3" NCoef="0" IVar="0" Cut="134241" cType="1" res="0.00263795" purity="0.459976" nType="0">
              <Node pos="l" depth="4" NCoef="0" IVar="-1" Cut="0" cType="1" res="-0.000845759" purity="0.429234" nType="-99"/>
              <Node pos="r" depth="4" NCoef="0" IVar="-1" Cut="0" cType="1" res="0.00201957" purity="0.533974" nType="-99"/>
            </Node>
            <Node pos="r" depth="3" NCoef="0" IVar="-1" Cut="0" cType="1" res="-0.00328991" purity="0.466232" nType="-99"/>
          </Node>
        </Node>
        <Node pos="r" depth="1" NCoef="0" IVar="2" Cut="7463.3" cType="1" res="0.0547996" purity="0.532233" nType="0">
          <Node pos="l" depth="2" NCoef="0" IVar="-1" Cut="0" cType="1" res="0.00460939" purity="0.536359" nType="-99"/>
          <Node pos="r" depth="2" NCoef="0" IVar="-1" Cut="0" cType="1" res="-0.000891944" purity="0.526459" nType="-99"/>
        </Node>
      </Node>
    </BinaryTree>
    <BinaryTree type="DecisionTree" boostWeight="1.0" itree="354">
      <Node pos="s" depth="0" NCoef="0" IVar="0" Cut="202433" cType="1" res="0.00140118" purity="0.496525" nType="0">
        <Node pos="l" depth="1" NCoef="0" IVar="5" Cut="1.61544" cType="1" res="-0.00415948" purity="0.478898" nType="0">
          <Node pos="l" depth="2" NCoef="0" IVar="5" Cut="1.45911" cType="1" res="-0.0174208" purity="0.472449" nType="0">
            <Node pos="l" depth="3" NCoef="0" IVar="0" Cut="132472" cType="1" res="-0.00560122" purity="0.485229" nType="0">
              <Node pos="l" depth="4" NCoef="0" IVar="-1" Cut="0" cType="1" res="0.000678642" purity="0.482878" nType="-99"/>
              <Node pos="r" depth="4" NCoef="0" IVar="-1" Cut="0" cType="1" res="-0.0011277" purity="0.487311" nType="-99"/>
            </Node>
            <Node pos="r" depth="3" NCoef="0" IVar="-1" Cut="0" cType="1" res="-0.00579303" purity="0.385586" nType="-99"/>
          </Node>
          <Node pos="r" depth="2" NCoef="0" IVar="5" Cut="2.47147" cType="1" res="0.0138677" purity="0.487664" nType="0">
            <Node pos="l" depth="3" NCoef="0" IVar="6" Cut="2.06867" cType="1" res="0.0325546" purity="0.516756" nType="0">
              <Node pos="l" depth="4" NCoef="0" IVar="-1" Cut="0" cType="1" res="0.00069304" purity="0.535253" nType="-99"/>
              <Node pos="r" depth="4" NCoef="0" IVar="-1" Cut="0" cType="1" res="0.00285495" purity="0.487363" nType="-99"/>
            </Node>
            <Node pos="r" depth="3" NCoef="0" IVar="5" Cut="2.76573" cType="1" res="-0.0311004" purity="0.417659" nType="0">
              <Node pos="l" depth="4" NCoef="0" IVar="-1" Cut="0" cType="1" res="-0.00337992" purity="0.399591" nType="-99"/>
              <Node pos="r" depth="4" NCoef="0" IVar="-1" Cut="0" cType="1" res="-0.000376371" purity="0.432251" nType="-99"/>
            </Node>
          </Node>
        </Node>
        <Node pos="r" depth="1" NCoef="0" IVar="2" Cut="4199.52" cType="1" res="0.0380709" purity="0.612768" nType="0">
          <Node pos="l" depth="2" NCoef="0" IVar="-1" Cut="0" cType="1" res="0.00265512" purity="0.582891" nType="-99"/>
          <Node pos="r" depth="2" NCoef="0" IVar="-1" Cut="0" cType="1" res="0.000529756" purity="0.638331" nType="-99"/>
        </Node>
      </Node>
    </BinaryTree>
    <BinaryTree type="DecisionTree" boostWeight="1.0" itree="355">
      <Node pos="s" depth="0" NCoef="0" IVar="3" Cut="124543" cType="1" res="0.0035022" purity="0.498798" nType="0">
        <Node pos="l" depth="1" NCoef="0" IVar="0" Cut="129241" cType="1" res="-0.043877" purity="0.454554" nType="0">
          <Node pos="l" depth="2" NCoef="0" IVar="-1" Cut="0" cType="1" res="-0.00556252" purity="0.373257" nType="-99"/>
          <Node pos="r" depth="2" NCoef="0" IVar="-1" Cut="0" cType="1" res="-0.000396257" purity="0.519343" nType="-99"/>
        </Node>
        <Node pos="r" depth="1" NCoef="0" IVar="6" Cut="2.98832" cType="1" res="0.00841692" purity="0.503388" nType="0">
          <Node pos="l" depth="2" NCoef="0" IVar="5" Cut="1.0062" cType="1" res="0.00452328" purity="0.505012" nType="0">
            <Node pos="l" depth="3" NCoef="0" IVar="0" Cut="148778" cType="1" res="-0.0183705" purity="0.511293" nType="0">
              <Node pos="l" depth="4" NCoef="0" IVar="-1" Cut="0" cType="1" res="-0.00346193" purity="0.431115" nType="-99"/>
              <Node pos="r" depth="4" NCoef="0" IVar="-1" Cut="0" cType="1" res="0.000596032" purity="0.566014" nType="-99"/>
            </Node>
            <Node pos="r" depth="3" NCoef="0" IVar="3" Cut="137387" cType="1" res="0.0119237" purity="0.502982" nType="0">
              <Node pos="l" depth="4" NCoef="0" IVar="-1" Cut="0" cType="1" res="0.00291331" purity="0.569468" nType="-99"/>
              <Node pos="r" depth="4" NCoef="0" IVar="-1" Cut="0" cType="1" res="0.000320075" purity="0.49682" nType="-99"/>
            </Node>
          </Node>
          <Node pos="r" depth="2" NCoef="0" IVar="-1" Cut="0" cType="1" res="0.00313858" purity="0.479176" nType="-99"/>
        </Node>
      </Node>
    </BinaryTree>
    <BinaryTree type="DecisionTree" boostWeight="1.0" itree="356">
      <Node pos="s" depth="0" NCoef="0" IVar="2" Cut="-12681.1" cType="1" res="0.00875326" purity="0.503537" nType="0">
        <Node pos="l" depth="1" NCoef="0" IVar="3" Cut="166474" cType="1" res="-0.0346979" purity="0.353645" nType="0">
          <Node pos="l" depth="2" NCoef="0" IVar="-1" Cut="0" cType="1" res="-0.00702471" purity="0.288052" nType="-99"/>
          <Node pos="r" depth="2" NCoef="0" IVar="-1" Cut="0" cType="1" res="0.000814303" purity="0.410952" nType="-99"/>
        </Node>
        <Node pos="r" depth="1" NCoef="0" IVar="4" Cut="363432" cType="1" res="0.0129433" purity="0.517991" nType="0">
          <Node pos="l" depth="2" NCoef="0" IVar="5" Cut="0.768205" cType="1" res="0.00830546" purity="0.522724" nType="0">
            <Node pos="l" depth="3" NCoef="0" IVar="2" Cut="14728.3" cType="1" res="-0.0228805" purity="0.549156" nType="0">
              <Node pos="l" depth="4" NCoef="0" IVar="-1" Cut="0" cType="1" res="-0.00223809" purity="0.428961" nType="-99"/>
              <Node pos="r" depth="4" NCoef="0" IVar="-1" Cut="0" cType="1" res="4.17992e-05" purity="0.672211" nType="-99"/>
            </Node>
            <Node pos="r" depth="3" NCoef="0" IVar="0" Cut="148758" cType="1" res="0.0118536" purity="0.519717" nType="0">
              <Node pos="l" depth="4" NCoef="0" IVar="-1" Cut="0" cType="1" res="0.000109537" purity="0.487168" nType="-99"/>
              <Node pos="r" depth="4" NCoef="0" IVar="-1" Cut="0" cType="1" res="0.00132051" purity="0.584964" nType="-99"/>
            </Node>
          </Node>
          <Node pos="r" depth="2" NCoef="0" IVar="4" Cut="430054" cType="1" res="0.0427327" purity="0.487593" nType="0">
            <Node pos="l" depth="3" NCoef="0" IVar="1" Cut="120720" cType="1" res="0.0696803" purity="0.5161" nType="0">
              <Node pos="l" depth="4" NCoef="0" IVar="-1" Cut="0" cType="1" res="0.00493234" purity="0.520623" nType="-99"/>
              <Node pos="r" depth="4" NCoef="0" IVar="-1" Cut="0" cType="1" res="0.00144526" purity="0.511605" nType="-99"/>
            </Node>
            <Node pos="r" depth="3" NCoef="0" IVar="-1" Cut="0" cType="1" res="-0.000421639" purity="0.433779" nType="-99"/>
          </Node>
        </Node>
      </Node>
    </BinaryTree>
    <BinaryTree type="DecisionTree" boostWeight="1.0" itree="357">
      <Node pos="s" depth="0" NCoef="0" IVar="2" Cut="-5894.28" cType="1" res="0.00655105" purity="0.502701" nType="0">
        <Node pos="l" depth="1" NCoef="0" IVar="3" Cut="174800" cType="1" res="-0.027032" purity="0.368399" nType="0">
          <Node pos="l" depth="2" NCoef="0" IVar="6" Cut="2.53493" cType="1" res="-0.0691118" purity="0.319006" nType="0">
            <Node pos="l" depth="3" NCoef="0" IVar="-1" Cut="0" cType="1" res="-0.00121083" purity="0.369049" nType="-99"/>
            <Node pos="r" depth="3" NCoef="0" IVar="-1" Cut="0" cType="1" res="-0.00808389" purity="0.281232" nType="-99"/>
          </Node>
          <Node pos="r" depth="2" NCoef="0" IVar="-1" Cut="0" cType="1" res="0.00158154" purity="0.436579" nType="-99"/>
        </Node>
        <Node pos="r" depth="1" NCoef="0" IVar="1" Cut="166750" cType="1" res="0.0142672" purity="0.533559" nType="0">
          <Node pos="l" depth="2" NCoef="0" IVar="2" Cut="22454.6" cType="1" res="0.0197657" purity="0.541488" nType="0">
            <Node pos="l" depth="3" NCoef="0" IVar="6" Cut="0.766175" cType="1" res="0.0134452" purity="0.513524" nType="0">
              <Node pos="l" depth="4" NCoef="0" IVar="-1" Cut="0" cType="1" res="0.00206436" purity="0.534844" nType="-99"/>
              <Node pos="r" depth="4" NCoef="0" IVar="-1" Cut="0" cType="1" res="0.000154933" purity="0.50725" nType="-99"/>
            </Node>
            <Node pos="r" depth="3" NCoef="0" IVar="-1" Cut="0" cType="1" res="0.002483" purity="0.724445" nType="-99"/>
          </Node>
          <Node pos="r" depth="2" NCoef="0" IVar="1" Cut="199227" cType="1" res="-0.0328443" purity="0.465619" nType="0">
            <Node pos="l" depth="3" NCoef="0" IVar="-1" Cut="0" cType="1" res="-0.00364067" purity="0.427674" nType="-99"/>
            <Node pos="r" depth="3" NCoef="0" IVar="-1" Cut="0" cType="1" res="1.87187e-05" purity="0.5015" nType="-99"/>
          </Node>
        </Node>
      </Node>
    </BinaryTree>
    <BinaryTree type="DecisionTree" boostWeight="1.0" itree="358">
      <Node pos="s" depth="0" NCoef="0" IVar="1" Cut="95118.9" cType="1" res="-0.00262333" purity="0.490819" nType="0">
        <Node pos="l" depth="1" NCoef="0" IVar="1" Cut="92997.1" cType="1" res="-0.0485168" purity="0.410986" nType="0">
          <Node pos="l" depth="2" NCoef="0" IVar="4" Cut="188039" cType="1" res="-0.0091957" purity="0.461937" nType="0">
            <Node pos="l" depth="3" NCoef="0" IVar="-1" Cut="0" cType="1" res="-0.0022533" purity="0.460828" nType="-99"/>
            <Node pos="r" depth="3" NCoef="0" IVar="-1" Cut="0" cType="1" res="0.000792157" purity="0.462741" nType="-99"/>
          </Node>
          <Node pos="r" depth="2" NCoef="0" IVar="-1" Cut="0" cType="1" res="-0.00874736" purity="0.310707" nType="-99"/>
        </Node>
        <Node pos="r" depth="1" NCoef="0" IVar="3" Cut="211448" cType="1" res="0.00542865" purity="0.504826" nType="0">
          <Node pos="l" depth="2" NCoef="0" IVar="3" Cut="126726" cType="1" res="-0.00012987" purity="0.500721" nType="0">
            <Node pos="l" depth="3" NCoef="0" IVar="1" Cut="115012" cType="1" res="0.0412118" purity="0.536411" nType="0">
              <Node pos="l" depth="4" NCoef="0" IVar="-1" Cut="0" cType="1" res="0.00446381" purity="0.566902" nType="-99"/>
              <Node pos="r" depth="4" NCoef="0" IVar="-1" Cut="0" cType="1" res="-0.000502354" purity="0.510109" nType="-99"/>
            </Node>
            <Node pos="r" depth="3" NCoef="0" IVar="6" Cut="2.91168" cType="1" res="-0.00657736" purity="0.495155" nType="0">
              <Node pos="l" depth="4" NCoef="0" IVar="-1" Cut="0" cType="1" res="-0.000643842" purity="0.497415" nType="-99"/>
              <Node pos="r" depth="4" NCoef="0" IVar="-1" Cut="0" cType="1" res="0.00329712" purity="0.471042" nType="-99"/>
            </Node>
          </Node>
          <Node pos="r" depth="2" NCoef="0" IVar="6" Cut="1.9916" cType="1" res="0.0551922" purity="0.541574" nType="0">
            <Node pos="l" depth="3" NCoef="0" IVar="-1" Cut="0" cType="1" res="0.00140134" purity="0.525811" nType="-99"/>
            <Node pos="r" depth="3" NCoef="0" IVar="-1" Cut="0" cType="1" res="0.00343429" purity="0.557883" nType="-99"/>
          </Node>
        </Node>
      </Node>
    </BinaryTree>
    <BinaryTree type="DecisionTree" boostWeight="1.0" itree="359">
      <Node pos="s" depth="0" NCoef="0" IVar="3" Cut="118702" cType="1" res="0.00796422" purity="0.5053" nType="0">
        <Node pos="l" depth="1" NCoef="0" IVar="-1" Cut="0" cType="1" res="-0.00309948" purity="0.420022" nType="-99"/>
        <Node pos="r" depth="1" NCoef="0" IVar="0" Cut="104878" cType="1" res="0.0128121" purity="0.51175" nType="0">
          <Node pos="l" depth="2" NCoef="0" IVar="-1" Cut="0" cType="1" res="-0.00255954" purity="0.380035" nType="-99"/>
          <Node pos="r" depth="2" NCoef="0" IVar="1" Cut="110480" cType="1" res="0.017953" purity="0.523958" nType="0">
            <Node pos="l" depth="3" NCoef="0" IVar="1" Cut="92496.6" cType="1" res="0.00356189" purity="0.481094" nType="0">
              <Node pos="l" depth="4" NCoef="0" IVar="-1" Cut="0" cType="1" res="0.00246094" purity="0.535241" nType="-99"/>
              <Node pos="r" depth="4" NCoef="0" IVar="-1" Cut="0" cType="1" res="-0.000440678" purity="0.468253" nType="-99"/>
            </Node>
            <Node pos="r" depth="3" NCoef="0" IVar="3" Cut="144989" cType="1" res="0.0313426" purity="0.563839" nType="0">
              <Node pos="l" depth="4" NCoef="0" IVar="-1" Cut="0" cType="1" res="0.00304262" purity="0.613499" nType="-99"/>
              <Node pos="r" depth="4" NCoef="0" IVar="-1" Cut="0" cType="1" res="0.000951511" purity="0.552978" nType="-99"/>
            </Node>
          </Node>
        </Node>
      </Node>
    </BinaryTree>
    <BinaryTree type="DecisionTree" boostWeight="1.0" itree="360">
      <Node pos="s" depth="0" NCoef="0" IVar="3" Cut="107089" cType="1" res="0.0063082" purity="0.501213" nType="0">
        <Node pos="l" depth="1" NCoef="0" IVar="-1" Cut="0" cType="1" res="0.00272781" purity="0.548364" nType="-99"/>
        <Node pos="r" depth="1" NCoef="0" IVar="4" Cut="207347" cType="1" res="0.00359871" purity="0.498966" nType="0">
          <Node pos="l" depth="2" NCoef="0" IVar="2" Cut="-6117.97" cType="1" res="0.0156056" purity="0.550908" nType="0">
            <Node pos="l" depth="3" NCoef="0" IVar="-1" Cut="0" cType="1" res="0.00348059" purity="0.500933" nType="-99"/>
            <Node pos="r" depth="3" NCoef="0" IVar="3" Cut="193306" cType="1" res="0.00520238" purity="0.559068" nType="0">
              <Node pos="l" depth="4" NCoef="0" IVar="-1" Cut="0" cType="1" res="0.000858897" purity="0.578507" nType="-99"/>
              <Node pos="r" depth="4" NCoef="0" IVar="-1" Cut="0" cType="1" res="-0.00404792" purity="0.449421" nType="-99"/>
            </Node>
          </Node>
          <Node pos="r" depth="2" NCoef="0" IVar="1" Cut="95117.8" cType="1" res="-0.00518121" purity="0.460985" nType="0">
            <Node pos="l" depth="3" NCoef="0" IVar="-1" Cut="0" cType="1" res="-0.00259817" purity="0.37621" nType="-99"/>
            <Node pos="r" depth="3" NCoef="0" IVar="3" Cut="210410" cType="1" res="-0.000297251" purity="0.471795" nType="0">
              <Node pos="l" depth="4" NCoef="0" IVar="-1" Cut="0" cType="1" res="-0.000255085" purity="0.467809" nType="-99"/>
              <Node pos="r" depth="4" NCoef="0" IVar="-1" Cut="0" cType="1" res="0.00160045" purity="0.500327" nType="-99"/>
            </Node>
          </Node>
        </Node>
      </Node>
    </BinaryTree>
    <BinaryTree type="DecisionTree" boostWeight="1.0" itree="361">
      <Node pos="s" depth="0" NCoef="0" IVar="5" Cut="2.75868" cType="1" res="0.00098958" purity="0.496197" nType="0">
        <Node pos="l" depth="1" NCoef="0" IVar="2" Cut="-9280.05" cType="1" res="0.00454261" purity="0.502739" nType="0">
          <Node pos="l" depth="2" NCoef="0" IVar="0" Cut="124326" cType="1" res="0.0401025" purity="0.43141" nType="0">
            <Node pos="l" depth="3" NCoef="0" IVar="-1" Cut="0" cType="1" res="0.00395815" purity="0.439347" nType="-99"/>
            <Node pos="r" depth="3" NCoef="0" IVar="-1" Cut="0" cType="1" res="0.000171432" purity="0.423032" nType="-99"/>
          </Node>
          <Node pos="r" depth="2" NCoef="0" IVar="6" Cut="1.83882" cType="1" res="-0.00168748" purity="0.515236" nType="0">
            <Node pos="l" depth="3" NCoef="0" IVar="5" Cut="2.15372" cType="1" res="0.010973" purity="0.54499" nType="0">
              <Node pos="l" depth="4" NCoef="0" IVar="-1" Cut="0" cType="1" res="9.97879e-05" purity="0.543137" nType="-99"/>
              <Node pos="r" depth="4" NCoef="0" IVar="-1" Cut="0" cType="1" res="0.00197869" purity="0.552298" nType="-99"/>
            </Node>
            <Node pos="r" depth="3" NCoef="0" IVar="6" Cut="2.02947" cType="1" res="-0.0181133" purity="0.476633" nType="0">
              <Node pos="l" depth="4" NCoef="0" IVar="-1" Cut="0" cType="1" res="-0.00458654" purity="0.450625" nType="-99"/>
              <Node pos="r" depth="4" NCoef="0" IVar="-1" Cut="0" cType="1" res="-0.000317015" purity="0.481008" nType="-99"/>
            </Node>
          </Node>
        </Node>
        <Node pos="r" depth="1" NCoef="0" IVar="-1" Cut="0" cType="1" res="-0.00296023" purity="0.397729" nType="-99"/>
      </Node>
    </BinaryTree>
    <BinaryTree type="DecisionTree" boostWeight="1.0" itree="362">
      <Node pos="s" depth="0" NCoef="0" IVar="6" Cut="2.98813" cType="1" res="0.00767554" purity="0.50248" nType="0">
        <Node pos="l" depth="1" NCoef="0" IVar="1" Cut="166750" cType="1" res="0.0109982" purity="0.5104" nType="0">
          <Node pos="l" depth="2" NCoef="0" IVar="6" Cut="1.02033" cType="1" res="0.0155281" purity="0.517691" nType="0">
            <Node pos="l" depth="3" NCoef="0" IVar="4" Cut="226857" cType="1" res="0.0454411" purity="0.551946" nType="0">
              <Node pos="l" depth="4" NCoef="0" IVar="-1" Cut="0" cType="1" res="0.000609255" purity="0.555904" nType="-99"/>
              <Node pos="r" depth="4" NCoef="0" IVar="-1" Cut="0" cType="1" res="0.00387331" purity="0.546382" nType="-99"/>
            </Node>
            <Node pos="r" depth="3" NCoef="0" IVar="5" Cut="1.22825" cType="1" res="0.00448763" purity="0.505048" nType="0">
              <Node pos="l" depth="4" NCoef="0" IVar="-1" Cut="0" cType="1" res="0.00101581" purity="0.549153" nType="-99"/>
              <Node pos="r" depth="4" NCoef="0" IVar="-1" Cut="0" cType="1" res="-0.000577834" purity="0.466467" nType="-99"/>
            </Node>
          </Node>
          <Node pos="r" depth="2" NCoef="0" IVar="5" Cut="2.42176" cType="1" res="-0.0262561" purity="0.450441" nType="0">
            <Node pos="l" depth="3" NCoef="0" IVar="-1" Cut="0" cType="1" res="-0.00369248" purity="0.447006" nType="-99"/>
            <Node pos="r" depth="3" NCoef="0" IVar="-1" Cut="0" cType="1" res="0.000605292" purity="0.453453" nType="-99"/>
          </Node>
        </Node>
        <Node pos="r" depth="1" NCoef="0" IVar="-1" Cut="0" cType="1" res="-0.00350254" purity="0.353907" nType="-99"/>
      </Node>
    </BinaryTree>
    <BinaryTree type="DecisionTree" boostWeight="1.0" itree="363">
      <Node pos="s" depth="0" NCoef="0" IVar="6" Cut="2.83508" cType="1" res="0.000459438" purity="0.495994" nType="0">
        <Node pos="l" depth="1" NCoef="0" IVar="3" Cut="124971" cType="1" res="0.00543228" purity="0.511674" nType="0">
          <Node pos="l" depth="2" NCoef="0" IVar="2" Cut="7773.03" cType="1" res="0.0495789" purity="0.545561" nType="0">
            <Node pos="l" depth="3" NCoef="0" IVar="-1" Cut="0" cType="1" res="0.00407593" purity="0.531477" nType="-99"/>
            <Node pos="r" depth="3" NCoef="0" IVar="-1" Cut="0" cType="1" res="-0.000497823" purity="0.564834" nType="-99"/>
          </Node>
          <Node pos="r" depth="2" NCoef="0" IVar="2" Cut="21018.5" cType="1" res="-0.000159888" purity="0.507382" nType="0">
            <Node pos="l" depth="3" NCoef="0" IVar="2" Cut="-2788.37" cType="1" res="-0.00585422" purity="0.477422" nType="0">
              <Node pos="l" depth="4" NCoef="0" IVar="-1" Cut="0" cType="1" res="0.00136608" purity="0.428889" nType="-99"/>
              <Node pos="r" depth="4" NCoef="0" IVar="-1" Cut="0" cType="1" res="-0.000716155" purity="0.49146" nType="-99"/>
            </Node>
            <Node pos="r" depth="3" NCoef="0" IVar="1" Cut="115570" cType="1" res="0.0339794" purity="0.686999" nType="0">
              <Node pos="l" depth="4" NCoef="0" IVar="-1" Cut="0" cType="1" res="-0.00123479" purity="0.615285" nType="-99"/>
              <Node pos="r" depth="4" NCoef="0" IVar="-1" Cut="0" cType="1" res="0.00275272" purity="0.730764" nType="-99"/>
            </Node>
          </Node>
        </Node>
        <Node pos="r" depth="1" NCoef="0" IVar="1" Cut="105186" cType="1" res="-0.0437471" purity="0.356605" nType="0">
          <Node pos="l" depth="2" NCoef="0" IVar="-1" Cut="0" cType="1" res="0.000801532" purity="0.41163" nType="-99"/>
          <Node pos="r" depth="2" NCoef="0" IVar="-1" Cut="0" cType="1" res="-0.00711989" purity="0.300275" nType="-99"/>
        </Node>
      </Node>
    </BinaryTree>
    <BinaryTree type="DecisionTree" boostWeight="1.0" itree="364">
      <Node pos="s" depth="0" NCoef="0" IVar="3" Cut="147962" cType="1" res="0.0095774" purity="0.505726" nType="0">
        <Node pos="l" depth="1" NCoef="0" IVar="4" Cut="187805" cType="1" res="-0.0131403" purity="0.487986" nType="0">
          <Node pos="l" depth="2" NCoef="0" IVar="-1" Cut="0" cType="1" res="-0.00297305" purity="0.49796" nType="-99"/>
          <Node pos="r" depth="2" NCoef="0" IVar="1" Cut="105349" cType="1" res="0.00292175" purity="0.484479" nType="0">
            <Node pos="l" depth="3" NCoef="0" IVar="-1" Cut="0" cType="1" res="0.00259568" purity="0.501076" nType="-99"/>
            <Node pos="r" depth="3" NCoef="0" IVar="2" Cut="1867.73" cType="1" res="-0.0227195" purity="0.476271" nType="0">
              <Node pos="l" depth="4" NCoef="0" IVar="-1" Cut="0" cType="1" res="-0.0038563" purity="0.359703" nType="-99"/>
              <Node pos="r" depth="4" NCoef="0" IVar="-1" Cut="0" cType="1" res="0.000257668" purity="0.553151" nType="-99"/>
            </Node>
          </Node>
        </Node>
        <Node pos="r" depth="1" NCoef="0" IVar="6" Cut="2.29865" cType="1" res="0.0164737" purity="0.511111" nType="0">
          <Node pos="l" depth="2" NCoef="0" IVar="6" Cut="0.504621" cType="1" res="0.0250634" purity="0.545494" nType="0">
            <Node pos="l" depth="3" NCoef="0" IVar="6" Cut="0.246098" cType="1" res="-0.00575289" purity="0.487429" nType="0">
              <Node pos="l" depth="4" NCoef="0" IVar="-1" Cut="0" cType="1" res="-0.00110718" purity="0.471801" nType="-99"/>
              <Node pos="r" depth="4" NCoef="0" IVar="-1" Cut="0" cType="1" res="0.000456568" purity="0.501362" nType="-99"/>
            </Node>
            <Node pos="r" depth="3" NCoef="0" IVar="2" Cut="11711" cType="1" res="0.0312846" purity="0.557217" nType="0">
              <Node pos="l" depth="4" NCoef="0" IVar="-1" Cut="0" cType="1" res="0.00190635" purity="0.508582" nType="-99"/>
              <Node pos="r" depth="4" NCoef="0" IVar="-1" Cut="0" cType="1" res="0.000503849" purity="0.638766" nType="-99"/>
            </Node>
          </Node>
          <Node pos="r" depth="2" NCoef="0" IVar="6" Cut="2.50423" cType="1" res="-0.00115857" purity="0.440532" nType="0">
            <Node pos="l" depth="3" NCoef="0" IVar="-1" Cut="0" cType="1" res="-0.00256947" purity="0.433663" nType="-99"/>
            <Node pos="r" depth="3" NCoef="0" IVar="6" Cut="2.7374" cType="1" res="0.0138439" purity="0.442722" nType="0">
              <Node pos="l" depth="4" NCoef="0" IVar="-1" Cut="0" cType="1" res="0.00203555" purity="0.505179" nType="-99"/>
              <Node pos="r" depth="4" NCoef="0" IVar="-1" Cut="0" cType="1" res="-0.000333267" purity="0.400779" nType="-99"/>
            </Node>
          </Node>
        </Node>
      </Node>
    </BinaryTree>
    <BinaryTree type="DecisionTree" boostWeight="1.0" itree="365">
      <Node pos="s" depth="0" NCoef="0" IVar="2" Cut="-19547.2" cType="1" res="0.00708087" purity="0.501509" nType="0">
        <Node pos="l" depth="1" NCoef="0" IVar="-1" Cut="0" cType="1" res="0.00278089" purity="0.44217" nType="-99"/>
        <Node pos="r" depth="1" NCoef="0" IVar="5" Cut="2.37574" cType="1" res="0.004584" purity="0.5046" nType="0">
          <Node pos="l" depth="2" NCoef="0" IVar="4" Cut="178308" cType="1" res="-0.000469784" purity="0.506164" nType="0">
            <Node pos="l" depth="3" NCoef="0" IVar="2" Cut="9349.04" cType="1" res="0.0229662" purity="0.570196" nType="0">
              <Node pos="l" depth="4" NCoef="0" IVar="-1" Cut="0" cType="1" res="-0.00025209" purity="0.464843" nType="-99"/>
              <Node pos="r" depth="4" NCoef="0" IVar="-1" Cut="0" cType="1" res="0.00215186" purity="0.683383" nType="-99"/>
            </Node>
            <Node pos="r" depth="3" NCoef="0" IVar="2" Cut="21187.9" cType="1" res="-0.00925244" purity="0.482168" nType="0">
              <Node pos="l" depth="4" NCoef="0" IVar="-1" Cut="0" cType="1" res="-0.000206559" purity="0.469314" nType="-99"/>
              <Node pos="r" depth="4" NCoef="0" IVar="-1" Cut="0" cType="1" res="-0.00241016" purity="0.591612" nType="-99"/>
            </Node>
          </Node>
          <Node pos="r" depth="2" NCoef="0" IVar="3" Cut="170457" cType="1" res="0.0338196" purity="0.495552" nType="0">
            <Node pos="l" depth="3" NCoef="0" IVar="-1" Cut="0" cType="1" res="-5.63504e-05" purity="0.471674" nType="-99"/>
            <Node pos="r" depth="3" NCoef="0" IVar="-1" Cut="0" cType="1" res="0.00313756" purity="0.520647" nType="-99"/>
          </Node>
        </Node>
      </Node>
    </BinaryTree>
    <BinaryTree type="DecisionTree" boostWeight="1.0" itree="366">
      <Node pos="s" depth="0" NCoef="0" IVar="0" Cut="114629" cType="1" res="0.00591536" purity="0.500778" nType="0">
        <Node pos="l" depth="1" NCoef="0" IVar="0" Cut="104995" cType="1" res="-0.0177395" purity="0.422522" nType="0">
          <Node pos="l" depth="2" NCoef="0" IVar="6" Cut="1.8388" cType="1" res="0.0102685" purity="0.419641" nType="0">
            <Node pos="l" depth="3" NCoef="0" IVar="-1" Cut="0" cType="1" res="0.00148631" purity="0.473792" nType="-99"/>
            <Node pos="r" depth="3" NCoef="0" IVar="-1" Cut="0" cType="1" res="-0.000913998" purity="0.351131" nType="-99"/>
          </Node>
          <Node pos="r" depth="2" NCoef="0" IVar="6" Cut="1.3023" cType="1" res="-0.0343882" purity="0.424234" nType="0">
            <Node pos="l" depth="3" NCoef="0" IVar="-1" Cut="0" cType="1" res="-0.000163185" purity="0.493009" nType="-99"/>
            <Node pos="r" depth="3" NCoef="0" IVar="6" Cut="2.33399" cType="1" res="-0.0561754" purity="0.375865" nType="0">
              <Node pos="l" depth="4" NCoef="0" IVar="-1" Cut="0" cType="1" res="-0.00654563" purity="0.366875" nType="-99"/>
              <Node pos="r" depth="4" NCoef="0" IVar="-1" Cut="0" cType="1" res="-0.000384874" purity="0.38484" nType="-99"/>
            </Node>
          </Node>
        </Node>
        <Node pos="r" depth="1" NCoef="0" IVar="4" Cut="431700" cType="1" res="0.0138005" purity="0.526864" nType="0">
          <Node pos="l" depth="2" NCoef="0" IVar="4" Cut="302228" cType="1" res="0.010317" purity="0.528434" nType="0">
            <Node pos="l" depth="3" NCoef="0" IVar="6" Cut="2.91142" cType="1" res="0.0202843" purity="0.548819" nType="0">
              <Node pos="l" depth="4" NCoef="0" IVar="-1" Cut="0" cType="1" res="0.00061919" purity="0.551417" nType="-99"/>
              <Node pos="r" depth="4" NCoef="0" IVar="-1" Cut="0" cType="1" res="0.00390719" purity="0.520931" nType="-99"/>
            </Node>
            <Node pos="r" depth="3" NCoef="0" IVar="1" Cut="120610" cType="1" res="-0.0273149" purity="0.451472" nType="0">
              <Node pos="l" depth="4" NCoef="0" IVar="-1" Cut="0" cType="1" res="0.000306912" purity="0.467934" nType="-99"/>
              <Node pos="r" depth="4" NCoef="0" IVar="-1" Cut="0" cType="1" res="-0.00301823" purity="0.436604" nType="-99"/>
            </Node>
          </Node>
          <Node pos="r" depth="2" NCoef="0" IVar="-1" Cut="0" cType="1" res="0.00328111" purity="0.501435" nType="-99"/>
        </Node>
      </Node>
    </BinaryTree>
    <BinaryTree type="DecisionTree" boostWeight="1.0" itree="367">
      <Node pos="s" depth="0" NCoef="0" IVar="3" Cut="182346" cType="1" res="0.00244336" purity="0.498054" nType="0">
        <Node pos="l" depth="1" NCoef="0" IVar="6" Cut="2.68177" cType="1" res="0.0111238" purity="0.51199" nType="0">
          <Node pos="l" depth="2" NCoef="0" IVar="6" Cut="2.42006" cType="1" res="0.00467225" purity="0.523509" nType="0">
            <Node pos="l" depth="3" NCoef="0" IVar="5" Cut="1.07427" cType="1" res="0.0116599" purity="0.536556" nType="0">
              <Node pos="l" depth="4" NCoef="0" IVar="-1" Cut="0" cType="1" res="-0.000733871" purity="0.537891" nType="-99"/>
              <Node pos="r" depth="4" NCoef="0" IVar="-1" Cut="0" cType="1" res="0.000961666" purity="0.536088" nType="-99"/>
            </Node>
            <Node pos="r" depth="3" NCoef="0" IVar="-1" Cut="0" cType="1" res="-0.00276844" purity="0.419646" nType="-99"/>
          </Node>
          <Node pos="r" depth="2" NCoef="0" IVar="0" Cut="139001" cType="1" res="0.0432099" purity="0.454705" nType="0">
            <Node pos="l" depth="3" NCoef="0" IVar="-1" Cut="0" cType="1" res="0.00376858" purity="0.440239" nType="-99"/>
            <Node pos="r" depth="3" NCoef="0" IVar="-1" Cut="0" cType="1" res="0.000612268" purity="0.471495" nType="-99"/>
          </Node>
        </Node>
        <Node pos="r" depth="1" NCoef="0" IVar="5" Cut="1.61922" cType="1" res="-0.0188468" purity="0.463872" nType="0">
          <Node pos="l" depth="2" NCoef="0" IVar="3" Cut="190853" cType="1" res="0.00962802" purity="0.503567" nType="0">
            <Node pos="l" depth="3" NCoef="0" IVar="-1" Cut="0" cType="1" res="-0.00182988" purity="0.460892" nType="-99"/>
            <Node pos="r" depth="3" NCoef="0" IVar="3" Cut="211877" cType="1" res="0.0276612" purity="0.520218" nType="0">
              <Node pos="l" depth="4" NCoef="0" IVar="-1" Cut="0" cType="1" res="0.00282806" purity="0.550189" nType="-99"/>
              <Node pos="r" depth="4" NCoef="0" IVar="-1" Cut="0" cType="1" res="-0.00155539" purity="0.473426" nType="-99"/>
            </Node>
          </Node>
          <Node pos="r" depth="2" NCoef="0" IVar="2" Cut="3746.73" cType="1" res="-0.0720803" purity="0.389664" nType="0">
            <Node pos="l" depth="3" NCoef="0" IVar="-1" Cut="0" cType="1" res="-0.0025525" purity="0.378784" nType="-99"/>
            <Node pos="r" depth="3" NCoef="0" IVar="-1" Cut="0" cType="1" res="-0.00627381" purity="0.404189" nType="-99"/>
          </Node>
        </Node>
      </Node>
    </BinaryTree>
    <BinaryTree type="DecisionTree" boostWeight="1.0" itree="368">
      <Node pos="s" depth="0" NCoef="0" IVar="4" Cut="431711" cType="1" res="0.00755211" purity="0.502919" nType="0">
        <Node pos="l" depth="1" NCoef="0" IVar="1" Cut="130957" cType="1" res="0.0115324" purity="0.51035" nType="0">
          <Node pos="l" depth="2" NCoef="0" IVar="3" Cut="118671" cType="1" res="0.0180911" purity="0.512678" nType="0">
            <Node pos="l" depth="3" NCoef="0" IVar="-1" Cut="0" cType="1" res="-0.00222283" purity="0.438939" nType="-99"/>
            <Node pos="r" depth="3" NCoef="0" IVar="1" Cut="91998.1" cType="1" res="0.0222165" purity="0.517885" nType="0">
              <Node pos="l" depth="4" NCoef="0" IVar="-1" Cut="0" cType="1" res="0.00308055" purity="0.548386" nType="-99"/>
              <Node pos="r" depth="4" NCoef="0" IVar="-1" Cut="0" cType="1" res="0.00078041" purity="0.514611" nType="-99"/>
            </Node>
          </Node>
          <Node pos="r" depth="2" NCoef="0" IVar="5" Cut="2.70918" cType="1" res="-0.00740396" purity="0.503628" nType="0">
            <Node pos="l" depth="3" NCoef="0" IVar="3" Cut="171867" cType="1" res="-0.030148" purity="0.499915" nType="0">
              <Node pos="l" depth="4" NCoef="0" IVar="-1" Cut="0" cType="1" res="0.000437635" purity="0.550543" nType="-99"/>
              <Node pos="r" depth="4" NCoef="0" IVar="-1" Cut="0" cType="1" res="-0.00527635" purity="0.418516" nType="-99"/>
            </Node>
            <Node pos="r" depth="3" NCoef="0" IVar="-1" Cut="0" cType="1" res="0.00267044" purity="0.514757" nType="-99"/>
          </Node>
        </Node>
        <Node pos="r" depth="1" NCoef="0" IVar="-1" Cut="0" cType="1" res="-0.00557058" purity="0.330049" nType="-99"/>
      </Node>
    </BinaryTree>
    <BinaryTree type="DecisionTree" boostWeight="1.0" itree="369">
      <Node pos="s" depth="0" NCoef="0" IVar="3" Cut="234538" cType="1" res="0.00946507" purity="0.505909" nType="0">
        <Node pos="l" depth="1" NCoef="0" IVar="4" Cut="217145" cType="1" res="0.00589414" purity="0.502833" nType="0">
          <Node pos="l" depth="2" NCoef="0" IVar="1" Cut="96333" cType="1" res="0.0252147" purity="0.557152" nType="0">
            <Node pos="l" depth="3" NCoef="0" IVar="4" Cut="180017" cType="1" res="-0.00738777" purity="0.482225" nType="0">
              <Node pos="l" depth="4" NCoef="0" IVar="-1" Cut="0" cType="1" res="0.000723678" purity="0.522094" nType="-99"/>
              <Node pos="r" depth="4" NCoef="0" IVar="-1" Cut="0" cType="1" res="-0.00264452" purity="0.411427" nType="-99"/>
            </Node>
            <Node pos="r" depth="3" NCoef="0" IVar="1" Cut="105369" cType="1" res="0.0355672" purity="0.580944" nType="0">
              <Node pos="l" depth="4" NCoef="0" IVar="-1" Cut="0" cType="1" res="0.00255548" purity="0.571374" nType="-99"/>
              <Node pos="r" depth="4" NCoef="0" IVar="-1" Cut="0" cType="1" res="0.000845615" purity="0.586647" nType="-99"/>
            </Node>
          </Node>
          <Node pos="r" depth="2" NCoef="0" IVar="6" Cut="2.91168" cType="1" res="-0.0123307" purity="0.451594" nType="0">
            <Node pos="l" depth="3" NCoef="0" IVar="2" Cut="872.661" cType="1" res="-0.0187127" purity="0.453561" nType="0">
              <Node pos="l" depth="4" NCoef="0" IVar="-1" Cut="0" cType="1" res="-0.00309297" purity="0.348037" nType="-99"/>
              <Node pos="r" depth="4" NCoef="0" IVar="-1" Cut="0" cType="1" res="-8.28968e-05" purity="0.51255" nType="-99"/>
            </Node>
            <Node pos="r" depth="3" NCoef="0" IVar="-1" Cut="0" cType="1" res="0.00228776" purity="0.434719" nType="-99"/>
          </Node>
        </Node>
        <Node pos="r" depth="1" NCoef="0" IVar="-1" Cut="0" cType="1" res="0.00358141" purity="0.575043" nType="-99"/>
      </Node>
    </BinaryTree>
    <BinaryTree type="DecisionTree" boostWeight="1.0" itree="370">
      <Node pos="s" depth="0" NCoef="0" IVar="6" Cut="2.45189" cType="1" res="0.00613459" purity="0.499034" nType="0">
        <Node pos="l" depth="1" NCoef="0" IVar="4" Cut="256157" cType="1" res="-0.0025451" purity="0.513159" nType="0">
          <Node pos="l" depth="2" NCoef="0" IVar="0" Cut="197422" cType="1" res="-0.019597" purity="0.522049" nType="0">
            <Node pos="l" depth="3" NCoef="0" IVar="5" Cut="0.874649" cType="1" res="-0.0253481" purity="0.505404" nType="0">
              <Node pos="l" depth="4" NCoef="0" IVar="-1" Cut="0" cType="1" res="-0.00364319" purity="0.48509" nType="-99"/>
              <Node pos="r" depth="4" NCoef="0" IVar="-1" Cut="0" cType="1" res="-0.000870266" purity="0.508322" nType="-99"/>
            </Node>
            <Node pos="r" depth="3" NCoef="0" IVar="-1" Cut="0" cType="1" res="0.00102814" purity="0.64926" nType="-99"/>
          </Node>
          <Node pos="r" depth="2" NCoef="0" IVar="1" Cut="105359" cType="1" res="0.0258486" purity="0.498357" nType="0">
            <Node pos="l" depth="3" NCoef="0" IVar="-1" Cut="0" cType="1" res="0.00305898" purity="0.494795" nType="-99"/>
            <Node pos="r" depth="3" NCoef="0" IVar="1" Cut="157555" cType="1" res="0.0103418" purity="0.499731" nType="0">
              <Node pos="l" depth="4" NCoef="0" IVar="-1" Cut="0" cType="1" res="-0.00121676" purity="0.469474" nType="-99"/>
              <Node pos="r" depth="4" NCoef="0" IVar="-1" Cut="0" cType="1" res="0.00218257" purity="0.53485" nType="-99"/>
            </Node>
          </Node>
        </Node>
        <Node pos="r" depth="1" NCoef="0" IVar="1" Cut="130935" cType="1" res="0.0292721" purity="0.46138" nType="0">
          <Node pos="l" depth="2" NCoef="0" IVar="6" Cut="2.70418" cType="1" res="0.0407341" purity="0.472572" nType="0">
            <Node pos="l" depth="3" NCoef="0" IVar="6" Cut="2.56879" cType="1" res="0.00633481" purity="0.471853" nType="0">
              <Node pos="l" depth="4" NCoef="0" IVar="-1" Cut="0" cType="1" res="0.00189148" purity="0.508969" nType="-99"/>
              <Node pos="r" depth="4" NCoef="0" IVar="-1" Cut="0" cType="1" res="-0.00139586" purity="0.435914" nType="-99"/>
            </Node>
            <Node pos="r" depth="3" NCoef="0" IVar="1" Cut="103974" cType="1" res="0.0609179" purity="0.472994" nType="0">
              <Node pos="l" depth="4" NCoef="0" IVar="-1" Cut="0" cType="1" res="0.00405429" purity="0.49636" nType="-99"/>
              <Node pos="r" depth="4" NCoef="0" IVar="-1" Cut="0" cType="1" res="0.00119825" purity="0.4378" nType="-99"/>
            </Node>
          </Node>
          <Node pos="r" depth="2" NCoef="0" IVar="-1" Cut="0" cType="1" res="-0.00109141" purity="0.413048" nType="-99"/>
        </Node>
      </Node>
    </BinaryTree>
    <BinaryTree type="DecisionTree" boostWeight="1.0" itree="371">
      <Node pos="s" depth="0" NCoef="0" IVar="3" Cut="171218" cType="1" res="0.00635864" purity="0.499483" nType="0">
        <Node pos="l" depth="1" NCoef="0" IVar="0" Cut="197535" cType="1" res="0.0190533" purity="0.520721" nType="0">
          <Node pos="l" depth="2" NCoef="0" IVar="0" Cut="126153" cType="1" res="0.0269269" purity="0.517727" nType="0">
            <Node pos="l" depth="3" NCoef="0" IVar="1" Cut="130752" cType="1" res="0.00161278" purity="0.466649" nType="0">
              <Node pos="l" depth="4" NCoef="0" IVar="-1" Cut="0" cType="1" res="-0.000550321" purity="0.452324" nType="-99"/>
              <Node pos="r" depth="4" NCoef="0" IVar="-1" Cut="0" cType="1" res="0.00162226" purity="0.505906" nType="-99"/>
            </Node>
            <Node pos="r" depth="3" NCoef="0" IVar="4" Cut="265781" cType="1" res="0.0495935" purity="0.563464" nType="0">
              <Node pos="l" depth="4" NCoef="0" IVar="-1" Cut="0" cType="1" res="0.00100612" purity="0.563713" nType="-99"/>
              <Node pos="r" depth="4" NCoef="0" IVar="-1" Cut="0" cType="1" res="0.00381621" purity="0.563052" nType="-99"/>
            </Node>
          </Node>
          <Node pos="r" depth="2" NCoef="0" IVar="-1" Cut="0" cType="1" res="-0.00180193" purity="0.542321" nType="-99"/>
        </Node>
        <Node pos="r" depth="1" NCoef="0" IVar="4" Cut="207339" cType="1" res="-0.0089225" purity="0.473918" nType="0">
          <Node pos="l" depth="2" NCoef="0" IVar="1" Cut="98933.5" cType="1" res="0.0138171" purity="0.530082" nType="0">
            <Node pos="l" depth="3" NCoef="0" IVar="-1" Cut="0" cType="1" res="-0.00094835" purity="0.467168" nType="-99"/>
            <Node pos="r" depth="3" NCoef="0" IVar="5" Cut="1.3587" cType="1" res="0.0316168" purity="0.564208" nType="0">
              <Node pos="l" depth="4" NCoef="0" IVar="-1" Cut="0" cType="1" res="0.000166821" purity="0.547162" nType="-99"/>
              <Node pos="r" depth="4" NCoef="0" IVar="-1" Cut="0" cType="1" res="0.00238963" purity="0.57874" nType="-99"/>
            </Node>
          </Node>
          <Node pos="r" depth="2" NCoef="0" IVar="4" Cut="228753" cType="1" res="-0.0244276" purity="0.435622" nType="0">
            <Node pos="l" depth="3" NCoef="0" IVar="-1" Cut="0" cType="1" res="-0.0056875" purity="0.384781" nType="-99"/>
            <Node pos="r" depth="3" NCoef="0" IVar="3" Cut="177485" cType="1" res="-0.0120442" purity="0.44502" nType="0">
              <Node pos="l" depth="4" NCoef="0" IVar="-1" Cut="0" cType="1" res="-0.00512742" purity="0.379377" nType="-99"/>
              <Node pos="r" depth="4" NCoef="0" IVar="-1" Cut="0" cType="1" res="0.000184326" purity="0.459176" nType="-99"/>
            </Node>
          </Node>
        </Node>
      </Node>
    </BinaryTree>
    <BinaryTree type="DecisionTree" boostWeight="1.0" itree="372">
      <Node pos="s" depth="0" NCoef="0" IVar="4" Cut="392677" cType="1" res="0.00314562" purity="0.497126" nType="0">
        <Node pos="l" depth="1" NCoef="0" IVar="3" Cut="136179" cType="1" res="-0.00415018" purity="0.497806" nType="0">
          <Node pos="l" depth="2" NCoef="0" IVar="3" Cut="110267" cType="1" res="-0.0394366" purity="0.462138" nType="0">
            <Node pos="l" depth="3" NCoef="0" IVar="-1" Cut="0" cType="1" res="0.000547847" purity="0.506301" nType="-99"/>
            <Node pos="r" depth="3" NCoef="0" IVar="3" Cut="126066" cType="1" res="-0.0637099" purity="0.440845" nType="0">
              <Node pos="l" depth="4" NCoef="0" IVar="-1" Cut="0" cType="1" res="-0.00184675" purity="0.46765" nType="-99"/>
              <Node pos="r" depth="4" NCoef="0" IVar="-1" Cut="0" cType="1" res="-0.00560758" purity="0.407842" nType="-99"/>
            </Node>
          </Node>
          <Node pos="r" depth="2" NCoef="0" IVar="5" Cut="0.782679" cType="1" res="0.00220998" purity="0.504235" nType="0">
            <Node pos="l" depth="3" NCoef="0" IVar="4" Cut="199848" cType="1" res="0.037454" purity="0.599906" nType="0">
              <Node pos="l" depth="4" NCoef="0" IVar="-1" Cut="0" cType="1" res="-7.78813e-05" purity="0.583329" nType="-99"/>
              <Node pos="r" depth="4" NCoef="0" IVar="-1" Cut="0" cType="1" res="0.00339983" purity="0.619409" nType="-99"/>
            </Node>
            <Node pos="r" depth="3" NCoef="0" IVar="0" Cut="168272" cType="1" res="-0.00258173" purity="0.491227" nType="0">
              <Node pos="l" depth="4" NCoef="0" IVar="-1" Cut="0" cType="1" res="0.000192764" purity="0.482373" nType="-99"/>
              <Node pos="r" depth="4" NCoef="0" IVar="-1" Cut="0" cType="1" res="-0.00142971" purity="0.528314" nType="-99"/>
            </Node>
          </Node>
        </Node>
        <Node pos="r" depth="1" NCoef="0" IVar="5" Cut="1.62182" cType="1" res="0.0675204" purity="0.491131" nType="0">
          <Node pos="l" depth="2" NCoef="0" IVar="-1" Cut="0" cType="1" res="0.000993696" purity="0.449002" nType="-99"/>
          <Node pos="r" depth="2" NCoef="0" IVar="-1" Cut="0" cType="1" res="0.00531397" purity="0.545308" nType="-99"/>
        </Node>
      </Node>
    </BinaryTree>
    <BinaryTree type="DecisionTree" boostWeight="1.0" itree="373">
      <Node pos="s" depth="0" NCoef="0" IVar="4" Cut="295087" cType="1" res="-0.000740857" purity="0.493492" nType="0">
        <Node pos="l" depth="1" NCoef="0" IVar="5" Cut="2.22879" cType="1" res="-0.0100218" purity="0.501729" nType="0">
          <Node pos="l" depth="2" NCoef="0" IVar="1" Cut="123621" cType="1" res="-0.00303832" purity="0.512787" nType="0">
            <Node pos="l" depth="3" NCoef="0" IVar="5" Cut="1.63716" cType="1" res="-0.0120602" purity="0.488839" nType="0">
              <Node pos="l" depth="4" NCoef="0" IVar="-1" Cut="0" cType="1" res="-9.86759e-05" purity="0.502565" nType="-99"/>
              <Node pos="r" depth="4" NCoef="0" IVar="-1" Cut="0" cType="1" res="-0.0032369" purity="0.425281" nType="-99"/>
            </Node>
            <Node pos="r" depth="3" NCoef="0" IVar="5" Cut="1.54755" cType="1" res="0.0291537" purity="0.598238" nType="0">
              <Node pos="l" depth="4" NCoef="0" IVar="-1" Cut="0" cType="1" res="-0.000287426" purity="0.586646" nType="-99"/>
              <Node pos="r" depth="4" NCoef="0" IVar="-1" Cut="0" cType="1" res="0.00257214" purity="0.609355" nType="-99"/>
            </Node>
          </Node>
          <Node pos="r" depth="2" NCoef="0" IVar="5" Cut="2.60769" cType="1" res="-0.0547214" purity="0.430947" nType="0">
            <Node pos="l" depth="3" NCoef="0" IVar="-1" Cut="0" cType="1" res="-0.00556474" purity="0.396804" nType="-99"/>
            <Node pos="r" depth="3" NCoef="0" IVar="-1" Cut="0" cType="1" res="-0.00105215" purity="0.460926" nType="-99"/>
          </Node>
        </Node>
        <Node pos="r" depth="1" NCoef="0" IVar="6" Cut="2.22187" cType="1" res="0.0232648" purity="0.472189" nType="0">
          <Node pos="l" depth="2" NCoef="0" IVar="3" Cut="157701" cType="1" res="-0.00456736" purity="0.464164" nType="0">
            <Node pos="l" depth="3" NCoef="0" IVar="-1" Cut="0" cType="1" res="-0.00300191" purity="0.42766" nType="-99"/>
            <Node pos="r" depth="3" NCoef="0" IVar="6" Cut="1.19143" cType="1" res="0.021766" purity="0.483238" nType="0">
              <Node pos="l" depth="4" NCoef="0" IVar="-1" Cut="0" cType="1" res="0.0029288" purity="0.510927" nType="-99"/>
              <Node pos="r" depth="4" NCoef="0" IVar="-1" Cut="0" cType="1" res="-0.00106616" purity="0.456305" nType="-99"/>
            </Node>
          </Node>
          <Node pos="r" depth="2" NCoef="0" IVar="1" Cut="120565" cType="1" res="0.062002" purity="0.483357" nType="0">
            <Node pos="l" depth="3" NCoef="0" IVar="-1" Cut="0" cType="1" res="0.00129749" purity="0.431063" nType="-99"/>
            <Node pos="r" depth="3" NCoef="0" IVar="-1" Cut="0" cType="1" res="0.00437175" purity="0.533704" nType="-99"/>
          </Node>
        </Node>
      </Node>
    </BinaryTree>
    <BinaryTree type="DecisionTree" boostWeight="1.0" itree="374">
      <Node pos="s" depth="0" NCoef="0" IVar="3" Cut="177186" cType="1" res="0.00517101" purity="0.498959" nType="0">
        <Node pos="l" depth="1" NCoef="0" IVar="3" Cut="108759" cType="1" res="-0.00565234" purity="0.494664" nType="0">
          <Node pos="l" depth="2" NCoef="0" IVar="-1" Cut="0" cType="1" res="0.00325247" purity="0.55062" nType="-99"/>
          <Node pos="r" depth="2" NCoef="0" IVar="4" Cut="197641" cType="1" res="-0.0126698" purity="0.48969" nType="0">
            <Node pos="l" depth="3" NCoef="0" IVar="6" Cut="2.45204" cType="1" res="0.0146398" purity="0.560881" nType="0">
              <Node pos="l" depth="4" NCoef="0" IVar="-1" Cut="0" cType="1" res="-0.000244261" purity="0.565653" nType="-99"/>
              <Node pos="r" depth="4" NCoef="0" IVar="-1" Cut="0" cType="1" res="0.0034858" purity="0.545084" nType="-99"/>
            </Node>
            <Node pos="r" depth="3" NCoef="0" IVar="3" Cut="147153" cType="1" res="-0.0299603" purity="0.444617" nType="0">
              <Node pos="l" depth="4" NCoef="0" IVar="-1" Cut="0" cType="1" res="0.000141773" purity="0.480692" nType="-99"/>
              <Node pos="r" depth="4" NCoef="0" IVar="-1" Cut="0" cType="1" res="-0.00259861" purity="0.424676" nType="-99"/>
            </Node>
          </Node>
        </Node>
        <Node pos="r" depth="1" NCoef="0" IVar="1" Cut="95126.2" cType="1" res="0.0229167" purity="0.506001" nType="0">
          <Node pos="l" depth="2" NCoef="0" IVar="-1" Cut="0" cType="1" res="-0.0011221" purity="0.429876" nType="-99"/>
          <Node pos="r" depth="2" NCoef="0" IVar="3" Cut="198151" cType="1" res="0.0308528" purity="0.519781" nType="0">
            <Node pos="l" depth="3" NCoef="0" IVar="4" Cut="286243" cType="1" res="0.00856688" purity="0.504377" nType="0">
              <Node pos="l" depth="4" NCoef="0" IVar="-1" Cut="0" cType="1" res="-0.000333424" purity="0.5038" nType="-99"/>
              <Node pos="r" depth="4" NCoef="0" IVar="-1" Cut="0" cType="1" res="0.00212221" purity="0.505718" nType="-99"/>
            </Node>
            <Node pos="r" depth="3" NCoef="0" IVar="0" Cut="124380" cType="1" res="0.0567208" purity="0.537662" nType="0">
              <Node pos="l" depth="4" NCoef="0" IVar="-1" Cut="0" cType="1" res="0.00479086" purity="0.546726" nType="-99"/>
              <Node pos="r" depth="4" NCoef="0" IVar="-1" Cut="0" cType="1" res="0.000798154" purity="0.531387" nType="-99"/>
            </Node>
          </Node>
        </Node>
      </Node>
    </BinaryTree>
    <BinaryTree type="DecisionTree" boostWeight="1.0" itree="375">
      <Node pos="s" depth="0" NCoef="0" IVar="0" Cut="104879" cType="1" res="0.00779437" purity="0.502897" nType="0">
        <Node pos="l" depth="1" NCoef="0" IVar="-1" Cut="0" cType="1" res="0.00290764" purity="0.47973" nType="-99"/>
        <Node pos="r" depth="1" NCoef="0" IVar="6" Cut="0.383178" cType="1" res="0.00237512" purity="0.505425" nType="0">
          <Node pos="l" depth="2" NCoef="0" IVar="-1" Cut="0" cType="1" res="-0.00185823" purity="0.473629" nType="-99"/>
          <Node pos="r" depth="2" NCoef="0" IVar="3" Cut="212207" cType="1" res="0.00633952" purity="0.508475" nType="0">
            <Node pos="l" depth="3" NCoef="0" IVar="5" Cut="1.30838" cType="1" res="0.00987641" purity="0.512996" nType="0">
              <Node pos="l" depth="4" NCoef="0" IVar="-1" Cut="0" cType="1" res="-4.77932e-05" purity="0.516235" nType="-99"/>
              <Node pos="r" depth="4" NCoef="0" IVar="-1" Cut="0" cType="1" res="0.000913522" purity="0.510175" nType="-99"/>
            </Node>
            <Node pos="r" depth="3" NCoef="0" IVar="-1" Cut="0" cType="1" res="-0.00144431" purity="0.461686" nType="-99"/>
          </Node>
        </Node>
      </Node>
    </BinaryTree>
    <BinaryTree type="DecisionTree" boostWeight="1.0" itree="376">
      <Node pos="s" depth="0" NCoef="0" IVar="1" Cut="166798" cType="1" res="0.0046341" purity="0.500433" nType="0">
        <Node pos="l" depth="1" NCoef="0" IVar="5" Cut="1.83948" cType="1" res="0.0107261" purity="0.508353" nType="0">
          <Node pos="l" depth="2" NCoef="0" IVar="2" Cut="-16140.1" cType="1" res="0.00212484" purity="0.504563" nType="0">
            <Node pos="l" depth="3" NCoef="0" IVar="-1" Cut="0" cType="1" res="0.00351176" purity="0.464108" nType="-99"/>
            <Node pos="r" depth="3" NCoef="0" IVar="2" Cut="3637.43" cType="1" res="-0.00321085" purity="0.507578" nType="0">
              <Node pos="l" depth="4" NCoef="0" IVar="-1" Cut="0" cType="1" res="-0.00122766" purity="0.413022" nType="-99"/>
              <Node pos="r" depth="4" NCoef="0" IVar="-1" Cut="0" cType="1" res="0.000495508" purity="0.579491" nType="-99"/>
            </Node>
          </Node>
          <Node pos="r" depth="2" NCoef="0" IVar="6" Cut="1.37978" cType="1" res="0.037861" purity="0.520309" nType="0">
            <Node pos="l" depth="3" NCoef="0" IVar="-1" Cut="0" cType="1" res="0.000451071" purity="0.535195" nType="-99"/>
            <Node pos="r" depth="3" NCoef="0" IVar="2" Cut="-2663.24" cType="1" res="0.0591893" purity="0.509005" nType="0">
              <Node pos="l" depth="4" NCoef="0" IVar="-1" Cut="0" cType="1" res="0.00156067" purity="0.428695" nType="-99"/>
              <Node pos="r" depth="4" NCoef="0" IVar="-1" Cut="0" cType="1" res="0.00356981" purity="0.578546" nType="-99"/>
            </Node>
          </Node>
        </Node>
        <Node pos="r" depth="1" NCoef="0" IVar="5" Cut="2.42606" cType="1" res="-0.0468224" purity="0.433543" nType="0">
          <Node pos="l" depth="2" NCoef="0" IVar="-1" Cut="0" cType="1" res="-0.000419568" purity="0.506927" nType="-99"/>
          <Node pos="r" depth="2" NCoef="0" IVar="-1" Cut="0" cType="1" res="-0.00551444" purity="0.345118" nType="-99"/>
        </Node>
      </Node>
    </BinaryTree>
    <BinaryTree type="DecisionTree" boostWeight="1.0" itree="377">
      <Node pos="s" depth="0" NCoef="0" IVar="5" Cut="2.75887" cType="1" res="0.00590974" purity="0.50064" nType="0">
        <Node pos="l" depth="1" NCoef="0" IVar="5" Cut="0.810453" cType="1" res="0.00954193" purity="0.507155" nType="0">
          <Node pos="l" depth="2" NCoef="0" IVar="4" Cut="256055" cType="1" res="-0.0250412" purity="0.524025" nType="0">
            <Node pos="l" depth="3" NCoef="0" IVar="5" Cut="0.672429" cType="1" res="-0.00192437" purity="0.565726" nType="0">
              <Node pos="l" depth="4" NCoef="0" IVar="-1" Cut="0" cType="1" res="0.000576393" purity="0.604264" nType="-99"/>
              <Node pos="r" depth="4" NCoef="0" IVar="-1" Cut="0" cType="1" res="-0.000788952" purity="0.527861" nType="-99"/>
            </Node>
            <Node pos="r" depth="3" NCoef="0" IVar="-1" Cut="0" cType="1" res="-0.00367402" purity="0.444817" nType="-99"/>
          </Node>
          <Node pos="r" depth="2" NCoef="0" IVar="5" Cut="0.905528" cType="1" res="0.014994" purity="0.504496" nType="0">
            <Node pos="l" depth="3" NCoef="0" IVar="-1" Cut="0" cType="1" res="0.00334842" purity="0.588044" nType="-99"/>
            <Node pos="r" depth="3" NCoef="0" IVar="5" Cut="1.13155" cType="1" res="0.00904877" purity="0.496981" nType="0">
              <Node pos="l" depth="4" NCoef="0" IVar="-1" Cut="0" cType="1" res="-0.00147844" purity="0.455289" nType="-99"/>
              <Node pos="r" depth="4" NCoef="0" IVar="-1" Cut="0" cType="1" res="0.000826591" purity="0.506067" nType="-99"/>
            </Node>
          </Node>
        </Node>
        <Node pos="r" depth="1" NCoef="0" IVar="-1" Cut="0" cType="1" res="-0.00287971" purity="0.399604" nType="-99"/>
      </Node>
    </BinaryTree>
    <BinaryTree type="DecisionTree" boostWeight="1.0" itree="378">
      <Node pos="s" depth="0" NCoef="0" IVar="3" Cut="188259" cType="1" res="-0.000113308" purity="0.494118" nType="0">
        <Node pos="l" depth="1" NCoef="0" IVar="4" Cut="353654" cType="1" res="-0.00964259" purity="0.490885" nType="0">
          <Node pos="l" depth="2" NCoef="0" IVar="4" Cut="310344" cType="1" res="-0.00383478" purity="0.506811" nType="0">
            <Node pos="l" depth="3" NCoef="0" IVar="3" Cut="178925" cType="1" res="-0.00911723" purity="0.506073" nType="0">
              <Node pos="l" depth="4" NCoef="0" IVar="-1" Cut="0" cType="1" res="-0.000135264" purity="0.51462" nType="-99"/>
              <Node pos="r" depth="4" NCoef="0" IVar="-1" Cut="0" cType="1" res="-0.00262397" purity="0.449164" nType="-99"/>
            </Node>
            <Node pos="r" depth="3" NCoef="0" IVar="-1" Cut="0" cType="1" res="0.00200065" purity="0.513524" nType="-99"/>
          </Node>
          <Node pos="r" depth="2" NCoef="0" IVar="6" Cut="1.83899" cType="1" res="-0.0478415" purity="0.386135" nType="0">
            <Node pos="l" depth="3" NCoef="0" IVar="-1" Cut="0" cType="1" res="-0.00519372" purity="0.367508" nType="-99"/>
            <Node pos="r" depth="3" NCoef="0" IVar="-1" Cut="0" cType="1" res="-0.00111044" purity="0.399857" nType="-99"/>
          </Node>
        </Node>
        <Node pos="r" depth="1" NCoef="0" IVar="0" Cut="119506" cType="1" res="0.0290311" purity="0.504005" nType="0">
          <Node pos="l" depth="2" NCoef="0" IVar="-1" Cut="0" cType="1" res="0.00375487" purity="0.510872" nType="-99"/>
          <Node pos="r" depth="2" NCoef="0" IVar="3" Cut="196350" cType="1" res="6.28567e-05" purity="0.500247" nType="0">
            <Node pos="l" depth="3" NCoef="0" IVar="-1" Cut="0" cType="1" res="0.0019384" purity="0.548095" nType="-99"/>
            <Node pos="r" depth="3" NCoef="0" IVar="3" Cut="211343" cType="1" res="-0.018319" purity="0.480703" nType="0">
              <Node pos="l" depth="4" NCoef="0" IVar="-1" Cut="0" cType="1" res="-0.00331866" purity="0.428165" nType="-99"/>
              <Node pos="r" depth="4" NCoef="0" IVar="-1" Cut="0" cType="1" res="0.000449915" purity="0.516116" nType="-99"/>
            </Node>
          </Node>
        </Node>
      </Node>
    </BinaryTree>
    <BinaryTree type="DecisionTree" boostWeight="1.0" itree="379">
      <Node pos="s" depth="0" NCoef="0" IVar="3" Cut="206318" cType="1" res="0.00368611" purity="0.497568" nType="0">
        <Node pos="l" depth="1" NCoef="0" IVar="1" Cut="187205" cType="1" res="-0.00118959" purity="0.494899" nType="0">
          <Node pos="l" depth="2" NCoef="0" IVar="6" Cut="0.689661" cType="1" res="-0.00459955" purity="0.492284" nType="0">
            <Node pos="l" depth="3" NCoef="0" IVar="0" Cut="119479" cType="1" res="-0.032393" purity="0.465607" nType="0">
              <Node pos="l" depth="4" NCoef="0" IVar="-1" Cut="0" cType="1" res="9.11054e-05" purity="0.485304" nType="-99"/>
              <Node pos="r" depth="4" NCoef="0" IVar="-1" Cut="0" cType="1" res="-0.00317671" purity="0.44874" nType="-99"/>
            </Node>
            <Node pos="r" depth="3" NCoef="0" IVar="5" Cut="0.997665" cType="1" res="0.000592254" purity="0.497267" nType="0">
              <Node pos="l" depth="4" NCoef="0" IVar="-1" Cut="0" cType="1" res="0.00108574" purity="0.552972" nType="-99"/>
              <Node pos="r" depth="4" NCoef="0" IVar="-1" Cut="0" cType="1" res="-0.000442311" purity="0.475591" nType="-99"/>
            </Node>
          </Node>
          <Node pos="r" depth="2" NCoef="0" IVar="-1" Cut="0" cType="1" res="0.00176784" purity="0.526863" nType="-99"/>
        </Node>
        <Node pos="r" depth="1" NCoef="0" IVar="6" Cut="1.83831" cType="1" res="0.0392248" purity="0.517022" nType="0">
          <Node pos="l" depth="2" NCoef="0" IVar="-1" Cut="0" cType="1" res="-0.000894428" purity="0.464588" nType="-99"/>
          <Node pos="r" depth="2" NCoef="0" IVar="-1" Cut="0" cType="1" res="0.00341251" purity="0.554543" nType="-99"/>
        </Node>
      </Node>
    </BinaryTree>
    <BinaryTree type="DecisionTree" boostWeight="1.0" itree="380">
      <Node pos="s" depth="0" NCoef="0" IVar="3" Cut="200531" cType="1" res="-0.000403247" purity="0.494602" nType="0">
        <Node pos="l" depth="1" NCoef="0" IVar="4" Cut="363407" cType="1" res="0.00504535" purity="0.502527" nType="0">
          <Node pos="l" depth="2" NCoef="0" IVar="0" Cut="187781" cType="1" res="0.0105346" purity="0.517167" nType="0">
            <Node pos="l" depth="3" NCoef="0" IVar="3" Cut="115096" cType="1" res="0.00207658" purity="0.493895" nType="0">
              <Node pos="l" depth="4" NCoef="0" IVar="-1" Cut="0" cType="1" res="0.00304239" purity="0.535752" nType="-99"/>
              <Node pos="r" depth="4" NCoef="0" IVar="-1" Cut="0" cType="1" res="-0.000169854" purity="0.490149" nType="-99"/>
            </Node>
            <Node pos="r" depth="3" NCoef="0" IVar="5" Cut="0.934075" cType="1" res="0.0537097" purity="0.635967" nType="0">
              <Node pos="l" depth="4" NCoef="0" IVar="-1" Cut="0" cType="1" res="0.00314732" purity="0.672095" nType="-99"/>
              <Node pos="r" depth="4" NCoef="0" IVar="-1" Cut="0" cType="1" res="0.00102983" purity="0.600069" nType="-99"/>
            </Node>
          </Node>
          <Node pos="r" depth="2" NCoef="0" IVar="2" Cut="1078.93" cType="1" res="-0.0348267" purity="0.396183" nType="0">
            <Node pos="l" depth="3" NCoef="0" IVar="-1" Cut="0" cType="1" res="-0.00600673" purity="0.279805" nType="-99"/>
            <Node pos="r" depth="3" NCoef="0" IVar="-1" Cut="0" cType="1" res="-0.000129976" purity="0.484814" nType="-99"/>
          </Node>
        </Node>
        <Node pos="r" depth="1" NCoef="0" IVar="5" Cut="1.37798" cType="1" res="-0.0354724" purity="0.443592" nType="0">
          <Node pos="l" depth="2" NCoef="0" IVar="-1" Cut="0" cType="1" res="-0.00421549" purity="0.422861" nType="-99"/>
          <Node pos="r" depth="2" NCoef="0" IVar="-1" Cut="0" cType="1" res="-7.20556e-05" purity="0.460643" nType="-99"/>
        </Node>
      </Node>
    </BinaryTree>
    <BinaryTree type="DecisionTree" boostWeight="1.0" itree="381">
      <Node pos="s" depth="0" NCoef="0" IVar="4" Cut="285397" cType="1" res="0.00990905" purity="0.504948" nType="0">
        <Node pos="l" depth="1" NCoef="0" IVar="2" Cut="-9529.06" cType="1" res="0.0219224" purity="0.53253" nType="0">
          <Node pos="l" depth="2" NCoef="0" IVar="4" Cut="219381" cType="1" res="0.0734242" purity="0.481659" nType="0">
            <Node pos="l" depth="3" NCoef="0" IVar="-1" Cut="0" cType="1" res="0.00201326" purity="0.461324" nType="-99"/>
            <Node pos="r" depth="3" NCoef="0" IVar="-1" Cut="0" cType="1" res="0.00488567" purity="0.50304" nType="-99"/>
          </Node>
          <Node pos="r" depth="2" NCoef="0" IVar="3" Cut="200759" cType="1" res="0.0146399" purity="0.539723" nType="0">
            <Node pos="l" depth="3" NCoef="0" IVar="2" Cut="1034.28" cType="1" res="0.00516715" purity="0.534354" nType="0">
              <Node pos="l" depth="4" NCoef="0" IVar="-1" Cut="0" cType="1" res="-0.00145887" purity="0.407899" nType="-99"/>
              <Node pos="r" depth="4" NCoef="0" IVar="-1" Cut="0" cType="1" res="0.000717808" purity="0.580033" nType="-99"/>
            </Node>
            <Node pos="r" depth="3" NCoef="0" IVar="-1" Cut="0" cType="1" res="0.00297625" purity="0.572446" nType="-99"/>
          </Node>
        </Node>
        <Node pos="r" depth="1" NCoef="0" IVar="6" Cut="2.45164" cType="1" res="-0.0215107" purity="0.43281" nType="0">
          <Node pos="l" depth="2" NCoef="0" IVar="1" Cut="156517" cType="1" res="-0.00645737" purity="0.467802" nType="0">
            <Node pos="l" depth="3" NCoef="0" IVar="1" Cut="120792" cType="1" res="-0.0274872" purity="0.441217" nType="0">
              <Node pos="l" depth="4" NCoef="0" IVar="-1" Cut="0" cType="1" res="-0.000440543" purity="0.444732" nType="-99"/>
              <Node pos="r" depth="4" NCoef="0" IVar="-1" Cut="0" cType="1" res="-0.003643" purity="0.433814" nType="-99"/>
            </Node>
            <Node pos="r" depth="3" NCoef="0" IVar="-1" Cut="0" cType="1" res="0.0014544" purity="0.516989" nType="-99"/>
          </Node>
          <Node pos="r" depth="2" NCoef="0" IVar="1" Cut="115537" cType="1" res="-0.0575338" purity="0.349071" nType="0">
            <Node pos="l" depth="3" NCoef="0" IVar="-1" Cut="0" cType="1" res="-0.00258194" purity="0.350529" nType="-99"/>
            <Node pos="r" depth="3" NCoef="0" IVar="-1" Cut="0" cType="1" res="-0.00497016" purity="0.347615" nType="-99"/>
          </Node>
        </Node>
      </Node>
    </BinaryTree>
    <BinaryTree type="DecisionTree" boostWeight="1.0" itree="382">
      <Node pos="s" depth="0" NCoef="0" IVar="1" Cut="192392" cType="1" res="0.00522101" purity="0.499743" nType="0">
        <Node pos="l" depth="1" NCoef="0" IVar="4" Cut="246404" cType="1" res="0.00160346" purity="0.497222" nType="0">
          <Node pos="l" depth="2" NCoef="0" IVar="4" Cut="232131" cType="1" res="0.0115868" purity="0.532279" nType="0">
            <Node pos="l" depth="3" NCoef="0" IVar="4" Cut="183824" cType="1" res="0.00578488" purity="0.529177" nType="0">
              <Node pos="l" depth="4" NCoef="0" IVar="-1" Cut="0" cType="1" res="-0.000466631" purity="0.532547" nType="-99"/>
              <Node pos="r" depth="4" NCoef="0" IVar="-1" Cut="0" cType="1" res="0.000956239" purity="0.52596" nType="-99"/>
            </Node>
            <Node pos="r" depth="3" NCoef="0" IVar="-1" Cut="0" cType="1" res="0.00257958" purity="0.558765" nType="-99"/>
          </Node>
          <Node pos="r" depth="2" NCoef="0" IVar="6" Cut="2.91142" cType="1" res="-0.0158367" purity="0.435979" nType="0">
            <Node pos="l" depth="3" NCoef="0" IVar="2" Cut="-5781.21" cType="1" res="-0.0256785" purity="0.435138" nType="0">
              <Node pos="l" depth="4" NCoef="0" IVar="-1" Cut="0" cType="1" res="-0.00654603" purity="0.281615" nType="-99"/>
              <Node pos="r" depth="4" NCoef="0" IVar="-1" Cut="0" cType="1" res="-0.000628267" purity="0.468935" nType="-99"/>
            </Node>
            <Node pos="r" depth="3" NCoef="0" IVar="-1" Cut="0" cType="1" res="0.00280294" purity="0.441814" nType="-99"/>
          </Node>
        </Node>
        <Node pos="r" depth="1" NCoef="0" IVar="-1" Cut="0" cType="1" res="0.00226508" purity="0.533404" nType="-99"/>
      </Node>
    </BinaryTree>
    <BinaryTree type="DecisionTree" boostWeight="1.0" itree="383">
      <Node pos="s" depth="0" NCoef="0" IVar="3" Cut="165423" cType="1" res="0.00533654" purity="0.497709" nType="0">
        <Node pos="l" depth="1" NCoef="0" IVar="0" Cut="168275" cType="1" res="-0.0112735" purity="0.489012" nType="0">
          <Node pos="l" depth="2" NCoef="0" IVar="3" Cut="155171" cType="1" res="0.0010571" purity="0.482042" nType="0">
            <Node pos="l" depth="3" NCoef="0" IVar="4" Cut="188461" cType="1" res="0.0178046" purity="0.495368" nType="0">
              <Node pos="l" depth="4" NCoef="0" IVar="-1" Cut="0" cType="1" res="-0.00108213" purity="0.515698" nType="-99"/>
              <Node pos="r" depth="4" NCoef="0" IVar="-1" Cut="0" cType="1" res="0.00154455" purity="0.488087" nType="-99"/>
            </Node>
            <Node pos="r" depth="3" NCoef="0" IVar="5" Cut="1.38451" cType="1" res="-0.0412721" purity="0.44836" nType="0">
              <Node pos="l" depth="4" NCoef="0" IVar="-1" Cut="0" cType="1" res="-0.00370017" purity="0.42517" nType="-99"/>
              <Node pos="r" depth="4" NCoef="0" IVar="-1" Cut="0" cType="1" res="-0.00108953" purity="0.46568" nType="-99"/>
            </Node>
          </Node>
          <Node pos="r" depth="2" NCoef="0" IVar="4" Cut="247897" cType="1" res="-0.0532298" purity="0.512728" nType="0">
            <Node pos="l" depth="3" NCoef="0" IVar="-1" Cut="0" cType="1" res="-0.000758864" purity="0.572376" nType="-99"/>
            <Node pos="r" depth="3" NCoef="0" IVar="-1" Cut="0" cType="1" res="-0.00581111" purity="0.432499" nType="-99"/>
          </Node>
        </Node>
        <Node pos="r" depth="1" NCoef="0" IVar="5" Cut="2.52865" cType="1" res="0.0182509" purity="0.504471" nType="0">
          <Node pos="l" depth="2" NCoef="0" IVar="1" Cut="105351" cType="1" res="0.0113926" purity="0.502806" nType="0">
            <Node pos="l" depth="3" NCoef="0" IVar="0" Cut="158536" cType="1" res="0.0337687" purity="0.496448" nType="0">
              <Node pos="l" depth="4" NCoef="0" IVar="-1" Cut="0" cType="1" res="0.00251654" purity="0.498816" nType="-99"/>
              <Node pos="r" depth="4" NCoef="0" IVar="-1" Cut="0" cType="1" res="-0.000647812" purity="0.490656" nType="-99"/>
            </Node>
            <Node pos="r" depth="3" NCoef="0" IVar="0" Cut="148767" cType="1" res="-0.00867313" purity="0.508507" nType="0">
              <Node pos="l" depth="4" NCoef="0" IVar="-1" Cut="0" cType="1" res="-0.0015954" purity="0.455022" nType="-99"/>
              <Node pos="r" depth="4" NCoef="0" IVar="-1" Cut="0" cType="1" res="0.00102747" purity="0.586497" nType="-99"/>
            </Node>
          </Node>
          <Node pos="r" depth="2" NCoef="0" IVar="-1" Cut="0" cType="1" res="0.00318039" purity="0.517041" nType="-99"/>
        </Node>
      </Node>
    </BinaryTree>
    <BinaryTree type="DecisionTree" boostWeight="1.0" itree="384">
      <Node pos="s" depth="0" NCoef="0" IVar="3" Cut="165172" cType="1" res="0.00575209" purity="0.499947" nType="0">
        <Node pos="l" depth="1" NCoef="0" IVar="6" Cut="1.53233" cType="1" res="-0.00622486" purity="0.495947" nType="0">
          <Node pos="l" depth="2" NCoef="0" IVar="5" Cut="1.18014" cType="1" res="-0.0325478" purity="0.492357" nType="0">
            <Node pos="l" depth="3" NCoef="0" IVar="-1" Cut="0" cType="1" res="-0.00390406" purity="0.450965" nType="-99"/>
            <Node pos="r" depth="3" NCoef="0" IVar="5" Cut="1.94548" cType="1" res="-0.0147881" purity="0.510057" nType="0">
              <Node pos="l" depth="4" NCoef="0" IVar="-1" Cut="0" cType="1" res="0.00097776" purity="0.552493" nType="-99"/>
              <Node pos="r" depth="4" NCoef="0" IVar="-1" Cut="0" cType="1" res="-0.00273552" purity="0.464247" nType="-99"/>
            </Node>
          </Node>
          <Node pos="r" depth="2" NCoef="0" IVar="1" Cut="125654" cType="1" res="0.0124177" purity="0.49849" nType="0">
            <Node pos="l" depth="3" NCoef="0" IVar="1" Cut="101297" cType="1" res="-0.00242806" purity="0.477423" nType="0">
              <Node pos="l" depth="4" NCoef="0" IVar="-1" Cut="0" cType="1" res="0.00159432" purity="0.498121" nType="-99"/>
              <Node pos="r" depth="4" NCoef="0" IVar="-1" Cut="0" cType="1" res="-0.00207255" purity="0.456588" nType="-99"/>
            </Node>
            <Node pos="r" depth="3" NCoef="0" IVar="-1" Cut="0" cType="1" res="0.00212933" purity="0.546496" nType="-99"/>
          </Node>
        </Node>
        <Node pos="r" depth="1" NCoef="0" IVar="6" Cut="2.75848" cType="1" res="0.0148311" purity="0.50298" nType="0">
          <Node pos="l" depth="2" NCoef="0" IVar="6" Cut="2.55635" cType="1" res="0.021503" purity="0.522795" nType="0">
            <Node pos="l" depth="3" NCoef="0" IVar="6" Cut="2.18225" cType="1" res="0.0150355" purity="0.521356" nType="0">
              <Node pos="l" depth="4" NCoef="0" IVar="-1" Cut="0" cType="1" res="0.00110182" purity="0.537211" nType="-99"/>
              <Node pos="r" depth="4" NCoef="0" IVar="-1" Cut="0" cType="1" res="-0.00128692" purity="0.454317" nType="-99"/>
            </Node>
            <Node pos="r" depth="3" NCoef="0" IVar="-1" Cut="0" cType="1" res="0.00321268" purity="0.534587" nType="-99"/>
          </Node>
          <Node pos="r" depth="2" NCoef="0" IVar="6" Cut="2.9734" cType="1" res="-0.0249657" purity="0.384789" nType="0">
            <Node pos="l" depth="3" NCoef="0" IVar="-1" Cut="0" cType="1" res="-0.0068765" purity="0.308442" nType="-99"/>
            <Node pos="r" depth="3" NCoef="0" IVar="-1" Cut="0" cType="1" res="0.00248891" purity="0.464061" nType="-99"/>
          </Node>
        </Node>
      </Node>
    </BinaryTree>
    <BinaryTree type="DecisionTree" boostWeight="1.0" itree="385">
      <Node pos="s" depth="0" NCoef="0" IVar="6" Cut="0.459755" cType="1" res="0.00876568" purity="0.504134" nType="0">
        <Node pos="l" depth="1" NCoef="0" IVar="1" Cut="110494" cType="1" res="0.0567675" purity="0.55437" nType="0">
          <Node pos="l" depth="2" NCoef="0" IVar="-1" Cut="0" cType="1" res="0.00368125" purity="0.563521" nType="-99"/>
          <Node pos="r" depth="2" NCoef="0" IVar="-1" Cut="0" cType="1" res="0.00126813" purity="0.546757" nType="-99"/>
        </Node>
        <Node pos="r" depth="1" NCoef="0" IVar="3" Cut="114299" cType="1" res="0.00207785" purity="0.497135" nType="0">
          <Node pos="l" depth="2" NCoef="0" IVar="-1" Cut="0" cType="1" res="-0.00422675" purity="0.405146" nType="-99"/>
          <Node pos="r" depth="2" NCoef="0" IVar="3" Cut="127871" cType="1" res="0.00626976" purity="0.502392" nType="0">
            <Node pos="l" depth="3" NCoef="0" IVar="-1" Cut="0" cType="1" res="0.0037982" purity="0.604716" nType="-99"/>
            <Node pos="r" depth="3" NCoef="0" IVar="5" Cut="2.60679" cType="1" res="0.000196779" purity="0.495233" nType="0">
              <Node pos="l" depth="4" NCoef="0" IVar="-1" Cut="0" cType="1" res="-0.000188516" purity="0.496659" nType="-99"/>
              <Node pos="r" depth="4" NCoef="0" IVar="-1" Cut="0" cType="1" res="0.00207503" purity="0.480605" nType="-99"/>
            </Node>
          </Node>
        </Node>
      </Node>
    </BinaryTree>
    <BinaryTree type="DecisionTree" boostWeight="1.0" itree="386">
      <Node pos="s" depth="0" NCoef="0" IVar="6" Cut="0.996148" cType="1" res="0.00970042" purity="0.505183" nType="0">
        <Node pos="l" depth="1" NCoef="0" IVar="3" Cut="169376" cType="1" res="0.0378098" purity="0.540826" nType="0">
          <Node pos="l" depth="2" NCoef="0" IVar="2" Cut="8564.83" cType="1" res="0.0119366" purity="0.520668" nType="0">
            <Node pos="l" depth="3" NCoef="0" IVar="-1" Cut="0" cType="1" res="0.00260488" purity="0.503715" nType="-99"/>
            <Node pos="r" depth="3" NCoef="0" IVar="-1" Cut="0" cType="1" res="-0.000975496" purity="0.532639" nType="-99"/>
          </Node>
          <Node pos="r" depth="2" NCoef="0" IVar="1" Cut="105344" cType="1" res="0.0643409" purity="0.561497" nType="0">
            <Node pos="l" depth="3" NCoef="0" IVar="-1" Cut="0" cType="1" res="0.00420698" purity="0.591302" nType="-99"/>
            <Node pos="r" depth="3" NCoef="0" IVar="-1" Cut="0" cType="1" res="0.0014693" purity="0.541019" nType="-99"/>
          </Node>
        </Node>
        <Node pos="r" depth="1" NCoef="0" IVar="4" Cut="314781" cType="1" res="-0.000165797" purity="0.492673" nType="0">
          <Node pos="l" depth="2" NCoef="0" IVar="4" Cut="288611" cType="1" res="-0.00832918" purity="0.500514" nType="0">
            <Node pos="l" depth="3" NCoef="0" IVar="5" Cut="0.692482" cType="1" res="-0.00311103" purity="0.508956" nType="0">
              <Node pos="l" depth="4" NCoef="0" IVar="-1" Cut="0" cType="1" res="0.00215854" purity="0.655652" nType="-99"/>
              <Node pos="r" depth="4" NCoef="0" IVar="-1" Cut="0" cType="1" res="-0.000395896" purity="0.496329" nType="-99"/>
            </Node>
            <Node pos="r" depth="3" NCoef="0" IVar="-1" Cut="0" cType="1" res="-0.00433586" purity="0.391717" nType="-99"/>
          </Node>
          <Node pos="r" depth="2" NCoef="0" IVar="4" Cut="337372" cType="1" res="0.0255418" purity="0.467979" nType="0">
            <Node pos="l" depth="3" NCoef="0" IVar="-1" Cut="0" cType="1" res="0.00317261" purity="0.556349" nType="-99"/>
            <Node pos="r" depth="3" NCoef="0" IVar="6" Cut="2.40895" cType="1" res="0.0116487" purity="0.442526" nType="0">
              <Node pos="l" depth="4" NCoef="0" IVar="-1" Cut="0" cType="1" res="0.00180215" purity="0.492596" nType="-99"/>
              <Node pos="r" depth="4" NCoef="0" IVar="-1" Cut="0" cType="1" res="-0.00149254" purity="0.370854" nType="-99"/>
            </Node>
          </Node>
        </Node>
      </Node>
    </BinaryTree>
    <BinaryTree type="DecisionTree" boostWeight="1.0" itree="387">
      <Node pos="s" depth="0" NCoef="0" IVar="4" Cut="382919" cType="1" res="0.00325605" purity="0.498763" nType="0">
        <Node pos="l" depth="1" NCoef="0" IVar="3" Cut="224042" cType="1" res="-0.0027169" purity="0.501116" nType="0">
          <Node pos="l" depth="2" NCoef="0" IVar="0" Cut="124385" cType="1" res="0.00133441" purity="0.505887" nType="0">
            <Node pos="l" depth="3" NCoef="0" IVar="1" Cut="105318" cType="1" res="0.0201259" purity="0.487914" nType="0">
              <Node pos="l" depth="4" NCoef="0" IVar="-1" Cut="0" cType="1" res="0.00205758" purity="0.499157" nType="-99"/>
              <Node pos="r" depth="4" NCoef="0" IVar="-1" Cut="0" cType="1" res="0.000140204" purity="0.479788" nType="-99"/>
            </Node>
            <Node pos="r" depth="3" NCoef="0" IVar="6" Cut="2.52858" cType="1" res="-0.0128975" purity="0.519499" nType="0">
              <Node pos="l" depth="4" NCoef="0" IVar="-1" Cut="0" cType="1" res="-0.00120539" purity="0.52902" nType="-99"/>
              <Node pos="r" depth="4" NCoef="0" IVar="-1" Cut="0" cType="1" res="0.00116192" purity="0.490829" nType="-99"/>
            </Node>
          </Node>
          <Node pos="r" depth="2" NCoef="0" IVar="-1" Cut="0" cType="1" res="-0.00446423" purity="0.407261" nType="-99"/>
        </Node>
        <Node pos="r" depth="1" NCoef="0" IVar="5" Cut="1.31483" cType="1" res="0.0513167" purity="0.479835" nType="0">
          <Node pos="l" depth="2" NCoef="0" IVar="-1" Cut="0" cType="1" res="0.000302266" purity="0.450683" nType="-99"/>
          <Node pos="r" depth="2" NCoef="0" IVar="-1" Cut="0" cType="1" res="0.00428574" purity="0.504756" nType="-99"/>
        </Node>
      </Node>
    </BinaryTree>
    <BinaryTree type="DecisionTree" boostWeight="1.0" itree="388">
      <Node pos="s" depth="0" NCoef="0" IVar="4" Cut="226829" cType="1" res="0.00450449" purity="0.498103" nType="0">
        <Node pos="l" depth="1" NCoef="0" IVar="4" Cut="214443" cType="1" res="-0.0133804" purity="0.513848" nType="0">
          <Node pos="l" depth="2" NCoef="0" IVar="6" Cut="2.75827" cType="1" res="-0.00706851" purity="0.52482" nType="0">
            <Node pos="l" depth="3" NCoef="0" IVar="3" Cut="199018" cType="1" res="-0.013496" purity="0.530646" nType="0">
              <Node pos="l" depth="4" NCoef="0" IVar="-1" Cut="0" cType="1" res="-0.000345852" purity="0.540767" nType="-99"/>
              <Node pos="r" depth="4" NCoef="0" IVar="-1" Cut="0" cType="1" res="-0.0028852" purity="0.454598" nType="-99"/>
            </Node>
            <Node pos="r" depth="3" NCoef="0" IVar="-1" Cut="0" cType="1" res="0.00197948" purity="0.479808" nType="-99"/>
          </Node>
          <Node pos="r" depth="2" NCoef="0" IVar="-1" Cut="0" cType="1" res="-0.00367176" purity="0.421856" nType="-99"/>
        </Node>
        <Node pos="r" depth="1" NCoef="0" IVar="4" Cut="413380" cType="1" res="0.0220247" purity="0.482679" nType="0">
          <Node pos="l" depth="2" NCoef="0" IVar="4" Cut="326900" cType="1" res="0.0284847" purity="0.493916" nType="0">
            <Node pos="l" depth="3" NCoef="0" IVar="2" Cut="-9315.31" cType="1" res="0.0164643" purity="0.492554" nType="0">
              <Node pos="l" depth="4" NCoef="0" IVar="-1" Cut="0" cType="1" res="0.00337928" purity="0.471066" nType="-99"/>
              <Node pos="r" depth="4" NCoef="0" IVar="-1" Cut="0" cType="1" res="0.000198496" purity="0.497717" nType="-99"/>
            </Node>
            <Node pos="r" depth="3" NCoef="0" IVar="0" Cut="129260" cType="1" res="0.0532995" purity="0.496727" nType="0">
              <Node pos="l" depth="4" NCoef="0" IVar="-1" Cut="0" cType="1" res="0.00412794" purity="0.462786" nType="-99"/>
              <Node pos="r" depth="4" NCoef="0" IVar="-1" Cut="0" cType="1" res="0.00147692" purity="0.519281" nType="-99"/>
            </Node>
          </Node>
          <Node pos="r" depth="2" NCoef="0" IVar="-1" Cut="0" cType="1" res="-0.00118212" purity="0.407129" nType="-99"/>
        </Node>
      </Node>
    </BinaryTree>
    <BinaryTree type="DecisionTree" boostWeight="1.0" itree="389">
      <Node pos="s" depth="0" NCoef="0" IVar="5" Cut="0.76943" cType="1" res="0.00381973" purity="0.498645" nType="0">
        <Node pos="l" depth="1" NCoef="0" IVar="2" Cut="11379.6" cType="1" res="-0.0343763" purity="0.510455" nType="0">
          <Node pos="l" depth="2" NCoef="0" IVar="-1" Cut="0" cType="1" res="0.000203732" purity="0.466923" nType="-99"/>
          <Node pos="r" depth="2" NCoef="0" IVar="-1" Cut="0" cType="1" res="-0.00354222" purity="0.560448" nType="-99"/>
        </Node>
        <Node pos="r" depth="1" NCoef="0" IVar="6" Cut="1.99224" cType="1" res="0.00820592" purity="0.497288" nType="0">
          <Node pos="l" depth="2" NCoef="0" IVar="2" Cut="-2298.37" cType="1" res="-0.0033275" purity="0.513401" nType="0">
            <Node pos="l" depth="3" NCoef="0" IVar="-1" Cut="0" cType="1" res="-0.00526275" purity="0.305409" nType="-99"/>
            <Node pos="r" depth="3" NCoef="0" IVar="6" Cut="0.583117" cType="1" res="0.00471561" purity="0.536207" nType="0">
              <Node pos="l" depth="4" NCoef="0" IVar="-1" Cut="0" cType="1" res="0.00144739" purity="0.533548" nType="-99"/>
              <Node pos="r" depth="4" NCoef="0" IVar="-1" Cut="0" cType="1" res="-0.000346755" purity="0.537356" nType="-99"/>
            </Node>
          </Node>
          <Node pos="r" depth="2" NCoef="0" IVar="4" Cut="374024" cType="1" res="0.0226165" purity="0.477156" nType="0">
            <Node pos="l" depth="3" NCoef="0" IVar="3" Cut="140487" cType="1" res="0.0322368" purity="0.494463" nType="0">
              <Node pos="l" depth="4" NCoef="0" IVar="-1" Cut="0" cType="1" res="0.0038196" purity="0.553995" nType="-99"/>
              <Node pos="r" depth="4" NCoef="0" IVar="-1" Cut="0" cType="1" res="0.00094404" purity="0.481247" nType="-99"/>
            </Node>
            <Node pos="r" depth="3" NCoef="0" IVar="-1" Cut="0" cType="1" res="-0.00384619" purity="0.334354" nType="-99"/>
          </Node>
        </Node>
      </Node>
    </BinaryTree>
    <BinaryTree type="DecisionTree" boostWeight="1.0" itree="390">
      <Node pos="s" depth="0" NCoef="0" IVar="1" Cut="156516" cType="1" res="-0.00167567" purity="0.49397" nType="0">
        <Node pos="l" depth="1" NCoef="0" IVar="2" Cut="7764.34" cType="1" res="0.00401039" purity="0.501101" nType="0">
          <Node pos="l" depth="2" NCoef="0" IVar="3" Cut="159554" cType="1" res="-0.00478127" purity="0.433064" nType="0">
            <Node pos="l" depth="3" NCoef="0" IVar="3" Cut="152359" cType="1" res="0.0297469" purity="0.467747" nType="0">
              <Node pos="l" depth="4" NCoef="0" IVar="-1" Cut="0" cType="1" res="0.000764313" purity="0.454052" nType="-99"/>
              <Node pos="r" depth="4" NCoef="0" IVar="-1" Cut="0" cType="1" res="0.00338989" purity="0.511978" nType="-99"/>
            </Node>
            <Node pos="r" depth="3" NCoef="0" IVar="6" Cut="1.53252" cType="1" res="-0.0243193" purity="0.413438" nType="0">
              <Node pos="l" depth="4" NCoef="0" IVar="-1" Cut="0" cType="1" res="-0.0050585" purity="0.348155" nType="-99"/>
              <Node pos="r" depth="4" NCoef="0" IVar="-1" Cut="0" cType="1" res="-0.000385718" purity="0.432978" nType="-99"/>
            </Node>
          </Node>
          <Node pos="r" depth="2" NCoef="0" IVar="3" Cut="149556" cType="1" res="0.017706" purity="0.60709" nType="0">
            <Node pos="l" depth="3" NCoef="0" IVar="-1" Cut="0" cType="1" res="-0.00146197" purity="0.560147" nType="-99"/>
            <Node pos="r" depth="3" NCoef="0" IVar="5" Cut="1.23774" cType="1" res="0.0334249" purity="0.621922" nType="0">
              <Node pos="l" depth="4" NCoef="0" IVar="-1" Cut="0" cType="1" res="0.000492882" purity="0.612046" nType="-99"/>
              <Node pos="r" depth="4" NCoef="0" IVar="-1" Cut="0" cType="1" res="0.00224524" purity="0.63199" nType="-99"/>
            </Node>
          </Node>
        </Node>
        <Node pos="r" depth="1" NCoef="0" IVar="0" Cut="134161" cType="1" res="-0.0384957" purity="0.447791" nType="0">
          <Node pos="l" depth="2" NCoef="0" IVar="-1" Cut="0" cType="1" res="-0.00552713" purity="0.339686" nType="-99"/>
          <Node pos="r" depth="2" NCoef="0" IVar="4" Cut="324904" cType="1" res="-0.0073362" purity="0.512023" nType="0">
            <Node pos="l" depth="3" NCoef="0" IVar="-1" Cut="0" cType="1" res="-0.00166463" purity="0.505007" nType="-99"/>
            <Node pos="r" depth="3" NCoef="0" IVar="-1" Cut="0" cType="1" res="0.000891904" purity="0.518827" nType="-99"/>
          </Node>
        </Node>
      </Node>
    </BinaryTree>
    <BinaryTree type="DecisionTree" boostWeight="1.0" itree="391">
      <Node pos="s" depth="0" NCoef="0" IVar="3" Cut="159600" cType="1" res="0.00675822" purity="0.502741" nType="0">
        <Node pos="l" depth="1" NCoef="0" IVar="1" Cut="146260" cType="1" res="0.0256966" purity="0.526318" nType="0">
          <Node pos="l" depth="2" NCoef="0" IVar="5" Cut="1.61446" cType="1" res="0.039799" purity="0.540618" nType="0">
            <Node pos="l" depth="3" NCoef="0" IVar="2" Cut="7807.68" cType="1" res="0.0228002" purity="0.525758" nType="0">
              <Node pos="l" depth="4" NCoef="0" IVar="-1" Cut="0" cType="1" res="0.00229386" purity="0.487924" nType="-99"/>
              <Node pos="r" depth="4" NCoef="0" IVar="-1" Cut="0" cType="1" res="-0.000814654" purity="0.585517" nType="-99"/>
            </Node>
            <Node pos="r" depth="3" NCoef="0" IVar="-1" Cut="0" cType="1" res="0.00329397" purity="0.572977" nType="-99"/>
          </Node>
          <Node pos="r" depth="2" NCoef="0" IVar="-1" Cut="0" cType="1" res="-0.00188771" purity="0.462137" nType="-99"/>
        </Node>
        <Node pos="r" depth="1" NCoef="0" IVar="6" Cut="2.06887" cType="1" res="-0.00477189" purity="0.488387" nType="0">
          <Node pos="l" depth="2" NCoef="0" IVar="4" Cut="246923" cType="1" res="0.00998739" purity="0.529394" nType="0">
            <Node pos="l" depth="3" NCoef="0" IVar="0" Cut="114634" cType="1" res="0.0310252" purity="0.578413" nType="0">
              <Node pos="l" depth="4" NCoef="0" IVar="-1" Cut="0" cType="1" res="-0.00115429" purity="0.47992" nType="-99"/>
              <Node pos="r" depth="4" NCoef="0" IVar="-1" Cut="0" cType="1" res="0.00205601" purity="0.613552" nType="-99"/>
            </Node>
            <Node pos="r" depth="3" NCoef="0" IVar="0" Cut="153656" cType="1" res="-0.0278803" purity="0.441159" nType="0">
              <Node pos="l" depth="4" NCoef="0" IVar="-1" Cut="0" cType="1" res="0.000381825" purity="0.453229" nType="-99"/>
              <Node pos="r" depth="4" NCoef="0" IVar="-1" Cut="0" cType="1" res="-0.00588376" purity="0.41607" nType="-99"/>
            </Node>
          </Node>
          <Node pos="r" depth="2" NCoef="0" IVar="6" Cut="2.48758" cType="1" res="-0.0251037" purity="0.431897" nType="0">
            <Node pos="l" depth="3" NCoef="0" IVar="3" Cut="176701" cType="1" res="-0.0692795" purity="0.428942" nType="0">
              <Node pos="l" depth="4" NCoef="0" IVar="-1" Cut="0" cType="1" res="-0.00194111" purity="0.466498" nType="-99"/>
              <Node pos="r" depth="4" NCoef="0" IVar="-1" Cut="0" cType="1" res="-0.00549378" purity="0.400093" nType="-99"/>
            </Node>
            <Node pos="r" depth="3" NCoef="0" IVar="6" Cut="2.66326" cType="1" res="0.00242575" purity="0.433738" nType="0">
              <Node pos="l" depth="4" NCoef="0" IVar="-1" Cut="0" cType="1" res="0.00241947" purity="0.511729" nType="-99"/>
              <Node pos="r" depth="4" NCoef="0" IVar="-1" Cut="0" cType="1" res="-0.00116471" purity="0.398133" nType="-99"/>
            </Node>
          </Node>
        </Node>
      </Node>
    </BinaryTree>
    <BinaryTree type="DecisionTree" boostWeight="1.0" itree="392">
      <Node pos="s" depth="0" NCoef="0" IVar="6" Cut="2.9883" cType="1" res="-0.0023136" purity="0.493234" nType="0">
        <Node pos="l" depth="1" NCoef="0" IVar="6" Cut="1.09321" cType="1" res="0.00219705" purity="0.502275" nType="0">
          <Node pos="l" depth="2" NCoef="0" IVar="3" Cut="163627" cType="1" res="-0.0354105" purity="0.470942" nType="0">
            <Node pos="l" depth="3" NCoef="0" IVar="6" Cut="0.639861" cType="1" res="-0.0779824" purity="0.433259" nType="0">
              <Node pos="l" depth="4" NCoef="0" IVar="-1" Cut="0" cType="1" res="-0.00214628" purity="0.470402" nType="-99"/>
              <Node pos="r" depth="4" NCoef="0" IVar="-1" Cut="0" cType="1" res="-0.0079475" purity="0.374829" nType="-99"/>
            </Node>
            <Node pos="r" depth="3" NCoef="0" IVar="3" Cut="186091" cType="1" res="-0.00393358" purity="0.498804" nType="0">
              <Node pos="l" depth="4" NCoef="0" IVar="-1" Cut="0" cType="1" res="0.00138135" purity="0.549052" nType="-99"/>
              <Node pos="r" depth="4" NCoef="0" IVar="-1" Cut="0" cType="1" res="-0.00290164" purity="0.427626" nType="-99"/>
            </Node>
          </Node>
          <Node pos="r" depth="2" NCoef="0" IVar="4" Cut="265912" cType="1" res="0.0157984" purity="0.513607" nType="0">
            <Node pos="l" depth="3" NCoef="0" IVar="3" Cut="161616" cType="1" res="0.00169162" purity="0.522842" nType="0">
              <Node pos="l" depth="4" NCoef="0" IVar="-1" Cut="0" cType="1" res="0.00105051" purity="0.556611" nType="-99"/>
              <Node pos="r" depth="4" NCoef="0" IVar="-1" Cut="0" cType="1" res="-0.000596688" purity="0.500327" nType="-99"/>
            </Node>
            <Node pos="r" depth="3" NCoef="0" IVar="3" Cut="182160" cType="1" res="0.0403274" purity="0.497549" nType="0">
              <Node pos="l" depth="4" NCoef="0" IVar="-1" Cut="0" cType="1" res="0.00299204" purity="0.521189" nType="-99"/>
              <Node pos="r" depth="4" NCoef="0" IVar="-1" Cut="0" cType="1" res="-0.000514285" purity="0.44677" nType="-99"/>
            </Node>
          </Node>
        </Node>
        <Node pos="r" depth="1" NCoef="0" IVar="-1" Cut="0" cType="1" res="-0.00611778" purity="0.316744" nType="-99"/>
      </Node>
    </BinaryTree>
    <BinaryTree type="DecisionTree" boostWeight="1.0" itree="393">
      <Node pos="s" depth="0" NCoef="0" IVar="4" Cut="226829" cType="1" res="0.0120948" purity="0.5046" nType="0">
        <Node pos="l" depth="1" NCoef="0" IVar="1" Cut="127274" cType="1" res="-0.00424247" purity="0.520711" nType="0">
          <Node pos="l" depth="2" NCoef="0" IVar="1" Cut="99089.9" cType="1" res="-0.0127264" purity="0.49958" nType="0">
            <Node pos="l" depth="3" NCoef="0" IVar="0" Cut="134114" cType="1" res="0.0109826" purity="0.500453" nType="0">
              <Node pos="l" depth="4" NCoef="0" IVar="-1" Cut="0" cType="1" res="-0.00103503" purity="0.447465" nType="-99"/>
              <Node pos="r" depth="4" NCoef="0" IVar="-1" Cut="0" cType="1" res="0.00166313" purity="0.548414" nType="-99"/>
            </Node>
            <Node pos="r" depth="3" NCoef="0" IVar="5" Cut="0.902775" cType="1" res="-0.0296722" purity="0.498956" nType="0">
              <Node pos="l" depth="4" NCoef="0" IVar="-1" Cut="0" cType="1" res="-0.00680893" purity="0.466897" nType="-99"/>
              <Node pos="r" depth="4" NCoef="0" IVar="-1" Cut="0" cType="1" res="-0.000502415" purity="0.505766" nType="-99"/>
            </Node>
          </Node>
          <Node pos="r" depth="2" NCoef="0" IVar="-1" Cut="0" cType="1" res="0.00148921" purity="0.62051" nType="-99"/>
        </Node>
        <Node pos="r" depth="1" NCoef="0" IVar="2" Cut="14530.6" cType="1" res="0.0279523" purity="0.488962" nType="0">
          <Node pos="l" depth="2" NCoef="0" IVar="6" Cut="2.68167" cType="1" res="0.0382128" purity="0.470551" nType="0">
            <Node pos="l" depth="3" NCoef="0" IVar="5" Cut="0.998195" cType="1" res="0.0522743" purity="0.494043" nType="0">
              <Node pos="l" depth="4" NCoef="0" IVar="-1" Cut="0" cType="1" res="0.00396372" purity="0.533208" nType="-99"/>
              <Node pos="r" depth="4" NCoef="0" IVar="-1" Cut="0" cType="1" res="0.0021032" purity="0.486561" nType="-99"/>
            </Node>
            <Node pos="r" depth="3" NCoef="0" IVar="4" Cut="286780" cType="1" res="-0.00852403" purity="0.392471" nType="0">
              <Node pos="l" depth="4" NCoef="0" IVar="-1" Cut="0" cType="1" res="0.00193647" purity="0.456234" nType="-99"/>
              <Node pos="r" depth="4" NCoef="0" IVar="-1" Cut="0" cType="1" res="-0.00288602" purity="0.344781" nType="-99"/>
            </Node>
          </Node>
          <Node pos="r" depth="2" NCoef="0" IVar="0" Cut="139066" cType="1" res="-0.0181793" purity="0.571737" nType="0">
            <Node pos="l" depth="3" NCoef="0" IVar="-1" Cut="0" cType="1" res="-0.00342111" purity="0.47096" nType="-99"/>
            <Node pos="r" depth="3" NCoef="0" IVar="-1" Cut="0" cType="1" res="0.000903984" purity="0.655229" nType="-99"/>
          </Node>
        </Node>
      </Node>
    </BinaryTree>
    <BinaryTree type="DecisionTree" boostWeight="1.0" itree="394">
      <Node pos="s" depth="0" NCoef="0" IVar="2" Cut="-19558.3" cType="1" res="0.0131802" purity="0.509256" nType="0">
        <Node pos="l" depth="1" NCoef="0" IVar="-1" Cut="0" cType="1" res="-0.0037661" purity="0.327582" nType="-99"/>
        <Node pos="r" depth="1" NCoef="0" IVar="0" Cut="168289" cType="1" res="0.0162088" purity="0.517104" nType="0">
          <Node pos="l" depth="2" NCoef="0" IVar="0" Cut="144969" cType="1" res="0.0230577" purity="0.505344" nType="0">
            <Node pos="l" depth="3" NCoef="0" IVar="1" Cut="95121.1" cType="1" res="0.0154115" purity="0.490352" nType="0">
              <Node pos="l" depth="4" NCoef="0" IVar="-1" Cut="0" cType="1" res="0.00228774" purity="0.492269" nType="-99"/>
              <Node pos="r" depth="4" NCoef="0" IVar="-1" Cut="0" cType="1" res="0.000451217" purity="0.489989" nType="-99"/>
            </Node>
            <Node pos="r" depth="3" NCoef="0" IVar="0" Cut="158619" cType="1" res="0.0528408" purity="0.563738" nType="0">
              <Node pos="l" depth="4" NCoef="0" IVar="-1" Cut="0" cType="1" res="0.00282279" purity="0.581435" nType="-99"/>
              <Node pos="r" depth="4" NCoef="0" IVar="-1" Cut="0" cType="1" res="0.000967962" purity="0.525175" nType="-99"/>
            </Node>
          </Node>
          <Node pos="r" depth="2" NCoef="0" IVar="0" Cut="193988" cType="1" res="-0.00532315" purity="0.554076" nType="0">
            <Node pos="l" depth="3" NCoef="0" IVar="4" Cut="246285" cType="1" res="-0.0313729" purity="0.504264" nType="0">
              <Node pos="l" depth="4" NCoef="0" IVar="-1" Cut="0" cType="1" res="-0.00292562" purity="0.500193" nType="-99"/>
              <Node pos="r" depth="4" NCoef="0" IVar="-1" Cut="0" cType="1" res="-1.96231e-05" purity="0.508869" nType="-99"/>
            </Node>
            <Node pos="r" depth="3" NCoef="0" IVar="4" Cut="246431" cType="1" res="0.0114587" purity="0.586167" nType="0">
              <Node pos="l" depth="4" NCoef="0" IVar="-1" Cut="0" cType="1" res="0.00156471" purity="0.63672" nType="-99"/>
              <Node pos="r" depth="4" NCoef="0" IVar="-1" Cut="0" cType="1" res="-0.00103797" purity="0.522641" nType="-99"/>
            </Node>
          </Node>
        </Node>
      </Node>
    </BinaryTree>
    <BinaryTree type="DecisionTree" boostWeight="1.0" itree="395">
      <Node pos="s" depth="0" NCoef="0" IVar="4" Cut="236626" cType="1" res="0.010823" purity="0.507453" nType="0">
        <Node pos="l" depth="1" NCoef="0" IVar="2" Cut="7906.87" cType="1" res="0.0235944" purity="0.550989" nType="0">
          <Node pos="l" depth="2" NCoef="0" IVar="1" Cut="104557" cType="1" res="0.00779207" purity="0.466366" nType="0">
            <Node pos="l" depth="3" NCoef="0" IVar="1" Cut="92488" cType="1" res="0.0255621" purity="0.468171" nType="0">
              <Node pos="l" depth="4" NCoef="0" IVar="-1" Cut="0" cType="1" res="0.003171" purity="0.529433" nType="-99"/>
              <Node pos="r" depth="4" NCoef="0" IVar="-1" Cut="0" cType="1" res="0.000390855" purity="0.44692" nType="-99"/>
            </Node>
            <Node pos="r" depth="3" NCoef="0" IVar="4" Cut="192864" cType="1" res="-0.0144339" purity="0.46411" nType="0">
              <Node pos="l" depth="4" NCoef="0" IVar="-1" Cut="0" cType="1" res="-0.00325875" purity="0.428086" nType="-99"/>
              <Node pos="r" depth="4" NCoef="0" IVar="-1" Cut="0" cType="1" res="0.000898897" purity="0.490339" nType="-99"/>
            </Node>
          </Node>
          <Node pos="r" depth="2" NCoef="0" IVar="2" Cut="21353" cType="1" res="0.0431911" purity="0.655932" nType="0">
            <Node pos="l" depth="3" NCoef="0" IVar="6" Cut="1.68762" cType="1" res="0.0545761" purity="0.641884" nType="0">
              <Node pos="l" depth="4" NCoef="0" IVar="-1" Cut="0" cType="1" res="0.00265356" purity="0.656613" nType="-99"/>
              <Node pos="r" depth="4" NCoef="0" IVar="-1" Cut="0" cType="1" res="0.000948052" purity="0.609737" nType="-99"/>
            </Node>
            <Node pos="r" depth="3" NCoef="0" IVar="-1" Cut="0" cType="1" res="0.00060837" purity="0.691637" nType="-99"/>
          </Node>
        </Node>
        <Node pos="r" depth="1" NCoef="0" IVar="6" Cut="2.91123" cType="1" res="-0.00543488" purity="0.452032" nType="0">
          <Node pos="l" depth="2" NCoef="0" IVar="6" Cut="2.55592" cType="1" res="-0.0122061" purity="0.452224" nType="0">
            <Node pos="l" depth="3" NCoef="0" IVar="5" Cut="2.6072" cType="1" res="-0.000642991" purity="0.473539" nType="0">
              <Node pos="l" depth="4" NCoef="0" IVar="-1" Cut="0" cType="1" res="0.000461699" purity="0.491666" nType="-99"/>
              <Node pos="r" depth="4" NCoef="0" IVar="-1" Cut="0" cType="1" res="-0.00355311" purity="0.372526" nType="-99"/>
            </Node>
            <Node pos="r" depth="3" NCoef="0" IVar="-1" Cut="0" cType="1" res="-0.00488316" purity="0.336203" nType="-99"/>
          </Node>
          <Node pos="r" depth="2" NCoef="0" IVar="-1" Cut="0" cType="1" res="0.00251433" purity="0.45047" nType="-99"/>
        </Node>
      </Node>
    </BinaryTree>
    <BinaryTree type="DecisionTree" boostWeight="1.0" itree="396">
      <Node pos="s" depth="0" NCoef="0" IVar="0" Cut="104877" cType="1" res="0.00379396" purity="0.498635" nType="0">
        <Node pos="l" depth="1" NCoef="0" IVar="-1" Cut="0" cType="1" res="0.00254185" purity="0.458987" nType="-99"/>
        <Node pos="r" depth="1" NCoef="0" IVar="3" Cut="166052" cType="1" res="-0.00112971" purity="0.502942" nType="0">
          <Node pos="l" depth="2" NCoef="0" IVar="5" Cut="1.1649" cType="1" res="-0.0144678" purity="0.49896" nType="0">
            <Node pos="l" depth="3" NCoef="0" IVar="2" Cut="2694.34" cType="1" res="0.0196891" purity="0.548871" nType="0">
              <Node pos="l" depth="4" NCoef="0" IVar="-1" Cut="0" cType="1" res="0.00265337" purity="0.483845" nType="-99"/>
              <Node pos="r" depth="4" NCoef="0" IVar="-1" Cut="0" cType="1" res="-0.000105724" purity="0.589086" nType="-99"/>
            </Node>
            <Node pos="r" depth="3" NCoef="0" IVar="6" Cut="0.843281" cType="1" res="-0.0365517" purity="0.466691" nType="0">
              <Node pos="l" depth="4" NCoef="0" IVar="-1" Cut="0" cType="1" res="-0.00444039" purity="0.440269" nType="-99"/>
              <Node pos="r" depth="4" NCoef="0" IVar="-1" Cut="0" cType="1" res="-0.0011655" purity="0.47389" nType="-99"/>
            </Node>
          </Node>
          <Node pos="r" depth="2" NCoef="0" IVar="5" Cut="2.39051" cType="1" res="0.00969221" purity="0.506172" nType="0">
            <Node pos="l" depth="3" NCoef="0" IVar="3" Cut="179081" cType="1" res="0.00156891" purity="0.503061" nType="0">
              <Node pos="l" depth="4" NCoef="0" IVar="-1" Cut="0" cType="1" res="0.00151039" purity="0.545618" nType="-99"/>
              <Node pos="r" depth="4" NCoef="0" IVar="-1" Cut="0" cType="1" res="-0.000919521" purity="0.476045" nType="-99"/>
            </Node>
            <Node pos="r" depth="3" NCoef="0" IVar="-1" Cut="0" cType="1" res="0.00282595" purity="0.526674" nType="-99"/>
          </Node>
        </Node>
      </Node>
    </BinaryTree>
    <BinaryTree type="DecisionTree" boostWeight="1.0" itree="397">
      <Node pos="s" depth="0" NCoef="0" IVar="1" Cut="120719" cType="1" res="0.00396935" purity="0.499057" nType="0">
        <Node pos="l" depth="1" NCoef="0" IVar="6" Cut="2.83499" cType="1" res="0.0172141" purity="0.501183" nType="0">
          <Node pos="l" depth="2" NCoef="0" IVar="3" Cut="142692" cType="1" res="0.00933153" purity="0.505472" nType="0">
            <Node pos="l" depth="3" NCoef="0" IVar="2" Cut="5476.35" cType="1" res="0.0393781" purity="0.524633" nType="0">
              <Node pos="l" depth="4" NCoef="0" IVar="-1" Cut="0" cType="1" res="0.00363447" purity="0.499469" nType="-99"/>
              <Node pos="r" depth="4" NCoef="0" IVar="-1" Cut="0" cType="1" res="-0.000171191" purity="0.552306" nType="-99"/>
            </Node>
            <Node pos="r" depth="3" NCoef="0" IVar="2" Cut="11116" cType="1" res="0.00132718" purity="0.500367" nType="0">
              <Node pos="l" depth="4" NCoef="0" IVar="-1" Cut="0" cType="1" res="-0.000696654" purity="0.434074" nType="-99"/>
              <Node pos="r" depth="4" NCoef="0" IVar="-1" Cut="0" cType="1" res="0.00137711" purity="0.646315" nType="-99"/>
            </Node>
          </Node>
          <Node pos="r" depth="2" NCoef="0" IVar="6" Cut="2.98455" cType="1" res="0.069559" purity="0.472702" nType="0">
            <Node pos="l" depth="3" NCoef="0" IVar="-1" Cut="0" cType="1" res="0.00498744" purity="0.507251" nType="-99"/>
            <Node pos="r" depth="3" NCoef="0" IVar="-1" Cut="0" cType="1" res="0.0016503" purity="0.437121" nType="-99"/>
          </Node>
        </Node>
        <Node pos="r" depth="1" NCoef="0" IVar="3" Cut="187988" cType="1" res="-0.020129" purity="0.49519" nType="0">
          <Node pos="l" depth="2" NCoef="0" IVar="2" Cut="912.297" cType="1" res="-0.0312649" purity="0.492935" nType="0">
            <Node pos="l" depth="3" NCoef="0" IVar="1" Cut="146948" cType="1" res="-0.0739251" purity="0.353226" nType="0">
              <Node pos="l" depth="4" NCoef="0" IVar="-1" Cut="0" cType="1" res="-0.00693412" purity="0.330374" nType="-99"/>
              <Node pos="r" depth="4" NCoef="0" IVar="-1" Cut="0" cType="1" res="-0.00236492" purity="0.374" nType="-99"/>
            </Node>
            <Node pos="r" depth="3" NCoef="0" IVar="1" Cut="168638" cType="1" res="-0.0112559" purity="0.558462" nType="0">
              <Node pos="l" depth="4" NCoef="0" IVar="-1" Cut="0" cType="1" res="0.000402124" purity="0.59586" nType="-99"/>
              <Node pos="r" depth="4" NCoef="0" IVar="-1" Cut="0" cType="1" res="-0.00391664" purity="0.442168" nType="-99"/>
            </Node>
          </Node>
          <Node pos="r" depth="2" NCoef="0" IVar="4" Cut="289643" cType="1" res="0.0130064" purity="0.501899" nType="0">
            <Node pos="l" depth="3" NCoef="0" IVar="-1" Cut="0" cType="1" res="-0.00090844" purity="0.498535" nType="-99"/>
            <Node pos="r" depth="3" NCoef="0" IVar="-1" Cut="0" cType="1" res="0.00218252" purity="0.505585" nType="-99"/>
          </Node>
        </Node>
      </Node>
    </BinaryTree>
    <BinaryTree type="DecisionTree" boostWeight="1.0" itree="398">
      <Node pos="s" depth="0" NCoef="0" IVar="3" Cut="159663" cType="1" res="0.00253801" purity="0.497957" nType="0">
        <Node pos="l" depth="1" NCoef="0" IVar="4" Cut="324326" cType="1" res="0.017733" purity="0.522264" nType="0">
          <Node pos="l" depth="2" NCoef="0" IVar="6" Cut="2.37511" cType="1" res="0.00507142" purity="0.523705" nType="0">
            <Node pos="l" depth="3" NCoef="0" IVar="1" Cut="110309" cType="1" res="-0.0052154" purity="0.536467" nType="0">
              <Node pos="l" depth="4" NCoef="0" IVar="-1" Cut="0" cType="1" res="-0.00174996" purity="0.470484" nType="-99"/>
              <Node pos="r" depth="4" NCoef="0" IVar="-1" Cut="0" cType="1" res="0.000808181" purity="0.590071" nType="-99"/>
            </Node>
            <Node pos="r" depth="3" NCoef="0" IVar="-1" Cut="0" cType="1" res="0.00158204" purity="0.488411" nType="-99"/>
          </Node>
          <Node pos="r" depth="2" NCoef="0" IVar="-1" Cut="0" cType="1" res="0.00301089" purity="0.516875" nType="-99"/>
        </Node>
        <Node pos="r" depth="1" NCoef="0" IVar="6" Cut="0.306556" cType="1" res="-0.0067057" purity="0.48317" nType="0">
          <Node pos="l" depth="2" NCoef="0" IVar="-1" Cut="0" cType="1" res="0.00195231" purity="0.542168" nType="-99"/>
          <Node pos="r" depth="2" NCoef="0" IVar="6" Cut="1.06724" cType="1" res="-0.0114228" purity="0.477919" nType="0">
            <Node pos="l" depth="3" NCoef="0" IVar="5" Cut="1.73104" cType="1" res="-0.0636488" purity="0.440804" nType="0">
              <Node pos="l" depth="4" NCoef="0" IVar="-1" Cut="0" cType="1" res="-0.0016294" purity="0.468145" nType="-99"/>
              <Node pos="r" depth="4" NCoef="0" IVar="-1" Cut="0" cType="1" res="-0.00653405" purity="0.402029" nType="-99"/>
            </Node>
            <Node pos="r" depth="3" NCoef="0" IVar="5" Cut="1.92374" cType="1" res="-0.000470572" purity="0.485703" nType="0">
              <Node pos="l" depth="4" NCoef="0" IVar="-1" Cut="0" cType="1" res="-0.000661434" purity="0.485078" nType="-99"/>
              <Node pos="r" depth="4" NCoef="0" IVar="-1" Cut="0" cType="1" res="0.00199918" purity="0.487749" nType="-99"/>
            </Node>
          </Node>
        </Node>
      </Node>
    </BinaryTree>
    <BinaryTree type="DecisionTree" boostWeight="1.0" itree="399">
      <Node pos="s" depth="0" NCoef="0" IVar="3" Cut="142744" cType="1" res="0.00111118" purity="0.494844" nType="0">
        <Node pos="l" depth="1" NCoef="0" IVar="6" Cut="1.07202" cType="1" res="-0.0268432" purity="0.472558" nType="0">
          <Node pos="l" depth="2" NCoef="0" IVar="-1" Cut="0" cType="1" res="0.000469183" purity="0.521419" nType="-99"/>
          <Node pos="r" depth="2" NCoef="0" IVar="0" Cut="134124" cType="1" res="-0.0461829" purity="0.447133" nType="0">
            <Node pos="l" depth="3" NCoef="0" IVar="-1" Cut="0" cType="1" res="-0.00546158" purity="0.35446" nType="-99"/>
            <Node pos="r" depth="3" NCoef="0" IVar="-1" Cut="0" cType="1" res="-0.000421039" purity="0.528348" nType="-99"/>
          </Node>
        </Node>
        <Node pos="r" depth="1" NCoef="0" IVar="0" Cut="202434" cType="1" res="0.00780603" purity="0.500181" nType="0">
          <Node pos="l" depth="2" NCoef="0" IVar="3" Cut="165756" cType="1" res="0.00146891" purity="0.481807" nType="0">
            <Node pos="l" depth="3" NCoef="0" IVar="3" Cut="156218" cType="1" res="0.0261547" purity="0.51876" nType="0">
              <Node pos="l" depth="4" NCoef="0" IVar="-1" Cut="0" cType="1" res="-0.000327632" purity="0.488886" nType="-99"/>
              <Node pos="r" depth="4" NCoef="0" IVar="-1" Cut="0" cType="1" res="0.00252105" purity="0.545842" nType="-99"/>
            </Node>
            <Node pos="r" depth="3" NCoef="0" IVar="4" Cut="207941" cType="1" res="-0.0102523" purity="0.46426" nType="0">
              <Node pos="l" depth="4" NCoef="0" IVar="-1" Cut="0" cType="1" res="-0.00183333" purity="0.479136" nType="-99"/>
              <Node pos="r" depth="4" NCoef="0" IVar="-1" Cut="0" cType="1" res="0.000374958" purity="0.454368" nType="-99"/>
            </Node>
          </Node>
          <Node pos="r" depth="2" NCoef="0" IVar="0" Cut="238128" cType="1" res="0.0500664" purity="0.622715" nType="0">
            <Node pos="l" depth="3" NCoef="0" IVar="-1" Cut="0" cType="1" res="0.00305177" purity="0.644028" nType="-99"/>
            <Node pos="r" depth="3" NCoef="0" IVar="-1" Cut="0" cType="1" res="0.000328762" purity="0.591407" nType="-99"/>
          </Node>
        </Node>
      </Node>
    </BinaryTree>
  </Weights>
</MethodSetup>
