<?xml version="1.0"?>
<MethodSetup Method="BDT::BDT">
  <GeneralInfo>
    <Info name="TMVA Release" value="4.2.1 [262657]"/>
    <Info name="ROOT Release" value="6.04/14 [394254]"/>
    <Info name="Training events" value="90498"/>
    <Info name="AnalysisType" value="Classification"/>
  </GeneralInfo>
  <Options>
    <Option name="V" modified="No">False</Option>
    <Option name="VerbosityLevel" modified="No">Default</Option>
    <Option name="VarTransform" modified="No">None</Option>
    <Option name="H" modified="No">False</Option>
    <Option name="CreateMVAPdfs" modified="No">False</Option>
    <Option name="IgnoreNegWeightsInTraining" modified="No">False</Option>
    <Option name="NTrees" modified="Yes">400</Option>
    <Option name="MaxDepth" modified="No">3</Option>
    <Option name="MinNodeSize" modified="Yes">4</Option>
    <Option name="nCuts" modified="No">20</Option>
    <Option name="BoostType" modified="Yes">Grad</Option>
    <Option name="AdaBoostR2Loss" modified="No">quadratic</Option>
    <Option name="UseBaggedBoost" modified="Yes">True</Option>
    <Option name="Shrinkage" modified="No">1.000000e+00</Option>
    <Option name="AdaBoostBeta" modified="No">5.000000e-01</Option>
    <Option name="UseRandomisedTrees" modified="Yes">True</Option>
    <Option name="UseNvars" modified="Yes">10</Option>
    <Option name="UsePoissonNvars" modified="No">True</Option>
    <Option name="BaggedSampleFraction" modified="Yes">6.000000e-01</Option>
    <Option name="UseYesNoLeaf" modified="No">True</Option>
    <Option name="NegWeightTreatment" modified="No">ignorenegweightsintraining</Option>
    <Option name="Css" modified="No">1.000000e+00</Option>
    <Option name="Cts_sb" modified="No">1.000000e+00</Option>
    <Option name="Ctb_ss" modified="No">1.000000e+00</Option>
    <Option name="Cbb" modified="No">1.000000e+00</Option>
    <Option name="NodePurityLimit" modified="No">5.000000e-01</Option>
    <Option name="SeparationType" modified="No">giniindex</Option>
    <Option name="DoBoostMonitor" modified="No">False</Option>
    <Option name="UseFisherCuts" modified="No">False</Option>
    <Option name="MinLinCorrForFisher" modified="No">8.000000e-01</Option>
    <Option name="UseExclusiveVars" modified="No">False</Option>
    <Option name="DoPreselection" modified="No">False</Option>
    <Option name="SigToBkgFraction" modified="No">1.000000e+00</Option>
    <Option name="PruneMethod" modified="No">nopruning</Option>
    <Option name="PruneStrength" modified="No">0.000000e+00</Option>
    <Option name="PruningValFraction" modified="No">5.000000e-01</Option>
    <Option name="nEventsMin" modified="No">0</Option>
    <Option name="UseBaggedGrad" modified="No">False</Option>
    <Option name="GradBaggingFraction" modified="No">6.000000e-01</Option>
    <Option name="UseNTrainEvents" modified="No">0</Option>
    <Option name="NNodesMax" modified="No">0</Option>
  </Options>
  <Variables NVar="10">
    <Variable VarIndex="0" Expression="met" Label="met" Title="met" Unit="" Internal="met" Type="F" Min="1.20000211e+05" Max="2.36215050e+06"/>
    <Variable VarIndex="1" Expression="mt" Label="mt" Title="mt" Unit="" Internal="mt" Type="F" Min="1.20000383e+05" Max="3.59825775e+06"/>
    <Variable VarIndex="2" Expression="m_top_chi2" Label="m_top_chi2" Title="m_top_chi2" Unit="" Internal="m_top_chi2" Type="F" Min="6.03648415e+01" Max="3.21721973e+03"/>
    <Variable VarIndex="3" Expression="ht_sig" Label="ht_sig" Title="ht_sig" Unit="" Internal="ht_sig" Type="F" Min="-1.54766626e+01" Max="1.37239395e+02"/>
    <Variable VarIndex="4" Expression="dr_bjet_lep" Label="dr_bjet_lep" Title="dr_bjet_lep" Unit="" Internal="dr_bjet_lep" Type="F" Min="6.44241646e-02" Max="5.66642046e+00"/>
    <Variable VarIndex="5" Expression="dphi_ttbar" Label="dphi_ttbar" Title="dphi_ttbar" Unit="" Internal="dphi_ttbar" Type="F" Min="-3.14159012e+00" Max="3.14143682e+00"/>
    <Variable VarIndex="6" Expression="dphi_hadtop_met" Label="dphi_hadtop_met" Title="dphi_hadtop_met" Unit="" Internal="dphi_hadtop_met" Type="F" Min="-3.14157081e+00" Max="3.14149451e+00"/>
    <Variable VarIndex="7" Expression="n_jet" Label="n_jet" Title="n_jet" Unit="" Internal="n_jet" Type="I" Min="4.00000000e+00" Max="1.30000000e+01"/>
    <Variable VarIndex="8" Expression="jet_pt[2]" Label="jet_pt[2]" Title="jet_pt[2]" Unit="" Internal="jet_pt_2_" Type="F" Min="2.50152598e+04" Max="1.04504738e+06"/>
    <Variable VarIndex="9" Expression="jet_pt[3]" Label="jet_pt[3]" Title="jet_pt[3]" Unit="" Internal="jet_pt_3_" Type="F" Min="2.50001016e+04" Max="7.39784812e+05"/>
  </Variables>
  <Spectators NSpec="0" />
  <Classes NClass="2">
    <Class Name="Signal" Index="0"/>
    <Class Name="Background" Index="1"/>
  </Classes>
  <Transformations NTransformations="0"/>
  <MVAPdfs/>
  <Weights NTrees="400" AnalysisType="1">
    <BinaryTree type="DecisionTree" boostWeight="1.0000000000000000e+00" itree="0">
      <Node pos="s" depth="0" NCoef="0" IVar="9" Cut="4.5811527343750000e+04" cType="1" res="-1.1196818202733994e-02" rms="4.9987462162971497e-01" purity="4.8880317807197571e-01" nType="0">
        <Node pos="l" depth="1" NCoef="0" IVar="9" Cut="3.0945943359375000e+04" cType="1" res="-9.7569078207015991e-02" rms="4.9038788676261902e-01" purity="4.0243092179298401e-01" nType="0">
          <Node pos="l" depth="2" NCoef="0" IVar="1" Cut="1.9353446875000000e+05" cType="1" res="-1.6889306902885437e-01" rms="4.7061145305633545e-01" purity="3.3110693097114563e-01" nType="0">
            <Node pos="l" depth="3" NCoef="0" IVar="-1" Cut="0.0000000000000000e+00" cType="1" res="-4.0324509143829346e-02" rms="4.8413372039794922e-01" purity="3.7504181265830994e-01" nType="-99"/>
            <Node pos="r" depth="3" NCoef="0" IVar="-1" Cut="0.0000000000000000e+00" cType="1" res="-1.9471651315689087e-01" rms="4.0332856774330139e-01" purity="2.0449014008045197e-01" nType="-99"/>
          </Node>
          <Node pos="r" depth="2" NCoef="0" IVar="9" Cut="3.9440117187500000e+04" cType="1" res="-4.5851197093725204e-02" rms="4.9789324402809143e-01" purity="4.5414882898330688e-01" nType="0">
            <Node pos="l" depth="3" NCoef="0" IVar="-1" Cut="0.0000000000000000e+00" cType="1" res="-1.3725439086556435e-02" rms="4.9480023980140686e-01" purity="4.2807829380035400e-01" nType="-99"/>
            <Node pos="r" depth="3" NCoef="0" IVar="-1" Cut="0.0000000000000000e+00" cType="1" res="4.0850313380360603e-03" rms="4.9998721480369568e-01" purity="5.0357502698898315e-01" nType="-99"/>
          </Node>
        </Node>
        <Node pos="r" depth="1" NCoef="0" IVar="8" Cut="8.3471367187500000e+04" cType="1" res="0.0000000000000000e+00" rms="0.0000000000000000e+00" purity="6.0668832063674927e-01" nType="0">
          <Node pos="l" depth="2" NCoef="0" IVar="3" Cut="3.1498723030090332e+00" cType="1" res="3.6306980997323990e-02" rms="4.9868005514144897e-01" purity="5.3630697727203369e-01" nType="0">
            <Node pos="l" depth="3" NCoef="0" IVar="-1" Cut="0.0000000000000000e+00" cType="1" res="-2.4520393926650286e-03" rms="4.9620661139488220e-01" purity="4.3852645158767700e-01" nType="-99"/>
            <Node pos="r" depth="3" NCoef="0" IVar="-1" Cut="0.0000000000000000e+00" cType="1" res="1.1893989145755768e-01" rms="4.8811903595924377e-01" purity="6.0835039615631104e-01" nType="-99"/>
          </Node>
          <Node pos="r" depth="2" NCoef="0" IVar="9" Cut="8.5456578125000000e+04" cType="1" res="1.7600643634796143e-01" rms="4.6799758076667786e-01" purity="6.7600643634796143e-01" nType="0">
            <Node pos="l" depth="3" NCoef="0" IVar="-1" Cut="0.0000000000000000e+00" cType="1" res="1.2212160229682922e-01" rms="4.7912028431892395e-01" purity="6.4298164844512939e-01" nType="-99"/>
            <Node pos="r" depth="3" NCoef="0" IVar="-1" Cut="0.0000000000000000e+00" cType="1" res="2.2235624492168427e-01" rms="4.4532901048660278e-01" purity="7.2733694314956665e-01" nType="-99"/>
          </Node>
        </Node>
      </Node>
    </BinaryTree>
    <BinaryTree type="DecisionTree" boostWeight="1.0000000000000000e+00" itree="1">
      <Node pos="s" depth="0" NCoef="0" IVar="9" Cut="4.6564507812500000e+04" cType="1" res="0.0000000000000000e+00" rms="0.0000000000000000e+00" purity="4.9878689646720886e-01" nType="0">
        <Node pos="l" depth="1" NCoef="0" IVar="4" Cut="3.1900315284729004e+00" cType="1" res="-7.1710221469402313e-02" rms="4.8790654540061951e-01" purity="4.1061037778854370e-01" nType="0">
          <Node pos="l" depth="2" NCoef="0" IVar="9" Cut="3.2188179687500000e+04" cType="1" res="-5.3735714405775070e-02" rms="4.9053961038589478e-01" purity="4.2835733294487000e-01" nType="0">
            <Node pos="l" depth="3" NCoef="0" IVar="-1" Cut="0.0000000000000000e+00" cType="1" res="-8.7653473019599915e-02" rms="4.7266554832458496e-01" purity="3.4866330027580261e-01" nType="-99"/>
            <Node pos="r" depth="3" NCoef="0" IVar="-1" Cut="0.0000000000000000e+00" cType="1" res="1.3142070965841413e-03" rms="4.9956700205802917e-01" purity="4.9943825602531433e-01" nType="-99"/>
          </Node>
          <Node pos="r" depth="2" NCoef="0" IVar="-1" Cut="0.0000000000000000e+00" cType="1" res="-6.2676551751792431e-03" rms="4.2113363742828369e-01" purity="2.3428584635257721e-01" nType="-99"/>
        </Node>
        <Node pos="r" depth="1" NCoef="0" IVar="0" Cut="2.2093867187500000e+05" cType="1" res="6.9649375975131989e-02" rms="4.7987243533134460e-01" purity="6.2926465272903442e-01" nType="0">
          <Node pos="l" depth="2" NCoef="0" IVar="0" Cut="1.4883131250000000e+05" cType="1" res="5.0710670650005341e-02" rms="4.8640871047973633e-01" purity="6.0612094402313232e-01" nType="0">
            <Node pos="l" depth="3" NCoef="0" IVar="-1" Cut="0.0000000000000000e+00" cType="1" res="1.6707072500139475e-03" rms="4.9490594863891602e-01" purity="5.5267554521560669e-01" nType="-99"/>
            <Node pos="r" depth="3" NCoef="0" IVar="-1" Cut="0.0000000000000000e+00" cType="1" res="7.9070456326007843e-02" rms="4.7414043545722961e-01" purity="6.5832579135894775e-01" nType="-99"/>
          </Node>
          <Node pos="r" depth="2" NCoef="0" IVar="-1" Cut="0.0000000000000000e+00" cType="1" res="1.5180757641792297e-01" rms="4.4118076562881470e-01" purity="7.2950434684753418e-01" nType="-99"/>
        </Node>
      </Node>
    </BinaryTree>
    <BinaryTree type="DecisionTree" boostWeight="1.0000000000000000e+00" itree="2">
      <Node pos="s" depth="0" NCoef="0" IVar="8" Cut="6.2677683593750000e+04" cType="1" res="-1.0179949924349785e-02" rms="4.8514309525489807e-01" purity="5.0455474853515625e-01" nType="0">
        <Node pos="l" depth="1" NCoef="0" IVar="1" Cut="2.3149034375000000e+05" cType="1" res="-6.3393533229827881e-02" rms="4.8415398597717285e-01" purity="4.0797954797744751e-01" nType="0">
          <Node pos="l" depth="2" NCoef="0" IVar="8" Cut="3.9480425781250000e+04" cType="1" res="-4.3834060430526733e-02" rms="4.8890799283981323e-01" purity="4.3138414621353149e-01" nType="0">
            <Node pos="l" depth="3" NCoef="0" IVar="-1" Cut="0.0000000000000000e+00" cType="1" res="-6.0787599533796310e-02" rms="4.6388542652130127e-01" purity="3.1965801119804382e-01" nType="-99"/>
            <Node pos="r" depth="3" NCoef="0" IVar="-1" Cut="0.0000000000000000e+00" cType="1" res="-4.4736196286976337e-03" rms="4.9551925063133240e-01" purity="4.8250496387481689e-01" nType="-99"/>
          </Node>
          <Node pos="r" depth="2" NCoef="0" IVar="-1" Cut="0.0000000000000000e+00" cType="1" res="-2.2814981639385223e-01" rms="4.1724607348442078e-01" purity="2.2978317737579346e-01" nType="-99"/>
        </Node>
        <Node pos="r" depth="1" NCoef="0" IVar="1" Cut="2.3758801562500000e+05" cType="1" res="0.0000000000000000e+00" rms="0.0000000000000000e+00" purity="6.0777777433395386e-01" nType="0">
          <Node pos="l" depth="2" NCoef="0" IVar="3" Cut="2.0911829471588135e+00" cType="1" res="6.1569400131702423e-02" rms="4.7633767127990723e-01" purity="6.2254977226257324e-01" nType="0">
            <Node pos="l" depth="3" NCoef="0" IVar="-1" Cut="0.0000000000000000e+00" cType="1" res="-3.4237178042531013e-03" rms="4.9590182304382324e-01" purity="5.2534401416778564e-01" nType="-99"/>
            <Node pos="r" depth="3" NCoef="0" IVar="-1" Cut="0.0000000000000000e+00" cType="1" res="6.6446512937545776e-02" rms="4.6815258264541626e-01" purity="6.5292018651962280e-01" nType="-99"/>
          </Node>
          <Node pos="r" depth="2" NCoef="0" IVar="-1" Cut="0.0000000000000000e+00" cType="1" res="-7.1418367326259613e-02" rms="4.9007806181907654e-01" purity="4.9407076835632324e-01" nType="-99"/>
        </Node>
      </Node>
    </BinaryTree>
    <BinaryTree type="DecisionTree" boostWeight="1.0000000000000000e+00" itree="3">
      <Node pos="s" depth="0" NCoef="0" IVar="8" Cut="7.3588218750000000e+04" cType="1" res="-7.8375320881605148e-03" rms="4.8022234439849854e-01" purity="5.0366908311843872e-01" nType="0">
        <Node pos="l" depth="1" NCoef="0" IVar="9" Cut="3.6410269531250000e+04" cType="1" res="-3.5544715821743011e-02" rms="4.8265004158020020e-01" purity="4.3113327026367188e-01" nType="0">
          <Node pos="l" depth="2" NCoef="0" IVar="8" Cut="3.4263605468750000e+04" cType="1" res="-6.4942225813865662e-02" rms="4.7093495726585388e-01" purity="3.5340353846549988e-01" nType="0">
            <Node pos="l" depth="3" NCoef="0" IVar="-1" Cut="0.0000000000000000e+00" cType="1" res="-2.2588511928915977e-02" rms="4.2946824431419373e-01" purity="2.4885371327400208e-01" nType="-99"/>
            <Node pos="r" depth="3" NCoef="0" IVar="-1" Cut="0.0000000000000000e+00" cType="1" res="-3.3946502953767776e-02" rms="4.8252320289611816e-01" purity="3.9057356119155884e-01" nType="-99"/>
          </Node>
          <Node pos="r" depth="2" NCoef="0" IVar="4" Cut="1.3384193181991577e+00" cType="1" res="-2.4395068976446055e-05" rms="4.9410849809646606e-01" purity="5.2505224943161011e-01" nType="0">
            <Node pos="l" depth="3" NCoef="0" IVar="-1" Cut="0.0000000000000000e+00" cType="1" res="-3.5578101873397827e-02" rms="4.9505391716957092e-01" purity="4.8608338832855225e-01" nType="-99"/>
            <Node pos="r" depth="3" NCoef="0" IVar="-1" Cut="0.0000000000000000e+00" cType="1" res="4.2194481939077377e-03" rms="4.9295142292976379e-01" purity="5.4106366634368896e-01" nType="-99"/>
          </Node>
        </Node>
        <Node pos="r" depth="1" NCoef="0" IVar="4" Cut="1.3944491147994995e+00" cType="1" res="4.2517628520727158e-02" rms="4.7162950038909912e-01" purity="6.3549596071243286e-01" nType="0">
          <Node pos="l" depth="2" NCoef="0" IVar="9" Cut="6.8128914062500000e+04" cType="1" res="5.1060980185866356e-03" rms="4.7983634471893311e-01" purity="5.9698706865310669e-01" nType="0">
            <Node pos="l" depth="3" NCoef="0" IVar="-1" Cut="0.0000000000000000e+00" cType="1" res="-4.4855635613203049e-02" rms="4.9380329251289368e-01" purity="5.0884759426116943e-01" nType="-99"/>
            <Node pos="r" depth="3" NCoef="0" IVar="-1" Cut="0.0000000000000000e+00" cType="1" res="4.5303568243980408e-02" rms="4.6218204498291016e-01" purity="6.8184518814086914e-01" nType="-99"/>
          </Node>
          <Node pos="r" depth="2" NCoef="0" IVar="6" Cut="-1.9446908235549927e+00" cType="1" res="6.4252860844135284e-02" rms="4.6541622281074524e-01" purity="6.5786880254745483e-01" nType="0">
            <Node pos="l" depth="3" NCoef="0" IVar="-1" Cut="0.0000000000000000e+00" cType="1" res="7.2177145630121231e-03" rms="4.8663410544395447e-01" purity="5.9309625625610352e-01" nType="-99"/>
            <Node pos="r" depth="3" NCoef="0" IVar="-1" Cut="0.0000000000000000e+00" cType="1" res="5.6747496128082275e-02" rms="4.5557662844657898e-01" purity="6.8182891607284546e-01" nType="-99"/>
          </Node>
        </Node>
      </Node>
    </BinaryTree>
    <BinaryTree type="DecisionTree" boostWeight="1.0000000000000000e+00" itree="4">
      <Node pos="s" depth="0" NCoef="0" IVar="4" Cut="3.2368848323822021e+00" cType="1" res="-1.0549544356763363e-02" rms="4.7908604145050049e-01" purity="4.9754649400711060e-01" nType="0">
        <Node pos="l" depth="1" NCoef="0" IVar="4" Cut="1.4398434162139893e+00" cType="1" res="3.7270290777087212e-03" rms="4.7893121838569641e-01" purity="5.1167833805084229e-01" nType="0">
          <Node pos="l" depth="2" NCoef="0" IVar="2" Cut="2.0839855957031250e+02" cType="1" res="-3.4141469746828079e-02" rms="4.7755897045135498e-01" purity="4.6557757258415222e-01" nType="0">
            <Node pos="l" depth="3" NCoef="0" IVar="-1" Cut="0.0000000000000000e+00" cType="1" res="-2.1968600340187550e-03" rms="4.7630748152732849e-01" purity="4.9055713415145874e-01" nType="-99"/>
            <Node pos="r" depth="3" NCoef="0" IVar="-1" Cut="0.0000000000000000e+00" cType="1" res="-9.7211152315139771e-02" rms="4.7525051236152649e-01" purity="4.2698943614959717e-01" nType="-99"/>
          </Node>
          <Node pos="r" depth="2" NCoef="0" IVar="7" Cut="5.0000000000000000e+00" cType="1" res="0.0000000000000000e+00" rms="0.0000000000000000e+00" purity="5.3926616907119751e-01" nType="0">
            <Node pos="l" depth="3" NCoef="0" IVar="-1" Cut="0.0000000000000000e+00" cType="1" res="-3.4493999555706978e-03" rms="4.8409339785575867e-01" purity="4.5174536108970642e-01" nType="-99"/>
            <Node pos="r" depth="3" NCoef="0" IVar="-1" Cut="0.0000000000000000e+00" cType="1" res="4.1045617312192917e-02" rms="4.7231125831604004e-01" purity="6.0639572143554688e-01" nType="-99"/>
          </Node>
        </Node>
        <Node pos="r" depth="1" NCoef="0" IVar="-1" Cut="0.0000000000000000e+00" cType="1" res="-8.5943723097443581e-03" rms="4.3739104270935059e-01" purity="3.0596122145652771e-01" nType="-99"/>
      </Node>
    </BinaryTree>
    <BinaryTree type="DecisionTree" boostWeight="1.0000000000000000e+00" itree="5">
      <Node pos="s" depth="0" NCoef="0" IVar="4" Cut="3.2655649185180664e+00" cType="1" res="0.0000000000000000e+00" rms="0.0000000000000000e+00" purity="4.9800381064414978e-01" nType="0">
        <Node pos="l" depth="1" NCoef="0" IVar="8" Cut="7.3588218750000000e+04" cType="1" res="8.4343645721673965e-04" rms="4.7850769758224487e-01" purity="5.0904572010040283e-01" nType="0">
          <Node pos="l" depth="2" NCoef="0" IVar="8" Cut="3.4267101562500000e+04" cType="1" res="0.0000000000000000e+00" rms="0.0000000000000000e+00" purity="4.4005641341209412e-01" nType="0">
            <Node pos="l" depth="3" NCoef="0" IVar="-1" Cut="0.0000000000000000e+00" cType="1" res="-4.1920010000467300e-02" rms="4.3037599325180054e-01" purity="2.4994212388992310e-01" nType="-99"/>
            <Node pos="r" depth="3" NCoef="0" IVar="-1" Cut="0.0000000000000000e+00" cType="1" res="7.4030720861628652e-04" rms="4.8774915933609009e-01" purity="4.7136119008064270e-01" nType="-99"/>
          </Node>
          <Node pos="r" depth="2" NCoef="0" IVar="6" Cut="1.9441953897476196e+00" cType="1" res="3.1681507825851440e-02" rms="4.7083586454391479e-01" purity="6.3436371088027954e-01" nType="0">
            <Node pos="l" depth="3" NCoef="0" IVar="-1" Cut="0.0000000000000000e+00" cType="1" res="4.9450159072875977e-02" rms="4.6396702527999878e-01" purity="6.5174651145935059e-01" nType="-99"/>
            <Node pos="r" depth="3" NCoef="0" IVar="-1" Cut="0.0000000000000000e+00" cType="1" res="-6.7826779559254646e-03" rms="4.8823836445808411e-01" purity="5.8158189058303833e-01" nType="-99"/>
          </Node>
        </Node>
        <Node pos="r" depth="1" NCoef="0" IVar="-1" Cut="0.0000000000000000e+00" cType="1" res="-8.6346501484513283e-03" rms="4.5240771770477295e-01" purity="3.3193999528884888e-01" nType="-99"/>
      </Node>
    </BinaryTree>
    <BinaryTree type="DecisionTree" boostWeight="1.0000000000000000e+00" itree="6">
      <Node pos="s" depth="0" NCoef="0" IVar="4" Cut="3.2374687194824219e+00" cType="1" res="-1.3827129267156124e-02" rms="4.7818899154663086e-01" purity="4.9911957979202271e-01" nType="0">
        <Node pos="l" depth="1" NCoef="0" IVar="4" Cut="1.7320617437362671e+00" cType="1" res="-4.8158224672079086e-03" rms="4.7778293490409851e-01" purity="5.0802654027938843e-01" nType="0">
          <Node pos="l" depth="2" NCoef="0" IVar="1" Cut="1.9843981250000000e+05" cType="1" res="-2.4698654189705849e-02" rms="4.7716405987739563e-01" purity="4.6915236115455627e-01" nType="0">
            <Node pos="l" depth="3" NCoef="0" IVar="-1" Cut="0.0000000000000000e+00" cType="1" res="-1.2142538093030453e-02" rms="4.8292130231857300e-01" purity="4.9947631359100342e-01" nType="-99"/>
            <Node pos="r" depth="3" NCoef="0" IVar="-1" Cut="0.0000000000000000e+00" cType="1" res="-8.2866333425045013e-02" rms="4.5631578564643860e-01" purity="3.7468892335891724e-01" nType="-99"/>
          </Node>
          <Node pos="r" depth="2" NCoef="0" IVar="3" Cut="5.7149344682693481e-01" cType="1" res="1.3179969042539597e-02" rms="4.7762933373451233e-01" purity="5.4321122169494629e-01" nType="0">
            <Node pos="l" depth="3" NCoef="0" IVar="-1" Cut="0.0000000000000000e+00" cType="1" res="-2.6455869898200035e-02" rms="4.9018487334251404e-01" purity="4.4008180499076843e-01" nType="-99"/>
            <Node pos="r" depth="3" NCoef="0" IVar="-1" Cut="0.0000000000000000e+00" cType="1" res="1.9456651061773300e-02" rms="4.7468814253807068e-01" purity="5.6184846162796021e-01" nType="-99"/>
          </Node>
        </Node>
        <Node pos="r" depth="1" NCoef="0" IVar="-1" Cut="0.0000000000000000e+00" cType="1" res="-9.1630378738045692e-03" rms="4.6523582935333252e-01" purity="3.7173071503639221e-01" nType="-99"/>
      </Node>
    </BinaryTree>
    <BinaryTree type="DecisionTree" boostWeight="1.0000000000000000e+00" itree="7">
      <Node pos="s" depth="0" NCoef="0" IVar="4" Cut="3.2324471473693848e+00" cType="1" res="-1.0654909536242485e-02" rms="4.7679394483566284e-01" purity="4.9847975373268127e-01" nType="0">
        <Node pos="l" depth="1" NCoef="0" IVar="0" Cut="2.2677162500000000e+05" cType="1" res="-4.2789941653609276e-03" rms="4.7673439979553223e-01" purity="5.0494700670242310e-01" nType="0">
          <Node pos="l" depth="2" NCoef="0" IVar="1" Cut="2.0023265625000000e+05" cType="1" res="-1.1822208762168884e-02" rms="4.7988682985305786e-01" purity="4.8902556300163269e-01" nType="0">
            <Node pos="l" depth="3" NCoef="0" IVar="-1" Cut="0.0000000000000000e+00" cType="1" res="-1.0224357247352600e-03" rms="4.8440977931022644e-01" purity="5.1466041803359985e-01" nType="-99"/>
            <Node pos="r" depth="3" NCoef="0" IVar="-1" Cut="0.0000000000000000e+00" cType="1" res="-6.9751910865306854e-02" rms="4.5482569932937622e-01" purity="3.6683493852615356e-01" nType="-99"/>
          </Node>
          <Node pos="r" depth="2" NCoef="0" IVar="8" Cut="9.8955531250000000e+04" cType="1" res="5.0116416066884995e-02" rms="4.4962191581726074e-01" purity="6.1975908279418945e-01" nType="0">
            <Node pos="l" depth="3" NCoef="0" IVar="-1" Cut="0.0000000000000000e+00" cType="1" res="3.8662556558847427e-02" rms="4.6805989742279053e-01" purity="5.3531831502914429e-01" nType="-99"/>
            <Node pos="r" depth="3" NCoef="0" IVar="-1" Cut="0.0000000000000000e+00" cType="1" res="9.1731995344161987e-02" rms="4.1438272595405579e-01" purity="7.6203864812850952e-01" nType="-99"/>
          </Node>
        </Node>
        <Node pos="r" depth="1" NCoef="0" IVar="-1" Cut="0.0000000000000000e+00" cType="1" res="-7.1100756525993347e-02" rms="4.6700352430343628e-01" purity="3.9968633651733398e-01" nType="-99"/>
      </Node>
    </BinaryTree>
    <BinaryTree type="DecisionTree" boostWeight="1.0000000000000000e+00" itree="8">
      <Node pos="s" depth="0" NCoef="0" IVar="4" Cut="2.9684450626373291e+00" cType="1" res="-6.0475692152976990e-03" rms="4.7658160328865051e-01" purity="4.9628445506095886e-01" nType="0">
        <Node pos="l" depth="1" NCoef="0" IVar="3" Cut="7.7352535724639893e-01" cType="1" res="1.3938841875642538e-03" rms="4.7621893882751465e-01" purity="5.0163817405700684e-01" nType="0">
          <Node pos="l" depth="2" NCoef="0" IVar="7" Cut="5.0000000000000000e+00" cType="1" res="0.0000000000000000e+00" rms="0.0000000000000000e+00" purity="4.1867268085479736e-01" nType="0">
            <Node pos="l" depth="3" NCoef="0" IVar="-1" Cut="0.0000000000000000e+00" cType="1" res="-6.3249934464693069e-03" rms="4.8250868916511536e-01" purity="4.1092720627784729e-01" nType="-99"/>
            <Node pos="r" depth="3" NCoef="0" IVar="-1" Cut="0.0000000000000000e+00" cType="1" res="-3.0913151800632477e-02" rms="4.8557072877883911e-01" purity="4.2582815885543823e-01" nType="-99"/>
          </Node>
          <Node pos="r" depth="2" NCoef="0" IVar="1" Cut="2.3149070312500000e+05" cType="1" res="8.7440600618720055e-03" rms="4.7428864240646362e-01" purity="5.1560741662979126e-01" nType="0">
            <Node pos="l" depth="3" NCoef="0" IVar="-1" Cut="0.0000000000000000e+00" cType="1" res="1.3528194278478622e-02" rms="4.7815087437629700e-01" purity="5.4350429773330688e-01" nType="-99"/>
            <Node pos="r" depth="3" NCoef="0" IVar="-1" Cut="0.0000000000000000e+00" cType="1" res="-1.8344840034842491e-02" rms="4.4675680994987488e-01" purity="3.3937963843345642e-01" nType="-99"/>
          </Node>
        </Node>
        <Node pos="r" depth="1" NCoef="0" IVar="6" Cut="1.6450601816177368e+00" cType="1" res="-4.7462042421102524e-02" rms="4.7647637128829956e-01" purity="4.6648940443992615e-01" nType="0">
          <Node pos="l" depth="2" NCoef="0" IVar="6" Cut="-2.0018303394317627e+00" cType="1" res="6.4754104241728783e-03" rms="4.7423920035362244e-01" purity="5.2596098184585571e-01" nType="0">
            <Node pos="l" depth="3" NCoef="0" IVar="-1" Cut="0.0000000000000000e+00" cType="1" res="-3.5524241626262665e-02" rms="4.8591357469558716e-01" purity="4.5938974618911743e-01" nType="-99"/>
            <Node pos="r" depth="3" NCoef="0" IVar="-1" Cut="0.0000000000000000e+00" cType="1" res="4.7104556113481522e-02" rms="4.5958870649337769e-01" purity="5.8937805891036987e-01" nType="-99"/>
          </Node>
          <Node pos="r" depth="2" NCoef="0" IVar="-1" Cut="0.0000000000000000e+00" cType="1" res="-1.0326419025659561e-02" rms="4.6752986311912537e-01" purity="3.7284174561500549e-01" nType="-99"/>
        </Node>
      </Node>
    </BinaryTree>
    <BinaryTree type="DecisionTree" boostWeight="1.0000000000000000e+00" itree="9">
      <Node pos="s" depth="0" NCoef="0" IVar="1" Cut="2.6666253125000000e+05" cType="1" res="-3.5493785981088877e-03" rms="4.7509795427322388e-01" purity="5.0329279899597168e-01" nType="0">
        <Node pos="l" depth="1" NCoef="0" IVar="4" Cut="3.2448902130126953e+00" cType="1" res="0.0000000000000000e+00" rms="0.0000000000000000e+00" purity="5.1702696084976196e-01" nType="0">
          <Node pos="l" depth="2" NCoef="0" IVar="5" Cut="1.9444690942764282e+00" cType="1" res="8.8479006662964821e-03" rms="4.7734141349792480e-01" purity="5.2686029672622681e-01" nType="0">
            <Node pos="l" depth="3" NCoef="0" IVar="-1" Cut="0.0000000000000000e+00" cType="1" res="-1.6860816394910216e-03" rms="4.7792750597000122e-01" purity="5.1098936796188354e-01" nType="-99"/>
            <Node pos="r" depth="3" NCoef="0" IVar="-1" Cut="0.0000000000000000e+00" cType="1" res="3.6940567195415497e-02" rms="4.7464743256568909e-01" purity="5.6781816482543945e-01" nType="-99"/>
          </Node>
          <Node pos="r" depth="2" NCoef="0" IVar="-1" Cut="0.0000000000000000e+00" cType="1" res="-9.2503027990460396e-03" rms="4.6112069487571716e-01" purity="3.6752325296401978e-01" nType="-99"/>
        </Node>
        <Node pos="r" depth="1" NCoef="0" IVar="-1" Cut="0.0000000000000000e+00" cType="1" res="-7.9508967697620392e-02" rms="4.4041970372200012e-01" purity="3.1997057795524597e-01" nType="-99"/>
      </Node>
    </BinaryTree>
    <BinaryTree type="DecisionTree" boostWeight="1.0000000000000000e+00" itree="10">
      <Node pos="s" depth="0" NCoef="0" IVar="8" Cut="6.4312890625000000e+04" cType="1" res="-7.3056411929428577e-03" rms="4.7348791360855103e-01" purity="5.0103157758712769e-01" nType="0">
        <Node pos="l" depth="1" NCoef="0" IVar="7" Cut="6.0000000000000000e+00" cType="1" res="-2.5301020592451096e-02" rms="4.7486871480941772e-01" purity="4.0541180968284607e-01" nType="0">
          <Node pos="l" depth="2" NCoef="0" IVar="8" Cut="3.9984351562500000e+04" cType="1" res="0.0000000000000000e+00" rms="0.0000000000000000e+00" purity="3.8533115386962891e-01" nType="0">
            <Node pos="l" depth="3" NCoef="0" IVar="-1" Cut="0.0000000000000000e+00" cType="1" res="-4.5132316648960114e-02" rms="4.4267198443412781e-01" purity="2.8363606333732605e-01" nType="-99"/>
            <Node pos="r" depth="3" NCoef="0" IVar="-1" Cut="0.0000000000000000e+00" cType="1" res="-8.2121705636382103e-03" rms="4.8797520995140076e-01" purity="4.4504433870315552e-01" nType="-99"/>
          </Node>
          <Node pos="r" depth="2" NCoef="0" IVar="-1" Cut="0.0000000000000000e+00" cType="1" res="1.8791768699884415e-02" rms="4.8400416970252991e-01" purity="5.2428138256072998e-01" nType="-99"/>
        </Node>
        <Node pos="r" depth="1" NCoef="0" IVar="6" Cut="2.2438936233520508e+00" cType="1" res="1.3703127391636372e-02" rms="4.7100064158439636e-01" purity="6.1263149976730347e-01" nType="0">
          <Node pos="l" depth="2" NCoef="0" IVar="2" Cut="2.4305453491210938e+02" cType="1" res="0.0000000000000000e+00" rms="0.0000000000000000e+00" purity="6.2750935554504395e-01" nType="0">
            <Node pos="l" depth="3" NCoef="0" IVar="-1" Cut="0.0000000000000000e+00" cType="1" res="4.3317247182130814e-02" rms="4.5852887630462646e-01" purity="6.5410393476486206e-01" nType="-99"/>
            <Node pos="r" depth="3" NCoef="0" IVar="-1" Cut="0.0000000000000000e+00" cType="1" res="-1.3219372369349003e-02" rms="4.7772198915481567e-01" purity="5.7244193553924561e-01" nType="-99"/>
          </Node>
          <Node pos="r" depth="2" NCoef="0" IVar="2" Cut="2.1363169860839844e+02" cType="1" res="0.0000000000000000e+00" rms="0.0000000000000000e+00" purity="5.5874419212341309e-01" nType="0">
            <Node pos="l" depth="3" NCoef="0" IVar="-1" Cut="0.0000000000000000e+00" cType="1" res="-7.6310695149004459e-03" rms="4.8776826262474060e-01" purity="4.9765980243682861e-01" nType="-99"/>
            <Node pos="r" depth="3" NCoef="0" IVar="-1" Cut="0.0000000000000000e+00" cType="1" res="2.9144141823053360e-02" rms="4.8017844557762146e-01" purity="6.1141777038574219e-01" nType="-99"/>
          </Node>
        </Node>
      </Node>
    </BinaryTree>
    <BinaryTree type="DecisionTree" boostWeight="1.0000000000000000e+00" itree="11">
      <Node pos="s" depth="0" NCoef="0" IVar="4" Cut="3.2711985111236572e+00" cType="1" res="0.0000000000000000e+00" rms="0.0000000000000000e+00" purity="5.0203830003738403e-01" nType="0">
        <Node pos="l" depth="1" NCoef="0" IVar="5" Cut="-1.3464395999908447e+00" cType="1" res="-3.2041936647146940e-03" rms="4.7645640373229980e-01" purity="5.0769168138504028e-01" nType="0">
          <Node pos="l" depth="2" NCoef="0" IVar="0" Cut="2.0954495312500000e+05" cType="1" res="1.9669964909553528e-02" rms="4.7810605168342590e-01" purity="5.3700679540634155e-01" nType="0">
            <Node pos="l" depth="3" NCoef="0" IVar="-1" Cut="0.0000000000000000e+00" cType="1" res="9.0811876580119133e-03" rms="4.8122391104698181e-01" purity="5.1677775382995605e-01" nType="-99"/>
            <Node pos="r" depth="3" NCoef="0" IVar="-1" Cut="0.0000000000000000e+00" cType="1" res="8.3271004259586334e-02" rms="4.5797538757324219e-01" purity="6.4931702613830566e-01" nType="-99"/>
          </Node>
          <Node pos="r" depth="2" NCoef="0" IVar="5" Cut="1.0044372081756592e+00" cType="1" res="-1.6513144597411156e-02" rms="4.7498729825019836e-01" purity="4.9063518643379211e-01" nType="0">
            <Node pos="l" depth="3" NCoef="0" IVar="-1" Cut="0.0000000000000000e+00" cType="1" res="-1.0818637907505035e-02" rms="4.7284966707229614e-01" purity="4.4431659579277039e-01" nType="-99"/>
            <Node pos="r" depth="3" NCoef="0" IVar="-1" Cut="0.0000000000000000e+00" cType="1" res="-3.6070558708161116e-03" rms="4.7572240233421326e-01" purity="5.1723039150238037e-01" nType="-99"/>
          </Node>
        </Node>
        <Node pos="r" depth="1" NCoef="0" IVar="-1" Cut="0.0000000000000000e+00" cType="1" res="-5.6917186826467514e-02" rms="4.6349567174911499e-01" purity="3.9788275957107544e-01" nType="-99"/>
      </Node>
    </BinaryTree>
    <BinaryTree type="DecisionTree" boostWeight="1.0000000000000000e+00" itree="12">
      <Node pos="s" depth="0" NCoef="0" IVar="4" Cut="3.1872029304504395e+00" cType="1" res="-6.9947987794876099e-03" rms="4.7336149215698242e-01" purity="5.0190991163253784e-01" nType="0">
        <Node pos="l" depth="1" NCoef="0" IVar="4" Cut="1.1141067743301392e+00" cType="1" res="0.0000000000000000e+00" rms="0.0000000000000000e+00" purity="5.0961285829544067e-01" nType="0">
          <Node pos="l" depth="2" NCoef="0" IVar="8" Cut="9.8955531250000000e+04" cType="1" res="-2.5503357872366905e-02" rms="4.7180303931236267e-01" purity="4.5044991374015808e-01" nType="0">
            <Node pos="l" depth="3" NCoef="0" IVar="-1" Cut="0.0000000000000000e+00" cType="1" res="-5.0102349370718002e-02" rms="4.7039115428924561e-01" purity="3.9148455858230591e-01" nType="-99"/>
            <Node pos="r" depth="3" NCoef="0" IVar="-1" Cut="0.0000000000000000e+00" cType="1" res="2.0790388807654381e-02" rms="4.7327181696891785e-01" purity="6.3282161951065063e-01" nType="-99"/>
          </Node>
          <Node pos="r" depth="2" NCoef="0" IVar="6" Cut="1.6455383300781250e+00" cType="1" res="4.5440248213708401e-03" rms="4.7410547733306885e-01" purity="5.2998191118240356e-01" nType="0">
            <Node pos="l" depth="3" NCoef="0" IVar="-1" Cut="0.0000000000000000e+00" cType="1" res="1.5573848970234394e-02" rms="4.7035041451454163e-01" purity="5.5364632606506348e-01" nType="-99"/>
            <Node pos="r" depth="3" NCoef="0" IVar="-1" Cut="0.0000000000000000e+00" cType="1" res="-4.0991008281707764e-03" rms="4.8005396127700806e-01" purity="4.8751318454742432e-01" nType="-99"/>
          </Node>
        </Node>
        <Node pos="r" depth="1" NCoef="0" IVar="-1" Cut="0.0000000000000000e+00" cType="1" res="-1.0516162030398846e-02" rms="4.6650600433349609e-01" purity="4.0604498982429504e-01" nType="-99"/>
      </Node>
    </BinaryTree>
    <BinaryTree type="DecisionTree" boostWeight="1.0000000000000000e+00" itree="13">
      <Node pos="s" depth="0" NCoef="0" IVar="4" Cut="3.2324471473693848e+00" cType="1" res="-3.4943588543683290e-03" rms="4.7298324108123779e-01" purity="5.0284838676452637e-01" nType="0">
        <Node pos="l" depth="1" NCoef="0" IVar="5" Cut="2.5430574417114258e+00" cType="1" res="1.1246984358876944e-03" rms="4.7385436296463013e-01" purity="5.1264059543609619e-01" nType="0">
          <Node pos="l" depth="2" NCoef="0" IVar="5" Cut="-9.7600513696670532e-01" cType="1" res="0.0000000000000000e+00" rms="0.0000000000000000e+00" purity="4.9995127320289612e-01" nType="0">
            <Node pos="l" depth="3" NCoef="0" IVar="-1" Cut="0.0000000000000000e+00" cType="1" res="5.2305283024907112e-03" rms="4.7755193710327148e-01" purity="5.2762866020202637e-01" nType="-99"/>
            <Node pos="r" depth="3" NCoef="0" IVar="-1" Cut="0.0000000000000000e+00" cType="1" res="-1.2541565112769604e-02" rms="4.7129344940185547e-01" purity="4.7423762083053589e-01" nType="-99"/>
          </Node>
          <Node pos="r" depth="2" NCoef="0" IVar="6" Cut="1.5005740523338318e-01" cType="1" res="3.4438222646713257e-02" rms="4.6931159496307373e-01" purity="5.8208954334259033e-01" nType="0">
            <Node pos="l" depth="3" NCoef="0" IVar="-1" Cut="0.0000000000000000e+00" cType="1" res="7.8728072345256805e-02" rms="4.5292353630065918e-01" purity="6.8242287635803223e-01" nType="-99"/>
            <Node pos="r" depth="3" NCoef="0" IVar="-1" Cut="0.0000000000000000e+00" cType="1" res="1.0685533285140991e-02" rms="4.7476360201835632e-01" purity="5.3544956445693970e-01" nType="-99"/>
          </Node>
        </Node>
        <Node pos="r" depth="1" NCoef="0" IVar="-1" Cut="0.0000000000000000e+00" cType="1" res="-6.6897007636725903e-03" rms="4.5640948414802551e-01" purity="3.7002000212669373e-01" nType="-99"/>
      </Node>
    </BinaryTree>
    <BinaryTree type="DecisionTree" boostWeight="1.0000000000000000e+00" itree="14">
      <Node pos="s" depth="0" NCoef="0" IVar="5" Cut="7.4782788753509521e-01" cType="1" res="-2.1814724896103144e-03" rms="4.7427695989608765e-01" purity="5.0767999887466431e-01" nType="0">
        <Node pos="l" depth="1" NCoef="0" IVar="5" Cut="-3.6350929737091064e-01" cType="1" res="-1.1634011752903461e-02" rms="4.7536984086036682e-01" purity="4.9417915940284729e-01" nType="0">
          <Node pos="l" depth="2" NCoef="0" IVar="6" Cut="1.4912728965282440e-01" cType="1" res="-4.1901555960066617e-04" rms="4.7637179493904114e-01" purity="5.1464313268661499e-01" nType="0">
            <Node pos="l" depth="3" NCoef="0" IVar="-1" Cut="0.0000000000000000e+00" cType="1" res="-1.1110377497971058e-02" rms="4.7952353954315186e-01" purity="4.7833412885665894e-01" nType="-99"/>
            <Node pos="r" depth="3" NCoef="0" IVar="-1" Cut="0.0000000000000000e+00" cType="1" res="3.7039700895547867e-02" rms="4.6493673324584961e-01" purity="6.2852865457534790e-01" nType="-99"/>
          </Node>
          <Node pos="r" depth="2" NCoef="0" IVar="6" Cut="2.2439022064208984e+00" cType="1" res="-6.1928745359182358e-02" rms="4.6755352616310120e-01" purity="4.0240642428398132e-01" nType="0">
            <Node pos="l" depth="3" NCoef="0" IVar="-1" Cut="0.0000000000000000e+00" cType="1" res="-4.2965982109308243e-02" rms="4.7364407777786255e-01" purity="4.7086805105209351e-01" nType="-99"/>
            <Node pos="r" depth="3" NCoef="0" IVar="-1" Cut="0.0000000000000000e+00" cType="1" res="-1.4901286922395229e-02" rms="4.5863381028175354e-01" purity="3.2085028290748596e-01" nType="-99"/>
          </Node>
        </Node>
        <Node pos="r" depth="1" NCoef="0" IVar="6" Cut="-1.4963881671428680e-01" cType="1" res="9.9879018962383270e-03" rms="4.7258794307708740e-01" purity="5.2506124973297119e-01" nType="0">
          <Node pos="l" depth="2" NCoef="0" IVar="6" Cut="-1.8601937294006348e+00" cType="1" res="5.5569745600223541e-02" rms="4.5372241735458374e-01" purity="6.7229610681533813e-01" nType="0">
            <Node pos="l" depth="3" NCoef="0" IVar="-1" Cut="0.0000000000000000e+00" cType="1" res="4.2726020328700542e-03" rms="4.8100614547729492e-01" purity="5.9366768598556519e-01" nType="-99"/>
            <Node pos="r" depth="3" NCoef="0" IVar="-1" Cut="0.0000000000000000e+00" cType="1" res="9.6485346555709839e-02" rms="4.2262494564056396e-01" purity="7.4265158176422119e-01" nType="-99"/>
          </Node>
          <Node pos="r" depth="2" NCoef="0" IVar="7" Cut="5.0000000000000000e+00" cType="1" res="-4.0909657254815102e-03" rms="4.7738471627235413e-01" purity="4.7957602143287659e-01" nType="0">
            <Node pos="l" depth="3" NCoef="0" IVar="-1" Cut="0.0000000000000000e+00" cType="1" res="1.4881865121424198e-02" rms="4.7687676548957825e-01" purity="4.4609621167182922e-01" nType="-99"/>
            <Node pos="r" depth="3" NCoef="0" IVar="-1" Cut="0.0000000000000000e+00" cType="1" res="-2.0999019965529442e-02" rms="4.7721636295318604e-01" purity="5.1508498191833496e-01" nType="-99"/>
          </Node>
        </Node>
      </Node>
    </BinaryTree>
    <BinaryTree type="DecisionTree" boostWeight="1.0000000000000000e+00" itree="15">
      <Node pos="s" depth="0" NCoef="0" IVar="3" Cut="-8.2090318202972412e-01" cType="1" res="-1.2445424683392048e-02" rms="4.7237449884414673e-01" purity="4.9420732259750366e-01" nType="0">
        <Node pos="l" depth="1" NCoef="0" IVar="-1" Cut="0.0000000000000000e+00" cType="1" res="-3.5944662988185883e-02" rms="4.7790658473968506e-01" purity="3.9742204546928406e-01" nType="-99"/>
        <Node pos="r" depth="1" NCoef="0" IVar="4" Cut="3.1865909099578857e+00" cType="1" res="-9.0425675734877586e-03" rms="4.7173282504081726e-01" purity="5.0272518396377563e-01" nType="0">
          <Node pos="l" depth="2" NCoef="0" IVar="2" Cut="3.6409329223632812e+02" cType="1" res="-3.7430527154356241e-03" rms="4.7228354215621948e-01" purity="5.1289618015289307e-01" nType="0">
            <Node pos="l" depth="3" NCoef="0" IVar="-1" Cut="0.0000000000000000e+00" cType="1" res="-9.4873998314142227e-03" rms="4.7069424390792847e-01" purity="5.0523900985717773e-01" nType="-99"/>
            <Node pos="r" depth="3" NCoef="0" IVar="-1" Cut="0.0000000000000000e+00" cType="1" res="4.2339108884334564e-02" rms="4.8230770230293274e-01" purity="5.7195872068405151e-01" nType="-99"/>
          </Node>
          <Node pos="r" depth="2" NCoef="0" IVar="-1" Cut="0.0000000000000000e+00" cType="1" res="-3.9741075597703457e-03" rms="4.6126022934913635e-01" purity="3.8785448670387268e-01" nType="-99"/>
        </Node>
      </Node>
    </BinaryTree>
    <BinaryTree type="DecisionTree" boostWeight="1.0000000000000000e+00" itree="16">
      <Node pos="s" depth="0" NCoef="0" IVar="2" Cut="2.1069126892089844e+02" cType="1" res="0.0000000000000000e+00" rms="0.0000000000000000e+00" purity="4.9753710627555847e-01" nType="0">
        <Node pos="l" depth="1" NCoef="0" IVar="2" Cut="1.3910293579101562e+02" cType="1" res="1.4995326055213809e-03" rms="4.7113388776779175e-01" purity="5.0341969728469849e-01" nType="0">
          <Node pos="l" depth="2" NCoef="0" IVar="-1" Cut="0.0000000000000000e+00" cType="1" res="-1.0539533570408821e-02" rms="4.5379757881164551e-01" purity="3.7553656101226807e-01" nType="-99"/>
          <Node pos="r" depth="2" NCoef="0" IVar="2" Cut="1.8000935363769531e+02" cType="1" res="0.0000000000000000e+00" rms="0.0000000000000000e+00" purity="5.1775866746902466e-01" nType="0">
            <Node pos="l" depth="3" NCoef="0" IVar="-1" Cut="0.0000000000000000e+00" cType="1" res="2.5223499163985252e-02" rms="4.7034713625907898e-01" purity="5.3742009401321411e-01" nType="-99"/>
            <Node pos="r" depth="3" NCoef="0" IVar="-1" Cut="0.0000000000000000e+00" cType="1" res="-2.5366207584738731e-02" rms="4.7525462508201599e-01" purity="4.7832536697387695e-01" nType="-99"/>
          </Node>
        </Node>
        <Node pos="r" depth="1" NCoef="0" IVar="6" Cut="-2.5431575775146484e+00" cType="1" res="-2.1115517243742943e-02" rms="4.7782021760940552e-01" purity="4.8785179853439331e-01" nType="0">
          <Node pos="l" depth="2" NCoef="0" IVar="-1" Cut="0.0000000000000000e+00" cType="1" res="2.3299474269151688e-02" rms="4.8202547430992126e-01" purity="5.1977014541625977e-01" nType="-99"/>
          <Node pos="r" depth="2" NCoef="0" IVar="6" Cut="2.3294100761413574e+00" cType="1" res="-3.2698798924684525e-02" rms="4.7600072622299194e-01" purity="4.7902637720108032e-01" nType="0">
            <Node pos="l" depth="3" NCoef="0" IVar="-1" Cut="0.0000000000000000e+00" cType="1" res="-3.9656545966863632e-02" rms="4.7149562835693359e-01" purity="4.6551713347434998e-01" nType="-99"/>
            <Node pos="r" depth="3" NCoef="0" IVar="-1" Cut="0.0000000000000000e+00" cType="1" res="5.4621100425720215e-03" rms="4.8283019661903381e-01" purity="5.0651258230209351e-01" nType="-99"/>
          </Node>
        </Node>
      </Node>
    </BinaryTree>
    <BinaryTree type="DecisionTree" boostWeight="1.0000000000000000e+00" itree="17">
      <Node pos="s" depth="0" NCoef="0" IVar="4" Cut="3.2374687194824219e+00" cType="1" res="-9.8380390554666519e-03" rms="4.7107324004173279e-01" purity="4.9443131685256958e-01" nType="0">
        <Node pos="l" depth="1" NCoef="0" IVar="3" Cut="5.7149344682693481e-01" cType="1" res="-6.1345862923189998e-04" rms="4.7263947129249573e-01" purity="5.1009207963943481e-01" nType="0">
          <Node pos="l" depth="2" NCoef="0" IVar="0" Cut="1.3193843750000000e+05" cType="1" res="-3.4411489963531494e-02" rms="4.8252907395362854e-01" purity="4.1620299220085144e-01" nType="0">
            <Node pos="l" depth="3" NCoef="0" IVar="-1" Cut="0.0000000000000000e+00" cType="1" res="-2.2165944799780846e-02" rms="4.7326442599296570e-01" purity="3.6128309369087219e-01" nType="-99"/>
            <Node pos="r" depth="3" NCoef="0" IVar="-1" Cut="0.0000000000000000e+00" cType="1" res="8.1931659951806068e-03" rms="4.8802781105041504e-01" purity="4.7140532732009888e-01" nType="-99"/>
          </Node>
          <Node pos="r" depth="2" NCoef="0" IVar="6" Cut="-1.6456028223037720e+00" cType="1" res="4.9421056173741817e-03" rms="4.7076183557510376e-01" purity="5.2552515268325806e-01" nType="0">
            <Node pos="l" depth="3" NCoef="0" IVar="-1" Cut="0.0000000000000000e+00" cType="1" res="-2.0065795630216599e-02" rms="4.7889831662178040e-01" purity="4.8544895648956299e-01" nType="-99"/>
            <Node pos="r" depth="3" NCoef="0" IVar="-1" Cut="0.0000000000000000e+00" cType="1" res="1.2732225470244884e-02" rms="4.6634542942047119e-01" purity="5.4512339830398560e-01" nType="-99"/>
          </Node>
        </Node>
        <Node pos="r" depth="1" NCoef="0" IVar="-1" Cut="0.0000000000000000e+00" cType="1" res="-3.8546856958419085e-03" rms="4.3557012081146240e-01" purity="3.0142757296562195e-01" nType="-99"/>
      </Node>
    </BinaryTree>
    <BinaryTree type="DecisionTree" boostWeight="1.0000000000000000e+00" itree="18">
      <Node pos="s" depth="0" NCoef="0" IVar="6" Cut="1.6453557014465332e+00" cType="1" res="-6.2385611236095428e-03" rms="4.7344207763671875e-01" purity="4.9840375781059265e-01" nType="0">
        <Node pos="l" depth="1" NCoef="0" IVar="6" Cut="-1.3180245161056519e+00" cType="1" res="4.8210634849965572e-03" rms="4.6943911910057068e-01" purity="5.1976579427719116e-01" nType="0">
          <Node pos="l" depth="2" NCoef="0" IVar="3" Cut="1.2180286645889282e+00" cType="1" res="-8.8468538597226143e-03" rms="4.7871944308280945e-01" purity="4.7718629240989685e-01" nType="0">
            <Node pos="l" depth="3" NCoef="0" IVar="-1" Cut="0.0000000000000000e+00" cType="1" res="-2.3036425933241844e-02" rms="4.7734528779983521e-01" purity="3.9635747671127319e-01" nType="-99"/>
            <Node pos="r" depth="3" NCoef="0" IVar="-1" Cut="0.0000000000000000e+00" cType="1" res="-3.9744901005178690e-04" rms="4.7858184576034546e-01" purity="4.9431380629539490e-01" nType="-99"/>
          </Node>
          <Node pos="r" depth="2" NCoef="0" IVar="2" Cut="2.2004098510742188e+02" cType="1" res="2.2481111809611320e-02" rms="4.5656386017799377e-01" purity="5.7478195428848267e-01" nType="0">
            <Node pos="l" depth="3" NCoef="0" IVar="-1" Cut="0.0000000000000000e+00" cType="1" res="4.6592734754085541e-02" rms="4.5120355486869812e-01" purity="6.0376054048538208e-01" nType="-99"/>
            <Node pos="r" depth="3" NCoef="0" IVar="-1" Cut="0.0000000000000000e+00" cType="1" res="-3.7198260426521301e-02" rms="4.6778595447540283e-01" purity="4.9175426363945007e-01" nType="-99"/>
          </Node>
        </Node>
        <Node pos="r" depth="1" NCoef="0" IVar="7" Cut="6.0000000000000000e+00" cType="1" res="-2.6745222508907318e-02" rms="4.8009905219078064e-01" purity="4.5877507328987122e-01" nType="0">
          <Node pos="l" depth="2" NCoef="0" IVar="5" Cut="2.2436926364898682e+00" cType="1" res="-4.5696855522692204e-03" rms="4.7753956913948059e-01" purity="4.5532575249671936e-01" nType="0">
            <Node pos="l" depth="3" NCoef="0" IVar="-1" Cut="0.0000000000000000e+00" cType="1" res="-1.0846553370356560e-02" rms="4.7396418452262878e-01" purity="4.1795337200164795e-01" nType="-99"/>
            <Node pos="r" depth="3" NCoef="0" IVar="-1" Cut="0.0000000000000000e+00" cType="1" res="2.9132304713129997e-02" rms="4.8458305001258850e-01" purity="5.4512661695480347e-01" nType="-99"/>
          </Node>
          <Node pos="r" depth="2" NCoef="0" IVar="-1" Cut="0.0000000000000000e+00" cType="1" res="-6.9611286744475365e-03" rms="4.8095518350601196e-01" purity="4.7092023491859436e-01" nType="-99"/>
        </Node>
      </Node>
    </BinaryTree>
    <BinaryTree type="DecisionTree" boostWeight="1.0000000000000000e+00" itree="19">
      <Node pos="s" depth="0" NCoef="0" IVar="7" Cut="7.0000000000000000e+00" cType="1" res="-7.1882675401866436e-03" rms="4.7009587287902832e-01" purity="4.9877882003784180e-01" nType="0">
        <Node pos="l" depth="1" NCoef="0" IVar="4" Cut="3.1794118881225586e+00" cType="1" res="-3.7409856449812651e-03" rms="4.7027936577796936e-01" purity="4.8482677340507507e-01" nType="0">
          <Node pos="l" depth="2" NCoef="0" IVar="8" Cut="5.5541996093750000e+04" cType="1" res="4.0383818559348583e-03" rms="4.7218018770217896e-01" purity="4.9804943799972534e-01" nType="0">
            <Node pos="l" depth="3" NCoef="0" IVar="-1" Cut="0.0000000000000000e+00" cType="1" res="-5.8564725331962109e-03" rms="4.7255581617355347e-01" purity="3.9021587371826172e-01" nType="-99"/>
            <Node pos="r" depth="3" NCoef="0" IVar="-1" Cut="0.0000000000000000e+00" cType="1" res="1.2855077162384987e-02" rms="4.7169056534767151e-01" purity="5.9011381864547729e-01" nType="-99"/>
          </Node>
          <Node pos="r" depth="2" NCoef="0" IVar="-1" Cut="0.0000000000000000e+00" cType="1" res="-4.3254108168184757e-03" rms="4.4132849574089050e-01" purity="3.4483069181442261e-01" nType="-99"/>
        </Node>
        <Node pos="r" depth="1" NCoef="0" IVar="2" Cut="1.7832456970214844e+02" cType="1" res="-3.6229319870471954e-02" rms="4.6758118271827698e-01" purity="6.1630159616470337e-01" nType="0">
          <Node pos="l" depth="2" NCoef="0" IVar="-1" Cut="0.0000000000000000e+00" cType="1" res="-2.8595726937055588e-02" rms="4.6495214104652405e-01" purity="6.2857347726821899e-01" nType="-99"/>
          <Node pos="r" depth="2" NCoef="0" IVar="-1" Cut="0.0000000000000000e+00" cType="1" res="-5.5326797068119049e-02" rms="4.7088053822517395e-01" purity="5.9844809770584106e-01" nType="-99"/>
        </Node>
      </Node>
    </BinaryTree>
    <BinaryTree type="DecisionTree" boostWeight="1.0000000000000000e+00" itree="20">
      <Node pos="s" depth="0" NCoef="0" IVar="7" Cut="8.0000000000000000e+00" cType="1" res="-2.7447566390037537e-03" rms="4.7177243232727051e-01" purity="5.0506889820098877e-01" nType="0">
        <Node pos="l" depth="1" NCoef="0" IVar="7" Cut="5.0000000000000000e+00" cType="1" res="-7.1666133590042591e-04" rms="4.7134512662887573e-01" purity="5.0079369544982910e-01" nType="0">
          <Node pos="l" depth="2" NCoef="0" IVar="6" Cut="-2.5431694984436035e+00" cType="1" res="-1.1850541457533836e-02" rms="4.7422778606414795e-01" purity="4.1483545303344727e-01" nType="0">
            <Node pos="l" depth="3" NCoef="0" IVar="-1" Cut="0.0000000000000000e+00" cType="1" res="2.2323738783597946e-02" rms="4.7981956601142883e-01" purity="4.5661216974258423e-01" nType="-99"/>
            <Node pos="r" depth="3" NCoef="0" IVar="-1" Cut="0.0000000000000000e+00" cType="1" res="-1.7005508765578270e-02" rms="4.7204765677452087e-01" purity="4.0164226293563843e-01" nType="-99"/>
          </Node>
          <Node pos="r" depth="2" NCoef="0" IVar="6" Cut="-2.2437779903411865e+00" cType="1" res="8.6976531893014908e-03" rms="4.6962088346481323e-01" purity="5.7173150777816772e-01" nType="0">
            <Node pos="l" depth="3" NCoef="0" IVar="-1" Cut="0.0000000000000000e+00" cType="1" res="-4.4224936515092850e-02" rms="4.8795661330223083e-01" purity="4.8706462979316711e-01" nType="-99"/>
            <Node pos="r" depth="3" NCoef="0" IVar="-1" Cut="0.0000000000000000e+00" cType="1" res="1.7028443515300751e-02" rms="4.6453869342803955e-01" purity="5.9173524379730225e-01" nType="-99"/>
          </Node>
        </Node>
        <Node pos="r" depth="1" NCoef="0" IVar="-1" Cut="0.0000000000000000e+00" cType="1" res="-5.2356421947479248e-02" rms="4.6798363327980042e-01" purity="6.0440301895141602e-01" nType="-99"/>
      </Node>
    </BinaryTree>
    <BinaryTree type="DecisionTree" boostWeight="1.0000000000000000e+00" itree="21">
      <Node pos="s" depth="0" NCoef="0" IVar="3" Cut="5.2263122797012329e-01" cType="1" res="-1.5041548758745193e-02" rms="4.7046887874603271e-01" purity="4.8814642429351807e-01" nType="0">
        <Node pos="l" depth="1" NCoef="0" IVar="3" Cut="-9.8942923545837402e-01" cType="1" res="-5.0002168864011765e-02" rms="4.6843674778938293e-01" purity="3.8138002157211304e-01" nType="0">
          <Node pos="l" depth="2" NCoef="0" IVar="-1" Cut="0.0000000000000000e+00" cType="1" res="-1.3108409941196442e-02" rms="4.8180267214775085e-01" purity="4.1531300544738770e-01" nType="-99"/>
          <Node pos="r" depth="2" NCoef="0" IVar="-1" Cut="0.0000000000000000e+00" cType="1" res="-6.0780546627938747e-03" rms="4.5062860846519470e-01" purity="3.4499931335449219e-01" nType="-99"/>
        </Node>
        <Node pos="r" depth="1" NCoef="0" IVar="4" Cut="3.2300219535827637e+00" cType="1" res="-9.1267460957169533e-03" rms="4.7055497765541077e-01" purity="5.0620973110198975e-01" nType="0">
          <Node pos="l" depth="2" NCoef="0" IVar="3" Cut="9.5950727462768555e+00" cType="1" res="-2.0820475183427334e-03" rms="4.7096440196037292e-01" purity="5.1874256134033203e-01" nType="0">
            <Node pos="l" depth="3" NCoef="0" IVar="-1" Cut="0.0000000000000000e+00" cType="1" res="2.7870316989719868e-03" rms="4.7338274121284485e-01" purity="5.2434742450714111e-01" nType="-99"/>
            <Node pos="r" depth="3" NCoef="0" IVar="-1" Cut="0.0000000000000000e+00" cType="1" res="-3.7715587764978409e-02" rms="4.5710882544517517e-01" purity="4.8898479342460632e-01" nType="-99"/>
          </Node>
          <Node pos="r" depth="2" NCoef="0" IVar="-1" Cut="0.0000000000000000e+00" cType="1" res="-3.3039415720850229e-03" rms="4.5497027039527893e-01" purity="3.4053546190261841e-01" nType="-99"/>
        </Node>
      </Node>
    </BinaryTree>
    <BinaryTree type="DecisionTree" boostWeight="1.0000000000000000e+00" itree="22">
      <Node pos="s" depth="0" NCoef="0" IVar="4" Cut="2.9616189002990723e+00" cType="1" res="-5.9821130707859993e-03" rms="4.7222289443016052e-01" purity="4.9939364194869995e-01" nType="0">
        <Node pos="l" depth="1" NCoef="0" IVar="2" Cut="1.7760675048828125e+02" cType="1" res="3.4383172169327736e-03" rms="4.7155922651290894e-01" purity="5.0879591703414917e-01" nType="0">
          <Node pos="l" depth="2" NCoef="0" IVar="6" Cut="1.9447010755538940e+00" cType="1" res="1.2138680554926395e-02" rms="4.6679833531379700e-01" purity="5.2620178461074829e-01" nType="0">
            <Node pos="l" depth="3" NCoef="0" IVar="-1" Cut="0.0000000000000000e+00" cType="1" res="3.1811110675334930e-02" rms="4.6175703406333923e-01" purity="5.5681908130645752e-01" nType="-99"/>
            <Node pos="r" depth="3" NCoef="0" IVar="-1" Cut="0.0000000000000000e+00" cType="1" res="-2.9295383021235466e-02" rms="4.7762829065322876e-01" purity="4.4554156064987183e-01" nType="-99"/>
          </Node>
          <Node pos="r" depth="2" NCoef="0" IVar="2" Cut="2.8926858520507812e+02" cType="1" res="-2.7324103284627199e-03" rms="4.7481036186218262e-01" purity="4.9645087122917175e-01" nType="0">
            <Node pos="l" depth="3" NCoef="0" IVar="-1" Cut="0.0000000000000000e+00" cType="1" res="-1.1716425418853760e-02" rms="4.7306862473487854e-01" purity="4.7742977738380432e-01" nType="-99"/>
            <Node pos="r" depth="3" NCoef="0" IVar="-1" Cut="0.0000000000000000e+00" cType="1" res="1.9130500033497810e-02" rms="4.7774079442024231e-01" purity="5.3638809919357300e-01" nType="-99"/>
          </Node>
        </Node>
        <Node pos="r" depth="1" NCoef="0" IVar="7" Cut="6.0000000000000000e+00" cType="1" res="0.0000000000000000e+00" rms="0.0000000000000000e+00" purity="4.5007431507110596e-01" nType="0">
          <Node pos="l" depth="2" NCoef="0" IVar="6" Cut="1.0470722913742065e+00" cType="1" res="-3.3471148461103439e-02" rms="4.7369620203971863e-01" purity="4.3544268608093262e-01" nType="0">
            <Node pos="l" depth="3" NCoef="0" IVar="-1" Cut="0.0000000000000000e+00" cType="1" res="1.0647298768162727e-02" rms="4.7782972455024719e-01" purity="4.7954073548316956e-01" nType="-99"/>
            <Node pos="r" depth="3" NCoef="0" IVar="-1" Cut="0.0000000000000000e+00" cType="1" res="-2.0317515358328819e-02" rms="4.6265301108360291e-01" purity="3.8040211796760559e-01" nType="-99"/>
          </Node>
          <Node pos="r" depth="2" NCoef="0" IVar="-1" Cut="0.0000000000000000e+00" cType="1" res="-4.5662960037589073e-03" rms="4.6687546372413635e-01" purity="4.8137131333351135e-01" nType="-99"/>
        </Node>
      </Node>
    </BinaryTree>
    <BinaryTree type="DecisionTree" boostWeight="1.0000000000000000e+00" itree="23">
      <Node pos="s" depth="0" NCoef="0" IVar="4" Cut="3.2655649185180664e+00" cType="1" res="-1.1148043908178806e-02" rms="4.7035050392150879e-01" purity="4.9254435300827026e-01" nType="0">
        <Node pos="l" depth="1" NCoef="0" IVar="4" Cut="5.2172505855560303e-01" cType="1" res="0.0000000000000000e+00" rms="0.0000000000000000e+00" purity="5.0991982221603394e-01" nType="0">
          <Node pos="l" depth="2" NCoef="0" IVar="-1" Cut="0.0000000000000000e+00" cType="1" res="-4.1625376790761948e-02" rms="4.7823306918144226e-01" purity="4.5112842321395874e-01" nType="-99"/>
          <Node pos="r" depth="2" NCoef="0" IVar="6" Cut="-1.0471899509429932e+00" cType="1" res="1.0637588566169143e-03" rms="4.7213512659072876e-01" purity="5.1258927583694458e-01" nType="0">
            <Node pos="l" depth="3" NCoef="0" IVar="-1" Cut="0.0000000000000000e+00" cType="1" res="-5.5952947586774826e-03" rms="4.7711646556854248e-01" purity="4.8672372102737427e-01" nType="-99"/>
            <Node pos="r" depth="3" NCoef="0" IVar="-1" Cut="0.0000000000000000e+00" cType="1" res="7.7051203697919846e-03" rms="4.6862924098968506e-01" purity="5.3015744686126709e-01" nType="-99"/>
          </Node>
        </Node>
        <Node pos="r" depth="1" NCoef="0" IVar="-1" Cut="0.0000000000000000e+00" cType="1" res="-3.9364607073366642e-03" rms="4.1962847113609314e-01" purity="2.6890808343887329e-01" nType="-99"/>
      </Node>
    </BinaryTree>
    <BinaryTree type="DecisionTree" boostWeight="1.0000000000000000e+00" itree="24">
      <Node pos="s" depth="0" NCoef="0" IVar="1" Cut="2.6666246875000000e+05" cType="1" res="3.3170345705002546e-03" rms="4.7270435094833374e-01" purity="5.0629049539566040e-01" nType="0">
        <Node pos="l" depth="1" NCoef="0" IVar="1" Cut="1.7586585937500000e+05" cType="1" res="5.7473122142255306e-03" rms="4.7493514418601990e-01" purity="5.2078062295913696e-01" nType="0">
          <Node pos="l" depth="2" NCoef="0" IVar="1" Cut="1.2798016406250000e+05" cType="1" res="1.4213619753718376e-02" rms="4.7908878326416016e-01" purity="5.4380822181701660e-01" nType="0">
            <Node pos="l" depth="3" NCoef="0" IVar="-1" Cut="0.0000000000000000e+00" cType="1" res="-2.0156415179371834e-02" rms="4.8602634668350220e-01" purity="5.0269937515258789e-01" nType="-99"/>
            <Node pos="r" depth="3" NCoef="0" IVar="-1" Cut="0.0000000000000000e+00" cType="1" res="2.7963498607277870e-02" rms="4.7612619400024414e-01" purity="5.5758666992187500e-01" nType="-99"/>
          </Node>
          <Node pos="r" depth="2" NCoef="0" IVar="9" Cut="5.6407613281250000e+04" cType="1" res="-1.8946116790175438e-02" rms="4.6172153949737549e-01" purity="4.5361676812171936e-01" nType="0">
            <Node pos="l" depth="3" NCoef="0" IVar="-1" Cut="0.0000000000000000e+00" cType="1" res="-4.8097971826791763e-02" rms="4.6601387858390808e-01" purity="3.6453202366828918e-01" nType="-99"/>
            <Node pos="r" depth="3" NCoef="0" IVar="-1" Cut="0.0000000000000000e+00" cType="1" res="2.6755657047033310e-02" rms="4.4797825813293457e-01" purity="6.7595887184143066e-01" nType="-99"/>
          </Node>
        </Node>
        <Node pos="r" depth="1" NCoef="0" IVar="-1" Cut="0.0000000000000000e+00" cType="1" res="-3.0126068741083145e-02" rms="4.4267272949218750e-01" purity="3.2472500205039978e-01" nType="-99"/>
      </Node>
    </BinaryTree>
    <BinaryTree type="DecisionTree" boostWeight="1.0000000000000000e+00" itree="25">
      <Node pos="s" depth="0" NCoef="0" IVar="4" Cut="3.0043828487396240e+00" cType="1" res="1.5649066772311926e-03" rms="4.7167792916297913e-01" purity="5.0847530364990234e-01" nType="0">
        <Node pos="l" depth="1" NCoef="0" IVar="4" Cut="2.8649203777313232e+00" cType="1" res="8.8483169674873352e-03" rms="4.7072422504425049e-01" purity="5.1731944084167480e-01" nType="0">
          <Node pos="l" depth="2" NCoef="0" IVar="3" Cut="1.2921047210693359e+01" cType="1" res="6.6431965678930283e-03" rms="4.7113004326820374e-01" purity="5.1235151290893555e-01" nType="0">
            <Node pos="l" depth="3" NCoef="0" IVar="-1" Cut="0.0000000000000000e+00" cType="1" res="8.5995513945817947e-03" rms="4.7218847274780273e-01" purity="5.1778352260589600e-01" nType="-99"/>
            <Node pos="r" depth="3" NCoef="0" IVar="-1" Cut="0.0000000000000000e+00" cType="1" res="-3.8865461945533752e-02" rms="4.5238101482391357e-01" purity="4.2469659447669983e-01" nType="-99"/>
          </Node>
          <Node pos="r" depth="2" NCoef="0" IVar="-1" Cut="0.0000000000000000e+00" cType="1" res="5.3305622190237045e-02" rms="4.6248126029968262e-01" purity="5.9912413358688354e-01" nType="-99"/>
        </Node>
        <Node pos="r" depth="1" NCoef="0" IVar="6" Cut="1.9438661336898804e+00" cType="1" res="-4.1976112872362137e-02" rms="4.7501584887504578e-01" purity="4.5560416579246521e-01" nType="0">
          <Node pos="l" depth="2" NCoef="0" IVar="6" Cut="-1.9307434558868408e+00" cType="1" res="-1.0341482236981392e-02" rms="4.7392076253890991e-01" purity="4.9990579485893250e-01" nType="0">
            <Node pos="l" depth="3" NCoef="0" IVar="-1" Cut="0.0000000000000000e+00" cType="1" res="-6.7205703817307949e-03" rms="4.8277550935745239e-01" purity="4.4990009069442749e-01" nType="-99"/>
            <Node pos="r" depth="3" NCoef="0" IVar="-1" Cut="0.0000000000000000e+00" cType="1" res="-1.2909793294966221e-02" rms="4.6575990319252014e-01" purity="5.4502272605895996e-01" nType="-99"/>
          </Node>
          <Node pos="r" depth="2" NCoef="0" IVar="-1" Cut="0.0000000000000000e+00" cType="1" res="-6.6750072874128819e-03" rms="4.7166776657104492e-01" purity="3.7590688467025757e-01" nType="-99"/>
        </Node>
      </Node>
    </BinaryTree>
    <BinaryTree type="DecisionTree" boostWeight="1.0000000000000000e+00" itree="26">
      <Node pos="s" depth="0" NCoef="0" IVar="4" Cut="3.2374687194824219e+00" cType="1" res="-2.6803086511790752e-03" rms="4.6848431229591370e-01" purity="5.0674045085906982e-01" nType="0">
        <Node pos="l" depth="1" NCoef="0" IVar="6" Cut="7.4796462059020996e-01" cType="1" res="2.8099399060010910e-03" rms="4.6981236338615417e-01" purity="5.1926213502883911e-01" nType="0">
          <Node pos="l" depth="2" NCoef="0" IVar="4" Cut="2.9378330707550049e+00" cType="1" res="1.2384703382849693e-02" rms="4.6685558557510376e-01" purity="5.3796172142028809e-01" nType="0">
            <Node pos="l" depth="3" NCoef="0" IVar="-1" Cut="0.0000000000000000e+00" cType="1" res="8.4765180945396423e-03" rms="4.6667948365211487e-01" purity="5.2938950061798096e-01" nType="-99"/>
            <Node pos="r" depth="3" NCoef="0" IVar="-1" Cut="0.0000000000000000e+00" cType="1" res="4.4301155954599380e-02" rms="4.6690645813941956e-01" purity="6.0617572069168091e-01" nType="-99"/>
          </Node>
          <Node pos="r" depth="2" NCoef="0" IVar="7" Cut="5.0000000000000000e+00" cType="1" res="-9.9160922691226006e-03" rms="4.7340363264083862e-01" purity="4.9441790580749512e-01" nType="0">
            <Node pos="l" depth="3" NCoef="0" IVar="-1" Cut="0.0000000000000000e+00" cType="1" res="4.4349776580929756e-03" rms="4.7781336307525635e-01" purity="4.3772679567337036e-01" nType="-99"/>
            <Node pos="r" depth="3" NCoef="0" IVar="-1" Cut="0.0000000000000000e+00" cType="1" res="-1.1951332911849022e-02" rms="4.6909442543983459e-01" purity="5.4396396875381470e-01" nType="-99"/>
          </Node>
        </Node>
        <Node pos="r" depth="1" NCoef="0" IVar="-1" Cut="0.0000000000000000e+00" cType="1" res="-3.5101498942822218e-03" rms="4.4486427307128906e-01" purity="3.4463965892791748e-01" nType="-99"/>
      </Node>
    </BinaryTree>
    <BinaryTree type="DecisionTree" boostWeight="1.0000000000000000e+00" itree="27">
      <Node pos="s" depth="0" NCoef="0" IVar="4" Cut="2.6900475025177002e+00" cType="1" res="-8.2605434581637383e-03" rms="4.6911740303039551e-01" purity="5.0183153152465820e-01" nType="0">
        <Node pos="l" depth="1" NCoef="0" IVar="2" Cut="3.4138394165039062e+02" cType="1" res="1.0265400633215904e-03" rms="4.6926814317703247e-01" purity="5.0695711374282837e-01" nType="0">
          <Node pos="l" depth="2" NCoef="0" IVar="2" Cut="1.5402731323242188e+02" cType="1" res="-2.2124217357486486e-03" rms="4.6857973933219910e-01" purity="4.9867615103721619e-01" nType="0">
            <Node pos="l" depth="3" NCoef="0" IVar="-1" Cut="0.0000000000000000e+00" cType="1" res="-2.7478404343128204e-02" rms="4.6487608551979065e-01" purity="4.5770427584648132e-01" nType="-99"/>
            <Node pos="r" depth="3" NCoef="0" IVar="-1" Cut="0.0000000000000000e+00" cType="1" res="3.2524967100471258e-03" rms="4.6919652819633484e-01" purity="5.0748848915100098e-01" nType="-99"/>
          </Node>
          <Node pos="r" depth="2" NCoef="0" IVar="8" Cut="7.8797164062500000e+04" cType="1" res="0.0000000000000000e+00" rms="0.0000000000000000e+00" purity="5.6334298849105835e-01" nType="0">
            <Node pos="l" depth="3" NCoef="0" IVar="-1" Cut="0.0000000000000000e+00" cType="1" res="8.7020657956600189e-03" rms="4.8038232326507568e-01" purity="4.6986854076385498e-01" nType="-99"/>
            <Node pos="r" depth="3" NCoef="0" IVar="-1" Cut="0.0000000000000000e+00" cType="1" res="4.3925717473030090e-02" rms="4.6547231078147888e-01" purity="6.5844178199768066e-01" nType="-99"/>
          </Node>
        </Node>
        <Node pos="r" depth="1" NCoef="0" IVar="6" Cut="2.2438957691192627e+00" cType="1" res="-3.4857492893934250e-02" rms="4.6766617894172668e-01" purity="4.8715254664421082e-01" nType="0">
          <Node pos="l" depth="2" NCoef="0" IVar="8" Cut="5.3562195312500000e+04" cType="1" res="-8.9704180136322975e-03" rms="4.6627214550971985e-01" purity="5.2867549657821655e-01" nType="0">
            <Node pos="l" depth="3" NCoef="0" IVar="-1" Cut="0.0000000000000000e+00" cType="1" res="-7.6044509187340736e-03" rms="4.6365383267402649e-01" purity="3.6439853906631470e-01" nType="-99"/>
            <Node pos="r" depth="3" NCoef="0" IVar="-1" Cut="0.0000000000000000e+00" cType="1" res="8.3522340282797813e-03" rms="4.6684819459915161e-01" purity="6.1720526218414307e-01" nType="-99"/>
          </Node>
          <Node pos="r" depth="2" NCoef="0" IVar="-1" Cut="0.0000000000000000e+00" cType="1" res="-5.3287171758711338e-03" rms="4.6558535099029541e-01" purity="3.9423495531082153e-01" nType="-99"/>
        </Node>
      </Node>
    </BinaryTree>
    <BinaryTree type="DecisionTree" boostWeight="1.0000000000000000e+00" itree="28">
      <Node pos="s" depth="0" NCoef="0" IVar="4" Cut="3.2757308483123779e+00" cType="1" res="-1.2698650360107422e-02" rms="4.6893855929374695e-01" purity="5.0052320957183838e-01" nType="0">
        <Node pos="l" depth="1" NCoef="0" IVar="3" Cut="2.2954990863800049e+00" cType="1" res="-9.3750171363353729e-03" rms="4.6922639012336731e-01" purity="5.0936681032180786e-01" nType="0">
          <Node pos="l" depth="2" NCoef="0" IVar="1" Cut="1.6465109375000000e+05" cType="1" res="-2.4372996762394905e-02" rms="4.8509019613265991e-01" purity="4.6259090304374695e-01" nType="0">
            <Node pos="l" depth="3" NCoef="0" IVar="-1" Cut="0.0000000000000000e+00" cType="1" res="-3.7204042077064514e-02" rms="4.8916250467300415e-01" purity="4.6162465214729309e-01" nType="-99"/>
            <Node pos="r" depth="3" NCoef="0" IVar="-1" Cut="0.0000000000000000e+00" cType="1" res="7.5517785735428333e-03" rms="4.7388222813606262e-01" purity="4.6486994624137878e-01" nType="-99"/>
          </Node>
          <Node pos="r" depth="2" NCoef="0" IVar="6" Cut="-2.5431618690490723e+00" cType="1" res="-3.9739138446748257e-03" rms="4.6326160430908203e-01" purity="5.2621179819107056e-01" nType="0">
            <Node pos="l" depth="3" NCoef="0" IVar="-1" Cut="0.0000000000000000e+00" cType="1" res="1.5515739098191261e-02" rms="4.7999319434165955e-01" purity="5.1341849565505981e-01" nType="-99"/>
            <Node pos="r" depth="3" NCoef="0" IVar="-1" Cut="0.0000000000000000e+00" cType="1" res="-6.3888826407492161e-03" rms="4.5895871520042419e-01" purity="5.2935183048248291e-01" nType="-99"/>
          </Node>
        </Node>
        <Node pos="r" depth="1" NCoef="0" IVar="-1" Cut="0.0000000000000000e+00" cType="1" res="-3.9224294014275074e-03" rms="4.6089252829551697e-01" purity="3.5685819387435913e-01" nType="-99"/>
      </Node>
    </BinaryTree>
    <BinaryTree type="DecisionTree" boostWeight="1.0000000000000000e+00" itree="29">
      <Node pos="s" depth="0" NCoef="0" IVar="0" Cut="2.2093867187500000e+05" cType="1" res="-8.0225206911563873e-03" rms="4.7125166654586792e-01" purity="4.9977660179138184e-01" nType="0">
        <Node pos="l" depth="1" NCoef="0" IVar="0" Cut="1.5844254687500000e+05" cType="1" res="-1.2064799666404724e-02" rms="4.7449222207069397e-01" purity="4.8370969295501709e-01" nType="0">
          <Node pos="l" depth="2" NCoef="0" IVar="7" Cut="7.0000000000000000e+00" cType="1" res="-1.3132261112332344e-02" rms="3.6612549424171448e-01" purity="4.5539456605911255e-01" nType="0">
            <Node pos="l" depth="3" NCoef="0" IVar="-1" Cut="0.0000000000000000e+00" cType="1" res="-8.1723975017666817e-03" rms="4.7734525799751282e-01" purity="4.5121541619300842e-01" nType="-99"/>
            <Node pos="r" depth="3" NCoef="0" IVar="-1" Cut="0.0000000000000000e+00" cType="1" res="-9.6597194671630859e-02" rms="4.8747605085372925e-01" purity="4.9951514601707458e-01" nType="-99"/>
          </Node>
          <Node pos="r" depth="2" NCoef="0" IVar="1" Cut="1.8955246875000000e+05" cType="1" res="1.7933921888470650e-02" rms="4.6496972441673279e-01" purity="5.3783148527145386e-01" nType="0">
            <Node pos="l" depth="3" NCoef="0" IVar="-1" Cut="0.0000000000000000e+00" cType="1" res="3.2216649502515793e-02" rms="4.6920984983444214e-01" purity="5.9762752056121826e-01" nType="-99"/>
            <Node pos="r" depth="3" NCoef="0" IVar="-1" Cut="0.0000000000000000e+00" cType="1" res="-1.9272860139608383e-02" rms="4.5212125778198242e-01" purity="3.8307836651802063e-01" nType="-99"/>
          </Node>
        </Node>
        <Node pos="r" depth="1" NCoef="0" IVar="8" Cut="7.3752539062500000e+04" cType="1" res="0.0000000000000000e+00" rms="0.0000000000000000e+00" purity="6.0838907957077026e-01" nType="0">
          <Node pos="l" depth="2" NCoef="0" IVar="-1" Cut="0.0000000000000000e+00" cType="1" res="6.2715828418731689e-02" rms="4.6703222393989563e-01" purity="4.8202458024024963e-01" nType="-99"/>
          <Node pos="r" depth="2" NCoef="0" IVar="-1" Cut="0.0000000000000000e+00" cType="1" res="2.6836481411010027e-03" rms="4.3149790167808533e-01" purity="7.0602232217788696e-01" nType="-99"/>
        </Node>
      </Node>
    </BinaryTree>
    <BinaryTree type="DecisionTree" boostWeight="1.0000000000000000e+00" itree="30">
      <Node pos="s" depth="0" NCoef="0" IVar="4" Cut="2.9684450626373291e+00" cType="1" res="-1.0616063140332699e-02" rms="4.7240918874740601e-01" purity="4.9811461567878723e-01" nType="0">
        <Node pos="l" depth="1" NCoef="0" IVar="2" Cut="4.8534887695312500e+02" cType="1" res="-3.1997154001146555e-03" rms="4.7125986218452454e-01" purity="5.0653487443923950e-01" nType="0">
          <Node pos="l" depth="2" NCoef="0" IVar="2" Cut="3.2494375610351562e+02" cType="1" res="-5.0563537515699863e-03" rms="4.7048130631446838e-01" purity="5.0032913684844971e-01" nType="0">
            <Node pos="l" depth="3" NCoef="0" IVar="-1" Cut="0.0000000000000000e+00" cType="1" res="-1.8770844908431172e-03" rms="4.6951144933700562e-01" purity="5.0004178285598755e-01" nType="-99"/>
            <Node pos="r" depth="3" NCoef="0" IVar="-1" Cut="0.0000000000000000e+00" cType="1" res="-3.7969544529914856e-02" rms="4.7863429784774780e-01" purity="5.0303471088409424e-01" nType="-99"/>
          </Node>
          <Node pos="r" depth="2" NCoef="0" IVar="-1" Cut="0.0000000000000000e+00" cType="1" res="3.0113635584712029e-02" rms="4.8323589563369751e-01" purity="6.1225003004074097e-01" nType="-99"/>
        </Node>
        <Node pos="r" depth="1" NCoef="0" IVar="6" Cut="2.2437329292297363e+00" cType="1" res="-4.9702957272529602e-02" rms="4.7651743888854980e-01" purity="4.5373687148094177e-01" nType="0">
          <Node pos="l" depth="2" NCoef="0" IVar="6" Cut="-8.3382695913314819e-01" cType="1" res="0.0000000000000000e+00" rms="0.0000000000000000e+00" purity="5.0121438503265381e-01" nType="0">
            <Node pos="l" depth="3" NCoef="0" IVar="-1" Cut="0.0000000000000000e+00" cType="1" res="-2.0006323233246803e-02" rms="4.7657889127731323e-01" purity="4.7771036624908447e-01" nType="-99"/>
            <Node pos="r" depth="3" NCoef="0" IVar="-1" Cut="0.0000000000000000e+00" cType="1" res="1.6593761974945664e-03" rms="4.5985773205757141e-01" purity="5.3781592845916748e-01" nType="-99"/>
          </Node>
          <Node pos="r" depth="2" NCoef="0" IVar="-1" Cut="0.0000000000000000e+00" cType="1" res="-5.2091339603066444e-03" rms="4.7937706112861633e-01" purity="3.5156035423278809e-01" nType="-99"/>
        </Node>
      </Node>
    </BinaryTree>
    <BinaryTree type="DecisionTree" boostWeight="1.0000000000000000e+00" itree="31">
      <Node pos="s" depth="0" NCoef="0" IVar="4" Cut="2.9810876846313477e+00" cType="1" res="-4.6517150476574898e-03" rms="4.7132527828216553e-01" purity="5.0021231174468994e-01" nType="0">
        <Node pos="l" depth="1" NCoef="0" IVar="8" Cut="7.3769148437500000e+04" cType="1" res="2.5488676037639380e-03" rms="4.7102370858192444e-01" purity="5.1039582490921021e-01" nType="0">
          <Node pos="l" depth="2" NCoef="0" IVar="8" Cut="3.6767851562500000e+04" cType="1" res="1.0307665914297104e-02" rms="4.7452050447463989e-01" purity="4.4595918059349060e-01" nType="0">
            <Node pos="l" depth="3" NCoef="0" IVar="-1" Cut="0.0000000000000000e+00" cType="1" res="-3.4925237298011780e-02" rms="4.3930244445800781e-01" purity="2.7743396162986755e-01" nType="-99"/>
            <Node pos="r" depth="3" NCoef="0" IVar="-1" Cut="0.0000000000000000e+00" cType="1" res="1.9264288246631622e-02" rms="4.8197323083877563e-01" purity="4.8686051368713379e-01" nType="-99"/>
          </Node>
          <Node pos="r" depth="2" NCoef="0" IVar="4" Cut="1.6052248477935791e+00" cType="1" res="-1.2108969502151012e-02" rms="4.6399185061454773e-01" purity="6.3212889432907104e-01" nType="0">
            <Node pos="l" depth="3" NCoef="0" IVar="-1" Cut="0.0000000000000000e+00" cType="1" res="4.1086361743509769e-03" rms="4.6710419654846191e-01" purity="6.0354810953140259e-01" nType="-99"/>
            <Node pos="r" depth="3" NCoef="0" IVar="-1" Cut="0.0000000000000000e+00" cType="1" res="-2.9396953061223030e-02" rms="4.6029269695281982e-01" purity="6.6103893518447876e-01" nType="-99"/>
          </Node>
        </Node>
        <Node pos="r" depth="1" NCoef="0" IVar="6" Cut="1.3463442325592041e+00" cType="1" res="-4.3623149394989014e-02" rms="4.7104784846305847e-01" purity="4.4509631395339966e-01" nType="0">
          <Node pos="l" depth="2" NCoef="0" IVar="2" Cut="1.8732751464843750e+02" cType="1" res="5.0969212315976620e-04" rms="4.6842062473297119e-01" purity="5.0250655412673950e-01" nType="0">
            <Node pos="l" depth="3" NCoef="0" IVar="-1" Cut="0.0000000000000000e+00" cType="1" res="2.5718905031681061e-02" rms="4.6042153239250183e-01" purity="5.3346800804138184e-01" nType="-99"/>
            <Node pos="r" depth="3" NCoef="0" IVar="-1" Cut="0.0000000000000000e+00" cType="1" res="-2.0419342443346977e-02" rms="4.7485449910163879e-01" purity="4.7348567843437195e-01" nType="-99"/>
          </Node>
          <Node pos="r" depth="2" NCoef="0" IVar="-1" Cut="0.0000000000000000e+00" cType="1" res="-4.8246975056827068e-03" rms="4.6808558702468872e-01" purity="3.6838579177856445e-01" nType="-99"/>
        </Node>
      </Node>
    </BinaryTree>
    <BinaryTree type="DecisionTree" boostWeight="1.0000000000000000e+00" itree="32">
      <Node pos="s" depth="0" NCoef="0" IVar="4" Cut="3.1917355060577393e+00" cType="1" res="-2.8619540389627218e-03" rms="4.6809786558151245e-01" purity="5.0274646282196045e-01" nType="0">
        <Node pos="l" depth="1" NCoef="0" IVar="6" Cut="-2.2439780235290527e+00" cType="1" res="3.4395724069327116e-03" rms="4.6997034549713135e-01" purity="5.1661205291748047e-01" nType="0">
          <Node pos="l" depth="2" NCoef="0" IVar="5" Cut="1.4930267632007599e-01" cType="1" res="-1.5200695954263210e-02" rms="4.7559189796447754e-01" purity="4.7203323245048523e-01" nType="0">
            <Node pos="l" depth="3" NCoef="0" IVar="-1" Cut="0.0000000000000000e+00" cType="1" res="-8.4605664014816284e-03" rms="4.7639489173889160e-01" purity="4.6642258763313293e-01" nType="-99"/>
            <Node pos="r" depth="3" NCoef="0" IVar="-1" Cut="0.0000000000000000e+00" cType="1" res="-4.6450596302747726e-02" rms="4.7091758251190186e-01" purity="4.9574193358421326e-01" nType="-99"/>
          </Node>
          <Node pos="r" depth="2" NCoef="0" IVar="2" Cut="2.1264164733886719e+02" cType="1" res="9.5559535548090935e-03" rms="4.6794927120208740e-01" purity="5.3123962879180908e-01" nType="0">
            <Node pos="l" depth="3" NCoef="0" IVar="-1" Cut="0.0000000000000000e+00" cType="1" res="1.7416056245565414e-02" rms="4.6360233426094055e-01" purity="5.4625934362411499e-01" nType="-99"/>
            <Node pos="r" depth="3" NCoef="0" IVar="-1" Cut="0.0000000000000000e+00" cType="1" res="-4.0858490392565727e-03" rms="4.7563561797142029e-01" purity="5.0310748815536499e-01" nType="-99"/>
          </Node>
        </Node>
        <Node pos="r" depth="1" NCoef="0" IVar="-1" Cut="0.0000000000000000e+00" cType="1" res="-3.9626443758606911e-03" rms="4.4049507379531860e-01" purity="3.4754866361618042e-01" nType="-99"/>
      </Node>
    </BinaryTree>
    <BinaryTree type="DecisionTree" boostWeight="1.0000000000000000e+00" itree="33">
      <Node pos="s" depth="0" NCoef="0" IVar="4" Cut="3.2711985111236572e+00" cType="1" res="-8.5050454363226891e-03" rms="4.6983879804611206e-01" purity="4.9876055121421814e-01" nType="0">
        <Node pos="l" depth="1" NCoef="0" IVar="6" Cut="2.5429956912994385e+00" cType="1" res="0.0000000000000000e+00" rms="0.0000000000000000e+00" purity="5.0818008184432983e-01" nType="0">
          <Node pos="l" depth="2" NCoef="0" IVar="7" Cut="7.0000000000000000e+00" cType="1" res="0.0000000000000000e+00" rms="0.0000000000000000e+00" purity="5.1912820339202881e-01" nType="0">
            <Node pos="l" depth="3" NCoef="0" IVar="-1" Cut="0.0000000000000000e+00" cType="1" res="1.9771063234657049e-03" rms="4.6979305148124695e-01" purity="5.0710380077362061e-01" nType="-99"/>
            <Node pos="r" depth="3" NCoef="0" IVar="-1" Cut="0.0000000000000000e+00" cType="1" res="-2.8152601793408394e-02" rms="4.6072429418563843e-01" purity="6.1207401752471924e-01" nType="-99"/>
          </Node>
          <Node pos="r" depth="2" NCoef="0" IVar="8" Cut="5.9273132812500000e+04" cType="1" res="-2.2328075021505356e-02" rms="4.7754931449890137e-01" purity="4.6061217784881592e-01" nType="0">
            <Node pos="l" depth="3" NCoef="0" IVar="-1" Cut="0.0000000000000000e+00" cType="1" res="4.0240716189146042e-03" rms="4.7332185506820679e-01" purity="4.0646031498908997e-01" nType="-99"/>
            <Node pos="r" depth="3" NCoef="0" IVar="-1" Cut="0.0000000000000000e+00" cType="1" res="-1.9721513614058495e-02" rms="4.8087656497955322e-01" purity="5.3319585323333740e-01" nType="-99"/>
          </Node>
        </Node>
        <Node pos="r" depth="1" NCoef="0" IVar="-1" Cut="0.0000000000000000e+00" cType="1" res="-4.0434487164020538e-03" rms="4.5358663797378540e-01" purity="3.4128245711326599e-01" nType="-99"/>
      </Node>
    </BinaryTree>
    <BinaryTree type="DecisionTree" boostWeight="1.0000000000000000e+00" itree="34">
      <Node pos="s" depth="0" NCoef="0" IVar="4" Cut="3.2306339740753174e+00" cType="1" res="-1.1195102706551552e-02" rms="4.7027647495269775e-01" purity="4.9549359083175659e-01" nType="0">
        <Node pos="l" depth="1" NCoef="0" IVar="4" Cut="2.3296997547149658e+00" cType="1" res="-7.5134267099201679e-03" rms="4.7098997235298157e-01" purity="5.0642424821853638e-01" nType="0">
          <Node pos="l" depth="2" NCoef="0" IVar="1" Cut="2.6483275000000000e+05" cType="1" res="-1.3408678583800793e-02" rms="4.7072592377662659e-01" purity="4.8089855909347534e-01" nType="0">
            <Node pos="l" depth="3" NCoef="0" IVar="-1" Cut="0.0000000000000000e+00" cType="1" res="-1.8298765644431114e-02" rms="4.7133108973503113e-01" purity="4.9185889959335327e-01" nType="-99"/>
            <Node pos="r" depth="3" NCoef="0" IVar="-1" Cut="0.0000000000000000e+00" cType="1" res="3.0555611476302147e-02" rms="4.6160781383514404e-01" purity="3.4370404481887817e-01" nType="-99"/>
          </Node>
          <Node pos="r" depth="2" NCoef="0" IVar="6" Cut="2.5429036617279053e+00" cType="1" res="4.4500539079308510e-03" rms="4.7129875421524048e-01" purity="5.5822455883026123e-01" nType="0">
            <Node pos="l" depth="3" NCoef="0" IVar="-1" Cut="0.0000000000000000e+00" cType="1" res="-5.3768190555274487e-03" rms="4.6698647737503052e-01" purity="5.5721491575241089e-01" nType="-99"/>
            <Node pos="r" depth="3" NCoef="0" IVar="-1" Cut="0.0000000000000000e+00" cType="1" res="4.6693999320268631e-02" rms="4.8557025194168091e-01" purity="5.6209087371826172e-01" nType="-99"/>
          </Node>
        </Node>
        <Node pos="r" depth="1" NCoef="0" IVar="-1" Cut="0.0000000000000000e+00" cType="1" res="-2.2407446522265673e-03" rms="4.5865118503570557e-01" purity="3.5761687159538269e-01" nType="-99"/>
      </Node>
    </BinaryTree>
    <BinaryTree type="DecisionTree" boostWeight="1.0000000000000000e+00" itree="35">
      <Node pos="s" depth="0" NCoef="0" IVar="6" Cut="-1.6456028223037720e+00" cType="1" res="0.0000000000000000e+00" rms="0.0000000000000000e+00" purity="5.0135362148284912e-01" nType="0">
        <Node pos="l" depth="1" NCoef="0" IVar="2" Cut="2.9114462280273438e+02" cType="1" res="1.3185717165470123e-02" rms="4.7810244560241699e-01" purity="4.8816046118736267e-01" nType="0">
          <Node pos="l" depth="2" NCoef="0" IVar="0" Cut="1.7804815625000000e+05" cType="1" res="5.6420541368424892e-03" rms="4.7793489694595337e-01" purity="4.6826848387718201e-01" nType="0">
            <Node pos="l" depth="3" NCoef="0" IVar="-1" Cut="0.0000000000000000e+00" cType="1" res="-2.3000978399068117e-03" rms="4.8258057236671448e-01" purity="4.4789281487464905e-01" nType="-99"/>
            <Node pos="r" depth="3" NCoef="0" IVar="-1" Cut="0.0000000000000000e+00" cType="1" res="3.7351686507463455e-02" rms="4.6304002404212952e-01" purity="5.2911567687988281e-01" nType="-99"/>
          </Node>
          <Node pos="r" depth="2" NCoef="0" IVar="-1" Cut="0.0000000000000000e+00" cType="1" res="4.0943648666143417e-02" rms="4.7780248522758484e-01" purity="5.5437970161437988e-01" nType="-99"/>
        </Node>
        <Node pos="r" depth="1" NCoef="0" IVar="8" Cut="5.9273132812500000e+04" cType="1" res="-1.0296820662915707e-02" rms="4.6438845992088318e-01" purity="5.0795876979827881e-01" nType="0">
          <Node pos="l" depth="2" NCoef="0" IVar="5" Cut="-2.2436783313751221e+00" cType="1" res="-3.0655490234494209e-02" rms="4.6621015667915344e-01" purity="3.7682840228080750e-01" nType="0">
            <Node pos="l" depth="3" NCoef="0" IVar="-1" Cut="0.0000000000000000e+00" cType="1" res="-4.4191768392920494e-03" rms="4.4489917159080505e-01" purity="3.2375365495681763e-01" nType="-99"/>
            <Node pos="r" depth="3" NCoef="0" IVar="-1" Cut="0.0000000000000000e+00" cType="1" res="-1.7846379429101944e-02" rms="4.6941962838172913e-01" purity="3.8822245597839355e-01" nType="-99"/>
          </Node>
          <Node pos="r" depth="2" NCoef="0" IVar="6" Cut="2.6855945587158203e+00" cType="1" res="6.4048222266137600e-03" rms="4.6221956610679626e-01" purity="6.1553424596786499e-01" nType="0">
            <Node pos="l" depth="3" NCoef="0" IVar="-1" Cut="0.0000000000000000e+00" cType="1" res="1.6422677785158157e-02" rms="4.5683640241622925e-01" purity="6.2997996807098389e-01" nType="-99"/>
            <Node pos="r" depth="3" NCoef="0" IVar="-1" Cut="0.0000000000000000e+00" cType="1" res="-3.8211300969123840e-02" rms="4.8610153794288635e-01" purity="5.4296046495437622e-01" nType="-99"/>
          </Node>
        </Node>
      </Node>
    </BinaryTree>
    <BinaryTree type="DecisionTree" boostWeight="1.0000000000000000e+00" itree="36">
      <Node pos="s" depth="0" NCoef="0" IVar="5" Cut="2.8421614170074463e+00" cType="1" res="4.5160111039876938e-04" rms="4.6839731931686401e-01" purity="5.0717884302139282e-01" nType="0">
        <Node pos="l" depth="1" NCoef="0" IVar="3" Cut="1.3757907867431641e+01" cType="1" res="3.2965897116810083e-03" rms="4.6825194358825684e-01" purity="5.0484764575958252e-01" nType="0">
          <Node pos="l" depth="2" NCoef="0" IVar="0" Cut="1.6736271875000000e+05" cType="1" res="5.1367930136620998e-03" rms="4.6872586011886597e-01" purity="5.0865435600280762e-01" nType="0">
            <Node pos="l" depth="3" NCoef="0" IVar="-1" Cut="0.0000000000000000e+00" cType="1" res="-1.2678595958277583e-03" rms="4.7773924469947815e-01" purity="4.7017475962638855e-01" nType="-99"/>
            <Node pos="r" depth="3" NCoef="0" IVar="-1" Cut="0.0000000000000000e+00" cType="1" res="2.0888663828372955e-02" rms="4.5052403211593628e-01" purity="5.8266252279281616e-01" nType="-99"/>
          </Node>
          <Node pos="r" depth="2" NCoef="0" IVar="-1" Cut="0.0000000000000000e+00" cType="1" res="-4.7149535268545151e-02" rms="4.5581012964248657e-01" purity="4.2101135849952698e-01" nType="-99"/>
        </Node>
        <Node pos="r" depth="1" NCoef="0" IVar="-1" Cut="0.0000000000000000e+00" cType="1" res="-2.1012481302022934e-02" rms="4.6881073713302612e-01" purity="5.3456777334213257e-01" nType="-99"/>
      </Node>
    </BinaryTree>
    <BinaryTree type="DecisionTree" boostWeight="1.0000000000000000e+00" itree="37">
      <Node pos="s" depth="0" NCoef="0" IVar="4" Cut="2.4652798175811768e+00" cType="1" res="-6.8172253668308258e-03" rms="4.7119298577308655e-01" purity="5.0111132860183716e-01" nType="0">
        <Node pos="l" depth="1" NCoef="0" IVar="6" Cut="1.9446344375610352e+00" cType="1" res="1.4747423119843006e-04" rms="4.7199827432632446e-01" purity="4.9704033136367798e-01" nType="0">
          <Node pos="l" depth="2" NCoef="0" IVar="4" Cut="6.3605356216430664e-01" cType="1" res="-8.3519537001848221e-03" rms="4.6652284264564514e-01" purity="5.0330889225006104e-01" nType="0">
            <Node pos="l" depth="3" NCoef="0" IVar="-1" Cut="0.0000000000000000e+00" cType="1" res="-5.5136732757091522e-02" rms="4.6684524416923523e-01" purity="4.4357907772064209e-01" nType="-99"/>
            <Node pos="r" depth="3" NCoef="0" IVar="-1" Cut="0.0000000000000000e+00" cType="1" res="-4.0722182020545006e-03" rms="4.6628001332283020e-01" purity="5.1137149333953857e-01" nType="-99"/>
          </Node>
          <Node pos="r" depth="2" NCoef="0" IVar="5" Cut="1.4930474758148193e-01" cType="1" res="2.0324682816863060e-02" rms="4.8415189981460571e-01" purity="4.8215898871421814e-01" nType="0">
            <Node pos="l" depth="3" NCoef="0" IVar="-1" Cut="0.0000000000000000e+00" cType="1" res="-2.4067660793662071e-02" rms="4.8936608433723450e-01" purity="4.8737567663192749e-01" nType="-99"/>
            <Node pos="r" depth="3" NCoef="0" IVar="-1" Cut="0.0000000000000000e+00" cType="1" res="4.3086651712656021e-02" rms="4.8149827122688293e-01" purity="4.8064836859703064e-01" nType="-99"/>
          </Node>
        </Node>
        <Node pos="r" depth="1" NCoef="0" IVar="6" Cut="2.2429845333099365e+00" cType="1" res="-2.0740507170557976e-02" rms="4.6926918625831604e-01" purity="5.0924992561340332e-01" nType="0">
          <Node pos="l" depth="2" NCoef="0" IVar="4" Cut="3.0750844478607178e+00" cType="1" res="-1.5821218257769942e-03" rms="4.6464401483535767e-01" purity="5.4011446237564087e-01" nType="0">
            <Node pos="l" depth="3" NCoef="0" IVar="-1" Cut="0.0000000000000000e+00" cType="1" res="-7.3143318295478821e-03" rms="4.6191149950027466e-01" purity="5.5256807804107666e-01" nType="-99"/>
            <Node pos="r" depth="3" NCoef="0" IVar="-1" Cut="0.0000000000000000e+00" cType="1" res="2.6775320991873741e-02" rms="4.6928244829177856e-01" purity="5.1399654150009155e-01" nType="-99"/>
          </Node>
          <Node pos="r" depth="2" NCoef="0" IVar="5" Cut="1.3461757898330688e+00" cType="1" res="-6.8745099008083344e-02" rms="4.7729724645614624e-01" purity="4.3191349506378174e-01" nType="0">
            <Node pos="l" depth="3" NCoef="0" IVar="-1" Cut="0.0000000000000000e+00" cType="1" res="-5.0933733582496643e-03" rms="4.7139558196067810e-01" purity="3.6563259363174438e-01" nType="-99"/>
            <Node pos="r" depth="3" NCoef="0" IVar="-1" Cut="0.0000000000000000e+00" cType="1" res="-4.8764739185571671e-03" rms="4.7523531317710876e-01" purity="5.0236654281616211e-01" nType="-99"/>
          </Node>
        </Node>
      </Node>
    </BinaryTree>
    <BinaryTree type="DecisionTree" boostWeight="1.0000000000000000e+00" itree="38">
      <Node pos="s" depth="0" NCoef="0" IVar="4" Cut="3.2374687194824219e+00" cType="1" res="-3.2546720467507839e-03" rms="4.6912631392478943e-01" purity="5.0313955545425415e-01" nType="0">
        <Node pos="l" depth="1" NCoef="0" IVar="4" Cut="3.0869057178497314e+00" cType="1" res="2.6828749105334282e-03" rms="4.7045189142227173e-01" purity="5.1535695791244507e-01" nType="0">
          <Node pos="l" depth="2" NCoef="0" IVar="2" Cut="2.0466293334960938e+02" cType="1" res="5.2413749508559704e-03" rms="4.7026792168617249e-01" purity="5.1555919647216797e-01" nType="0">
            <Node pos="l" depth="3" NCoef="0" IVar="-1" Cut="0.0000000000000000e+00" cType="1" res="1.3207602314651012e-02" rms="4.6708169579505920e-01" purity="5.2589625120162964e-01" nType="-99"/>
            <Node pos="r" depth="3" NCoef="0" IVar="-1" Cut="0.0000000000000000e+00" cType="1" res="-4.2093666270375252e-03" rms="4.7475653886795044e-01" purity="5.0031512975692749e-01" nType="-99"/>
          </Node>
          <Node pos="r" depth="2" NCoef="0" IVar="-1" Cut="0.0000000000000000e+00" cType="1" res="-3.5646699834614992e-03" rms="4.7143313288688660e-01" purity="5.1186734437942505e-01" nType="-99"/>
        </Node>
        <Node pos="r" depth="1" NCoef="0" IVar="-1" Cut="0.0000000000000000e+00" cType="1" res="-4.6154465526342392e-03" rms="4.4229802489280701e-01" purity="3.3419376611709595e-01" nType="-99"/>
      </Node>
    </BinaryTree>
    <BinaryTree type="DecisionTree" boostWeight="1.0000000000000000e+00" itree="39">
      <Node pos="s" depth="0" NCoef="0" IVar="4" Cut="3.2711985111236572e+00" cType="1" res="-1.2838318943977356e-02" rms="4.6748578548431396e-01" purity="4.9475443363189697e-01" nType="0">
        <Node pos="l" depth="1" NCoef="0" IVar="9" Cut="8.0307765625000000e+04" cType="1" res="-8.2157310098409653e-03" rms="4.6879926323890686e-01" purity="5.0624305009841919e-01" nType="0">
          <Node pos="l" depth="2" NCoef="0" IVar="9" Cut="2.7633521484375000e+04" cType="1" res="0.0000000000000000e+00" rms="0.0000000000000000e+00" purity="4.7837480902671814e-01" nType="0">
            <Node pos="l" depth="3" NCoef="0" IVar="-1" Cut="0.0000000000000000e+00" cType="1" res="-1.8715005367994308e-02" rms="4.4067987799644470e-01" purity="2.8938430547714233e-01" nType="-99"/>
            <Node pos="r" depth="3" NCoef="0" IVar="-1" Cut="0.0000000000000000e+00" cType="1" res="-3.1172398012131453e-03" rms="4.7863399982452393e-01" purity="5.0893402099609375e-01" nType="-99"/>
          </Node>
          <Node pos="r" depth="2" NCoef="0" IVar="5" Cut="1.5027604997158051e-01" cType="1" res="2.1288419142365456e-02" rms="4.2411348223686218e-01" purity="7.3603492975234985e-01" nType="0">
            <Node pos="l" depth="3" NCoef="0" IVar="-1" Cut="0.0000000000000000e+00" cType="1" res="4.1309744119644165e-02" rms="4.2263957858085632e-01" purity="7.4145042896270752e-01" nType="-99"/>
            <Node pos="r" depth="3" NCoef="0" IVar="-1" Cut="0.0000000000000000e+00" cType="1" res="1.0272755287587643e-02" rms="4.2537885904312134e-01" purity="7.3022073507308960e-01" nType="-99"/>
          </Node>
        </Node>
        <Node pos="r" depth="1" NCoef="0" IVar="-1" Cut="0.0000000000000000e+00" cType="1" res="-4.1396971791982651e-03" rms="4.4182956218719482e-01" purity="3.2391753792762756e-01" nType="-99"/>
      </Node>
    </BinaryTree>
    <BinaryTree type="DecisionTree" boostWeight="1.0000000000000000e+00" itree="40">
      <Node pos="s" depth="0" NCoef="0" IVar="4" Cut="3.2655649185180664e+00" cType="1" res="0.0000000000000000e+00" rms="0.0000000000000000e+00" purity="5.0074386596679688e-01" nType="0">
        <Node pos="l" depth="1" NCoef="0" IVar="2" Cut="5.1425781250000000e+02" cType="1" res="-3.7772804498672485e-03" rms="4.6974304318428040e-01" purity="5.0887453556060791e-01" nType="0">
          <Node pos="l" depth="2" NCoef="0" IVar="2" Cut="1.9246754455566406e+02" cType="1" res="-5.2218064665794373e-03" rms="4.6932968497276306e-01" purity="5.0320732593536377e-01" nType="0">
            <Node pos="l" depth="3" NCoef="0" IVar="-1" Cut="0.0000000000000000e+00" cType="1" res="-1.5392074419651181e-04" rms="4.6536400914192200e-01" purity="5.2235734462738037e-01" nType="-99"/>
            <Node pos="r" depth="3" NCoef="0" IVar="-1" Cut="0.0000000000000000e+00" cType="1" res="-9.0684508904814720e-03" rms="4.7424840927124023e-01" purity="4.7884374856948853e-01" nType="-99"/>
          </Node>
          <Node pos="r" depth="2" NCoef="0" IVar="-1" Cut="0.0000000000000000e+00" cType="1" res="2.7832560241222382e-02" rms="4.7687005996704102e-01" purity="6.1959981918334961e-01" nType="-99"/>
        </Node>
        <Node pos="r" depth="1" NCoef="0" IVar="-1" Cut="0.0000000000000000e+00" cType="1" res="-5.2933515980839729e-03" rms="4.4817662239074707e-01" purity="3.6570721864700317e-01" nType="-99"/>
      </Node>
    </BinaryTree>
    <BinaryTree type="DecisionTree" boostWeight="1.0000000000000000e+00" itree="41">
      <Node pos="s" depth="0" NCoef="0" IVar="4" Cut="2.4719753265380859e+00" cType="1" res="0.0000000000000000e+00" rms="0.0000000000000000e+00" purity="5.0033569335937500e-01" nType="0">
        <Node pos="l" depth="1" NCoef="0" IVar="9" Cut="8.2879296875000000e+04" cType="1" res="4.7458764165639877e-03" rms="4.7081238031387329e-01" purity="5.0165981054306030e-01" nType="0">
          <Node pos="l" depth="2" NCoef="0" IVar="3" Cut="6.3285374641418457e+00" cType="1" res="8.3782561123371124e-03" rms="4.7303560376167297e-01" purity="4.8109763860702515e-01" nType="0">
            <Node pos="l" depth="3" NCoef="0" IVar="-1" Cut="0.0000000000000000e+00" cType="1" res="1.6688464209437370e-02" rms="4.7769510746002197e-01" purity="4.9142649769783020e-01" nType="-99"/>
            <Node pos="r" depth="3" NCoef="0" IVar="-1" Cut="0.0000000000000000e+00" cType="1" res="-9.3139968812465668e-03" rms="4.6313744783401489e-01" purity="4.6038904786109924e-01" nType="-99"/>
          </Node>
          <Node pos="r" depth="2" NCoef="0" IVar="-1" Cut="0.0000000000000000e+00" cType="1" res="-3.1210545450448990e-02" rms="4.4921636581420898e-01" purity="6.8493318557739258e-01" nType="-99"/>
        </Node>
        <Node pos="r" depth="1" NCoef="0" IVar="6" Cut="2.2439353466033936e+00" cType="1" res="-2.8985869139432907e-02" rms="4.6797972917556763e-01" purity="4.9768307805061340e-01" nType="0">
          <Node pos="l" depth="2" NCoef="0" IVar="6" Cut="-3.2049435377120972e-01" cType="1" res="-1.0856036096811295e-02" rms="4.6520435810089111e-01" purity="5.3082811832427979e-01" nType="0">
            <Node pos="l" depth="3" NCoef="0" IVar="-1" Cut="0.0000000000000000e+00" cType="1" res="-1.0071134194731712e-02" rms="4.7170391678810120e-01" purity="5.0389814376831055e-01" nType="-99"/>
            <Node pos="r" depth="3" NCoef="0" IVar="-1" Cut="0.0000000000000000e+00" cType="1" res="1.2687605805695057e-02" rms="4.5148554444313049e-01" purity="5.8309906721115112e-01" nType="-99"/>
          </Node>
          <Node pos="r" depth="2" NCoef="0" IVar="7" Cut="5.0000000000000000e+00" cType="1" res="-7.5472027063369751e-02" rms="4.7184959053993225e-01" purity="4.1269686818122864e-01" nType="0">
            <Node pos="l" depth="3" NCoef="0" IVar="-1" Cut="0.0000000000000000e+00" cType="1" res="-2.9912628233432770e-03" rms="4.6425646543502808e-01" purity="4.3517598509788513e-01" nType="-99"/>
            <Node pos="r" depth="3" NCoef="0" IVar="-1" Cut="0.0000000000000000e+00" cType="1" res="-5.9832725673913956e-03" rms="4.6823227405548096e-01" purity="3.8755345344543457e-01" nType="-99"/>
          </Node>
        </Node>
      </Node>
    </BinaryTree>
    <BinaryTree type="DecisionTree" boostWeight="1.0000000000000000e+00" itree="42">
      <Node pos="s" depth="0" NCoef="0" IVar="6" Cut="1.9447036981582642e+00" cType="1" res="-5.2398508414626122e-03" rms="4.6797370910644531e-01" purity="5.0486624240875244e-01" nType="0">
        <Node pos="l" depth="1" NCoef="0" IVar="1" Cut="2.6483278125000000e+05" cType="1" res="0.0000000000000000e+00" rms="0.0000000000000000e+00" purity="5.2153635025024414e-01" nType="0">
          <Node pos="l" depth="2" NCoef="0" IVar="7" Cut="5.0000000000000000e+00" cType="1" res="3.7397260311990976e-03" rms="4.6578791737556458e-01" purity="5.4013878107070923e-01" nType="0">
            <Node pos="l" depth="3" NCoef="0" IVar="-1" Cut="0.0000000000000000e+00" cType="1" res="-1.2787911109626293e-02" rms="4.7589921951293945e-01" purity="4.2661660909652710e-01" nType="-99"/>
            <Node pos="r" depth="3" NCoef="0" IVar="-1" Cut="0.0000000000000000e+00" cType="1" res="1.4031489379703999e-02" rms="4.5901474356651306e-01" purity="6.1216211318969727e-01" nType="-99"/>
          </Node>
          <Node pos="r" depth="2" NCoef="0" IVar="-1" Cut="0.0000000000000000e+00" cType="1" res="-5.0615429878234863e-02" rms="4.3846318125724792e-01" purity="3.1146100163459778e-01" nType="-99"/>
        </Node>
        <Node pos="r" depth="1" NCoef="0" IVar="3" Cut="4.4172034263610840e+00" cType="1" res="0.0000000000000000e+00" rms="0.0000000000000000e+00" purity="4.6646976470947266e-01" nType="0">
          <Node pos="l" depth="2" NCoef="0" IVar="9" Cut="3.9250328125000000e+04" cType="1" res="-3.4249156713485718e-02" rms="4.8718830943107605e-01" purity="4.4062322378158569e-01" nType="0">
            <Node pos="l" depth="3" NCoef="0" IVar="-1" Cut="0.0000000000000000e+00" cType="1" res="-4.8670745454728603e-03" rms="4.8247712850570679e-01" purity="3.9822244644165039e-01" nType="-99"/>
            <Node pos="r" depth="3" NCoef="0" IVar="-1" Cut="0.0000000000000000e+00" cType="1" res="-7.4003650806844234e-03" rms="4.9020090699195862e-01" purity="4.8600780963897705e-01" nType="-99"/>
          </Node>
          <Node pos="r" depth="2" NCoef="0" IVar="5" Cut="1.6450105905532837e+00" cType="1" res="0.0000000000000000e+00" rms="0.0000000000000000e+00" purity="4.8944634199142456e-01" nType="0">
            <Node pos="l" depth="3" NCoef="0" IVar="-1" Cut="0.0000000000000000e+00" cType="1" res="-1.6551908105611801e-02" rms="4.6232357621192932e-01" purity="4.4323000311851501e-01" nType="-99"/>
            <Node pos="r" depth="3" NCoef="0" IVar="-1" Cut="0.0000000000000000e+00" cType="1" res="1.8975153565406799e-02" rms="4.7545292973518372e-01" purity="5.6197381019592285e-01" nType="-99"/>
          </Node>
        </Node>
      </Node>
    </BinaryTree>
    <BinaryTree type="DecisionTree" boostWeight="1.0000000000000000e+00" itree="43">
      <Node pos="s" depth="0" NCoef="0" IVar="3" Cut="4.6604638099670410e+00" cType="1" res="-1.1785199865698814e-02" rms="4.6816751360893250e-01" purity="4.9528995156288147e-01" nType="0">
        <Node pos="l" depth="1" NCoef="0" IVar="1" Cut="1.9322510937500000e+05" cType="1" res="0.0000000000000000e+00" rms="0.0000000000000000e+00" purity="4.6903395652770996e-01" nType="0">
          <Node pos="l" depth="2" NCoef="0" IVar="4" Cut="2.7353093624114990e+00" cType="1" res="-3.3660400658845901e-02" rms="4.7899886965751648e-01" purity="4.7544771432876587e-01" nType="0">
            <Node pos="l" depth="3" NCoef="0" IVar="-1" Cut="0.0000000000000000e+00" cType="1" res="-7.5862137600779533e-03" rms="4.8356515169143677e-01" purity="5.0504225492477417e-01" nType="-99"/>
            <Node pos="r" depth="3" NCoef="0" IVar="-1" Cut="0.0000000000000000e+00" cType="1" res="-5.9313159435987473e-03" rms="4.6016857028007507e-01" purity="3.9647817611694336e-01" nType="-99"/>
          </Node>
          <Node pos="r" depth="2" NCoef="0" IVar="-1" Cut="0.0000000000000000e+00" cType="1" res="2.0175512880086899e-02" rms="4.5367911458015442e-01" purity="4.3358680605888367e-01" nType="-99"/>
        </Node>
        <Node pos="r" depth="1" NCoef="0" IVar="4" Cut="2.4652798175811768e+00" cType="1" res="3.7223834078758955e-03" rms="4.5927992463111877e-01" purity="5.2453547716140747e-01" nType="0">
          <Node pos="l" depth="2" NCoef="0" IVar="2" Cut="3.4896102905273438e+02" cType="1" res="-4.0762647986412048e-03" rms="4.5947399735450745e-01" purity="4.9970924854278564e-01" nType="0">
            <Node pos="l" depth="3" NCoef="0" IVar="-1" Cut="0.0000000000000000e+00" cType="1" res="1.9131483277305961e-03" rms="4.5594272017478943e-01" purity="4.9767163395881653e-01" nType="-99"/>
            <Node pos="r" depth="3" NCoef="0" IVar="-1" Cut="0.0000000000000000e+00" cType="1" res="-3.7615526467561722e-02" rms="4.7818893194198608e-01" purity="5.1157081127166748e-01" nType="-99"/>
          </Node>
          <Node pos="r" depth="2" NCoef="0" IVar="8" Cut="6.3770445312500000e+04" cType="1" res="2.1385902538895607e-02" rms="4.5834970474243164e-01" purity="5.8076548576354980e-01" nType="0">
            <Node pos="l" depth="3" NCoef="0" IVar="-1" Cut="0.0000000000000000e+00" cType="1" res="3.4564729779958725e-02" rms="4.7025215625762939e-01" purity="4.8638525605201721e-01" nType="-99"/>
            <Node pos="r" depth="3" NCoef="0" IVar="-1" Cut="0.0000000000000000e+00" cType="1" res="-1.2196315219625831e-03" rms="4.4594693183898926e-01" purity="6.6760653257369995e-01" nType="-99"/>
          </Node>
        </Node>
      </Node>
    </BinaryTree>
    <BinaryTree type="DecisionTree" boostWeight="1.0000000000000000e+00" itree="44">
      <Node pos="s" depth="0" NCoef="0" IVar="4" Cut="2.6630716323852539e+00" cType="1" res="0.0000000000000000e+00" rms="0.0000000000000000e+00" purity="4.9880602955818176e-01" nType="0">
        <Node pos="l" depth="1" NCoef="0" IVar="7" Cut="5.0000000000000000e+00" cType="1" res="2.6907175779342651e-03" rms="4.7071900963783264e-01" purity="5.0334888696670532e-01" nType="0">
          <Node pos="l" depth="2" NCoef="0" IVar="4" Cut="2.2931988239288330e+00" cType="1" res="1.2870090082287788e-02" rms="4.7286227345466614e-01" purity="4.3022432923316956e-01" nType="0">
            <Node pos="l" depth="3" NCoef="0" IVar="-1" Cut="0.0000000000000000e+00" cType="1" res="7.7877203002572060e-03" rms="4.7047230601310730e-01" purity="4.1582143306732178e-01" nType="-99"/>
            <Node pos="r" depth="3" NCoef="0" IVar="-1" Cut="0.0000000000000000e+00" cType="1" res="3.1829986721277237e-02" rms="4.8386666178703308e-01" purity="5.0351870059967041e-01" nType="-99"/>
          </Node>
          <Node pos="r" depth="2" NCoef="0" IVar="3" Cut="2.0326783657073975e+00" cType="1" res="-5.5927373468875885e-03" rms="4.6880608797073364e-01" purity="5.6283605098724365e-01" nType="0">
            <Node pos="l" depth="3" NCoef="0" IVar="-1" Cut="0.0000000000000000e+00" cType="1" res="-1.2377080507576466e-02" rms="4.8427087068557739e-01" purity="4.8294061422348022e-01" nType="-99"/>
            <Node pos="r" depth="3" NCoef="0" IVar="-1" Cut="0.0000000000000000e+00" cType="1" res="-8.3132390864193439e-04" rms="4.6392020583152771e-01" purity="5.8697926998138428e-01" nType="-99"/>
          </Node>
        </Node>
        <Node pos="r" depth="1" NCoef="0" IVar="5" Cut="-2.5430648326873779e+00" cType="1" res="-3.3429991453886032e-02" rms="4.6163266897201538e-01" purity="4.8682433366775513e-01" nType="0">
          <Node pos="l" depth="2" NCoef="0" IVar="-1" Cut="0.0000000000000000e+00" cType="1" res="-3.4098757896572351e-03" rms="4.5079469680786133e-01" purity="4.1943731904029846e-01" nType="-99"/>
          <Node pos="r" depth="2" NCoef="0" IVar="2" Cut="1.6596907043457031e+02" cType="1" res="0.0000000000000000e+00" rms="0.0000000000000000e+00" purity="5.0461488962173462e-01" nType="0">
            <Node pos="l" depth="3" NCoef="0" IVar="-1" Cut="0.0000000000000000e+00" cType="1" res="-8.9153293520212173e-03" rms="4.5126163959503174e-01" purity="4.4651028513908386e-01" nType="-99"/>
            <Node pos="r" depth="3" NCoef="0" IVar="-1" Cut="0.0000000000000000e+00" cType="1" res="4.5631066896021366e-03" rms="4.6508005261421204e-01" purity="5.2686160802841187e-01" nType="-99"/>
          </Node>
        </Node>
      </Node>
    </BinaryTree>
    <BinaryTree type="DecisionTree" boostWeight="1.0000000000000000e+00" itree="45">
      <Node pos="s" depth="0" NCoef="0" IVar="4" Cut="2.7320413589477539e+00" cType="1" res="-1.4590425416827202e-02" rms="4.6776834130287170e-01" purity="4.9320340156555176e-01" nType="0">
        <Node pos="l" depth="1" NCoef="0" IVar="5" Cut="-1.3462449312210083e+00" cType="1" res="-3.8297155406326056e-03" rms="4.6850568056106567e-01" purity="4.9918338656425476e-01" nType="0">
          <Node pos="l" depth="2" NCoef="0" IVar="6" Cut="-1.4960908889770508e-01" cType="1" res="0.0000000000000000e+00" rms="0.0000000000000000e+00" purity="5.2609819173812866e-01" nType="0">
            <Node pos="l" depth="3" NCoef="0" IVar="-1" Cut="0.0000000000000000e+00" cType="1" res="-8.4658473497256637e-04" rms="4.7935688495635986e-01" purity="4.8108291625976562e-01" nType="-99"/>
            <Node pos="r" depth="3" NCoef="0" IVar="-1" Cut="0.0000000000000000e+00" cType="1" res="4.9191672354936600e-02" rms="4.4795507192611694e-01" purity="6.6497409343719482e-01" nType="-99"/>
          </Node>
          <Node pos="r" depth="2" NCoef="0" IVar="6" Cut="-1.4967957139015198e-01" cType="1" res="-1.0934155434370041e-02" rms="4.6622893214225769e-01" purity="4.8360151052474976e-01" nType="0">
            <Node pos="l" depth="3" NCoef="0" IVar="-1" Cut="0.0000000000000000e+00" cType="1" res="5.7276380248367786e-03" rms="4.5749819278717041e-01" purity="5.2768653631210327e-01" nType="-99"/>
            <Node pos="r" depth="3" NCoef="0" IVar="-1" Cut="0.0000000000000000e+00" cType="1" res="-2.0113948732614517e-02" rms="4.7050005197525024e-01" purity="4.6049296855926514e-01" nType="-99"/>
          </Node>
        </Node>
        <Node pos="r" depth="1" NCoef="0" IVar="7" Cut="5.0000000000000000e+00" cType="1" res="-4.7302000224590302e-02" rms="4.6398743987083435e-01" purity="4.7502318024635315e-01" nType="0">
          <Node pos="l" depth="2" NCoef="0" IVar="9" Cut="3.2154226562500000e+04" cType="1" res="-1.2468439526855946e-02" rms="4.6805405616760254e-01" purity="4.1930934786796570e-01" nType="0">
            <Node pos="l" depth="3" NCoef="0" IVar="-1" Cut="0.0000000000000000e+00" cType="1" res="-5.0134807825088501e-03" rms="4.4713944196701050e-01" purity="3.2364261150360107e-01" nType="-99"/>
            <Node pos="r" depth="3" NCoef="0" IVar="-1" Cut="0.0000000000000000e+00" cType="1" res="7.7006239444017410e-03" rms="4.8734703660011292e-01" purity="5.1507395505905151e-01" nType="-99"/>
          </Node>
          <Node pos="r" depth="2" NCoef="0" IVar="6" Cut="7.4747812747955322e-01" cType="1" res="-6.9104351103305817e-02" rms="4.6008780598640442e-01" purity="5.0988656282424927e-01" nType="0">
            <Node pos="l" depth="3" NCoef="0" IVar="-1" Cut="0.0000000000000000e+00" cType="1" res="-2.7587169315665960e-03" rms="4.5810663700103760e-01" purity="6.0215568542480469e-01" nType="-99"/>
            <Node pos="r" depth="3" NCoef="0" IVar="-1" Cut="0.0000000000000000e+00" cType="1" res="-4.9761123955249786e-03" rms="4.5124346017837524e-01" purity="4.1013795137405396e-01" nType="-99"/>
          </Node>
        </Node>
      </Node>
    </BinaryTree>
    <BinaryTree type="DecisionTree" boostWeight="1.0000000000000000e+00" itree="46">
      <Node pos="s" depth="0" NCoef="0" IVar="4" Cut="2.9526097774505615e+00" cType="1" res="-1.3601361773908138e-02" rms="4.6788978576660156e-01" purity="4.9262061715126038e-01" nType="0">
        <Node pos="l" depth="1" NCoef="0" IVar="6" Cut="2.8422811031341553e+00" cType="1" res="-3.9172344841063023e-03" rms="4.6876424551010132e-01" purity="5.0465923547744751e-01" nType="0">
          <Node pos="l" depth="2" NCoef="0" IVar="4" Cut="6.1454546451568604e-01" cType="1" res="-6.5646232105791569e-03" rms="4.6746784448623657e-01" purity="5.0504690408706665e-01" nType="0">
            <Node pos="l" depth="3" NCoef="0" IVar="-1" Cut="0.0000000000000000e+00" cType="1" res="2.1128950640559196e-02" rms="4.7214689850807190e-01" purity="4.8194411396980286e-01" nType="-99"/>
            <Node pos="r" depth="3" NCoef="0" IVar="-1" Cut="0.0000000000000000e+00" cType="1" res="-8.0710751935839653e-03" rms="4.6697875857353210e-01" purity="5.0715845823287964e-01" nType="-99"/>
          </Node>
          <Node pos="r" depth="2" NCoef="0" IVar="-1" Cut="0.0000000000000000e+00" cType="1" res="2.4632677435874939e-02" rms="4.8015740513801575e-01" purity="5.0098317861557007e-01" nType="-99"/>
        </Node>
        <Node pos="r" depth="1" NCoef="0" IVar="3" Cut="4.2214522361755371e+00" cType="1" res="-5.8648724108934402e-02" rms="4.6113473176956177e-01" purity="4.3662106990814209e-01" nType="0">
          <Node pos="l" depth="2" NCoef="0" IVar="-1" Cut="0.0000000000000000e+00" cType="1" res="-3.3983117900788784e-03" rms="4.5799267292022705e-01" purity="3.5652828216552734e-01" nType="-99"/>
          <Node pos="r" depth="2" NCoef="0" IVar="-1" Cut="0.0000000000000000e+00" cType="1" res="7.5649125501513481e-03" rms="4.5729640126228333e-01" purity="5.4938960075378418e-01" nType="-99"/>
        </Node>
      </Node>
    </BinaryTree>
    <BinaryTree type="DecisionTree" boostWeight="1.0000000000000000e+00" itree="47">
      <Node pos="s" depth="0" NCoef="0" IVar="4" Cut="3.2655649185180664e+00" cType="1" res="-8.5034547373652458e-03" rms="4.6722170710563660e-01" purity="4.9469482898712158e-01" nType="0">
        <Node pos="l" depth="1" NCoef="0" IVar="3" Cut="-1.3962131738662720e+00" cType="1" res="0.0000000000000000e+00" rms="0.0000000000000000e+00" purity="5.1012825965881348e-01" nType="0">
          <Node pos="l" depth="2" NCoef="0" IVar="-1" Cut="0.0000000000000000e+00" cType="1" res="2.9888929799199104e-02" rms="4.8502036929130554e-01" purity="4.4738808274269104e-01" nType="-99"/>
          <Node pos="r" depth="2" NCoef="0" IVar="2" Cut="3.6449957275390625e+02" cType="1" res="-2.2724522277712822e-03" rms="4.6806687116622925e-01" purity="5.1432830095291138e-01" nType="0">
            <Node pos="l" depth="3" NCoef="0" IVar="-1" Cut="0.0000000000000000e+00" cType="1" res="-4.2948485352098942e-03" rms="4.6612122654914856e-01" purity="5.0546002388000488e-01" nType="-99"/>
            <Node pos="r" depth="3" NCoef="0" IVar="-1" Cut="0.0000000000000000e+00" cType="1" res="1.7513841390609741e-02" rms="4.8199287056922913e-01" purity="5.8131730556488037e-01" nType="-99"/>
          </Node>
        </Node>
        <Node pos="r" depth="1" NCoef="0" IVar="-1" Cut="0.0000000000000000e+00" cType="1" res="-3.4294531214982271e-03" rms="4.2676532268524170e-01" purity="2.9249954223632812e-01" nType="-99"/>
      </Node>
    </BinaryTree>
    <BinaryTree type="DecisionTree" boostWeight="1.0000000000000000e+00" itree="48">
      <Node pos="s" depth="0" NCoef="0" IVar="5" Cut="-2.5429883003234863e+00" cType="1" res="0.0000000000000000e+00" rms="0.0000000000000000e+00" purity="5.0431221723556519e-01" nType="0">
        <Node pos="l" depth="1" NCoef="0" IVar="3" Cut="2.9268665313720703e+00" cType="1" res="-3.6652881652116776e-02" rms="4.6565526723861694e-01" purity="5.0739681720733643e-01" nType="0">
          <Node pos="l" depth="2" NCoef="0" IVar="-1" Cut="0.0000000000000000e+00" cType="1" res="-5.3243171423673630e-03" rms="4.7150382399559021e-01" purity="4.0495154261589050e-01" nType="-99"/>
          <Node pos="r" depth="2" NCoef="0" IVar="5" Cut="-2.8277568817138672e+00" cType="1" res="-7.4630384333431721e-03" rms="4.5906901359558105e-01" purity="5.8401262760162354e-01" nType="0">
            <Node pos="l" depth="3" NCoef="0" IVar="-1" Cut="0.0000000000000000e+00" cType="1" res="2.6979980990290642e-02" rms="4.5918890833854675e-01" purity="6.2550777196884155e-01" nType="-99"/>
            <Node pos="r" depth="3" NCoef="0" IVar="-1" Cut="0.0000000000000000e+00" cType="1" res="-9.3718338757753372e-03" rms="4.5672219991683960e-01" purity="5.4425454139709473e-01" nType="-99"/>
          </Node>
        </Node>
        <Node pos="r" depth="1" NCoef="0" IVar="6" Cut="4.4875028729438782e-01" cType="1" res="5.7260645553469658e-03" rms="4.6846610307693481e-01" purity="5.0373053550720215e-01" nType="0">
          <Node pos="l" depth="2" NCoef="0" IVar="6" Cut="-1.4318835735321045e+00" cType="1" res="1.4749906957149506e-02" rms="4.6666812896728516e-01" purity="5.2407521009445190e-01" nType="0">
            <Node pos="l" depth="3" NCoef="0" IVar="-1" Cut="0.0000000000000000e+00" cType="1" res="7.7545382082462311e-03" rms="4.7678184509277344e-01" purity="4.7229123115539551e-01" nType="-99"/>
            <Node pos="r" depth="3" NCoef="0" IVar="-1" Cut="0.0000000000000000e+00" cType="1" res="3.7408642470836639e-02" rms="4.4220632314682007e-01" purity="6.4230698347091675e-01" nType="-99"/>
          </Node>
          <Node pos="r" depth="2" NCoef="0" IVar="4" Cut="2.4089787006378174e+00" cType="1" res="-3.1342769507318735e-03" rms="4.7005629539489746e-01" purity="4.8375451564788818e-01" nType="0">
            <Node pos="l" depth="3" NCoef="0" IVar="-1" Cut="0.0000000000000000e+00" cType="1" res="8.0018714070320129e-03" rms="4.7427204251289368e-01" purity="4.8049521446228027e-01" nType="-99"/>
            <Node pos="r" depth="3" NCoef="0" IVar="-1" Cut="0.0000000000000000e+00" cType="1" res="-1.2294300831854343e-02" rms="4.6133917570114136e-01" purity="4.8992276191711426e-01" nType="-99"/>
          </Node>
        </Node>
      </Node>
    </BinaryTree>
    <BinaryTree type="DecisionTree" boostWeight="1.0000000000000000e+00" itree="49">
      <Node pos="s" depth="0" NCoef="0" IVar="4" Cut="1.9202489852905273e+00" cType="1" res="-9.4691440463066101e-03" rms="4.6831968426704407e-01" purity="4.9803325533866882e-01" nType="0">
        <Node pos="l" depth="1" NCoef="0" IVar="6" Cut="-2.5431859493255615e+00" cType="1" res="3.5086681600660086e-03" rms="4.7077557444572449e-01" purity="4.9000436067581177e-01" nType="0">
          <Node pos="l" depth="2" NCoef="0" IVar="-1" Cut="0.0000000000000000e+00" cType="1" res="-3.0896972864866257e-02" rms="4.7532448172569275e-01" purity="4.2481192946434021e-01" nType="-99"/>
          <Node pos="r" depth="2" NCoef="0" IVar="5" Cut="2.5429551601409912e+00" cType="1" res="8.8107138872146606e-03" rms="4.6971043944358826e-01" purity="5.0253814458847046e-01" nType="0">
            <Node pos="l" depth="3" NCoef="0" IVar="-1" Cut="0.0000000000000000e+00" cType="1" res="4.9525019712746143e-03" rms="4.7001025080680847e-01" purity="4.8743104934692383e-01" nType="-99"/>
            <Node pos="r" depth="3" NCoef="0" IVar="-1" Cut="0.0000000000000000e+00" cType="1" res="3.0860461294651031e-02" rms="4.6765029430389404e-01" purity="5.7675278186798096e-01" nType="-99"/>
          </Node>
        </Node>
        <Node pos="r" depth="1" NCoef="0" IVar="6" Cut="-1.6455912590026855e+00" cType="1" res="-2.2232420742511749e-02" rms="4.6553903818130493e-01" purity="5.0592941045761108e-01" nType="0">
          <Node pos="l" depth="2" NCoef="0" IVar="5" Cut="-2.2434463500976562e+00" cType="1" res="0.0000000000000000e+00" rms="0.0000000000000000e+00" purity="5.0784564018249512e-01" nType="0">
            <Node pos="l" depth="3" NCoef="0" IVar="-1" Cut="0.0000000000000000e+00" cType="1" res="-2.9826177284121513e-02" rms="4.8449450731277466e-01" purity="5.0941789150238037e-01" nType="-99"/>
            <Node pos="r" depth="3" NCoef="0" IVar="-1" Cut="0.0000000000000000e+00" cType="1" res="1.6891570761799812e-02" rms="4.7848960757255554e-01" purity="5.0711196660995483e-01" nType="-99"/>
          </Node>
          <Node pos="r" depth="2" NCoef="0" IVar="3" Cut="6.2942595481872559e+00" cType="1" res="-3.5074077546596527e-02" rms="4.5669966936111450e-01" purity="5.0491684675216675e-01" nType="0">
            <Node pos="l" depth="3" NCoef="0" IVar="-1" Cut="0.0000000000000000e+00" cType="1" res="-7.1811587549746037e-03" rms="4.5826959609985352e-01" purity="4.7706878185272217e-01" nType="-99"/>
            <Node pos="r" depth="3" NCoef="0" IVar="-1" Cut="0.0000000000000000e+00" cType="1" res="-4.4820914044976234e-03" rms="4.5134815573692322e-01" purity="5.7465761899948120e-01" nType="-99"/>
          </Node>
        </Node>
      </Node>
    </BinaryTree>
    <BinaryTree type="DecisionTree" boostWeight="1.0000000000000000e+00" itree="50">
      <Node pos="s" depth="0" NCoef="0" IVar="4" Cut="5.9454965591430664e-01" cType="1" res="0.0000000000000000e+00" rms="0.0000000000000000e+00" purity="5.0783449411392212e-01" nType="0">
        <Node pos="l" depth="1" NCoef="0" IVar="-1" Cut="0.0000000000000000e+00" cType="1" res="4.0837410837411880e-02" rms="4.7360250353813171e-01" purity="5.0770366191864014e-01" nType="-99"/>
        <Node pos="r" depth="1" NCoef="0" IVar="4" Cut="1.2981148958206177e+00" cType="1" res="-4.1398103348910809e-03" rms="4.6816900372505188e-01" purity="5.0784307718276978e-01" nType="0">
          <Node pos="l" depth="2" NCoef="0" IVar="6" Cut="-1.3464528322219849e+00" cType="1" res="9.2651778832077980e-03" rms="4.6858480572700500e-01" purity="4.7650188207626343e-01" nType="0">
            <Node pos="l" depth="3" NCoef="0" IVar="-1" Cut="0.0000000000000000e+00" cType="1" res="4.2106363922357559e-02" rms="4.6684169769287109e-01" purity="4.8209661245346069e-01" nType="-99"/>
            <Node pos="r" depth="3" NCoef="0" IVar="-1" Cut="0.0000000000000000e+00" cType="1" res="-1.0312899015843868e-02" rms="4.6864065527915955e-01" purity="4.7328996658325195e-01" nType="-99"/>
          </Node>
          <Node pos="r" depth="2" NCoef="0" IVar="6" Cut="-1.4964151382446289e-01" cType="1" res="0.0000000000000000e+00" rms="0.0000000000000000e+00" purity="5.1918083429336548e-01" nType="0">
            <Node pos="l" depth="3" NCoef="0" IVar="-1" Cut="0.0000000000000000e+00" cType="1" res="-2.0231125876307487e-02" rms="4.7224980592727661e-01" purity="5.1151627302169800e-01" nType="-99"/>
            <Node pos="r" depth="3" NCoef="0" IVar="-1" Cut="0.0000000000000000e+00" cType="1" res="-5.6045240489766002e-04" rms="4.6368926763534546e-01" purity="5.2634173631668091e-01" nType="-99"/>
          </Node>
        </Node>
      </Node>
    </BinaryTree>
    <BinaryTree type="DecisionTree" boostWeight="1.0000000000000000e+00" itree="51">
      <Node pos="s" depth="0" NCoef="0" IVar="5" Cut="1.6454484462738037e+00" cType="1" res="-1.7707608640193939e-03" rms="4.7008302807807922e-01" purity="5.0669276714324951e-01" nType="0">
        <Node pos="l" depth="1" NCoef="0" IVar="6" Cut="1.4956533908843994e-01" cType="1" res="0.0000000000000000e+00" rms="0.0000000000000000e+00" purity="4.9889093637466431e-01" nType="0">
          <Node pos="l" depth="2" NCoef="0" IVar="6" Cut="-1.2613501548767090e+00" cType="1" res="-4.9375118687748909e-03" rms="4.7380569577217102e-01" purity="4.7977384924888611e-01" nType="0">
            <Node pos="l" depth="3" NCoef="0" IVar="-1" Cut="0.0000000000000000e+00" cType="1" res="-6.4195197774097323e-04" rms="4.7751545906066895e-01" purity="4.6371611952781677e-01" nType="-99"/>
            <Node pos="r" depth="3" NCoef="0" IVar="-1" Cut="0.0000000000000000e+00" cType="1" res="-2.5453785434365273e-02" rms="4.6012124419212341e-01" purity="5.3657835721969604e-01" nType="-99"/>
          </Node>
          <Node pos="r" depth="2" NCoef="0" IVar="6" Cut="1.4320297241210938e+00" cType="1" res="1.9586645066738129e-02" rms="4.6722623705863953e-01" purity="5.3179687261581421e-01" nType="0">
            <Node pos="l" depth="3" NCoef="0" IVar="-1" Cut="0.0000000000000000e+00" cType="1" res="5.5073507130146027e-02" rms="4.3305987119674683e-01" purity="7.1346580982208252e-01" nType="-99"/>
            <Node pos="r" depth="3" NCoef="0" IVar="-1" Cut="0.0000000000000000e+00" cType="1" res="1.2378239072859287e-02" rms="4.7685226798057556e-01" purity="4.7698685526847839e-01" nType="-99"/>
          </Node>
        </Node>
        <Node pos="r" depth="1" NCoef="0" IVar="6" Cut="-7.4798446893692017e-01" cType="1" res="0.0000000000000000e+00" rms="0.0000000000000000e+00" purity="5.2266192436218262e-01" nType="0">
          <Node pos="l" depth="2" NCoef="0" IVar="-1" Cut="0.0000000000000000e+00" cType="1" res="2.7269683778285980e-02" rms="4.4619390368461609e-01" purity="6.8016177415847778e-01" nType="-99"/>
          <Node pos="r" depth="2" NCoef="0" IVar="3" Cut="6.8134422302246094e+00" cType="1" res="0.0000000000000000e+00" rms="0.0000000000000000e+00" purity="4.8384529352188110e-01" nType="0">
            <Node pos="l" depth="3" NCoef="0" IVar="-1" Cut="0.0000000000000000e+00" cType="1" res="-3.3008854836225510e-02" rms="4.6935936808586121e-01" purity="4.7044295072555542e-01" nType="-99"/>
            <Node pos="r" depth="3" NCoef="0" IVar="-1" Cut="0.0000000000000000e+00" cType="1" res="3.5371000412851572e-03" rms="4.7608217597007751e-01" purity="5.2656328678131104e-01" nType="-99"/>
          </Node>
        </Node>
      </Node>
    </BinaryTree>
    <BinaryTree type="DecisionTree" boostWeight="1.0000000000000000e+00" itree="52">
      <Node pos="s" depth="0" NCoef="0" IVar="8" Cut="7.3752539062500000e+04" cType="1" res="8.8325043907389045e-04" rms="4.6885281801223755e-01" purity="5.0762587785720825e-01" nType="0">
        <Node pos="l" depth="1" NCoef="0" IVar="8" Cut="4.1372406250000000e+04" cType="1" res="9.3956403434276581e-03" rms="4.7239637374877930e-01" purity="4.4563025236129761e-01" nType="0">
          <Node pos="l" depth="2" NCoef="0" IVar="8" Cut="3.1353021484375000e+04" cType="1" res="-6.6112596541643143e-03" rms="4.5327207446098328e-01" purity="3.2241973280906677e-01" nType="0">
            <Node pos="l" depth="3" NCoef="0" IVar="-1" Cut="0.0000000000000000e+00" cType="1" res="-5.4852869361639023e-02" rms="4.1590598225593567e-01" purity="2.3480823636054993e-01" nType="-99"/>
            <Node pos="r" depth="3" NCoef="0" IVar="-1" Cut="0.0000000000000000e+00" cType="1" res="4.5316335745155811e-03" rms="4.6418148279190063e-01" purity="3.5080525279045105e-01" nType="-99"/>
          </Node>
          <Node pos="r" depth="2" NCoef="0" IVar="4" Cut="1.8791811466217041e+00" cType="1" res="1.6527242958545685e-02" rms="4.8050022125244141e-01" purity="5.0052458047866821e-01" nType="0">
            <Node pos="l" depth="3" NCoef="0" IVar="-1" Cut="0.0000000000000000e+00" cType="1" res="5.2508371882140636e-03" rms="4.8035183548927307e-01" purity="4.6107491850852966e-01" nType="-99"/>
            <Node pos="r" depth="3" NCoef="0" IVar="-1" Cut="0.0000000000000000e+00" cType="1" res="3.0443215742707253e-02" rms="4.8036998510360718e-01" purity="5.3771579265594482e-01" nType="-99"/>
          </Node>
        </Node>
        <Node pos="r" depth="1" NCoef="0" IVar="0" Cut="2.2668871875000000e+05" cType="1" res="-1.4944124035537243e-02" rms="4.6177503466606140e-01" purity="6.2289637327194214e-01" nType="0">
          <Node pos="l" depth="2" NCoef="0" IVar="0" Cut="1.5556206250000000e+05" cType="1" res="-2.1803069859743118e-02" rms="4.7161853313446045e-01" purity="5.9854841232299805e-01" nType="0">
            <Node pos="l" depth="3" NCoef="0" IVar="-1" Cut="0.0000000000000000e+00" cType="1" res="-3.2211679965257645e-02" rms="4.8415678739547729e-01" purity="5.3447586297988892e-01" nType="-99"/>
            <Node pos="r" depth="3" NCoef="0" IVar="-1" Cut="0.0000000000000000e+00" cType="1" res="1.1335065588355064e-02" rms="4.5486241579055786e-01" purity="6.7158365249633789e-01" nType="-99"/>
          </Node>
          <Node pos="r" depth="2" NCoef="0" IVar="-1" Cut="0.0000000000000000e+00" cType="1" res="1.6430534422397614e-02" rms="4.1907095909118652e-01" purity="7.2009438276290894e-01" nType="-99"/>
        </Node>
      </Node>
    </BinaryTree>
    <BinaryTree type="DecisionTree" boostWeight="1.0000000000000000e+00" itree="53">
      <Node pos="s" depth="0" NCoef="0" IVar="4" Cut="2.9526097774505615e+00" cType="1" res="-1.4726912602782249e-02" rms="4.6844714879989624e-01" purity="4.9098351597785950e-01" nType="0">
        <Node pos="l" depth="1" NCoef="0" IVar="7" Cut="5.0000000000000000e+00" cType="1" res="-7.4073993600904942e-03" rms="4.6965807676315308e-01" purity="5.0045967102050781e-01" nType="0">
          <Node pos="l" depth="2" NCoef="0" IVar="6" Cut="2.8422796726226807e+00" cType="1" res="3.3072126097977161e-03" rms="4.7088178992271423e-01" purity="4.2639994621276855e-01" nType="0">
            <Node pos="l" depth="3" NCoef="0" IVar="-1" Cut="0.0000000000000000e+00" cType="1" res="-4.6986886300146580e-03" rms="4.7064247727394104e-01" purity="4.1306886076927185e-01" nType="-99"/>
            <Node pos="r" depth="3" NCoef="0" IVar="-1" Cut="0.0000000000000000e+00" cType="1" res="5.3558796644210815e-02" rms="4.6942853927612305e-01" purity="5.1458090543746948e-01" nType="-99"/>
          </Node>
          <Node pos="r" depth="2" NCoef="0" IVar="3" Cut="5.5800843238830566e-01" cType="1" res="-1.5933796763420105e-02" rms="4.6851933002471924e-01" purity="5.5940234661102295e-01" nType="0">
            <Node pos="l" depth="3" NCoef="0" IVar="-1" Cut="0.0000000000000000e+00" cType="1" res="-3.8123395293951035e-02" rms="4.7752416133880615e-01" purity="4.2738482356071472e-01" nType="-99"/>
            <Node pos="r" depth="3" NCoef="0" IVar="-1" Cut="0.0000000000000000e+00" cType="1" res="-1.2425463646650314e-02" rms="4.6690049767494202e-01" purity="5.7960927486419678e-01" nType="-99"/>
          </Node>
        </Node>
        <Node pos="r" depth="1" NCoef="0" IVar="6" Cut="4.4867008924484253e-01" cType="1" res="-5.0034895539283752e-02" rms="4.6089783310890198e-01" purity="4.4527593255043030e-01" nType="0">
          <Node pos="l" depth="2" NCoef="0" IVar="6" Cut="-2.2866952419281006e+00" cType="1" res="8.8412396144121885e-04" rms="4.6574404835700989e-01" purity="5.2015495300292969e-01" nType="0">
            <Node pos="l" depth="3" NCoef="0" IVar="-1" Cut="0.0000000000000000e+00" cType="1" res="-9.8076248541474342e-03" rms="4.8308765888214111e-01" purity="4.5730790495872498e-01" nType="-99"/>
            <Node pos="r" depth="3" NCoef="0" IVar="-1" Cut="0.0000000000000000e+00" cType="1" res="7.6714074239134789e-03" rms="4.4883960485458374e-01" purity="5.7863283157348633e-01" nType="-99"/>
          </Node>
          <Node pos="r" depth="2" NCoef="0" IVar="-1" Cut="0.0000000000000000e+00" cType="1" res="-4.2205206118524075e-03" rms="4.5113086700439453e-01" purity="3.7515062093734741e-01" nType="-99"/>
        </Node>
      </Node>
    </BinaryTree>
    <BinaryTree type="DecisionTree" boostWeight="1.0000000000000000e+00" itree="54">
      <Node pos="s" depth="0" NCoef="0" IVar="5" Cut="-2.2439992427825928e+00" cType="1" res="-4.1656149551272392e-03" rms="4.7040086984634399e-01" purity="5.0159567594528198e-01" nType="0">
        <Node pos="l" depth="1" NCoef="0" IVar="4" Cut="2.9037458896636963e+00" cType="1" res="-2.0954683423042297e-02" rms="4.7072303295135498e-01" purity="5.1298010349273682e-01" nType="0">
          <Node pos="l" depth="2" NCoef="0" IVar="6" Cut="-1.4963494241237640e-01" cType="1" res="3.0707973055541515e-03" rms="4.7230529785156250e-01" purity="5.4121565818786621e-01" nType="0">
            <Node pos="l" depth="3" NCoef="0" IVar="-1" Cut="0.0000000000000000e+00" cType="1" res="-8.9234486222267151e-03" rms="4.8272335529327393e-01" purity="4.9017477035522461e-01" nType="-99"/>
            <Node pos="r" depth="3" NCoef="0" IVar="-1" Cut="0.0000000000000000e+00" cType="1" res="4.3104503303766251e-02" rms="4.4183358550071716e-01" purity="6.7764276266098022e-01" nType="-99"/>
          </Node>
          <Node pos="r" depth="2" NCoef="0" IVar="-1" Cut="0.0000000000000000e+00" cType="1" res="-2.8702174313366413e-03" rms="4.5573753118515015e-01" purity="4.1615754365921021e-01" nType="-99"/>
        </Node>
        <Node pos="r" depth="1" NCoef="0" IVar="6" Cut="2.8422818183898926e+00" cType="1" res="7.7395030530169606e-04" rms="4.7019192576408386e-01" purity="4.9824619293212891e-01" nType="0">
          <Node pos="l" depth="2" NCoef="0" IVar="2" Cut="4.1538922119140625e+02" cType="1" res="4.2153894901275635e-03" rms="4.6867951750755310e-01" purity="5.0363880395889282e-01" nType="0">
            <Node pos="l" depth="3" NCoef="0" IVar="-1" Cut="0.0000000000000000e+00" cType="1" res="7.5658126734197140e-03" rms="4.6914014220237732e-01" purity="5.0242090225219727e-01" nType="-99"/>
            <Node pos="r" depth="3" NCoef="0" IVar="-1" Cut="0.0000000000000000e+00" cType="1" res="-5.1126703619956970e-03" rms="4.6134936809539795e-01" purity="5.1938581466674805e-01" nType="-99"/>
          </Node>
          <Node pos="r" depth="2" NCoef="0" IVar="4" Cut="1.9214586019515991e+00" cType="1" res="0.0000000000000000e+00" rms="0.0000000000000000e+00" purity="4.5757994055747986e-01" nType="0">
            <Node pos="l" depth="3" NCoef="0" IVar="-1" Cut="0.0000000000000000e+00" cType="1" res="-3.2771578989923000e-03" rms="4.8672413825988770e-01" purity="4.5062613487243652e-01" nType="-99"/>
            <Node pos="r" depth="3" NCoef="0" IVar="-1" Cut="0.0000000000000000e+00" cType="1" res="-1.3881208375096321e-02" rms="4.7510877251625061e-01" purity="4.6307459473609924e-01" nType="-99"/>
          </Node>
        </Node>
      </Node>
    </BinaryTree>
    <BinaryTree type="DecisionTree" boostWeight="1.0000000000000000e+00" itree="55">
      <Node pos="s" depth="0" NCoef="0" IVar="4" Cut="3.2250001430511475e+00" cType="1" res="2.2883120982442051e-04" rms="4.6747985482215881e-01" purity="5.0655806064605713e-01" nType="0">
        <Node pos="l" depth="1" NCoef="0" IVar="6" Cut="-2.5431835651397705e+00" cType="1" res="5.9495391324162483e-03" rms="4.6780771017074585e-01" purity="5.1847821474075317e-01" nType="0">
          <Node pos="l" depth="2" NCoef="0" IVar="9" Cut="4.3971824218750000e+04" cType="1" res="2.2064557299017906e-02" rms="4.8138508200645447e-01" purity="5.0326395034790039e-01" nType="0">
            <Node pos="l" depth="3" NCoef="0" IVar="-1" Cut="0.0000000000000000e+00" cType="1" res="5.4211761802434921e-02" rms="4.7962471842765808e-01" purity="4.5443081855773926e-01" nType="-99"/>
            <Node pos="r" depth="3" NCoef="0" IVar="-1" Cut="0.0000000000000000e+00" cType="1" res="-1.5359288081526756e-02" rms="4.8251438140869141e-01" purity="5.9430062770843506e-01" nType="-99"/>
          </Node>
          <Node pos="r" depth="2" NCoef="0" IVar="5" Cut="1.3462878465652466e+00" cType="1" res="2.4016352836042643e-03" rms="4.6469017863273621e-01" purity="5.2182781696319580e-01" nType="0">
            <Node pos="l" depth="3" NCoef="0" IVar="-1" Cut="0.0000000000000000e+00" cType="1" res="-3.4034610725939274e-03" rms="4.6370375156402588e-01" purity="5.1027864217758179e-01" nType="-99"/>
            <Node pos="r" depth="3" NCoef="0" IVar="-1" Cut="0.0000000000000000e+00" cType="1" res="1.2603078968822956e-02" rms="4.6588158607482910e-01" purity="5.3764593601226807e-01" nType="-99"/>
          </Node>
        </Node>
        <Node pos="r" depth="1" NCoef="0" IVar="-1" Cut="0.0000000000000000e+00" cType="1" res="-5.3676678799092770e-03" rms="4.5614814758300781e-01" purity="3.4640997648239136e-01" nType="-99"/>
      </Node>
    </BinaryTree>
    <BinaryTree type="DecisionTree" boostWeight="1.0000000000000000e+00" itree="56">
      <Node pos="s" depth="0" NCoef="0" IVar="4" Cut="2.9671986103057861e+00" cType="1" res="-1.3170632533729076e-02" rms="4.6889725327491760e-01" purity="4.9726474285125732e-01" nType="0">
        <Node pos="l" depth="1" NCoef="0" IVar="4" Cut="1.7281113862991333e+00" cType="1" res="-6.4034555107355118e-03" rms="4.6834447979927063e-01" purity="5.0540417432785034e-01" nType="0">
          <Node pos="l" depth="2" NCoef="0" IVar="6" Cut="1.6455265283584595e+00" cType="1" res="1.9703737925738096e-03" rms="4.6761927008628845e-01" purity="4.8300269246101379e-01" nType="0">
            <Node pos="l" depth="3" NCoef="0" IVar="-1" Cut="0.0000000000000000e+00" cType="1" res="-8.9149344712495804e-03" rms="4.6505758166313171e-01" purity="4.8358738422393799e-01" nType="-99"/>
            <Node pos="r" depth="3" NCoef="0" IVar="-1" Cut="0.0000000000000000e+00" cType="1" res="2.2590244188904762e-02" rms="4.7227036952972412e-01" purity="4.8180627822875977e-01" nType="-99"/>
          </Node>
          <Node pos="r" depth="2" NCoef="0" IVar="4" Cut="2.2591543197631836e+00" cType="1" res="-1.5706479549407959e-02" rms="4.6897354722023010e-01" purity="5.3029143810272217e-01" nType="0">
            <Node pos="l" depth="3" NCoef="0" IVar="-1" Cut="0.0000000000000000e+00" cType="1" res="-2.6092059910297394e-02" rms="4.6809932589530945e-01" purity="5.0485110282897949e-01" nType="-99"/>
            <Node pos="r" depth="3" NCoef="0" IVar="-1" Cut="0.0000000000000000e+00" cType="1" res="-4.5020189136266708e-03" rms="4.6926435828208923e-01" purity="5.4694354534149170e-01" nType="-99"/>
          </Node>
        </Node>
        <Node pos="r" depth="1" NCoef="0" IVar="3" Cut="6.4454283714294434e+00" cType="1" res="0.0000000000000000e+00" rms="0.0000000000000000e+00" purity="4.5541566610336304e-01" nType="0">
          <Node pos="l" depth="2" NCoef="0" IVar="6" Cut="7.4750506877899170e-01" cType="1" res="-7.4978463351726532e-02" rms="4.7020441293716431e-01" purity="4.1328004002571106e-01" nType="0">
            <Node pos="l" depth="3" NCoef="0" IVar="-1" Cut="0.0000000000000000e+00" cType="1" res="1.2723436811938882e-03" rms="4.7506767511367798e-01" purity="5.1165205240249634e-01" nType="-99"/>
            <Node pos="r" depth="3" NCoef="0" IVar="-1" Cut="0.0000000000000000e+00" cType="1" res="-4.3651624582707882e-03" rms="4.5391744375228882e-01" purity="3.1998190283775330e-01" nType="-99"/>
          </Node>
          <Node pos="r" depth="2" NCoef="0" IVar="-1" Cut="0.0000000000000000e+00" cType="1" res="2.4678651243448257e-02" rms="4.6187961101531982e-01" purity="5.7301950454711914e-01" nType="-99"/>
        </Node>
      </Node>
    </BinaryTree>
    <BinaryTree type="DecisionTree" boostWeight="1.0000000000000000e+00" itree="57">
      <Node pos="s" depth="0" NCoef="0" IVar="6" Cut="1.9447247982025146e+00" cType="1" res="-1.2601704336702824e-02" rms="4.6721094846725464e-01" purity="4.9526190757751465e-01" nType="0">
        <Node pos="l" depth="1" NCoef="0" IVar="4" Cut="8.0641847848892212e-01" cType="1" res="-4.2271683923900127e-03" rms="4.6372768282890320e-01" purity="5.1373934745788574e-01" nType="0">
          <Node pos="l" depth="2" NCoef="0" IVar="6" Cut="-1.2034053802490234e+00" cType="1" res="-3.0200682580471039e-02" rms="4.6774899959564209e-01" purity="4.4347304105758667e-01" nType="0">
            <Node pos="l" depth="3" NCoef="0" IVar="-1" Cut="0.0000000000000000e+00" cType="1" res="-1.0605446994304657e-02" rms="4.7024214267730713e-01" purity="4.5219239592552185e-01" nType="-99"/>
            <Node pos="r" depth="3" NCoef="0" IVar="-1" Cut="0.0000000000000000e+00" cType="1" res="-5.8767292648553848e-02" rms="4.6503457427024841e-01" purity="4.3660816550254822e-01" nType="-99"/>
          </Node>
          <Node pos="r" depth="2" NCoef="0" IVar="9" Cut="5.9038429687500000e+04" cType="1" res="-1.1695828288793564e-04" rms="4.6295458078384399e-01" purity="5.2485877275466919e-01" nType="0">
            <Node pos="l" depth="3" NCoef="0" IVar="-1" Cut="0.0000000000000000e+00" cType="1" res="-3.6087548360228539e-03" rms="4.7085085511207581e-01" purity="4.6086844801902771e-01" nType="-99"/>
            <Node pos="r" depth="3" NCoef="0" IVar="-1" Cut="0.0000000000000000e+00" cType="1" res="1.6694230958819389e-02" rms="4.4023939967155457e-01" purity="6.9986647367477417e-01" nType="-99"/>
          </Node>
        </Node>
        <Node pos="r" depth="1" NCoef="0" IVar="9" Cut="6.1540632812500000e+04" cType="1" res="-3.1856309622526169e-02" rms="4.7456261515617371e-01" purity="4.5277869701385498e-01" nType="0">
          <Node pos="l" depth="2" NCoef="0" IVar="6" Cut="2.3444275856018066e+00" cType="1" res="-1.3246350921690464e-02" rms="4.7418203949928284e-01" purity="4.3750077486038208e-01" nType="0">
            <Node pos="l" depth="3" NCoef="0" IVar="-1" Cut="0.0000000000000000e+00" cType="1" res="-2.7354482561349869e-02" rms="4.5865732431411743e-01" purity="3.8348406553268433e-01" nType="-99"/>
            <Node pos="r" depth="3" NCoef="0" IVar="-1" Cut="0.0000000000000000e+00" cType="1" res="-1.5450608916580677e-03" rms="4.7811308503150940e-01" purity="4.5351755619049072e-01" nType="-99"/>
          </Node>
          <Node pos="r" depth="2" NCoef="0" IVar="-1" Cut="0.0000000000000000e+00" cType="1" res="-5.6688543409109116e-03" rms="4.6741393208503723e-01" purity="5.2047169208526611e-01" nType="-99"/>
        </Node>
      </Node>
    </BinaryTree>
    <BinaryTree type="DecisionTree" boostWeight="1.0000000000000000e+00" itree="58">
      <Node pos="s" depth="0" NCoef="0" IVar="4" Cut="3.2757308483123779e+00" cType="1" res="-1.3181960210204124e-02" rms="4.6703860163688660e-01" purity="4.9228930473327637e-01" nType="0">
        <Node pos="l" depth="1" NCoef="0" IVar="6" Cut="-2.2439725399017334e+00" cType="1" res="-8.3035556599497795e-03" rms="4.6875599026679993e-01" purity="5.0396060943603516e-01" nType="0">
          <Node pos="l" depth="2" NCoef="0" IVar="5" Cut="-1.9447482824325562e+00" cType="1" res="-2.0112805068492889e-02" rms="4.7520488500595093e-01" purity="4.5953875780105591e-01" nType="0">
            <Node pos="l" depth="3" NCoef="0" IVar="-1" Cut="0.0000000000000000e+00" cType="1" res="4.4576224172487855e-04" rms="4.8373797535896301e-01" purity="5.2691572904586792e-01" nType="-99"/>
            <Node pos="r" depth="3" NCoef="0" IVar="-1" Cut="0.0000000000000000e+00" cType="1" res="-3.2400965690612793e-02" rms="4.6966755390167236e-01" purity="4.1971862316131592e-01" nType="-99"/>
          </Node>
          <Node pos="r" depth="2" NCoef="0" IVar="6" Cut="2.3721246719360352e+00" cType="1" res="-4.4501549564301968e-03" rms="4.6656772494316101e-01" purity="5.1845562458038330e-01" nType="0">
            <Node pos="l" depth="3" NCoef="0" IVar="-1" Cut="0.0000000000000000e+00" cType="1" res="2.5936861056834459e-03" rms="4.6069666743278503e-01" purity="5.3809189796447754e-01" nType="-99"/>
            <Node pos="r" depth="3" NCoef="0" IVar="-1" Cut="0.0000000000000000e+00" cType="1" res="-1.4516743831336498e-02" rms="4.7990766167640686e-01" purity="4.7163996100425720e-01" nType="-99"/>
          </Node>
        </Node>
        <Node pos="r" depth="1" NCoef="0" IVar="-1" Cut="0.0000000000000000e+00" cType="1" res="-4.3680514208972454e-03" rms="4.3402785062789917e-01" purity="3.1758603453636169e-01" nType="-99"/>
      </Node>
    </BinaryTree>
    <BinaryTree type="DecisionTree" boostWeight="1.0000000000000000e+00" itree="59">
      <Node pos="s" depth="0" NCoef="0" IVar="6" Cut="1.0471297502517700e+00" cType="1" res="-1.8461102154105902e-03" rms="4.6807363629341125e-01" purity="5.0329279899597168e-01" nType="0">
        <Node pos="l" depth="1" NCoef="0" IVar="4" Cut="2.7389271259307861e+00" cType="1" res="7.3434971272945404e-03" rms="4.6576955914497375e-01" purity="5.2331674098968506e-01" nType="0">
          <Node pos="l" depth="2" NCoef="0" IVar="2" Cut="2.1494479370117188e+02" cType="1" res="1.2612835504114628e-02" rms="4.6690338850021362e-01" purity="5.1893889904022217e-01" nType="0">
            <Node pos="l" depth="3" NCoef="0" IVar="-1" Cut="0.0000000000000000e+00" cType="1" res="6.2116328626871109e-03" rms="4.6292358636856079e-01" purity="5.2209556102752686e-01" nType="-99"/>
            <Node pos="r" depth="3" NCoef="0" IVar="-1" Cut="0.0000000000000000e+00" cType="1" res="2.8643727302551270e-02" rms="4.7427421808242798e-01" purity="5.1281982660293579e-01" nType="-99"/>
          </Node>
          <Node pos="r" depth="2" NCoef="0" IVar="9" Cut="5.6023218750000000e+04" cType="1" res="-1.0993641801178455e-02" rms="4.6133324503898621e-01" purity="5.3855150938034058e-01" nType="0">
            <Node pos="l" depth="3" NCoef="0" IVar="-1" Cut="0.0000000000000000e+00" cType="1" res="-3.5971488803625107e-02" rms="4.7297990322113037e-01" purity="4.5267236232757568e-01" nType="-99"/>
            <Node pos="r" depth="3" NCoef="0" IVar="-1" Cut="0.0000000000000000e+00" cType="1" res="3.1322158873081207e-02" rms="4.3427905440330505e-01" purity="7.1229815483093262e-01" nType="-99"/>
          </Node>
        </Node>
        <Node pos="r" depth="1" NCoef="0" IVar="4" Cut="2.9288277626037598e+00" cType="1" res="0.0000000000000000e+00" rms="0.0000000000000000e+00" purity="4.7365733981132507e-01" nType="0">
          <Node pos="l" depth="2" NCoef="0" IVar="6" Cut="1.5458834171295166e+00" cType="1" res="-6.3708294183015823e-03" rms="4.7232010960578918e-01" purity="4.8450914025306702e-01" nType="0">
            <Node pos="l" depth="3" NCoef="0" IVar="-1" Cut="0.0000000000000000e+00" cType="1" res="-3.2095681875944138e-02" rms="4.4922783970832825e-01" purity="4.9537721276283264e-01" nType="-99"/>
            <Node pos="r" depth="3" NCoef="0" IVar="-1" Cut="0.0000000000000000e+00" cType="1" res="-1.6884092474356294e-03" rms="4.7542682290077209e-01" purity="4.8291602730751038e-01" nType="-99"/>
          </Node>
          <Node pos="r" depth="2" NCoef="0" IVar="-1" Cut="0.0000000000000000e+00" cType="1" res="-5.8061671443283558e-03" rms="4.6329808235168457e-01" purity="4.2344161868095398e-01" nType="-99"/>
        </Node>
      </Node>
    </BinaryTree>
    <BinaryTree type="DecisionTree" boostWeight="1.0000000000000000e+00" itree="60">
      <Node pos="s" depth="0" NCoef="0" IVar="6" Cut="2.8422811031341553e+00" cType="1" res="-1.8569476669654250e-03" rms="4.6763101220130920e-01" purity="5.0658488273620605e-01" nType="0">
        <Node pos="l" depth="1" NCoef="0" IVar="5" Cut="2.5430574417114258e+00" cType="1" res="2.3403447121381760e-03" rms="4.6661406755447388e-01" purity="5.1322078704833984e-01" nType="0">
          <Node pos="l" depth="2" NCoef="0" IVar="5" Cut="2.2723417282104492e+00" cType="1" res="5.0393780693411827e-03" rms="4.6821638941764832e-01" purity="5.0665581226348877e-01" nType="0">
            <Node pos="l" depth="3" NCoef="0" IVar="-1" Cut="0.0000000000000000e+00" cType="1" res="3.0760506633669138e-03" rms="4.6869757771492004e-01" purity="5.0309443473815918e-01" nType="-99"/>
            <Node pos="r" depth="3" NCoef="0" IVar="-1" Cut="0.0000000000000000e+00" cType="1" res="3.4949313849210739e-02" rms="4.6146130561828613e-01" purity="5.4966962337493896e-01" nType="-99"/>
          </Node>
          <Node pos="r" depth="2" NCoef="0" IVar="9" Cut="3.8518527343750000e+04" cType="1" res="-1.2825333513319492e-02" rms="4.5721015334129333e-01" purity="5.5010902881622314e-01" nType="0">
            <Node pos="l" depth="3" NCoef="0" IVar="-1" Cut="0.0000000000000000e+00" cType="1" res="-3.6564849317073822e-02" rms="4.5644789934158325e-01" purity="3.7100458145141602e-01" nType="-99"/>
            <Node pos="r" depth="3" NCoef="0" IVar="-1" Cut="0.0000000000000000e+00" cType="1" res="4.1839699260890484e-03" rms="4.5665097236633301e-01" purity="6.3737219572067261e-01" nType="-99"/>
          </Node>
        </Node>
        <Node pos="r" depth="1" NCoef="0" IVar="5" Cut="7.4729657173156738e-01" cType="1" res="-3.8946390151977539e-02" rms="4.7491344809532166e-01" purity="4.4794675707817078e-01" nType="0">
          <Node pos="l" depth="2" NCoef="0" IVar="-1" Cut="0.0000000000000000e+00" cType="1" res="-1.9334528595209122e-02" rms="4.6623980998992920e-01" purity="3.8260653614997864e-01" nType="-99"/>
          <Node pos="r" depth="2" NCoef="0" IVar="-1" Cut="0.0000000000000000e+00" cType="1" res="9.2081616458017379e-05" rms="4.8077166080474854e-01" purity="5.1655250787734985e-01" nType="-99"/>
        </Node>
      </Node>
    </BinaryTree>
    <BinaryTree type="DecisionTree" boostWeight="1.0000000000000000e+00" itree="61">
      <Node pos="s" depth="0" NCoef="0" IVar="8" Cut="6.4312890625000000e+04" cType="1" res="-7.6471632346510887e-03" rms="4.6749985218048096e-01" purity="4.9763649702072144e-01" nType="0">
        <Node pos="l" depth="1" NCoef="0" IVar="9" Cut="2.8704171875000000e+04" cType="1" res="-9.1645680367946625e-04" rms="4.7021627426147461e-01" purity="4.1266515851020813e-01" nType="0">
          <Node pos="l" depth="2" NCoef="0" IVar="8" Cut="3.2498400390625000e+04" cType="1" res="0.0000000000000000e+00" rms="0.0000000000000000e+00" purity="2.9026043415069580e-01" nType="0">
            <Node pos="l" depth="3" NCoef="0" IVar="-1" Cut="0.0000000000000000e+00" cType="1" res="-1.7983146011829376e-02" rms="4.0435266494750977e-01" purity="2.1579550206661224e-01" nType="-99"/>
            <Node pos="r" depth="3" NCoef="0" IVar="-1" Cut="0.0000000000000000e+00" cType="1" res="-5.9597948566079140e-03" rms="4.5578330755233765e-01" purity="3.3563578128814697e-01" nType="-99"/>
          </Node>
          <Node pos="r" depth="2" NCoef="0" IVar="9" Cut="3.0380025390625000e+04" cType="1" res="0.0000000000000000e+00" rms="0.0000000000000000e+00" purity="4.5635733008384705e-01" nType="0">
            <Node pos="l" depth="3" NCoef="0" IVar="-1" Cut="0.0000000000000000e+00" cType="1" res="5.1405679434537888e-02" rms="4.6892020106315613e-01" purity="3.8265109062194824e-01" nType="-99"/>
            <Node pos="r" depth="3" NCoef="0" IVar="-1" Cut="0.0000000000000000e+00" cType="1" res="-1.0733388990047388e-05" rms="4.8274084925651550e-01" purity="4.6718269586563110e-01" nType="-99"/>
          </Node>
        </Node>
        <Node pos="r" depth="1" NCoef="0" IVar="4" Cut="3.0043828487396240e+00" cType="1" res="-1.5705777332186699e-02" rms="4.6409821510314941e-01" purity="5.9937191009521484e-01" nType="0">
          <Node pos="l" depth="2" NCoef="0" IVar="5" Cut="1.3460714817047119e+00" cType="1" res="-9.6414238214492798e-03" rms="4.6355751156806946e-01" purity="6.1122697591781616e-01" nType="0">
            <Node pos="l" depth="3" NCoef="0" IVar="-1" Cut="0.0000000000000000e+00" cType="1" res="-1.9769996404647827e-02" rms="4.6628883481025696e-01" purity="5.9752845764160156e-01" nType="-99"/>
            <Node pos="r" depth="3" NCoef="0" IVar="-1" Cut="0.0000000000000000e+00" cType="1" res="2.0311600528657436e-03" rms="4.5924994349479675e-01" purity="6.3150388002395630e-01" nType="-99"/>
          </Node>
          <Node pos="r" depth="2" NCoef="0" IVar="-1" Cut="0.0000000000000000e+00" cType="1" res="-1.5829641371965408e-02" rms="4.6566003561019897e-01" purity="5.3239500522613525e-01" nType="-99"/>
        </Node>
      </Node>
    </BinaryTree>
    <BinaryTree type="DecisionTree" boostWeight="1.0000000000000000e+00" itree="62">
      <Node pos="s" depth="0" NCoef="0" IVar="4" Cut="2.9988031387329102e+00" cType="1" res="-7.6222786447033286e-04" rms="4.6733072400093079e-01" purity="5.0263917446136475e-01" nType="0">
        <Node pos="l" depth="1" NCoef="0" IVar="3" Cut="-1.3962131738662720e+00" cType="1" res="0.0000000000000000e+00" rms="0.0000000000000000e+00" purity="5.1103466749191284e-01" nType="0">
          <Node pos="l" depth="2" NCoef="0" IVar="-1" Cut="0.0000000000000000e+00" cType="1" res="3.7793610244989395e-02" rms="4.8462471365928650e-01" purity="4.6973311901092529e-01" nType="-99"/>
          <Node pos="r" depth="2" NCoef="0" IVar="6" Cut="-2.5431637763977051e+00" cType="1" res="1.8202357459813356e-03" rms="4.6575644612312317e-01" purity="5.1399666070938110e-01" nType="0">
            <Node pos="l" depth="3" NCoef="0" IVar="-1" Cut="0.0000000000000000e+00" cType="1" res="-1.5880621969699860e-02" rms="4.7424486279487610e-01" purity="4.7067373991012573e-01" nType="-99"/>
            <Node pos="r" depth="3" NCoef="0" IVar="-1" Cut="0.0000000000000000e+00" cType="1" res="5.9060552157461643e-03" rms="4.6377041935920715e-01" purity="5.2364820241928101e-01" nType="-99"/>
          </Node>
        </Node>
        <Node pos="r" depth="1" NCoef="0" IVar="4" Cut="3.3799216747283936e+00" cType="1" res="0.0000000000000000e+00" rms="0.0000000000000000e+00" purity="4.5428636670112610e-01" nType="0">
          <Node pos="l" depth="2" NCoef="0" IVar="4" Cut="3.1258652210235596e+00" cType="1" res="0.0000000000000000e+00" rms="0.0000000000000000e+00" purity="5.1078343391418457e-01" nType="0">
            <Node pos="l" depth="3" NCoef="0" IVar="-1" Cut="0.0000000000000000e+00" cType="1" res="-4.1571832261979580e-03" rms="4.6785581111907959e-01" purity="5.0153094530105591e-01" nType="-99"/>
            <Node pos="r" depth="3" NCoef="0" IVar="-1" Cut="0.0000000000000000e+00" cType="1" res="3.4779701381921768e-02" rms="4.8042589426040649e-01" purity="5.2052575349807739e-01" nType="-99"/>
          </Node>
          <Node pos="r" depth="2" NCoef="0" IVar="-1" Cut="0.0000000000000000e+00" cType="1" res="-4.0430226363241673e-03" rms="4.4051828980445862e-01" purity="3.1734061241149902e-01" nType="-99"/>
        </Node>
      </Node>
    </BinaryTree>
    <BinaryTree type="DecisionTree" boostWeight="1.0000000000000000e+00" itree="63">
      <Node pos="s" depth="0" NCoef="0" IVar="1" Cut="2.5608723437500000e+05" cType="1" res="0.0000000000000000e+00" rms="0.0000000000000000e+00" purity="5.0266772508621216e-01" nType="0">
        <Node pos="l" depth="1" NCoef="0" IVar="1" Cut="1.8479467187500000e+05" cType="1" res="-3.2359061297029257e-03" rms="4.6788513660430908e-01" purity="5.1574611663818359e-01" nType="0">
          <Node pos="l" depth="2" NCoef="0" IVar="1" Cut="1.3233971875000000e+05" cType="1" res="3.6739401984959841e-03" rms="4.7194305062294006e-01" purity="5.3934782743453979e-01" nType="0">
            <Node pos="l" depth="3" NCoef="0" IVar="-1" Cut="0.0000000000000000e+00" cType="1" res="-6.3287033699452877e-03" rms="4.7568434476852417e-01" purity="5.0315648317337036e-01" nType="-99"/>
            <Node pos="r" depth="3" NCoef="0" IVar="-1" Cut="0.0000000000000000e+00" cType="1" res="1.4812722802162170e-02" rms="4.6960482001304626e-01" purity="5.5846554040908813e-01" nType="-99"/>
          </Node>
          <Node pos="r" depth="2" NCoef="0" IVar="4" Cut="2.5007975101470947e+00" cType="1" res="-3.1266387552022934e-02" rms="4.4996243715286255e-01" purity="4.2000344395637512e-01" nType="0">
            <Node pos="l" depth="3" NCoef="0" IVar="-1" Cut="0.0000000000000000e+00" cType="1" res="-4.4868767261505127e-02" rms="4.4336768984794617e-01" purity="3.8717028498649597e-01" nType="-99"/>
            <Node pos="r" depth="3" NCoef="0" IVar="-1" Cut="0.0000000000000000e+00" cType="1" res="1.9483309006318450e-03" rms="4.6404191851615906e-01" purity="5.0023317337036133e-01" nType="-99"/>
          </Node>
        </Node>
        <Node pos="r" depth="1" NCoef="0" IVar="4" Cut="1.3377641439437866e+00" cType="1" res="1.8631577491760254e-02" rms="4.5975440740585327e-01" purity="3.5796397924423218e-01" nType="0">
          <Node pos="l" depth="2" NCoef="0" IVar="-1" Cut="0.0000000000000000e+00" cType="1" res="9.4654761254787445e-02" rms="4.6303752064704895e-01" purity="3.7486666440963745e-01" nType="-99"/>
          <Node pos="r" depth="2" NCoef="0" IVar="-1" Cut="0.0000000000000000e+00" cType="1" res="-3.2688051462173462e-02" rms="4.5192143321037292e-01" purity="3.4173220396041870e-01" nType="-99"/>
        </Node>
      </Node>
    </BinaryTree>
    <BinaryTree type="DecisionTree" boostWeight="1.0000000000000000e+00" itree="64">
      <Node pos="s" depth="0" NCoef="0" IVar="4" Cut="3.0043828487396240e+00" cType="1" res="-9.3333059921860695e-03" rms="4.6803444623947144e-01" purity="4.9636957049369812e-01" nType="0">
        <Node pos="l" depth="1" NCoef="0" IVar="2" Cut="5.1134411621093750e+02" cType="1" res="-2.3572766222059727e-03" rms="4.6927085518836975e-01" purity="5.0621420145034790e-01" nType="0">
          <Node pos="l" depth="2" NCoef="0" IVar="2" Cut="1.8921368408203125e+02" cType="1" res="4.0172561421059072e-04" rms="4.6857142448425293e-01" purity="5.0346285104751587e-01" nType="0">
            <Node pos="l" depth="3" NCoef="0" IVar="-1" Cut="0.0000000000000000e+00" cType="1" res="1.0321795940399170e-02" rms="4.6726453304290771e-01" purity="5.2781748771667480e-01" nType="-99"/>
            <Node pos="r" depth="3" NCoef="0" IVar="-1" Cut="0.0000000000000000e+00" cType="1" res="-8.0026090145111084e-03" rms="4.6983826160430908e-01" purity="4.7504851222038269e-01" nType="-99"/>
          </Node>
          <Node pos="r" depth="2" NCoef="0" IVar="-1" Cut="0.0000000000000000e+00" cType="1" res="-4.8781480640172958e-02" rms="4.7964462637901306e-01" purity="5.6061744689941406e-01" nType="-99"/>
        </Node>
        <Node pos="r" depth="1" NCoef="0" IVar="6" Cut="7.4747383594512939e-01" cType="1" res="-5.1277082413434982e-02" rms="4.5829734206199646e-01" purity="4.3717783689498901e-01" nType="0">
          <Node pos="l" depth="2" NCoef="0" IVar="-1" Cut="0.0000000000000000e+00" cType="1" res="9.6452131401747465e-04" rms="4.6284663677215576e-01" purity="5.1583689451217651e-01" nType="-99"/>
          <Node pos="r" depth="2" NCoef="0" IVar="-1" Cut="0.0000000000000000e+00" cType="1" res="-4.2075938545167446e-03" rms="4.4694775342941284e-01" purity="3.5438054800033569e-01" nType="-99"/>
        </Node>
      </Node>
    </BinaryTree>
    <BinaryTree type="DecisionTree" boostWeight="1.0000000000000000e+00" itree="65">
      <Node pos="s" depth="0" NCoef="0" IVar="4" Cut="2.9331028461456299e+00" cType="1" res="0.0000000000000000e+00" rms="0.0000000000000000e+00" purity="4.9631193280220032e-01" nType="0">
        <Node pos="l" depth="1" NCoef="0" IVar="5" Cut="-2.5430788993835449e+00" cType="1" res="-3.4471261315047741e-03" rms="4.6503579616546631e-01" purity="5.0433981418609619e-01" nType="0">
          <Node pos="l" depth="2" NCoef="0" IVar="3" Cut="4.9992151260375977e+00" cType="1" res="0.0000000000000000e+00" rms="0.0000000000000000e+00" purity="5.1261246204376221e-01" nType="0">
            <Node pos="l" depth="3" NCoef="0" IVar="-1" Cut="0.0000000000000000e+00" cType="1" res="-1.5914076939225197e-02" rms="4.7262719273567200e-01" purity="4.5957231521606445e-01" nType="-99"/>
            <Node pos="r" depth="3" NCoef="0" IVar="-1" Cut="0.0000000000000000e+00" cType="1" res="1.0002385824918747e-02" rms="4.5115077495574951e-01" purity="6.1078047752380371e-01" nType="-99"/>
          </Node>
          <Node pos="r" depth="2" NCoef="0" IVar="4" Cut="2.3911747932434082e+00" cType="1" res="2.0272919209674001e-04" rms="4.6480953693389893e-01" purity="5.0286531448364258e-01" nType="0">
            <Node pos="l" depth="3" NCoef="0" IVar="-1" Cut="0.0000000000000000e+00" cType="1" res="-5.7536358945071697e-03" rms="4.6548667550086975e-01" purity="4.8513489961624146e-01" nType="-99"/>
            <Node pos="r" depth="3" NCoef="0" IVar="-1" Cut="0.0000000000000000e+00" cType="1" res="1.6144577413797379e-02" rms="4.6198937296867371e-01" purity="5.6454205513000488e-01" nType="-99"/>
          </Node>
        </Node>
        <Node pos="r" depth="1" NCoef="0" IVar="7" Cut="6.0000000000000000e+00" cType="1" res="0.0000000000000000e+00" rms="0.0000000000000000e+00" purity="4.5903074741363525e-01" nType="0">
          <Node pos="l" depth="2" NCoef="0" IVar="3" Cut="4.0201678276062012e+00" cType="1" res="-4.0153409354388714e-03" rms="4.6869537234306335e-01" purity="4.6077474951744080e-01" nType="0">
            <Node pos="l" depth="3" NCoef="0" IVar="-1" Cut="0.0000000000000000e+00" cType="1" res="-2.3091232404112816e-02" rms="4.7113826870918274e-01" purity="3.9944711327552795e-01" nType="-99"/>
            <Node pos="r" depth="3" NCoef="0" IVar="-1" Cut="0.0000000000000000e+00" cType="1" res="2.0602423697710037e-02" rms="4.6476981043815613e-01" purity="5.2279388904571533e-01" nType="-99"/>
          </Node>
          <Node pos="r" depth="2" NCoef="0" IVar="-1" Cut="0.0000000000000000e+00" cType="1" res="-4.9355942755937576e-03" rms="4.5430645346641541e-01" purity="4.5554247498512268e-01" nType="-99"/>
        </Node>
      </Node>
    </BinaryTree>
    <BinaryTree type="DecisionTree" boostWeight="1.0000000000000000e+00" itree="66">
      <Node pos="s" depth="0" NCoef="0" IVar="4" Cut="3.0043828487396240e+00" cType="1" res="-6.7857648245990276e-03" rms="4.6683329343795776e-01" purity="4.9748709797859192e-01" nType="0">
        <Node pos="l" depth="1" NCoef="0" IVar="2" Cut="3.4896102905273438e+02" cType="1" res="-3.0455612577497959e-03" rms="4.6783018112182617e-01" purity="5.0422465801239014e-01" nType="0">
          <Node pos="l" depth="2" NCoef="0" IVar="2" Cut="1.4281773376464844e+02" cType="1" res="-5.0543784163892269e-03" rms="4.6652498841285706e-01" purity="4.9630790948867798e-01" nType="0">
            <Node pos="l" depth="3" NCoef="0" IVar="-1" Cut="0.0000000000000000e+00" cType="1" res="-1.5609959140419960e-02" rms="4.6452912688255310e-01" purity="3.9992162585258484e-01" nType="-99"/>
            <Node pos="r" depth="3" NCoef="0" IVar="-1" Cut="0.0000000000000000e+00" cType="1" res="-1.4296553563326597e-03" rms="4.6656000614166260e-01" purity="5.0572800636291504e-01" nType="-99"/>
          </Node>
          <Node pos="r" depth="2" NCoef="0" IVar="9" Cut="4.5817890625000000e+04" cType="1" res="1.1207026429474354e-02" rms="4.7674492001533508e-01" purity="5.6039363145828247e-01" nType="0">
            <Node pos="l" depth="3" NCoef="0" IVar="-1" Cut="0.0000000000000000e+00" cType="1" res="4.8203639686107635e-02" rms="4.8574310541152954e-01" purity="4.8418739438056946e-01" nType="-99"/>
            <Node pos="r" depth="3" NCoef="0" IVar="-1" Cut="0.0000000000000000e+00" cType="1" res="-1.3072128407657146e-02" rms="4.6662575006484985e-01" purity="6.3275927305221558e-01" nType="-99"/>
          </Node>
        </Node>
        <Node pos="r" depth="1" NCoef="0" IVar="6" Cut="1.0467859506607056e+00" cType="1" res="-2.9402099549770355e-02" rms="4.6011212468147278e-01" purity="4.5674663782119751e-01" nType="0">
          <Node pos="l" depth="2" NCoef="0" IVar="-1" Cut="0.0000000000000000e+00" cType="1" res="-1.2079279404133558e-03" rms="4.6319541335105896e-01" purity="5.1834636926651001e-01" nType="-99"/>
          <Node pos="r" depth="2" NCoef="0" IVar="-1" Cut="0.0000000000000000e+00" cType="1" res="-4.4546006247401237e-03" rms="4.5396542549133301e-01" purity="3.8191685080528259e-01" nType="-99"/>
        </Node>
      </Node>
    </BinaryTree>
    <BinaryTree type="DecisionTree" boostWeight="1.0000000000000000e+00" itree="67">
      <Node pos="s" depth="0" NCoef="0" IVar="4" Cut="2.9671986103057861e+00" cType="1" res="-7.7075916342437267e-03" rms="4.6788346767425537e-01" purity="4.9840596318244934e-01" nType="0">
        <Node pos="l" depth="1" NCoef="0" IVar="3" Cut="4.7695155143737793e+00" cType="1" res="-9.5192069420590997e-04" rms="4.6836626529693604e-01" purity="5.0693374872207642e-01" nType="0">
          <Node pos="l" depth="2" NCoef="0" IVar="2" Cut="1.8002693176269531e+02" cType="1" res="4.4348742812871933e-03" rms="4.7717487812042236e-01" purity="4.9893760681152344e-01" nType="0">
            <Node pos="l" depth="3" NCoef="0" IVar="-1" Cut="0.0000000000000000e+00" cType="1" res="-4.6272384934127331e-03" rms="4.7299546003341675e-01" purity="5.0351458787918091e-01" nType="-99"/>
            <Node pos="r" depth="3" NCoef="0" IVar="-1" Cut="0.0000000000000000e+00" cType="1" res="1.5122662298381329e-02" rms="4.8067137598991394e-01" purity="4.9481958150863647e-01" nType="-99"/>
          </Node>
          <Node pos="r" depth="2" NCoef="0" IVar="9" Cut="4.5812167968750000e+04" cType="1" res="0.0000000000000000e+00" rms="0.0000000000000000e+00" purity="5.1600486040115356e-01" nType="0">
            <Node pos="l" depth="3" NCoef="0" IVar="-1" Cut="0.0000000000000000e+00" cType="1" res="1.9036727026104927e-03" rms="4.6715575456619263e-01" purity="4.0966075658798218e-01" nType="-99"/>
            <Node pos="r" depth="3" NCoef="0" IVar="-1" Cut="0.0000000000000000e+00" cType="1" res="-2.5827487930655479e-02" rms="4.4485136866569519e-01" purity="6.6430270671844482e-01" nType="-99"/>
          </Node>
        </Node>
        <Node pos="r" depth="1" NCoef="0" IVar="4" Cut="3.3427519798278809e+00" cType="1" res="-4.2833875864744186e-02" rms="4.6378171443939209e-01" purity="4.5406535267829895e-01" nType="0">
          <Node pos="l" depth="2" NCoef="0" IVar="4" Cut="3.1102659702301025e+00" cType="1" res="-2.2032793611288071e-02" rms="4.7357982397079468e-01" purity="5.1366770267486572e-01" nType="0">
            <Node pos="l" depth="3" NCoef="0" IVar="-1" Cut="0.0000000000000000e+00" cType="1" res="-3.9640488103032112e-03" rms="4.7375276684761047e-01" purity="5.0275284051895142e-01" nType="-99"/>
            <Node pos="r" depth="3" NCoef="0" IVar="-1" Cut="0.0000000000000000e+00" cType="1" res="3.7889010272920132e-03" rms="4.7206479310989380e-01" purity="5.2622509002685547e-01" nType="-99"/>
          </Node>
          <Node pos="r" depth="2" NCoef="0" IVar="-1" Cut="0.0000000000000000e+00" cType="1" res="-4.6747997403144836e-03" rms="4.3704819679260254e-01" purity="3.1865432858467102e-01" nType="-99"/>
        </Node>
      </Node>
    </BinaryTree>
    <BinaryTree type="DecisionTree" boostWeight="1.0000000000000000e+00" itree="68">
      <Node pos="s" depth="0" NCoef="0" IVar="6" Cut="-2.8423771858215332e+00" cType="1" res="-7.0907305926084518e-03" rms="4.6530184149742126e-01" purity="4.9658414721488953e-01" nType="0">
        <Node pos="l" depth="1" NCoef="0" IVar="5" Cut="-7.4612754583358765e-01" cType="1" res="2.1139122545719147e-02" rms="4.7790902853012085e-01" purity="5.0387728214263916e-01" nType="0">
          <Node pos="l" depth="2" NCoef="0" IVar="-1" Cut="0.0000000000000000e+00" cType="1" res="4.7317724674940109e-02" rms="4.7976091504096985e-01" purity="5.5279886722564697e-01" nType="-99"/>
          <Node pos="r" depth="2" NCoef="0" IVar="-1" Cut="0.0000000000000000e+00" cType="1" res="-6.7070815712213516e-03" rms="4.7456020116806030e-01" purity="4.5402494072914124e-01" nType="-99"/>
        </Node>
        <Node pos="r" depth="1" NCoef="0" IVar="4" Cut="3.1815693378448486e+00" cType="1" res="-1.0113394819200039e-02" rms="4.6382984519004822e-01" purity="4.9580323696136475e-01" nType="0">
          <Node pos="l" depth="2" NCoef="0" IVar="9" Cut="6.8129031250000000e+04" cType="1" res="-2.7242465876042843e-03" rms="4.6656137704849243e-01" purity="5.1120138168334961e-01" nType="0">
            <Node pos="l" depth="3" NCoef="0" IVar="-1" Cut="0.0000000000000000e+00" cType="1" res="1.3656329829245806e-03" rms="4.6964097023010254e-01" purity="4.7696989774703979e-01" nType="-99"/>
            <Node pos="r" depth="3" NCoef="0" IVar="-1" Cut="0.0000000000000000e+00" cType="1" res="-2.9685962945222855e-02" rms="4.5131748914718628e-01" purity="6.7109572887420654e-01" nType="-99"/>
          </Node>
          <Node pos="r" depth="2" NCoef="0" IVar="-1" Cut="0.0000000000000000e+00" cType="1" res="-4.7398717142641544e-03" rms="4.2451456189155579e-01" purity="3.2738599181175232e-01" nType="-99"/>
        </Node>
      </Node>
    </BinaryTree>
    <BinaryTree type="DecisionTree" boostWeight="1.0000000000000000e+00" itree="69">
      <Node pos="s" depth="0" NCoef="0" IVar="4" Cut="3.2324471473693848e+00" cType="1" res="-1.5889570116996765e-02" rms="4.6659791469573975e-01" purity="4.8481085896492004e-01" nType="0">
        <Node pos="l" depth="1" NCoef="0" IVar="4" Cut="3.0814604759216309e+00" cType="1" res="-6.1406111344695091e-03" rms="4.6913737058639526e-01" purity="5.0357109308242798e-01" nType="0">
          <Node pos="l" depth="2" NCoef="0" IVar="7" Cut="7.0000000000000000e+00" cType="1" res="-2.3654100950807333e-03" rms="4.6871623396873474e-01" purity="5.0525951385498047e-01" nType="0">
            <Node pos="l" depth="3" NCoef="0" IVar="-1" Cut="0.0000000000000000e+00" cType="1" res="-4.6956432051956654e-03" rms="4.6996870636940002e-01" purity="4.8930826783180237e-01" nType="-99"/>
            <Node pos="r" depth="3" NCoef="0" IVar="-1" Cut="0.0000000000000000e+00" cType="1" res="2.6957511901855469e-02" rms="4.5765835046768188e-01" purity="6.3604289293289185e-01" nType="-99"/>
          </Node>
          <Node pos="r" depth="2" NCoef="0" IVar="-1" Cut="0.0000000000000000e+00" cType="1" res="-6.2417672015726566e-03" rms="4.7138273715972900e-01" purity="4.7251412272453308e-01" nType="-99"/>
        </Node>
        <Node pos="r" depth="1" NCoef="0" IVar="-1" Cut="0.0000000000000000e+00" cType="1" res="-3.2116950023919344e-03" rms="4.2144343256950378e-01" purity="2.7266857028007507e-01" nType="-99"/>
      </Node>
    </BinaryTree>
    <BinaryTree type="DecisionTree" boostWeight="1.0000000000000000e+00" itree="70">
      <Node pos="s" depth="0" NCoef="0" IVar="4" Cut="3.2711985111236572e+00" cType="1" res="-1.7426447942852974e-02" rms="4.6600043773651123e-01" purity="4.8154890537261963e-01" nType="0">
        <Node pos="l" depth="1" NCoef="0" IVar="4" Cut="2.8149025440216064e+00" cType="1" res="-8.4804277867078781e-03" rms="4.6801894903182983e-01" purity="4.9780192971229553e-01" nType="0">
          <Node pos="l" depth="2" NCoef="0" IVar="8" Cut="7.3588218750000000e+04" cType="1" res="-3.1771638896316290e-03" rms="4.6732068061828613e-01" purity="4.9573567509651184e-01" nType="0">
            <Node pos="l" depth="3" NCoef="0" IVar="-1" Cut="0.0000000000000000e+00" cType="1" res="-8.5070822387933731e-03" rms="4.6931126713752747e-01" purity="4.2234218120574951e-01" nType="-99"/>
            <Node pos="r" depth="3" NCoef="0" IVar="-1" Cut="0.0000000000000000e+00" cType="1" res="1.1894842609763145e-02" rms="4.6317988634109497e-01" purity="6.3510352373123169e-01" nType="-99"/>
          </Node>
          <Node pos="r" depth="2" NCoef="0" IVar="7" Cut="6.0000000000000000e+00" cType="1" res="-3.5108752548694611e-02" rms="4.7060680389404297e-01" purity="5.0817722082138062e-01" nType="0">
            <Node pos="l" depth="3" NCoef="0" IVar="-1" Cut="0.0000000000000000e+00" cType="1" res="-2.1902553271502256e-03" rms="4.7403633594512939e-01" purity="5.0194430351257324e-01" nType="-99"/>
            <Node pos="r" depth="3" NCoef="0" IVar="-1" Cut="0.0000000000000000e+00" cType="1" res="-4.6707978472113609e-03" rms="4.5492154359817505e-01" purity="5.2174663543701172e-01" nType="-99"/>
          </Node>
        </Node>
        <Node pos="r" depth="1" NCoef="0" IVar="-1" Cut="0.0000000000000000e+00" cType="1" res="-2.5121499784290791e-03" rms="4.2574176192283630e-01" purity="2.8321516513824463e-01" nType="-99"/>
      </Node>
    </BinaryTree>
    <BinaryTree type="DecisionTree" boostWeight="1.0000000000000000e+00" itree="71">
      <Node pos="s" depth="0" NCoef="0" IVar="6" Cut="2.5431072711944580e+00" cType="1" res="-2.8509285766631365e-03" rms="4.6730330586433411e-01" purity="5.0063097476959229e-01" nType="0">
        <Node pos="l" depth="1" NCoef="0" IVar="5" Cut="-2.5432066917419434e+00" cType="1" res="2.0770605187863111e-03" rms="4.6575647592544556e-01" purity="5.1285994052886963e-01" nType="0">
          <Node pos="l" depth="2" NCoef="0" IVar="8" Cut="7.4039843750000000e+04" cType="1" res="2.4058874696493149e-02" rms="4.6684077382087708e-01" purity="5.5603146553039551e-01" nType="0">
            <Node pos="l" depth="3" NCoef="0" IVar="-1" Cut="0.0000000000000000e+00" cType="1" res="-7.3226490058004856e-03" rms="4.7624075412750244e-01" purity="4.4835790991783142e-01" nType="-99"/>
            <Node pos="r" depth="3" NCoef="0" IVar="-1" Cut="0.0000000000000000e+00" cType="1" res="5.8344103395938873e-02" rms="4.5431616902351379e-01" purity="6.7145967483520508e-01" nType="-99"/>
          </Node>
          <Node pos="r" depth="2" NCoef="0" IVar="7" Cut="6.0000000000000000e+00" cType="1" res="-2.6115502696484327e-03" rms="4.6538963913917542e-01" purity="5.0364911556243896e-01" nType="0">
            <Node pos="l" depth="3" NCoef="0" IVar="-1" Cut="0.0000000000000000e+00" cType="1" res="2.7259443886578083e-03" rms="4.6813085675239563e-01" purity="4.6062043309211731e-01" nType="-99"/>
            <Node pos="r" depth="3" NCoef="0" IVar="-1" Cut="0.0000000000000000e+00" cType="1" res="-1.8215781077742577e-02" rms="4.5824664831161499e-01" purity="6.1041504144668579e-01" nType="-99"/>
          </Node>
        </Node>
        <Node pos="r" depth="1" NCoef="0" IVar="7" Cut="5.0000000000000000e+00" cType="1" res="-2.3825483396649361e-02" rms="4.7321224212646484e-01" purity="4.4874766469001770e-01" nType="0">
          <Node pos="l" depth="2" NCoef="0" IVar="9" Cut="3.2683269531250000e+04" cType="1" res="4.3607265688478947e-03" rms="4.7140467166900635e-01" purity="4.5653200149536133e-01" nType="0">
            <Node pos="l" depth="3" NCoef="0" IVar="-1" Cut="0.0000000000000000e+00" cType="1" res="2.3967528715729713e-02" rms="4.6239906549453735e-01" purity="3.8578420877456665e-01" nType="-99"/>
            <Node pos="r" depth="3" NCoef="0" IVar="-1" Cut="0.0000000000000000e+00" cType="1" res="-1.2013067491352558e-02" rms="4.8013189435005188e-01" purity="5.3135991096496582e-01" nType="-99"/>
          </Node>
          <Node pos="r" depth="2" NCoef="0" IVar="6" Cut="2.8565952777862549e+00" cType="1" res="-5.9850309044122696e-02" rms="4.7314155101776123e-01" purity="4.3875640630722046e-01" nType="0">
            <Node pos="l" depth="3" NCoef="0" IVar="-1" Cut="0.0000000000000000e+00" cType="1" res="-3.9601262658834457e-02" rms="4.7981813549995422e-01" purity="4.5297834277153015e-01" nType="-99"/>
            <Node pos="r" depth="3" NCoef="0" IVar="-1" Cut="0.0000000000000000e+00" cType="1" res="-1.0817242786288261e-02" rms="4.6683731675148010e-01" purity="4.2551925778388977e-01" nType="-99"/>
          </Node>
        </Node>
      </Node>
    </BinaryTree>
    <BinaryTree type="DecisionTree" boostWeight="1.0000000000000000e+00" itree="72">
      <Node pos="s" depth="0" NCoef="0" IVar="5" Cut="-2.5432066917419434e+00" cType="1" res="-9.1012455523014069e-03" rms="4.6543505787849426e-01" purity="4.9042409658432007e-01" nType="0">
        <Node pos="l" depth="1" NCoef="0" IVar="5" Cut="-2.7996718883514404e+00" cType="1" res="-5.7284824550151825e-02" rms="4.6377328038215637e-01" purity="4.7363808751106262e-01" nType="0">
          <Node pos="l" depth="2" NCoef="0" IVar="8" Cut="7.4193460937500000e+04" cType="1" res="-1.1900344863533974e-02" rms="4.7646987438201904e-01" purity="5.4356342554092407e-01" nType="0">
            <Node pos="l" depth="3" NCoef="0" IVar="-1" Cut="0.0000000000000000e+00" cType="1" res="2.3922374472022057e-02" rms="4.7842574119567871e-01" purity="4.9232971668243408e-01" nType="-99"/>
            <Node pos="r" depth="3" NCoef="0" IVar="-1" Cut="0.0000000000000000e+00" cType="1" res="-5.6046858429908752e-02" rms="4.7177761793136597e-01" purity="5.9713941812515259e-01" nType="-99"/>
          </Node>
          <Node pos="r" depth="2" NCoef="0" IVar="-1" Cut="0.0000000000000000e+00" cType="1" res="-4.0332442149519920e-03" rms="4.4589442014694214e-01" purity="4.0291699767112732e-01" nType="-99"/>
        </Node>
        <Node pos="r" depth="1" NCoef="0" IVar="6" Cut="-1.4957185089588165e-01" cType="1" res="5.3505098912864923e-04" rms="4.6516820788383484e-01" purity="4.9378114938735962e-01" nType="0">
          <Node pos="l" depth="2" NCoef="0" IVar="6" Cut="-1.2893503904342651e+00" cType="1" res="1.0025003924965858e-02" rms="4.6550115942955017e-01" purity="5.1266264915466309e-01" nType="0">
            <Node pos="l" depth="3" NCoef="0" IVar="-1" Cut="0.0000000000000000e+00" cType="1" res="2.8806319460272789e-03" rms="4.7291848063468933e-01" purity="4.7346284985542297e-01" nType="-99"/>
            <Node pos="r" depth="3" NCoef="0" IVar="-1" Cut="0.0000000000000000e+00" cType="1" res="4.6317677944898605e-02" rms="4.3357968330383301e-01" purity="6.6825002431869507e-01" nType="-99"/>
          </Node>
          <Node pos="r" depth="2" NCoef="0" IVar="4" Cut="8.6461150646209717e-01" cType="1" res="-7.1942238137125969e-03" rms="4.6475365757942200e-01" purity="4.7840267419815063e-01" nType="0">
            <Node pos="l" depth="3" NCoef="0" IVar="-1" Cut="0.0000000000000000e+00" cType="1" res="-4.1601289063692093e-02" rms="4.6802541613578796e-01" purity="4.0806561708450317e-01" nType="-99"/>
            <Node pos="r" depth="3" NCoef="0" IVar="-1" Cut="0.0000000000000000e+00" cType="1" res="-8.7544007692486048e-04" rms="4.6398016810417175e-01" purity="4.9039685726165771e-01" nType="-99"/>
          </Node>
        </Node>
      </Node>
    </BinaryTree>
    <BinaryTree type="DecisionTree" boostWeight="1.0000000000000000e+00" itree="73">
      <Node pos="s" depth="0" NCoef="0" IVar="4" Cut="3.2757308483123779e+00" cType="1" res="3.3166951034218073e-03" rms="4.6588945388793945e-01" purity="5.0630223751068115e-01" nType="0">
        <Node pos="l" depth="1" NCoef="0" IVar="5" Cut="-1.0473304986953735e+00" cType="1" res="5.6395549327135086e-03" rms="4.6762239933013916e-01" purity="5.1511204242706299e-01" nType="0">
          <Node pos="l" depth="2" NCoef="0" IVar="6" Cut="-2.5432174205780029e+00" cType="1" res="0.0000000000000000e+00" rms="0.0000000000000000e+00" purity="5.2107161283493042e-01" nType="0">
            <Node pos="l" depth="3" NCoef="0" IVar="-1" Cut="0.0000000000000000e+00" cType="1" res="2.0991280674934387e-02" rms="4.7964581847190857e-01" purity="5.4057294130325317e-01" nType="-99"/>
            <Node pos="r" depth="3" NCoef="0" IVar="-1" Cut="0.0000000000000000e+00" cType="1" res="-1.2132717296481133e-02" rms="4.6602910757064819e-01" purity="5.1465308666229248e-01" nType="-99"/>
          </Node>
          <Node pos="r" depth="2" NCoef="0" IVar="8" Cut="6.1907343750000000e+04" cType="1" res="0.0000000000000000e+00" rms="0.0000000000000000e+00" purity="5.1109379529953003e-01" nType="0">
            <Node pos="l" depth="3" NCoef="0" IVar="-1" Cut="0.0000000000000000e+00" cType="1" res="3.4640661906450987e-03" rms="4.6898731589317322e-01" purity="4.0499275922775269e-01" nType="-99"/>
            <Node pos="r" depth="3" NCoef="0" IVar="-1" Cut="0.0000000000000000e+00" cType="1" res="2.3953100666403770e-02" rms="4.6278071403503418e-01" purity="6.3069289922714233e-01" nType="-99"/>
          </Node>
        </Node>
        <Node pos="r" depth="1" NCoef="0" IVar="-1" Cut="0.0000000000000000e+00" cType="1" res="-6.9088195450603962e-03" rms="4.3364998698234558e-01" purity="3.5727679729461670e-01" nType="-99"/>
      </Node>
    </BinaryTree>
    <BinaryTree type="DecisionTree" boostWeight="1.0000000000000000e+00" itree="74">
      <Node pos="s" depth="0" NCoef="0" IVar="4" Cut="2.9740247726440430e+00" cType="1" res="-7.2604026645421982e-03" rms="4.6597269177436829e-01" purity="4.9716565012931824e-01" nType="0">
        <Node pos="l" depth="1" NCoef="0" IVar="4" Cut="2.5599439144134521e+00" cType="1" res="2.3383088409900665e-03" rms="4.6694123744964600e-01" purity="5.1009392738342285e-01" nType="0">
          <Node pos="l" depth="2" NCoef="0" IVar="1" Cut="2.5764759375000000e+05" cType="1" res="5.7397293858230114e-03" rms="4.6663445234298706e-01" purity="5.0225567817687988e-01" nType="0">
            <Node pos="l" depth="3" NCoef="0" IVar="-1" Cut="0.0000000000000000e+00" cType="1" res="8.2614887505769730e-03" rms="4.6857342123985291e-01" purity="5.1847779750823975e-01" nType="-99"/>
            <Node pos="r" depth="3" NCoef="0" IVar="-1" Cut="0.0000000000000000e+00" cType="1" res="-2.7958204969763756e-02" rms="4.4301116466522217e-01" purity="3.1596240401268005e-01" nType="-99"/>
          </Node>
          <Node pos="r" depth="2" NCoef="0" IVar="6" Cut="-4.4916102290153503e-01" cType="1" res="0.0000000000000000e+00" rms="0.0000000000000000e+00" purity="5.4896038770675659e-01" nType="0">
            <Node pos="l" depth="3" NCoef="0" IVar="-1" Cut="0.0000000000000000e+00" cType="1" res="6.7131095565855503e-03" rms="4.6355709433555603e-01" purity="5.6554502248764038e-01" nType="-99"/>
            <Node pos="r" depth="3" NCoef="0" IVar="-1" Cut="0.0000000000000000e+00" cType="1" res="-3.8351599127054214e-02" rms="4.7147023677825928e-01" purity="5.3315925598144531e-01" nType="-99"/>
          </Node>
        </Node>
        <Node pos="r" depth="1" NCoef="0" IVar="6" Cut="7.4796485900878906e-01" cType="1" res="-5.6888137012720108e-02" rms="4.5773318409919739e-01" purity="4.3032330274581909e-01" nType="0">
          <Node pos="l" depth="2" NCoef="0" IVar="6" Cut="-2.2154397964477539e+00" cType="1" res="-4.6671535819768906e-03" rms="4.6302893757820129e-01" purity="5.1496362686157227e-01" nType="0">
            <Node pos="l" depth="3" NCoef="0" IVar="-1" Cut="0.0000000000000000e+00" cType="1" res="1.6415400896221399e-03" rms="4.8063069581985474e-01" purity="4.6207842230796814e-01" nType="-99"/>
            <Node pos="r" depth="3" NCoef="0" IVar="-1" Cut="0.0000000000000000e+00" cType="1" res="-1.2055931612849236e-02" rms="4.4441288709640503e-01" purity="5.6849032640457153e-01" nType="-99"/>
          </Node>
          <Node pos="r" depth="2" NCoef="0" IVar="-1" Cut="0.0000000000000000e+00" cType="1" res="-3.4811529330909252e-03" rms="4.4599977135658264e-01" purity="3.4391665458679199e-01" nType="-99"/>
        </Node>
      </Node>
    </BinaryTree>
    <BinaryTree type="DecisionTree" boostWeight="1.0000000000000000e+00" itree="75">
      <Node pos="s" depth="0" NCoef="0" IVar="8" Cut="1.0035639062500000e+05" cType="1" res="-5.4350476711988449e-03" rms="4.6620467305183411e-01" purity="4.9906820058822632e-01" nType="0">
        <Node pos="l" depth="1" NCoef="0" IVar="8" Cut="4.2951230468750000e+04" cType="1" res="-9.2024421319365501e-03" rms="4.6966263651847839e-01" purity="4.6101665496826172e-01" nType="0">
          <Node pos="l" depth="2" NCoef="0" IVar="5" Cut="-1.9434406757354736e+00" cType="1" res="-2.3645242676138878e-02" rms="4.4741061329841614e-01" purity="3.1048524379730225e-01" nType="0">
            <Node pos="l" depth="3" NCoef="0" IVar="-1" Cut="0.0000000000000000e+00" cType="1" res="-1.9528768025338650e-03" rms="4.5696860551834106e-01" purity="3.5519504547119141e-01" nType="-99"/>
            <Node pos="r" depth="3" NCoef="0" IVar="-1" Cut="0.0000000000000000e+00" cType="1" res="-1.8488690257072449e-02" rms="4.4485679268836975e-01" purity="2.9946902394294739e-01" nType="-99"/>
          </Node>
          <Node pos="r" depth="2" NCoef="0" IVar="8" Cut="7.0282937500000000e+04" cType="1" res="-3.7391996011137962e-03" rms="4.7769600152969360e-01" purity="5.1795780658721924e-01" nType="0">
            <Node pos="l" depth="3" NCoef="0" IVar="-1" Cut="0.0000000000000000e+00" cType="1" res="5.3478595800697803e-03" rms="4.8006618022918701e-01" purity="4.9083459377288818e-01" nType="-99"/>
            <Node pos="r" depth="3" NCoef="0" IVar="-1" Cut="0.0000000000000000e+00" cType="1" res="-5.5288770236074924e-03" rms="4.7298896312713623e-01" purity="5.6598901748657227e-01" nType="-99"/>
          </Node>
        </Node>
        <Node pos="r" depth="1" NCoef="0" IVar="6" Cut="-1.4995376765727997e-01" cType="1" res="1.2193904258310795e-02" rms="4.4925084710121155e-01" purity="6.7712455987930298e-01" nType="0">
          <Node pos="l" depth="2" NCoef="0" IVar="5" Cut="-7.4754357337951660e-01" cType="1" res="-5.8046504855155945e-03" rms="4.4908395409584045e-01" purity="6.6803401708602905e-01" nType="0">
            <Node pos="l" depth="3" NCoef="0" IVar="-1" Cut="0.0000000000000000e+00" cType="1" res="-1.4457961544394493e-02" rms="4.7508573532104492e-01" purity="6.0166221857070923e-01" nType="-99"/>
            <Node pos="r" depth="3" NCoef="0" IVar="-1" Cut="0.0000000000000000e+00" cType="1" res="2.0823739469051361e-03" rms="4.2323926091194153e-01" purity="7.2995489835739136e-01" nType="-99"/>
          </Node>
          <Node pos="r" depth="2" NCoef="0" IVar="5" Cut="-1.4916038513183594e-01" cType="1" res="0.0000000000000000e+00" rms="0.0000000000000000e+00" purity="6.8543750047683716e-01" nType="0">
            <Node pos="l" depth="3" NCoef="0" IVar="-1" Cut="0.0000000000000000e+00" cType="1" res="2.0324345678091049e-02" rms="4.2637330293655396e-01" purity="7.2080636024475098e-01" nType="-99"/>
            <Node pos="r" depth="3" NCoef="0" IVar="-1" Cut="0.0000000000000000e+00" cType="1" res="3.6421738564968109e-02" rms="4.6771845221519470e-01" purity="6.5385925769805908e-01" nType="-99"/>
          </Node>
        </Node>
      </Node>
    </BinaryTree>
    <BinaryTree type="DecisionTree" boostWeight="1.0000000000000000e+00" itree="76">
      <Node pos="s" depth="0" NCoef="0" IVar="4" Cut="3.1815693378448486e+00" cType="1" res="-3.5803555510938168e-03" rms="4.6728134155273438e-01" purity="5.0177437067031860e-01" nType="0">
        <Node pos="l" depth="1" NCoef="0" IVar="6" Cut="-2.8423302173614502e+00" cType="1" res="2.6370651903562248e-04" rms="4.6801871061325073e-01" purity="5.1275742053985596e-01" nType="0">
          <Node pos="l" depth="2" NCoef="0" IVar="6" Cut="-2.9990699291229248e+00" cType="1" res="-2.0534947514533997e-02" rms="4.7105842828750610e-01" purity="4.7575041651725769e-01" nType="0">
            <Node pos="l" depth="3" NCoef="0" IVar="-1" Cut="0.0000000000000000e+00" cType="1" res="1.6197985969483852e-03" rms="4.7457873821258545e-01" purity="4.8861300945281982e-01" nType="-99"/>
            <Node pos="r" depth="3" NCoef="0" IVar="-1" Cut="0.0000000000000000e+00" cType="1" res="-4.0895748883485794e-02" rms="4.6663224697113037e-01" purity="4.6331188082695007e-01" nType="-99"/>
          </Node>
          <Node pos="r" depth="2" NCoef="0" IVar="4" Cut="1.5487732887268066e+00" cType="1" res="2.5164065882563591e-03" rms="4.6763277053833008e-01" purity="5.1676565408706665e-01" nType="0">
            <Node pos="l" depth="3" NCoef="0" IVar="-1" Cut="0.0000000000000000e+00" cType="1" res="1.3017576187849045e-02" rms="4.6866840124130249e-01" purity="4.8661205172538757e-01" nType="-99"/>
            <Node pos="r" depth="3" NCoef="0" IVar="-1" Cut="0.0000000000000000e+00" cType="1" res="-3.4931586124002934e-03" rms="4.6675345301628113e-01" purity="5.3923857212066650e-01" nType="-99"/>
          </Node>
        </Node>
        <Node pos="r" depth="1" NCoef="0" IVar="-1" Cut="0.0000000000000000e+00" cType="1" res="-2.0252126269042492e-03" rms="4.5740196108818054e-01" purity="3.8526761531829834e-01" nType="-99"/>
      </Node>
    </BinaryTree>
    <BinaryTree type="DecisionTree" boostWeight="1.0000000000000000e+00" itree="77">
      <Node pos="s" depth="0" NCoef="0" IVar="5" Cut="-2.5429883003234863e+00" cType="1" res="-6.6255852580070496e-03" rms="4.6635955572128296e-01" purity="4.9742281436920166e-01" nType="0">
        <Node pos="l" depth="1" NCoef="0" IVar="4" Cut="2.4968111515045166e+00" cType="1" res="0.0000000000000000e+00" rms="0.0000000000000000e+00" purity="4.9965319037437439e-01" nType="0">
          <Node pos="l" depth="2" NCoef="0" IVar="7" Cut="5.0000000000000000e+00" cType="1" res="4.7966185957193375e-03" rms="4.7104653716087341e-01" purity="5.3764879703521729e-01" nType="0">
            <Node pos="l" depth="3" NCoef="0" IVar="-1" Cut="0.0000000000000000e+00" cType="1" res="2.4758022278547287e-02" rms="4.7701895236968994e-01" purity="4.7664028406143188e-01" nType="-99"/>
            <Node pos="r" depth="3" NCoef="0" IVar="-1" Cut="0.0000000000000000e+00" cType="1" res="-1.2284425087273121e-02" rms="4.6598201990127563e-01" purity="5.8379387855529785e-01" nType="-99"/>
          </Node>
          <Node pos="r" depth="2" NCoef="0" IVar="-1" Cut="0.0000000000000000e+00" cType="1" res="-4.7390325926244259e-03" rms="4.4512003660202026e-01" purity="4.4327712059020996e-01" nType="-99"/>
        </Node>
        <Node pos="r" depth="1" NCoef="0" IVar="5" Cut="-3.7740194797515869e-01" cType="1" res="-2.1739692892879248e-03" rms="4.6692046523094177e-01" purity="4.9699595570564270e-01" nType="0">
          <Node pos="l" depth="2" NCoef="0" IVar="4" Cut="8.7676197290420532e-01" cType="1" res="9.8979780450463295e-03" rms="4.7101700305938721e-01" purity="5.0171005725860596e-01" nType="0">
            <Node pos="l" depth="3" NCoef="0" IVar="-1" Cut="0.0000000000000000e+00" cType="1" res="-9.9139371886849403e-03" rms="4.7019225358963013e-01" purity="4.3608874082565308e-01" nType="-99"/>
            <Node pos="r" depth="3" NCoef="0" IVar="-1" Cut="0.0000000000000000e+00" cType="1" res="1.5106172300875187e-02" rms="4.7108671069145203e-01" purity="5.1228308677673340e-01" nType="-99"/>
          </Node>
          <Node pos="r" depth="2" NCoef="0" IVar="6" Cut="4.4873523712158203e-01" cType="1" res="-9.1794049367308617e-03" rms="4.6438276767730713e-01" purity="4.9426040053367615e-01" nType="0">
            <Node pos="l" depth="3" NCoef="0" IVar="-1" Cut="0.0000000000000000e+00" cType="1" res="5.6021115742623806e-03" rms="4.5149397850036621e-01" purity="5.9932327270507812e-01" nType="-99"/>
            <Node pos="r" depth="3" NCoef="0" IVar="-1" Cut="0.0000000000000000e+00" cType="1" res="-1.6554173082113266e-02" rms="4.7031202912330627e-01" purity="4.4370070099830627e-01" nType="-99"/>
          </Node>
        </Node>
      </Node>
    </BinaryTree>
    <BinaryTree type="DecisionTree" boostWeight="1.0000000000000000e+00" itree="78">
      <Node pos="s" depth="0" NCoef="0" IVar="7" Cut="6.0000000000000000e+00" cType="1" res="-1.5109824016690254e-04" rms="4.6639156341552734e-01" purity="5.0503188371658325e-01" nType="0">
        <Node pos="l" depth="1" NCoef="0" IVar="9" Cut="5.7083910156250000e+04" cType="1" res="4.2121722362935543e-03" rms="4.6812444925308228e-01" purity="4.7044482827186584e-01" nType="0">
          <Node pos="l" depth="2" NCoef="0" IVar="3" Cut="6.1702245473861694e-01" cType="1" res="-8.3646056009456515e-04" rms="4.7106090188026428e-01" purity="4.2713606357574463e-01" nType="0">
            <Node pos="l" depth="3" NCoef="0" IVar="-1" Cut="0.0000000000000000e+00" cType="1" res="2.2350544109940529e-02" rms="4.8287826776504517e-01" purity="4.2128825187683105e-01" nType="-99"/>
            <Node pos="r" depth="3" NCoef="0" IVar="-1" Cut="0.0000000000000000e+00" cType="1" res="-6.3172127120196819e-03" rms="4.6862208843231201e-01" purity="4.2823520302772522e-01" nType="-99"/>
          </Node>
          <Node pos="r" depth="2" NCoef="0" IVar="9" Cut="7.1602820312500000e+04" cType="1" res="2.8167368844151497e-02" rms="4.5316645503044128e-01" purity="6.7593997716903687e-01" nType="0">
            <Node pos="l" depth="3" NCoef="0" IVar="-1" Cut="0.0000000000000000e+00" cType="1" res="4.8934541642665863e-02" rms="4.5564517378807068e-01" purity="6.7230314016342163e-01" nType="-99"/>
            <Node pos="r" depth="3" NCoef="0" IVar="-1" Cut="0.0000000000000000e+00" cType="1" res="-1.5894635580480099e-03" rms="4.4849613308906555e-01" purity="6.7997515201568604e-01" nType="-99"/>
          </Node>
        </Node>
        <Node pos="r" depth="1" NCoef="0" IVar="6" Cut="2.2432417869567871e+00" cType="1" res="-1.1938857845962048e-02" rms="4.6149420738220215e-01" purity="5.9868502616882324e-01" nType="0">
          <Node pos="l" depth="2" NCoef="0" IVar="8" Cut="7.6331179687500000e+04" cType="1" res="-4.9056741409003735e-04" rms="4.5858824253082275e-01" purity="6.2960416078567505e-01" nType="0">
            <Node pos="l" depth="3" NCoef="0" IVar="-1" Cut="0.0000000000000000e+00" cType="1" res="1.2752777896821499e-02" rms="4.7842118144035339e-01" purity="5.6156653165817261e-01" nType="-99"/>
            <Node pos="r" depth="3" NCoef="0" IVar="-1" Cut="0.0000000000000000e+00" cType="1" res="-1.4106051996350288e-02" rms="4.4293510913848877e-01" purity="6.8027848005294800e-01" nType="-99"/>
          </Node>
          <Node pos="r" depth="2" NCoef="0" IVar="-1" Cut="0.0000000000000000e+00" cType="1" res="-5.1286560483276844e-03" rms="4.7043737769126892e-01" purity="4.6952754259109497e-01" nType="-99"/>
        </Node>
      </Node>
    </BinaryTree>
    <BinaryTree type="DecisionTree" boostWeight="1.0000000000000000e+00" itree="79">
      <Node pos="s" depth="0" NCoef="0" IVar="4" Cut="3.2705864906311035e+00" cType="1" res="-6.1931512318551540e-03" rms="4.6678444743156433e-01" purity="4.9694627523422241e-01" nType="0">
        <Node pos="l" depth="1" NCoef="0" IVar="6" Cut="1.0471394062042236e+00" cType="1" res="-8.8607595534995198e-04" rms="4.6881404519081116e-01" purity="5.1109367609024048e-01" nType="0">
          <Node pos="l" depth="2" NCoef="0" IVar="3" Cut="5.7149344682693481e-01" cType="1" res="-9.5418151468038559e-03" rms="4.6619379520416260e-01" purity="5.1894569396972656e-01" nType="0">
            <Node pos="l" depth="3" NCoef="0" IVar="-1" Cut="0.0000000000000000e+00" cType="1" res="-1.3117622584104538e-02" rms="4.7005355358123779e-01" purity="4.0607035160064697e-01" nType="-99"/>
            <Node pos="r" depth="3" NCoef="0" IVar="-1" Cut="0.0000000000000000e+00" cType="1" res="-3.8154816720634699e-03" rms="4.6523478627204895e-01" purity="5.3870588541030884e-01" nType="-99"/>
          </Node>
          <Node pos="r" depth="2" NCoef="0" IVar="4" Cut="2.6621158123016357e+00" cType="1" res="1.2115881778299809e-02" rms="4.7242474555969238e-01" purity="4.9929904937744141e-01" nType="0">
            <Node pos="l" depth="3" NCoef="0" IVar="-1" Cut="0.0000000000000000e+00" cType="1" res="7.3197809979319572e-03" rms="4.7290712594985962e-01" purity="4.8455786705017090e-01" nType="-99"/>
            <Node pos="r" depth="3" NCoef="0" IVar="-1" Cut="0.0000000000000000e+00" cType="1" res="3.2508246600627899e-02" rms="4.7030952572822571e-01" purity="5.4975694417953491e-01" nType="-99"/>
          </Node>
        </Node>
        <Node pos="r" depth="1" NCoef="0" IVar="-1" Cut="0.0000000000000000e+00" cType="1" res="-2.5861458852887154e-03" rms="4.3242537975311279e-01" purity="3.0728617310523987e-01" nType="-99"/>
      </Node>
    </BinaryTree>
    <BinaryTree type="DecisionTree" boostWeight="1.0000000000000000e+00" itree="80">
      <Node pos="s" depth="0" NCoef="0" IVar="8" Cut="7.3752539062500000e+04" cType="1" res="1.2338355882093310e-03" rms="4.6787333488464355e-01" purity="5.0950390100479126e-01" nType="0">
        <Node pos="l" depth="1" NCoef="0" IVar="7" Cut="6.0000000000000000e+00" cType="1" res="7.0267422124743462e-03" rms="4.7267943620681763e-01" purity="4.4597721099853516e-01" nType="0">
          <Node pos="l" depth="2" NCoef="0" IVar="5" Cut="-1.9445011615753174e+00" cType="1" res="0.0000000000000000e+00" rms="0.0000000000000000e+00" purity="4.3215450644493103e-01" nType="0">
            <Node pos="l" depth="3" NCoef="0" IVar="-1" Cut="0.0000000000000000e+00" cType="1" res="-5.2998629398643970e-03" rms="4.7503781318664551e-01" purity="4.4117811322212219e-01" nType="-99"/>
            <Node pos="r" depth="3" NCoef="0" IVar="-1" Cut="0.0000000000000000e+00" cType="1" res="1.7743555828928947e-02" rms="4.7086286544799805e-01" purity="4.2922517657279968e-01" nType="-99"/>
          </Node>
          <Node pos="r" depth="2" NCoef="0" IVar="4" Cut="2.1699039936065674e+00" cType="1" res="-1.5039022080600262e-02" rms="4.7561594843864441e-01" purity="5.1658910512924194e-01" nType="0">
            <Node pos="l" depth="3" NCoef="0" IVar="-1" Cut="0.0000000000000000e+00" cType="1" res="8.4358360618352890e-04" rms="4.7976118326187134e-01" purity="5.1406866312026978e-01" nType="-99"/>
            <Node pos="r" depth="3" NCoef="0" IVar="-1" Cut="0.0000000000000000e+00" cType="1" res="-3.0652323737740517e-02" rms="4.6944689750671387e-01" purity="5.1983481645584106e-01" nType="-99"/>
          </Node>
        </Node>
        <Node pos="r" depth="1" NCoef="0" IVar="9" Cut="6.1878156250000000e+04" cType="1" res="-9.4302855432033539e-03" rms="4.5870065689086914e-01" purity="6.2647294998168945e-01" nType="0">
          <Node pos="l" depth="2" NCoef="0" IVar="8" Cut="9.7842007812500000e+04" cType="1" res="-2.5183310732245445e-02" rms="4.7649258375167847e-01" purity="5.4454696178436279e-01" nType="0">
            <Node pos="l" depth="3" NCoef="0" IVar="-1" Cut="0.0000000000000000e+00" cType="1" res="-4.9387861043214798e-02" rms="4.7775295376777649e-01" purity="5.1799088716506958e-01" nType="-99"/>
            <Node pos="r" depth="3" NCoef="0" IVar="-1" Cut="0.0000000000000000e+00" cType="1" res="2.0361067727208138e-03" rms="4.7313627600669861e-01" purity="5.8930802345275879e-01" nType="-99"/>
          </Node>
          <Node pos="r" depth="2" NCoef="0" IVar="6" Cut="-1.6455630064010620e+00" cType="1" res="2.0018676295876503e-03" rms="4.4499489665031433e-01" purity="6.8592762947082520e-01" nType="0">
            <Node pos="l" depth="3" NCoef="0" IVar="-1" Cut="0.0000000000000000e+00" cType="1" res="-1.7161374911665916e-02" rms="4.6480053663253784e-01" purity="6.3738727569580078e-01" nType="-99"/>
            <Node pos="r" depth="3" NCoef="0" IVar="-1" Cut="0.0000000000000000e+00" cType="1" res="9.6252206712961197e-03" rms="4.3773928284645081e-01" purity="7.0273381471633911e-01" nType="-99"/>
          </Node>
        </Node>
      </Node>
    </BinaryTree>
    <BinaryTree type="DecisionTree" boostWeight="1.0000000000000000e+00" itree="81">
      <Node pos="s" depth="0" NCoef="0" IVar="4" Cut="3.2711985111236572e+00" cType="1" res="-6.1050785006955266e-04" rms="4.6758344769477844e-01" purity="5.0428837537765503e-01" nType="0">
        <Node pos="l" depth="1" NCoef="0" IVar="1" Cut="2.5764759375000000e+05" cType="1" res="4.5745377428829670e-03" rms="4.6870565414428711e-01" purity="5.1763302087783813e-01" nType="0">
          <Node pos="l" depth="2" NCoef="0" IVar="1" Cut="1.6585390625000000e+05" cType="1" res="1.6583505785092711e-03" rms="4.6954163908958435e-01" purity="5.3004717826843262e-01" nType="0">
            <Node pos="l" depth="3" NCoef="0" IVar="-1" Cut="0.0000000000000000e+00" cType="1" res="7.9837972298264503e-03" rms="4.7336789965629578e-01" purity="5.5551928281784058e-01" nType="-99"/>
            <Node pos="r" depth="3" NCoef="0" IVar="-1" Cut="0.0000000000000000e+00" cType="1" res="-1.3925905339419842e-02" rms="4.6085262298583984e-01" purity="4.7468912601470947e-01" nType="-99"/>
          </Node>
          <Node pos="r" depth="2" NCoef="0" IVar="-1" Cut="0.0000000000000000e+00" cType="1" res="5.1677647978067398e-02" rms="4.5796713232994080e-01" purity="3.7854179739952087e-01" nType="-99"/>
        </Node>
        <Node pos="r" depth="1" NCoef="0" IVar="-1" Cut="0.0000000000000000e+00" cType="1" res="-2.3540162947028875e-03" rms="4.4532662630081177e-01" purity="3.1773495674133301e-01" nType="-99"/>
      </Node>
    </BinaryTree>
    <BinaryTree type="DecisionTree" boostWeight="1.0000000000000000e+00" itree="82">
      <Node pos="s" depth="0" NCoef="0" IVar="7" Cut="5.0000000000000000e+00" cType="1" res="-1.0694979690015316e-02" rms="4.6609342098236084e-01" purity="4.9831864237785339e-01" nType="0">
        <Node pos="l" depth="1" NCoef="0" IVar="5" Cut="-1.0468519926071167e+00" cType="1" res="-2.0117660984396935e-02" rms="4.6550357341766357e-01" purity="4.0619906783103943e-01" nType="0">
          <Node pos="l" depth="2" NCoef="0" IVar="5" Cut="-2.7420210838317871e+00" cType="1" res="-4.8557361587882042e-03" rms="4.7227215766906738e-01" purity="4.3784949183464050e-01" nType="0">
            <Node pos="l" depth="3" NCoef="0" IVar="-1" Cut="0.0000000000000000e+00" cType="1" res="-3.3937204629182816e-02" rms="4.6476128697395325e-01" purity="4.3695315718650818e-01" nType="-99"/>
            <Node pos="r" depth="3" NCoef="0" IVar="-1" Cut="0.0000000000000000e+00" cType="1" res="9.2731034383177757e-03" rms="4.7390741109848022e-01" purity="4.3812865018844604e-01" nType="-99"/>
          </Node>
          <Node pos="r" depth="2" NCoef="0" IVar="5" Cut="-4.9635548144578934e-02" cType="1" res="0.0000000000000000e+00" rms="0.0000000000000000e+00" purity="3.8501814007759094e-01" nType="0">
            <Node pos="l" depth="3" NCoef="0" IVar="-1" Cut="0.0000000000000000e+00" cType="1" res="-3.6805167794227600e-02" rms="4.4668516516685486e-01" purity="3.0659192800521851e-01" nType="-99"/>
            <Node pos="r" depth="3" NCoef="0" IVar="-1" Cut="0.0000000000000000e+00" cType="1" res="-1.0954490862786770e-02" rms="4.6292543411254883e-01" purity="4.0055179595947266e-01" nType="-99"/>
          </Node>
        </Node>
        <Node pos="r" depth="1" NCoef="0" IVar="3" Cut="7.9481923580169678e-01" cType="1" res="-3.3962931483983994e-03" rms="4.6642345190048218e-01" purity="5.6974512338638306e-01" nType="0">
          <Node pos="l" depth="2" NCoef="0" IVar="-1" Cut="0.0000000000000000e+00" cType="1" res="-4.4392887502908707e-02" rms="4.8280566930770874e-01" purity="4.3219724297523499e-01" nType="-99"/>
          <Node pos="r" depth="2" NCoef="0" IVar="5" Cut="1.9444754123687744e+00" cType="1" res="3.4546246752142906e-03" rms="4.6339452266693115e-01" purity="5.9163242578506470e-01" nType="0">
            <Node pos="l" depth="3" NCoef="0" IVar="-1" Cut="0.0000000000000000e+00" cType="1" res="1.2001231312751770e-02" rms="4.6513903141021729e-01" purity="5.8389151096343994e-01" nType="-99"/>
            <Node pos="r" depth="3" NCoef="0" IVar="-1" Cut="0.0000000000000000e+00" cType="1" res="-1.7042141407728195e-02" rms="4.5839452743530273e-01" purity="6.1153286695480347e-01" nType="-99"/>
          </Node>
        </Node>
      </Node>
    </BinaryTree>
    <BinaryTree type="DecisionTree" boostWeight="1.0000000000000000e+00" itree="83">
      <Node pos="s" depth="0" NCoef="0" IVar="9" Cut="5.9037789062500000e+04" cType="1" res="-5.2279960364103317e-03" rms="4.6906617283821106e-01" purity="5.0334125757217407e-01" nType="0">
        <Node pos="l" depth="1" NCoef="0" IVar="9" Cut="5.2549906250000000e+04" cType="1" res="0.0000000000000000e+00" rms="0.0000000000000000e+00" purity="4.5387601852416992e-01" nType="0">
          <Node pos="l" depth="2" NCoef="0" IVar="9" Cut="3.0246548828125000e+04" cType="1" res="-8.9253473561257124e-04" rms="4.7404095530509949e-01" purity="4.3609306216239929e-01" nType="0">
            <Node pos="l" depth="3" NCoef="0" IVar="-1" Cut="0.0000000000000000e+00" cType="1" res="1.2831910513341427e-02" rms="4.6261703968048096e-01" purity="3.4786760807037354e-01" nType="-99"/>
            <Node pos="r" depth="3" NCoef="0" IVar="-1" Cut="0.0000000000000000e+00" cType="1" res="-6.6606784239411354e-03" rms="4.7922039031982422e-01" purity="4.7753795981407166e-01" nType="-99"/>
          </Node>
          <Node pos="r" depth="2" NCoef="0" IVar="-1" Cut="0.0000000000000000e+00" cType="1" res="3.0007898807525635e-02" rms="4.7090274095535278e-01" purity="6.2452733516693115e-01" nType="-99"/>
        </Node>
        <Node pos="r" depth="1" NCoef="0" IVar="6" Cut="2.2439389228820801e+00" cType="1" res="-2.4727951735258102e-02" rms="4.5493814349174500e-01" purity="6.4183610677719116e-01" nType="0">
          <Node pos="l" depth="2" NCoef="0" IVar="3" Cut="3.6988484859466553e+00" cType="1" res="0.0000000000000000e+00" rms="0.0000000000000000e+00" purity="6.7488086223602295e-01" nType="0">
            <Node pos="l" depth="3" NCoef="0" IVar="-1" Cut="0.0000000000000000e+00" cType="1" res="1.2277476489543915e-02" rms="4.7187012434005737e-01" purity="6.3264471292495728e-01" nType="-99"/>
            <Node pos="r" depth="3" NCoef="0" IVar="-1" Cut="0.0000000000000000e+00" cType="1" res="-2.0391328260302544e-02" rms="4.3582534790039062e-01" purity="7.0316934585571289e-01" nType="-99"/>
          </Node>
          <Node pos="r" depth="2" NCoef="0" IVar="-1" Cut="0.0000000000000000e+00" cType="1" res="-4.6524959616363049e-03" rms="4.6301409602165222e-01" purity="5.1215362548828125e-01" nType="-99"/>
        </Node>
      </Node>
    </BinaryTree>
    <BinaryTree type="DecisionTree" boostWeight="1.0000000000000000e+00" itree="84">
      <Node pos="s" depth="0" NCoef="0" IVar="4" Cut="2.1911237239837646e+00" cType="1" res="3.3983644098043442e-03" rms="4.6824309229850769e-01" purity="5.1134300231933594e-01" nType="0">
        <Node pos="l" depth="1" NCoef="0" IVar="8" Cut="1.3569151562500000e+05" cType="1" res="1.0125750675797462e-02" rms="4.7111913561820984e-01" purity="5.0213497877120972e-01" nType="0">
          <Node pos="l" depth="2" NCoef="0" IVar="4" Cut="1.1922724246978760e+00" cType="1" res="0.0000000000000000e+00" rms="0.0000000000000000e+00" purity="4.8927432298660278e-01" nType="0">
            <Node pos="l" depth="3" NCoef="0" IVar="-1" Cut="0.0000000000000000e+00" cType="1" res="3.0027111060917377e-03" rms="4.7095009684562683e-01" purity="4.4448256492614746e-01" nType="-99"/>
            <Node pos="r" depth="3" NCoef="0" IVar="-1" Cut="0.0000000000000000e+00" cType="1" res="2.3111658170819283e-02" rms="4.7293788194656372e-01" purity="5.2511525154113770e-01" nType="-99"/>
          </Node>
          <Node pos="r" depth="2" NCoef="0" IVar="-1" Cut="0.0000000000000000e+00" cType="1" res="-1.9917210564017296e-02" rms="4.5721453428268433e-01" purity="6.6608387231826782e-01" nType="-99"/>
        </Node>
        <Node pos="r" depth="1" NCoef="0" IVar="5" Cut="-4.4896718859672546e-01" cType="1" res="-5.9413244016468525e-03" rms="4.6405902504920959e-01" purity="5.2412658929824829e-01" nType="0">
          <Node pos="l" depth="2" NCoef="0" IVar="3" Cut="6.4942903518676758e+00" cType="1" res="-2.1183822304010391e-02" rms="4.6519514918327332e-01" purity="5.1497024297714233e-01" nType="0">
            <Node pos="l" depth="3" NCoef="0" IVar="-1" Cut="0.0000000000000000e+00" cType="1" res="-1.4045422896742821e-02" rms="4.6795645356178284e-01" purity="4.8407211899757385e-01" nType="-99"/>
            <Node pos="r" depth="3" NCoef="0" IVar="-1" Cut="0.0000000000000000e+00" cType="1" res="3.1776842661201954e-03" rms="4.5683366060256958e-01" purity="5.9826743602752686e-01" nType="-99"/>
          </Node>
          <Node pos="r" depth="2" NCoef="0" IVar="5" Cut="1.6027398109436035e+00" cType="1" res="7.8260600566864014e-03" rms="4.6259897947311401e-01" purity="5.3239673376083374e-01" nType="0">
            <Node pos="l" depth="3" NCoef="0" IVar="-1" Cut="0.0000000000000000e+00" cType="1" res="3.7418555468320847e-02" rms="4.6408483386039734e-01" purity="5.2851355075836182e-01" nType="-99"/>
            <Node pos="r" depth="3" NCoef="0" IVar="-1" Cut="0.0000000000000000e+00" cType="1" res="-7.1650533936917782e-03" rms="4.6109810471534729e-01" purity="5.3459638357162476e-01" nType="-99"/>
          </Node>
        </Node>
      </Node>
    </BinaryTree>
    <BinaryTree type="DecisionTree" boostWeight="1.0000000000000000e+00" itree="85">
      <Node pos="s" depth="0" NCoef="0" IVar="1" Cut="2.6666246875000000e+05" cType="1" res="-4.3805660679936409e-03" rms="4.6704944968223572e-01" purity="5.0331091880798340e-01" nType="0">
        <Node pos="l" depth="1" NCoef="0" IVar="1" Cut="1.4793407812500000e+05" cType="1" res="-2.4079480208456516e-03" rms="4.6878844499588013e-01" purity="5.1712667942047119e-01" nType="0">
          <Node pos="l" depth="2" NCoef="0" IVar="7" Cut="7.0000000000000000e+00" cType="1" res="-9.5933731645345688e-03" rms="4.7477093338966370e-01" purity="5.2640396356582642e-01" nType="0">
            <Node pos="l" depth="3" NCoef="0" IVar="-1" Cut="0.0000000000000000e+00" cType="1" res="-2.3064538836479187e-03" rms="4.7523233294487000e-01" purity="5.2095752954483032e-01" nType="-99"/>
            <Node pos="r" depth="3" NCoef="0" IVar="-1" Cut="0.0000000000000000e+00" cType="1" res="-6.0685526579618454e-02" rms="4.6902611851692200e-01" purity="5.7148045301437378e-01" nType="-99"/>
          </Node>
          <Node pos="r" depth="2" NCoef="0" IVar="4" Cut="2.6722099781036377e+00" cType="1" res="4.7702365554869175e-03" rms="4.6262338757514954e-01" purity="5.0785881280899048e-01" nType="0">
            <Node pos="l" depth="3" NCoef="0" IVar="-1" Cut="0.0000000000000000e+00" cType="1" res="-2.5422759354114532e-03" rms="4.6305674314498901e-01" purity="4.9220466613769531e-01" nType="-99"/>
            <Node pos="r" depth="3" NCoef="0" IVar="-1" Cut="0.0000000000000000e+00" cType="1" res="2.4501837790012360e-02" rms="4.6051573753356934e-01" purity="5.5461078882217407e-01" nType="-99"/>
          </Node>
        </Node>
        <Node pos="r" depth="1" NCoef="0" IVar="-1" Cut="0.0000000000000000e+00" cType="1" res="-3.8504131138324738e-02" rms="4.4227269291877747e-01" purity="3.1840345263481140e-01" nType="-99"/>
      </Node>
    </BinaryTree>
    <BinaryTree type="DecisionTree" boostWeight="1.0000000000000000e+00" itree="86">
      <Node pos="s" depth="0" NCoef="0" IVar="4" Cut="1.6733639240264893e+00" cType="1" res="-1.0738792829215527e-02" rms="4.6509084105491638e-01" purity="4.9555608630180359e-01" nType="0">
        <Node pos="l" depth="1" NCoef="0" IVar="4" Cut="5.3246343135833740e-01" cType="1" res="0.0000000000000000e+00" rms="0.0000000000000000e+00" purity="4.7957754135131836e-01" nType="0">
          <Node pos="l" depth="2" NCoef="0" IVar="-1" Cut="0.0000000000000000e+00" cType="1" res="-4.4798512011766434e-02" rms="4.6358951926231384e-01" purity="4.2366918921470642e-01" nType="-99"/>
          <Node pos="r" depth="2" NCoef="0" IVar="9" Cut="4.1041828125000000e+04" cType="1" res="3.7359439302235842e-03" rms="4.6449661254882812e-01" purity="4.8560887575149536e-01" nType="0">
            <Node pos="l" depth="3" NCoef="0" IVar="-1" Cut="0.0000000000000000e+00" cType="1" res="-1.7339512705802917e-02" rms="4.6290886402130127e-01" purity="3.6278221011161804e-01" nType="-99"/>
            <Node pos="r" depth="3" NCoef="0" IVar="-1" Cut="0.0000000000000000e+00" cType="1" res="2.2815097123384476e-02" rms="4.6545183658599854e-01" purity="6.1027002334594727e-01" nType="-99"/>
          </Node>
        </Node>
        <Node pos="r" depth="1" NCoef="0" IVar="5" Cut="-1.9445211887359619e+00" cType="1" res="-1.7865277826786041e-02" rms="4.6529850363731384e-01" purity="5.0718450546264648e-01" nType="0">
          <Node pos="l" depth="2" NCoef="0" IVar="4" Cut="2.7977464199066162e+00" cType="1" res="4.0413364768028259e-03" rms="4.7045803070068359e-01" purity="5.4256159067153931e-01" nType="0">
            <Node pos="l" depth="3" NCoef="0" IVar="-1" Cut="0.0000000000000000e+00" cType="1" res="-5.8531477116048336e-03" rms="4.6914088726043701e-01" purity="5.4378646612167358e-01" nType="-99"/>
            <Node pos="r" depth="3" NCoef="0" IVar="-1" Cut="0.0000000000000000e+00" cType="1" res="2.9808985069394112e-02" rms="4.7165808081626892e-01" purity="5.4063612222671509e-01" nType="-99"/>
          </Node>
          <Node pos="r" depth="2" NCoef="0" IVar="7" Cut="5.0000000000000000e+00" cType="1" res="-2.6234872639179230e-02" rms="4.6303299069404602e-01" purity="4.9371948838233948e-01" nType="0">
            <Node pos="l" depth="3" NCoef="0" IVar="-1" Cut="0.0000000000000000e+00" cType="1" res="-1.1341598816215992e-02" rms="4.6696880459785461e-01" purity="4.2379415035247803e-01" nType="-99"/>
            <Node pos="r" depth="3" NCoef="0" IVar="-1" Cut="0.0000000000000000e+00" cType="1" res="-8.5571911185979843e-03" rms="4.5987638831138611e-01" purity="5.4629832506179810e-01" nType="-99"/>
          </Node>
        </Node>
      </Node>
    </BinaryTree>
    <BinaryTree type="DecisionTree" boostWeight="1.0000000000000000e+00" itree="87">
      <Node pos="s" depth="0" NCoef="0" IVar="4" Cut="2.9988031387329102e+00" cType="1" res="-5.5139865726232529e-03" rms="4.6541085839271545e-01" purity="5.0274407863616943e-01" nType="0">
        <Node pos="l" depth="1" NCoef="0" IVar="4" Cut="6.2332046031951904e-01" cType="1" res="1.6807032516226172e-03" rms="4.6492964029312134e-01" purity="5.1279246807098389e-01" nType="0">
          <Node pos="l" depth="2" NCoef="0" IVar="-1" Cut="0.0000000000000000e+00" cType="1" res="3.0434219166636467e-02" rms="4.6571788191795349e-01" purity="4.9135082960128784e-01" nType="-99"/>
          <Node pos="r" depth="2" NCoef="0" IVar="8" Cut="1.0186449218750000e+05" cType="1" res="-1.1169997742399573e-03" rms="4.6475672721862793e-01" purity="5.1472812891006470e-01" nType="0">
            <Node pos="l" depth="3" NCoef="0" IVar="-1" Cut="0.0000000000000000e+00" cType="1" res="-3.4748157486319542e-03" rms="4.6903926134109497e-01" purity="4.8069527745246887e-01" nType="-99"/>
            <Node pos="r" depth="3" NCoef="0" IVar="-1" Cut="0.0000000000000000e+00" cType="1" res="1.2352390214800835e-02" rms="4.4045919179916382e-01" purity="7.0031309127807617e-01" nType="-99"/>
          </Node>
        </Node>
        <Node pos="r" depth="1" NCoef="0" IVar="6" Cut="1.9442662000656128e+00" cType="1" res="-4.7541037201881409e-02" rms="4.6599775552749634e-01" purity="4.4404757022857666e-01" nType="0">
          <Node pos="l" depth="2" NCoef="0" IVar="5" Cut="-1.0467458963394165e+00" cType="1" res="-4.5903516001999378e-03" rms="4.6505874395370483e-01" purity="5.1382672786712646e-01" nType="0">
            <Node pos="l" depth="3" NCoef="0" IVar="-1" Cut="0.0000000000000000e+00" cType="1" res="-3.0348937958478928e-02" rms="4.6816560626029968e-01" purity="4.7832253575325012e-01" nType="-99"/>
            <Node pos="r" depth="3" NCoef="0" IVar="-1" Cut="0.0000000000000000e+00" cType="1" res="1.6225919127464294e-02" rms="4.6085667610168457e-01" purity="5.5113923549652100e-01" nType="-99"/>
          </Node>
          <Node pos="r" depth="2" NCoef="0" IVar="-1" Cut="0.0000000000000000e+00" cType="1" res="-5.0430996343493462e-03" rms="4.5819699764251709e-01" purity="3.2324188947677612e-01" nType="-99"/>
        </Node>
      </Node>
    </BinaryTree>
    <BinaryTree type="DecisionTree" boostWeight="1.0000000000000000e+00" itree="88">
      <Node pos="s" depth="0" NCoef="0" IVar="4" Cut="2.6982376575469971e+00" cType="1" res="-4.9671679735183716e-03" rms="4.6661099791526794e-01" purity="4.9923187494277954e-01" nType="0">
        <Node pos="l" depth="1" NCoef="0" IVar="4" Cut="1.1931755542755127e+00" cType="1" res="1.4617625856772065e-03" rms="4.6801722049713135e-01" purity="5.0413745641708374e-01" nType="0">
          <Node pos="l" depth="2" NCoef="0" IVar="6" Cut="1.3462424278259277e+00" cType="1" res="7.0961392484605312e-03" rms="4.6842980384826660e-01" purity="4.6914240717887878e-01" nType="0">
            <Node pos="l" depth="3" NCoef="0" IVar="-1" Cut="0.0000000000000000e+00" cType="1" res="-2.3200444411486387e-03" rms="4.6551650762557983e-01" purity="4.7112455964088440e-01" nType="-99"/>
            <Node pos="r" depth="3" NCoef="0" IVar="-1" Cut="0.0000000000000000e+00" cType="1" res="2.6119241490960121e-02" rms="4.7366696596145630e-01" purity="4.6519672870635986e-01" nType="-99"/>
          </Node>
          <Node pos="r" depth="2" NCoef="0" IVar="7" Cut="7.0000000000000000e+00" cType="1" res="-1.6743388259783387e-03" rms="4.6775645017623901e-01" purity="5.2363026142120361e-01" nType="0">
            <Node pos="l" depth="3" NCoef="0" IVar="-1" Cut="0.0000000000000000e+00" cType="1" res="-3.7539815530180931e-03" rms="4.6913972496986389e-01" purity="5.0913792848587036e-01" nType="-99"/>
            <Node pos="r" depth="3" NCoef="0" IVar="-1" Cut="0.0000000000000000e+00" cType="1" res="1.9200915470719337e-02" rms="4.5513048768043518e-01" purity="6.4904558658599854e-01" nType="-99"/>
          </Node>
        </Node>
        <Node pos="r" depth="1" NCoef="0" IVar="3" Cut="3.1166431903839111e+00" cType="1" res="-2.3499658331274986e-02" rms="4.6203300356864929e-01" purity="4.8509061336517334e-01" nType="0">
          <Node pos="l" depth="2" NCoef="0" IVar="9" Cut="3.8862113281250000e+04" cType="1" res="-6.0531847178936005e-02" rms="4.6212133765220642e-01" purity="3.8456314802169800e-01" nType="0">
            <Node pos="l" depth="3" NCoef="0" IVar="-1" Cut="0.0000000000000000e+00" cType="1" res="-7.7276192605495453e-03" rms="4.5493400096893311e-01" purity="3.1434747576713562e-01" nType="-99"/>
            <Node pos="r" depth="3" NCoef="0" IVar="-1" Cut="0.0000000000000000e+00" cType="1" res="-3.1164181418716908e-03" rms="4.6760460734367371e-01" purity="4.4527280330657959e-01" nType="-99"/>
          </Node>
          <Node pos="r" depth="2" NCoef="0" IVar="6" Cut="-1.9447107315063477e+00" cType="1" res="3.7465495988726616e-03" rms="4.6006858348846436e-01" purity="5.5905312299728394e-01" nType="0">
            <Node pos="l" depth="3" NCoef="0" IVar="-1" Cut="0.0000000000000000e+00" cType="1" res="-2.7687536552548409e-02" rms="4.7693783044815063e-01" purity="4.9676984548568726e-01" nType="-99"/>
            <Node pos="r" depth="3" NCoef="0" IVar="-1" Cut="0.0000000000000000e+00" cType="1" res="2.0708935335278511e-02" rms="4.5078507065773010e-01" purity="5.9007728099822998e-01" nType="-99"/>
          </Node>
        </Node>
      </Node>
    </BinaryTree>
    <BinaryTree type="DecisionTree" boostWeight="1.0000000000000000e+00" itree="89">
      <Node pos="s" depth="0" NCoef="0" IVar="4" Cut="6.0854887962341309e-01" cType="1" res="-2.9295387212187052e-03" rms="4.6775078773498535e-01" purity="5.0205916166305542e-01" nType="0">
        <Node pos="l" depth="1" NCoef="0" IVar="-1" Cut="0.0000000000000000e+00" cType="1" res="3.9086610078811646e-02" rms="4.8329761624336243e-01" purity="5.0117021799087524e-01" nType="-99"/>
        <Node pos="r" depth="1" NCoef="0" IVar="5" Cut="-7.4801546335220337e-01" cType="1" res="-5.3578601218760014e-03" rms="4.6655768156051636e-01" purity="5.0212067365646362e-01" nType="0">
          <Node pos="l" depth="2" NCoef="0" IVar="6" Cut="1.9447295665740967e+00" cType="1" res="3.6536431871354580e-03" rms="4.6950528025627136e-01" purity="5.2146786451339722e-01" nType="0">
            <Node pos="l" depth="3" NCoef="0" IVar="-1" Cut="0.0000000000000000e+00" cType="1" res="8.8850241154432297e-03" rms="4.6928057074546814e-01" purity="5.2058732509613037e-01" nType="-99"/>
            <Node pos="r" depth="3" NCoef="0" IVar="-1" Cut="0.0000000000000000e+00" cType="1" res="-1.4769230037927628e-02" rms="4.6867641806602478e-01" purity="5.2794963121414185e-01" nType="-99"/>
          </Node>
          <Node pos="r" depth="2" NCoef="0" IVar="4" Cut="3.0171978473663330e+00" cType="1" res="-1.2179345823824406e-02" rms="4.6419766545295715e-01" purity="4.8747533559799194e-01" nType="0">
            <Node pos="l" depth="3" NCoef="0" IVar="-1" Cut="0.0000000000000000e+00" cType="1" res="-4.9884202890098095e-03" rms="4.6520859003067017e-01" purity="4.9694377183914185e-01" nType="-99"/>
            <Node pos="r" depth="3" NCoef="0" IVar="-1" Cut="0.0000000000000000e+00" cType="1" res="-5.9893168509006500e-03" rms="4.5624384284019470e-01" purity="4.3056827783584595e-01" nType="-99"/>
          </Node>
        </Node>
      </Node>
    </BinaryTree>
    <BinaryTree type="DecisionTree" boostWeight="1.0000000000000000e+00" itree="90">
      <Node pos="s" depth="0" NCoef="0" IVar="4" Cut="2.9822709560394287e+00" cType="1" res="0.0000000000000000e+00" rms="0.0000000000000000e+00" purity="4.9836105108261108e-01" nType="0">
        <Node pos="l" depth="1" NCoef="0" IVar="4" Cut="1.6065872907638550e+00" cType="1" res="-8.6619582725688815e-04" rms="4.6588990092277527e-01" purity="5.0676971673965454e-01" nType="0">
          <Node pos="l" depth="2" NCoef="0" IVar="6" Cut="-4.4882851839065552e-01" cType="1" res="-1.2751707807183266e-02" rms="4.6593871712684631e-01" purity="4.6363213658332825e-01" nType="0">
            <Node pos="l" depth="3" NCoef="0" IVar="-1" Cut="0.0000000000000000e+00" cType="1" res="-3.0609419569373131e-02" rms="4.6507886052131653e-01" purity="4.4388037919998169e-01" nType="-99"/>
            <Node pos="r" depth="3" NCoef="0" IVar="-1" Cut="0.0000000000000000e+00" cType="1" res="-4.3135154992341995e-03" rms="4.6644523739814758e-01" purity="4.7978639602661133e-01" nType="-99"/>
          </Node>
          <Node pos="r" depth="2" NCoef="0" IVar="5" Cut="7.4796241521835327e-01" cType="1" res="1.0125843808054924e-02" rms="4.6557480096817017e-01" purity="5.4666453599929810e-01" nType="0">
            <Node pos="l" depth="3" NCoef="0" IVar="-1" Cut="0.0000000000000000e+00" cType="1" res="1.1997799156233668e-03" rms="4.6921268105506897e-01" purity="5.3159713745117188e-01" nType="-99"/>
            <Node pos="r" depth="3" NCoef="0" IVar="-1" Cut="0.0000000000000000e+00" cType="1" res="2.4478532373905182e-02" rms="4.6054098010063171e-01" purity="5.6640678644180298e-01" nType="-99"/>
          </Node>
        </Node>
        <Node pos="r" depth="1" NCoef="0" IVar="6" Cut="1.0470324754714966e+00" cType="1" res="-2.9297081753611565e-02" rms="4.5922678709030151e-01" purity="4.5231041312217712e-01" nType="0">
          <Node pos="l" depth="2" NCoef="0" IVar="6" Cut="-2.1453411579132080e+00" cType="1" res="3.6902809515595436e-03" rms="4.6597608923912048e-01" purity="5.1448649168014526e-01" nType="0">
            <Node pos="l" depth="3" NCoef="0" IVar="-1" Cut="0.0000000000000000e+00" cType="1" res="7.6488601043820381e-03" rms="4.8045700788497925e-01" purity="4.5482593774795532e-01" nType="-99"/>
            <Node pos="r" depth="3" NCoef="0" IVar="-1" Cut="0.0000000000000000e+00" cType="1" res="1.4808465493842959e-03" rms="4.5145776867866516e-01" purity="5.7241940498352051e-01" nType="-99"/>
          </Node>
          <Node pos="r" depth="2" NCoef="0" IVar="-1" Cut="0.0000000000000000e+00" cType="1" res="-4.8304079100489616e-03" rms="4.4797000288963318e-01" purity="3.7866368889808655e-01" nType="-99"/>
        </Node>
      </Node>
    </BinaryTree>
    <BinaryTree type="DecisionTree" boostWeight="1.0000000000000000e+00" itree="91">
      <Node pos="s" depth="0" NCoef="0" IVar="4" Cut="2.9988031387329102e+00" cType="1" res="-1.0788736864924431e-02" rms="4.6565932035446167e-01" purity="4.9478077888488770e-01" nType="0">
        <Node pos="l" depth="1" NCoef="0" IVar="1" Cut="2.6666253125000000e+05" cType="1" res="-6.5634464845061302e-03" rms="4.6581569314002991e-01" purity="5.0269287824630737e-01" nType="0">
          <Node pos="l" depth="2" NCoef="0" IVar="4" Cut="7.7307379245758057e-01" cType="1" res="-9.0055111795663834e-03" rms="4.6647703647613525e-01" purity="5.1335352659225464e-01" nType="0">
            <Node pos="l" depth="3" NCoef="0" IVar="-1" Cut="0.0000000000000000e+00" cType="1" res="-4.8831265419721603e-02" rms="4.6465975046157837e-01" purity="4.4767099618911743e-01" nType="-99"/>
            <Node pos="r" depth="3" NCoef="0" IVar="-1" Cut="0.0000000000000000e+00" cType="1" res="-3.3196192234754562e-03" rms="4.6659511327743530e-01" purity="5.2247142791748047e-01" nType="-99"/>
          </Node>
          <Node pos="r" depth="2" NCoef="0" IVar="-1" Cut="0.0000000000000000e+00" cType="1" res="3.2413076609373093e-02" rms="4.5581799745559692e-01" purity="3.6255425214767456e-01" nType="-99"/>
        </Node>
        <Node pos="r" depth="1" NCoef="0" IVar="5" Cut="7.4778842926025391e-01" cType="1" res="-3.5534795373678207e-02" rms="4.6397057175636292e-01" purity="4.4844257831573486e-01" nType="0">
          <Node pos="l" depth="2" NCoef="0" IVar="-1" Cut="0.0000000000000000e+00" cType="1" res="3.2261642627418041e-03" rms="4.6752250194549561e-01" purity="4.8895332217216492e-01" nType="-99"/>
          <Node pos="r" depth="2" NCoef="0" IVar="-1" Cut="0.0000000000000000e+00" cType="1" res="-4.9258703365921974e-03" rms="4.5529648661613464e-01" purity="4.0226006507873535e-01" nType="-99"/>
        </Node>
      </Node>
    </BinaryTree>
    <BinaryTree type="DecisionTree" boostWeight="1.0000000000000000e+00" itree="92">
      <Node pos="s" depth="0" NCoef="0" IVar="4" Cut="2.7381789684295654e+00" cType="1" res="-6.5676774829626083e-03" rms="4.6657931804656982e-01" purity="4.9564310908317566e-01" nType="0">
        <Node pos="l" depth="1" NCoef="0" IVar="4" Cut="8.3671241998672485e-01" cType="1" res="-1.3152556493878365e-03" rms="4.6805018186569214e-01" purity="4.9846771359443665e-01" nType="0">
          <Node pos="l" depth="2" NCoef="0" IVar="5" Cut="1.9442925453186035e+00" cType="1" res="0.0000000000000000e+00" rms="0.0000000000000000e+00" purity="4.5330134034156799e-01" nType="0">
            <Node pos="l" depth="3" NCoef="0" IVar="-1" Cut="0.0000000000000000e+00" cType="1" res="3.3509090542793274e-02" rms="4.7436591982841492e-01" purity="4.5091757178306580e-01" nType="-99"/>
            <Node pos="r" depth="3" NCoef="0" IVar="-1" Cut="0.0000000000000000e+00" cType="1" res="-1.8483096733689308e-02" rms="4.5939493179321289e-01" purity="4.5860087871551514e-01" nType="-99"/>
          </Node>
          <Node pos="r" depth="2" NCoef="0" IVar="5" Cut="-1.4961664378643036e-01" cType="1" res="-4.7554555349051952e-03" rms="4.6750414371490479e-01" purity="5.0861668586730957e-01" nType="0">
            <Node pos="l" depth="3" NCoef="0" IVar="-1" Cut="0.0000000000000000e+00" cType="1" res="-1.0727175511419773e-02" rms="4.6941229701042175e-01" purity="5.0071650743484497e-01" nType="-99"/>
            <Node pos="r" depth="3" NCoef="0" IVar="-1" Cut="0.0000000000000000e+00" cType="1" res="2.5937969330698252e-03" rms="4.6553504467010498e-01" purity="5.1628476381301880e-01" nType="-99"/>
          </Node>
        </Node>
        <Node pos="r" depth="1" NCoef="0" IVar="6" Cut="1.3463491201400757e+00" cType="1" res="-2.3062610998749733e-02" rms="4.6154132485389709e-01" purity="4.8677256703376770e-01" nType="0">
          <Node pos="l" depth="2" NCoef="0" IVar="8" Cut="8.1973554687500000e+04" cType="1" res="0.0000000000000000e+00" rms="0.0000000000000000e+00" purity="5.4197061061859131e-01" nType="0">
            <Node pos="l" depth="3" NCoef="0" IVar="-1" Cut="0.0000000000000000e+00" cType="1" res="1.8978612497448921e-02" rms="4.6893948316574097e-01" purity="4.9513691663742065e-01" nType="-99"/>
            <Node pos="r" depth="3" NCoef="0" IVar="-1" Cut="0.0000000000000000e+00" cType="1" res="-3.0221117660403252e-02" rms="4.4754561781883240e-01" purity="6.4392250776290894e-01" nType="-99"/>
          </Node>
          <Node pos="r" depth="2" NCoef="0" IVar="5" Cut="1.6455234289169312e+00" cType="1" res="-5.9914246201515198e-02" rms="4.5738592743873596e-01" purity="4.0854284167289734e-01" nType="0">
            <Node pos="l" depth="3" NCoef="0" IVar="-1" Cut="0.0000000000000000e+00" cType="1" res="-5.1404410041868687e-03" rms="4.4165545701980591e-01" purity="3.7230288982391357e-01" nType="-99"/>
            <Node pos="r" depth="3" NCoef="0" IVar="-1" Cut="0.0000000000000000e+00" cType="1" res="-1.3082453981041908e-02" rms="4.7204014658927917e-01" purity="4.5239368081092834e-01" nType="-99"/>
          </Node>
        </Node>
      </Node>
    </BinaryTree>
    <BinaryTree type="DecisionTree" boostWeight="1.0000000000000000e+00" itree="93">
      <Node pos="s" depth="0" NCoef="0" IVar="4" Cut="3.2655649185180664e+00" cType="1" res="-1.0145237669348717e-02" rms="4.6330246329307556e-01" purity="4.8990374803543091e-01" nType="0">
        <Node pos="l" depth="1" NCoef="0" IVar="4" Cut="2.0460615158081055e+00" cType="1" res="-5.5749979801476002e-03" rms="4.6627971529960632e-01" purity="5.0530022382736206e-01" nType="0">
          <Node pos="l" depth="2" NCoef="0" IVar="8" Cut="1.0035639062500000e+05" cType="1" res="1.3604621635749936e-03" rms="4.6808758378028870e-01" purity="4.8609274625778198e-01" nType="0">
            <Node pos="l" depth="3" NCoef="0" IVar="-1" Cut="0.0000000000000000e+00" cType="1" res="6.2968023121356964e-03" rms="4.7106137871742249e-01" purity="4.5258498191833496e-01" nType="-99"/>
            <Node pos="r" depth="3" NCoef="0" IVar="-1" Cut="0.0000000000000000e+00" cType="1" res="-1.9169578328728676e-02" rms="4.5347899198532104e-01" purity="6.4255440235137939e-01" nType="-99"/>
          </Node>
          <Node pos="r" depth="2" NCoef="0" IVar="4" Cut="3.0333247184753418e+00" cType="1" res="-1.4476475305855274e-02" rms="4.6379712224006653e-01" purity="5.2995246648788452e-01" nType="0">
            <Node pos="l" depth="3" NCoef="0" IVar="-1" Cut="0.0000000000000000e+00" cType="1" res="-5.3915465250611305e-03" rms="4.6243733167648315e-01" purity="5.3563565015792847e-01" nType="-99"/>
            <Node pos="r" depth="3" NCoef="0" IVar="-1" Cut="0.0000000000000000e+00" cType="1" res="-4.1570765897631645e-03" rms="4.6908098459243774e-01" purity="5.0471502542495728e-01" nType="-99"/>
          </Node>
        </Node>
        <Node pos="r" depth="1" NCoef="0" IVar="-1" Cut="0.0000000000000000e+00" cType="1" res="-2.7201387565582991e-03" rms="4.1921678185462952e-01" purity="2.9379543662071228e-01" nType="-99"/>
      </Node>
    </BinaryTree>
    <BinaryTree type="DecisionTree" boostWeight="1.0000000000000000e+00" itree="94">
      <Node pos="s" depth="0" NCoef="0" IVar="6" Cut="2.5430872440338135e+00" cType="1" res="1.6427014488726854e-03" rms="4.6751806139945984e-01" purity="5.0581389665603638e-01" nType="0">
        <Node pos="l" depth="1" NCoef="0" IVar="6" Cut="2.0016148090362549e+00" cType="1" res="-3.1776095274835825e-03" rms="4.6471151709556580e-01" purity="5.0801992416381836e-01" nType="0">
          <Node pos="l" depth="2" NCoef="0" IVar="9" Cut="5.9038429687500000e+04" cType="1" res="5.1797796040773392e-03" rms="4.6266493201255798e-01" purity="5.2123737335205078e-01" nType="0">
            <Node pos="l" depth="3" NCoef="0" IVar="-1" Cut="0.0000000000000000e+00" cType="1" res="-4.0658313082531095e-05" rms="4.7093668580055237e-01" purity="4.5406252145767212e-01" nType="-99"/>
            <Node pos="r" depth="3" NCoef="0" IVar="-1" Cut="0.0000000000000000e+00" cType="1" res="2.0185129716992378e-02" rms="4.4058492779731750e-01" purity="6.9257748126983643e-01" nType="-99"/>
          </Node>
          <Node pos="r" depth="2" NCoef="0" IVar="9" Cut="4.3273035156250000e+04" cType="1" res="0.0000000000000000e+00" rms="0.0000000000000000e+00" purity="4.2972370982170105e-01" nType="0">
            <Node pos="l" depth="3" NCoef="0" IVar="-1" Cut="0.0000000000000000e+00" cType="1" res="-1.4772665454074740e-03" rms="4.7009161114692688e-01" purity="3.8700971007347107e-01" nType="-99"/>
            <Node pos="r" depth="3" NCoef="0" IVar="-1" Cut="0.0000000000000000e+00" cType="1" res="-5.3540454246103764e-03" rms="4.7094786167144775e-01" purity="4.7875738143920898e-01" nType="-99"/>
          </Node>
        </Node>
        <Node pos="r" depth="1" NCoef="0" IVar="5" Cut="7.4721634387969971e-01" cType="1" res="2.3131396621465683e-02" rms="4.7924029827117920e-01" purity="4.9597948789596558e-01" nType="0">
          <Node pos="l" depth="2" NCoef="0" IVar="-1" Cut="0.0000000000000000e+00" cType="1" res="2.5919897598214447e-04" rms="4.7450885176658630e-01" purity="4.5207941532135010e-01" nType="-99"/>
          <Node pos="r" depth="2" NCoef="0" IVar="3" Cut="5.2781295776367188e+00" cType="1" res="3.8782007992267609e-02" rms="4.8182427883148193e-01" purity="5.2600544691085815e-01" nType="0">
            <Node pos="l" depth="3" NCoef="0" IVar="-1" Cut="0.0000000000000000e+00" cType="1" res="6.6160388290882111e-02" rms="4.8672857880592346e-01" purity="5.3442919254302979e-01" nType="-99"/>
            <Node pos="r" depth="3" NCoef="0" IVar="-1" Cut="0.0000000000000000e+00" cType="1" res="1.6616990789771080e-02" rms="4.7507315874099731e-01" purity="5.1683044433593750e-01" nType="-99"/>
          </Node>
        </Node>
      </Node>
    </BinaryTree>
    <BinaryTree type="DecisionTree" boostWeight="1.0000000000000000e+00" itree="95">
      <Node pos="s" depth="0" NCoef="0" IVar="6" Cut="2.5430891513824463e+00" cType="1" res="-3.7459468003362417e-03" rms="4.6595346927642822e-01" purity="5.0354224443435669e-01" nType="0">
        <Node pos="l" depth="1" NCoef="0" IVar="5" Cut="-1.3462136983871460e+00" cType="1" res="5.1449763122946024e-04" rms="4.6363469958305359e-01" purity="5.1268416643142700e-01" nType="0">
          <Node pos="l" depth="2" NCoef="0" IVar="4" Cut="2.4571058750152588e+00" cType="1" res="1.0560401715338230e-02" rms="4.7085520625114441e-01" purity="5.2764970064163208e-01" nType="0">
            <Node pos="l" depth="3" NCoef="0" IVar="-1" Cut="0.0000000000000000e+00" cType="1" res="2.4819321930408478e-02" rms="4.7096130251884460e-01" purity="5.2944213151931763e-01" nType="-99"/>
            <Node pos="r" depth="3" NCoef="0" IVar="-1" Cut="0.0000000000000000e+00" cType="1" res="-1.4467281289398670e-02" rms="4.6986386179924011e-01" purity="5.2378678321838379e-01" nType="-99"/>
          </Node>
          <Node pos="r" depth="2" NCoef="0" IVar="6" Cut="6.4820289611816406e-01" cType="1" res="-6.5949647687375546e-03" rms="4.5832300186157227e-01" purity="5.0209313631057739e-01" nType="0">
            <Node pos="l" depth="3" NCoef="0" IVar="-1" Cut="0.0000000000000000e+00" cType="1" res="2.4136032443493605e-03" rms="4.5401439070701599e-01" purity="5.4951143264770508e-01" nType="-99"/>
            <Node pos="r" depth="3" NCoef="0" IVar="-1" Cut="0.0000000000000000e+00" cType="1" res="-7.9192556440830231e-03" rms="4.6324473619461060e-01" purity="4.4495046138763428e-01" nType="-99"/>
          </Node>
        </Node>
        <Node pos="r" depth="1" NCoef="0" IVar="6" Cut="2.7425532341003418e+00" cType="1" res="-2.2192243486642838e-02" rms="4.7542244195938110e-01" purity="4.6396088600158691e-01" nType="0">
          <Node pos="l" depth="2" NCoef="0" IVar="-1" Cut="0.0000000000000000e+00" cType="1" res="9.1212423285469413e-04" rms="4.7988203167915344e-01" purity="4.8342394828796387e-01" nType="-99"/>
          <Node pos="r" depth="2" NCoef="0" IVar="6" Cut="2.9135379791259766e+00" cType="1" res="-3.2180208712816238e-02" rms="4.7313675284385681e-01" purity="4.5556846261024475e-01" nType="0">
            <Node pos="l" depth="3" NCoef="0" IVar="-1" Cut="0.0000000000000000e+00" cType="1" res="-6.5349355340003967e-02" rms="4.7334983944892883e-01" purity="4.3662536144256592e-01" nType="-99"/>
            <Node pos="r" depth="3" NCoef="0" IVar="-1" Cut="0.0000000000000000e+00" cType="1" res="-5.7428828440606594e-03" rms="4.7248294949531555e-01" purity="4.6735817193984985e-01" nType="-99"/>
          </Node>
        </Node>
      </Node>
    </BinaryTree>
    <BinaryTree type="DecisionTree" boostWeight="1.0000000000000000e+00" itree="96">
      <Node pos="s" depth="0" NCoef="0" IVar="6" Cut="1.3463330268859863e+00" cType="1" res="-4.3507553637027740e-03" rms="4.6674561500549316e-01" purity="5.0216555595397949e-01" nType="0">
        <Node pos="l" depth="1" NCoef="0" IVar="6" Cut="7.0447504520416260e-01" cType="1" res="-1.3061027973890305e-02" rms="4.6411681175231934e-01" purity="5.0685852766036987e-01" nType="0">
          <Node pos="l" depth="2" NCoef="0" IVar="8" Cut="6.2884300781250000e+04" cType="1" res="0.0000000000000000e+00" rms="0.0000000000000000e+00" purity="5.0920969247817993e-01" nType="0">
            <Node pos="l" depth="3" NCoef="0" IVar="-1" Cut="0.0000000000000000e+00" cType="1" res="-1.3714962406083941e-03" rms="4.6699985861778259e-01" purity="4.1487288475036621e-01" nType="-99"/>
            <Node pos="r" depth="3" NCoef="0" IVar="-1" Cut="0.0000000000000000e+00" cType="1" res="-1.8713876605033875e-02" rms="4.6565598249435425e-01" purity="6.0507559776306152e-01" nType="-99"/>
          </Node>
          <Node pos="r" depth="2" NCoef="0" IVar="-1" Cut="0.0000000000000000e+00" cType="1" res="-3.3112165983766317e-03" rms="4.4361755251884460e-01" purity="4.8753884434700012e-01" nType="-99"/>
        </Node>
        <Node pos="r" depth="1" NCoef="0" IVar="8" Cut="1.0169246093750000e+05" cType="1" res="1.0249990038573742e-02" rms="4.7075790166854858e-01" purity="4.9429890513420105e-01" nType="0">
          <Node pos="l" depth="2" NCoef="0" IVar="9" Cut="3.5408921875000000e+04" cType="1" res="1.4237928204238415e-02" rms="4.7293609380722046e-01" purity="4.7188487648963928e-01" nType="0">
            <Node pos="l" depth="3" NCoef="0" IVar="-1" Cut="0.0000000000000000e+00" cType="1" res="-6.4317806391045451e-04" rms="4.6610817313194275e-01" purity="3.6708140373229980e-01" nType="-99"/>
            <Node pos="r" depth="3" NCoef="0" IVar="-1" Cut="0.0000000000000000e+00" cType="1" res="3.1126003712415695e-02" rms="4.7856628894805908e-01" purity="5.6563943624496460e-01" nType="-99"/>
          </Node>
          <Node pos="r" depth="2" NCoef="0" IVar="-1" Cut="0.0000000000000000e+00" cType="1" res="-2.0576739683747292e-02" rms="4.5535030961036682e-01" purity="6.4129453897476196e-01" nType="-99"/>
        </Node>
      </Node>
    </BinaryTree>
    <BinaryTree type="DecisionTree" boostWeight="1.0000000000000000e+00" itree="97">
      <Node pos="s" depth="0" NCoef="0" IVar="6" Cut="7.4793118238449097e-01" cType="1" res="-1.0340967215597630e-02" rms="4.6813705563545227e-01" purity="4.9496892094612122e-01" nType="0">
        <Node pos="l" depth="1" NCoef="0" IVar="9" Cut="9.2241515625000000e+04" cType="1" res="-1.1807224946096539e-03" rms="4.6683591604232788e-01" purity="5.1346534490585327e-01" nType="0">
          <Node pos="l" depth="2" NCoef="0" IVar="5" Cut="2.5430681705474854e+00" cType="1" res="-3.8326333742588758e-03" rms="4.7024875879287720e-01" purity="4.9443963170051575e-01" nType="0">
            <Node pos="l" depth="3" NCoef="0" IVar="-1" Cut="0.0000000000000000e+00" cType="1" res="-5.7258643209934235e-04" rms="4.7001531720161438e-01" purity="4.8809716105461121e-01" nType="-99"/>
            <Node pos="r" depth="3" NCoef="0" IVar="-1" Cut="0.0000000000000000e+00" cType="1" res="-2.8961550444364548e-02" rms="4.7127667069435120e-01" purity="5.4393726587295532e-01" nType="-99"/>
          </Node>
          <Node pos="r" depth="2" NCoef="0" IVar="-1" Cut="0.0000000000000000e+00" cType="1" res="3.9090096950531006e-02" rms="4.2132088541984558e-01" purity="7.4712717533111572e-01" nType="-99"/>
        </Node>
        <Node pos="r" depth="1" NCoef="0" IVar="2" Cut="1.9544731140136719e+02" cType="1" res="-2.2190818563103676e-02" rms="4.6954986453056335e-01" purity="4.7104167938232422e-01" nType="0">
          <Node pos="l" depth="2" NCoef="0" IVar="6" Cut="1.4318962097167969e+00" cType="1" res="-5.2639530040323734e-03" rms="4.6931466460227966e-01" purity="4.8937556147575378e-01" nType="0">
            <Node pos="l" depth="3" NCoef="0" IVar="-1" Cut="0.0000000000000000e+00" cType="1" res="3.5640489310026169e-02" rms="4.4307860732078552e-01" purity="6.0948020219802856e-01" nType="-99"/>
            <Node pos="r" depth="3" NCoef="0" IVar="-1" Cut="0.0000000000000000e+00" cType="1" res="-1.0950564406812191e-02" rms="4.7483611106872559e-01" purity="4.6149829030036926e-01" nType="-99"/>
          </Node>
          <Node pos="r" depth="2" NCoef="0" IVar="5" Cut="-1.4998230338096619e-01" cType="1" res="-4.1097253561019897e-02" rms="4.6909087896347046e-01" purity="4.5056375861167908e-01" nType="0">
            <Node pos="l" depth="3" NCoef="0" IVar="-1" Cut="0.0000000000000000e+00" cType="1" res="-4.4869114644825459e-03" rms="4.5123207569122314e-01" purity="4.4551491737365723e-01" nType="-99"/>
            <Node pos="r" depth="3" NCoef="0" IVar="-1" Cut="0.0000000000000000e+00" cType="1" res="-2.8015596792101860e-02" rms="4.7304847836494446e-01" purity="4.5214587450027466e-01" nType="-99"/>
          </Node>
        </Node>
      </Node>
    </BinaryTree>
    <BinaryTree type="DecisionTree" boostWeight="1.0000000000000000e+00" itree="98">
      <Node pos="s" depth="0" NCoef="0" IVar="1" Cut="2.6666246875000000e+05" cType="1" res="2.6265878695994616e-03" rms="4.6596890687942505e-01" purity="5.0382715463638306e-01" nType="0">
        <Node pos="l" depth="1" NCoef="0" IVar="6" Cut="2.5430901050567627e+00" cType="1" res="3.8091097958385944e-03" rms="4.6699267625808716e-01" purity="5.1724505424499512e-01" nType="0">
          <Node pos="l" depth="2" NCoef="0" IVar="2" Cut="2.0370143127441406e+02" cType="1" res="7.5390278361737728e-03" rms="4.6544477343559265e-01" purity="5.2809941768646240e-01" nType="0">
            <Node pos="l" depth="3" NCoef="0" IVar="-1" Cut="0.0000000000000000e+00" cType="1" res="1.5854028984904289e-02" rms="4.6209716796875000e-01" purity="5.4893881082534790e-01" nType="-99"/>
            <Node pos="r" depth="3" NCoef="0" IVar="-1" Cut="0.0000000000000000e+00" cType="1" res="-2.1996146533638239e-03" rms="4.7026389837265015e-01" purity="4.9638935923576355e-01" nType="-99"/>
          </Node>
          <Node pos="r" depth="2" NCoef="0" IVar="4" Cut="1.4118980169296265e+00" cType="1" res="-1.2209079228341579e-02" rms="4.7324854135513306e-01" purity="4.7063106298446655e-01" nType="0">
            <Node pos="l" depth="3" NCoef="0" IVar="-1" Cut="0.0000000000000000e+00" cType="1" res="-5.5131386965513229e-02" rms="4.6757552027702332e-01" purity="3.9627116918563843e-01" nType="-99"/>
            <Node pos="r" depth="3" NCoef="0" IVar="-1" Cut="0.0000000000000000e+00" cType="1" res="-4.6164490049704909e-04" rms="4.7476801276206970e-01" purity="4.9756020307540894e-01" nType="-99"/>
          </Node>
        </Node>
        <Node pos="r" depth="1" NCoef="0" IVar="-1" Cut="0.0000000000000000e+00" cType="1" res="-1.7304856330156326e-02" rms="4.5227891206741333e-01" purity="3.3075204491615295e-01" nType="-99"/>
      </Node>
    </BinaryTree>
    <BinaryTree type="DecisionTree" boostWeight="1.0000000000000000e+00" itree="99">
      <Node pos="s" depth="0" NCoef="0" IVar="8" Cut="6.3353859375000000e+04" cType="1" res="-2.1154654677957296e-03" rms="4.6344456076622009e-01" purity="5.0268328189849854e-01" nType="0">
        <Node pos="l" depth="1" NCoef="0" IVar="5" Cut="-2.5428235530853271e+00" cType="1" res="-1.2473978102207184e-02" rms="4.6532598137855530e-01" purity="3.9905753731727600e-01" nType="0">
          <Node pos="l" depth="2" NCoef="0" IVar="-1" Cut="0.0000000000000000e+00" cType="1" res="-3.8187829777598381e-03" rms="4.5387229323387146e-01" purity="3.6894026398658752e-01" nType="-99"/>
          <Node pos="r" depth="2" NCoef="0" IVar="9" Cut="4.6583894531250000e+04" cType="1" res="-5.4266075603663921e-03" rms="4.6659207344055176e-01" purity="4.0353134274482727e-01" nType="0">
            <Node pos="l" depth="3" NCoef="0" IVar="-1" Cut="0.0000000000000000e+00" cType="1" res="-4.8885942669585347e-04" rms="4.6344333887100220e-01" purity="3.8749223947525024e-01" nType="-99"/>
            <Node pos="r" depth="3" NCoef="0" IVar="-1" Cut="0.0000000000000000e+00" cType="1" res="-4.2268116027116776e-02" rms="4.8793441057205200e-01" purity="5.2272671461105347e-01" nType="-99"/>
          </Node>
        </Node>
        <Node pos="r" depth="1" NCoef="0" IVar="2" Cut="2.3764486694335938e+02" cType="1" res="9.7097912803292274e-03" rms="4.6100291609764099e-01" purity="6.2098217010498047e-01" nType="0">
          <Node pos="l" depth="2" NCoef="0" IVar="4" Cut="1.1278831958770752e+00" cType="1" res="0.0000000000000000e+00" rms="0.0000000000000000e+00" purity="6.3836818933486938e-01" nType="0">
            <Node pos="l" depth="3" NCoef="0" IVar="-1" Cut="0.0000000000000000e+00" cType="1" res="-2.4920299649238586e-02" rms="4.6776473522186279e-01" purity="5.7106244564056396e-01" nType="-99"/>
            <Node pos="r" depth="3" NCoef="0" IVar="-1" Cut="0.0000000000000000e+00" cType="1" res="1.3303415849804878e-02" rms="4.4780710339546204e-01" purity="6.6089874505996704e-01" nType="-99"/>
          </Node>
          <Node pos="r" depth="2" NCoef="0" IVar="6" Cut="-2.2438912391662598e+00" cType="1" res="1.9808979704976082e-02" rms="4.7394409775733948e-01" purity="5.9144526720046997e-01" nType="0">
            <Node pos="l" depth="3" NCoef="0" IVar="-1" Cut="0.0000000000000000e+00" cType="1" res="7.3752984404563904e-02" rms="4.7712376713752747e-01" purity="6.2783539295196533e-01" nType="-99"/>
            <Node pos="r" depth="3" NCoef="0" IVar="-1" Cut="0.0000000000000000e+00" cType="1" res="5.1142442971467972e-03" rms="4.7194054722785950e-01" purity="5.7850325107574463e-01" nType="-99"/>
          </Node>
        </Node>
      </Node>
    </BinaryTree>
    <BinaryTree type="DecisionTree" boostWeight="1.0000000000000000e+00" itree="100">
      <Node pos="s" depth="0" NCoef="0" IVar="4" Cut="2.9747047424316406e+00" cType="1" res="-1.2659438885748386e-02" rms="4.6574509143829346e-01" purity="4.9214127659797668e-01" nType="0">
        <Node pos="l" depth="1" NCoef="0" IVar="7" Cut="5.0000000000000000e+00" cType="1" res="-4.1507827118039131e-03" rms="4.6611294150352478e-01" purity="5.0469177961349487e-01" nType="0">
          <Node pos="l" depth="2" NCoef="0" IVar="6" Cut="2.5430860519409180e+00" cType="1" res="0.0000000000000000e+00" rms="0.0000000000000000e+00" purity="4.3014836311340332e-01" nType="0">
            <Node pos="l" depth="3" NCoef="0" IVar="-1" Cut="0.0000000000000000e+00" cType="1" res="-6.3087028684094548e-04" rms="4.6703585982322693e-01" purity="4.1583570837974548e-01" nType="-99"/>
            <Node pos="r" depth="3" NCoef="0" IVar="-1" Cut="0.0000000000000000e+00" cType="1" res="2.5319673120975494e-02" rms="4.7445574402809143e-01" purity="4.7717905044555664e-01" nType="-99"/>
          </Node>
          <Node pos="r" depth="2" NCoef="0" IVar="2" Cut="2.6295797729492188e+02" cType="1" res="-1.1229261755943298e-02" rms="4.6380779147148132e-01" purity="5.6325954198837280e-01" nType="0">
            <Node pos="l" depth="3" NCoef="0" IVar="-1" Cut="0.0000000000000000e+00" cType="1" res="-5.7138092815876007e-03" rms="4.6475571393966675e-01" purity="5.6740206480026245e-01" nType="-99"/>
            <Node pos="r" depth="3" NCoef="0" IVar="-1" Cut="0.0000000000000000e+00" cType="1" res="-1.7776789143681526e-02" rms="4.5556032657623291e-01" purity="5.3620135784149170e-01" nType="-99"/>
          </Node>
        </Node>
        <Node pos="r" depth="1" NCoef="0" IVar="6" Cut="7.4796485900878906e-01" cType="1" res="-5.9311456978321075e-02" rms="4.6092373132705688e-01" purity="4.2328324913978577e-01" nType="0">
          <Node pos="l" depth="2" NCoef="0" IVar="-1" Cut="0.0000000000000000e+00" cType="1" res="-1.0654725134372711e-02" rms="4.6680456399917603e-01" purity="4.9912965297698975e-01" nType="-99"/>
          <Node pos="r" depth="2" NCoef="0" IVar="-1" Cut="0.0000000000000000e+00" cType="1" res="-3.9813742041587830e-03" rms="4.4926935434341431e-01" purity="3.4722045063972473e-01" nType="-99"/>
        </Node>
      </Node>
    </BinaryTree>
    <BinaryTree type="DecisionTree" boostWeight="1.0000000000000000e+00" itree="101">
      <Node pos="s" depth="0" NCoef="0" IVar="6" Cut="7.4794584512710571e-01" cType="1" res="0.0000000000000000e+00" rms="0.0000000000000000e+00" purity="5.0167870521545410e-01" nType="0">
        <Node pos="l" depth="1" NCoef="0" IVar="5" Cut="-1.6455328464508057e+00" cType="1" res="1.1627494823187590e-03" rms="4.6395441889762878e-01" purity="5.1853227615356445e-01" nType="0">
          <Node pos="l" depth="2" NCoef="0" IVar="5" Cut="-2.6428041458129883e+00" cType="1" res="-1.1351495981216431e-02" rms="4.7202324867248535e-01" purity="4.8606842756271362e-01" nType="0">
            <Node pos="l" depth="3" NCoef="0" IVar="-1" Cut="0.0000000000000000e+00" cType="1" res="1.0309810750186443e-02" rms="4.7673764824867249e-01" purity="5.2075773477554321e-01" nType="-99"/>
            <Node pos="r" depth="3" NCoef="0" IVar="-1" Cut="0.0000000000000000e+00" cType="1" res="-1.1915660463273525e-02" rms="4.6889656782150269e-01" purity="4.6625083684921265e-01" nType="-99"/>
          </Node>
          <Node pos="r" depth="2" NCoef="0" IVar="6" Cut="-1.8452415466308594e+00" cType="1" res="1.2164321728050709e-02" rms="4.5645987987518311e-01" purity="5.4707193374633789e-01" nType="0">
            <Node pos="l" depth="3" NCoef="0" IVar="-1" Cut="0.0000000000000000e+00" cType="1" res="2.8837686404585838e-03" rms="4.7138196229934692e-01" purity="4.5639207959175110e-01" nType="-99"/>
            <Node pos="r" depth="3" NCoef="0" IVar="-1" Cut="0.0000000000000000e+00" cType="1" res="2.8672154992818832e-02" rms="4.3734645843505859e-01" purity="6.5739905834197998e-01" nType="-99"/>
          </Node>
        </Node>
        <Node pos="r" depth="1" NCoef="0" IVar="4" Cut="1.6530816555023193e+00" cType="1" res="-1.2508121319115162e-02" rms="4.6450954675674438e-01" purity="4.7968611121177673e-01" nType="0">
          <Node pos="l" depth="2" NCoef="0" IVar="6" Cut="1.7739185094833374e+00" cType="1" res="-3.7378369597718120e-04" rms="4.6640631556510925e-01" purity="4.6279439330101013e-01" nType="0">
            <Node pos="l" depth="3" NCoef="0" IVar="-1" Cut="0.0000000000000000e+00" cType="1" res="-2.6968153193593025e-02" rms="4.4959732890129089e-01" purity="4.7034183144569397e-01" nType="-99"/>
            <Node pos="r" depth="3" NCoef="0" IVar="-1" Cut="0.0000000000000000e+00" cType="1" res="8.1065101549029350e-03" rms="4.7276321053504944e-01" purity="4.5974037051200867e-01" nType="-99"/>
          </Node>
          <Node pos="r" depth="2" NCoef="0" IVar="9" Cut="4.3270867187500000e+04" cType="1" res="-2.1150926128029823e-02" rms="4.6295991539955139e-01" purity="4.9171739816665649e-01" nType="0">
            <Node pos="l" depth="3" NCoef="0" IVar="-1" Cut="0.0000000000000000e+00" cType="1" res="-1.9427927210927010e-02" rms="4.6434727311134338e-01" purity="3.8354292511940002e-01" nType="-99"/>
            <Node pos="r" depth="3" NCoef="0" IVar="-1" Cut="0.0000000000000000e+00" cType="1" res="-3.1743936706334352e-03" rms="4.6053746342658997e-01" purity="6.2954914569854736e-01" nType="-99"/>
          </Node>
        </Node>
      </Node>
    </BinaryTree>
    <BinaryTree type="DecisionTree" boostWeight="1.0000000000000000e+00" itree="102">
      <Node pos="s" depth="0" NCoef="0" IVar="2" Cut="3.6151910400390625e+02" cType="1" res="-2.3616214748471975e-03" rms="4.6771281957626343e-01" purity="5.0101023912429810e-01" nType="0">
        <Node pos="l" depth="1" NCoef="0" IVar="5" Cut="-1.6456681489944458e+00" cType="1" res="3.3905313466675580e-04" rms="4.6707925200462341e-01" purity="4.9870815873146057e-01" nType="0">
          <Node pos="l" depth="2" NCoef="0" IVar="5" Cut="-2.2155787944793701e+00" cType="1" res="1.2524859048426151e-02" rms="4.6958085894584656e-01" purity="5.3235590457916260e-01" nType="0">
            <Node pos="l" depth="3" NCoef="0" IVar="-1" Cut="0.0000000000000000e+00" cType="1" res="3.0378077644854784e-03" rms="4.7181951999664307e-01" purity="5.2726691961288452e-01" nType="-99"/>
            <Node pos="r" depth="3" NCoef="0" IVar="-1" Cut="0.0000000000000000e+00" cType="1" res="3.6179207265377045e-02" rms="4.6417802572250366e-01" purity="5.4302227497100830e-01" nType="-99"/>
          </Node>
          <Node pos="r" depth="2" NCoef="0" IVar="5" Cut="1.3176984786987305e+00" cType="1" res="-5.2359206601977348e-03" rms="4.6582403779029846e-01" purity="4.8331442475318909e-01" nType="0">
            <Node pos="l" depth="3" NCoef="0" IVar="-1" Cut="0.0000000000000000e+00" cType="1" res="-5.7944548316299915e-03" rms="4.6258488297462463e-01" purity="4.3984299898147583e-01" nType="-99"/>
            <Node pos="r" depth="3" NCoef="0" IVar="-1" Cut="0.0000000000000000e+00" cType="1" res="6.3235657289624214e-03" rms="4.6828794479370117e-01" purity="5.2054190635681152e-01" nType="-99"/>
          </Node>
        </Node>
        <Node pos="r" depth="1" NCoef="0" IVar="6" Cut="1.9445942640304565e+00" cType="1" res="-2.3170778527855873e-02" rms="4.7204801440238953e-01" purity="5.1874816417694092e-01" nType="0">
          <Node pos="l" depth="2" NCoef="0" IVar="-1" Cut="0.0000000000000000e+00" cType="1" res="-1.1091662570834160e-02" rms="4.6959173679351807e-01" purity="4.8982325196266174e-01" nType="-99"/>
          <Node pos="r" depth="2" NCoef="0" IVar="-1" Cut="0.0000000000000000e+00" cType="1" res="1.0125434026122093e-02" rms="4.7462904453277588e-01" purity="5.7091921567916870e-01" nType="-99"/>
        </Node>
      </Node>
    </BinaryTree>
    <BinaryTree type="DecisionTree" boostWeight="1.0000000000000000e+00" itree="103">
      <Node pos="s" depth="0" NCoef="0" IVar="6" Cut="-2.8423647880554199e+00" cType="1" res="-1.3151280581951141e-03" rms="4.6665978431701660e-01" purity="5.0321477651596069e-01" nType="0">
        <Node pos="l" depth="1" NCoef="0" IVar="4" Cut="2.2800600528717041e+00" cType="1" res="-2.6365863159298897e-02" rms="4.7523769736289978e-01" purity="4.5829778909683228e-01" nType="0">
          <Node pos="l" depth="2" NCoef="0" IVar="-1" Cut="0.0000000000000000e+00" cType="1" res="-8.9288251474499702e-03" rms="4.7096154093742371e-01" purity="4.5286855101585388e-01" nType="-99"/>
          <Node pos="r" depth="2" NCoef="0" IVar="-1" Cut="0.0000000000000000e+00" cType="1" res="-4.6884194016456604e-02" rms="4.7945225238800049e-01" purity="4.6505382657051086e-01" nType="-99"/>
        </Node>
        <Node pos="r" depth="1" NCoef="0" IVar="6" Cut="-2.5572659969329834e+00" cType="1" res="1.4705554349347949e-03" rms="4.6561288833618164e-01" purity="5.0820958614349365e-01" nType="0">
          <Node pos="l" depth="2" NCoef="0" IVar="-1" Cut="0.0000000000000000e+00" cType="1" res="3.5540282726287842e-02" rms="4.7728943824768066e-01" purity="5.1002067327499390e-01" nType="-99"/>
          <Node pos="r" depth="2" NCoef="0" IVar="2" Cut="3.5203662109375000e+02" cType="1" res="-1.5606008237227798e-03" rms="4.6430951356887817e-01" purity="5.0802671909332275e-01" nType="0">
            <Node pos="l" depth="3" NCoef="0" IVar="-1" Cut="0.0000000000000000e+00" cType="1" res="1.6374359838664532e-03" rms="4.6448409557342529e-01" purity="5.1027464866638184e-01" nType="-99"/>
            <Node pos="r" depth="3" NCoef="0" IVar="-1" Cut="0.0000000000000000e+00" cType="1" res="-4.5911893248558044e-03" rms="4.6231529116630554e-01" purity="4.9098232388496399e-01" nType="-99"/>
          </Node>
        </Node>
      </Node>
    </BinaryTree>
    <BinaryTree type="DecisionTree" boostWeight="1.0000000000000000e+00" itree="104">
      <Node pos="s" depth="0" NCoef="0" IVar="4" Cut="1.1146734952926636e+00" cType="1" res="-5.1569095812737942e-03" rms="4.6673181653022766e-01" purity="4.9976599216461182e-01" nType="0">
        <Node pos="l" depth="1" NCoef="0" IVar="4" Cut="9.1459393501281738e-01" cType="1" res="0.0000000000000000e+00" rms="0.0000000000000000e+00" purity="4.7476062178611755e-01" nType="0">
          <Node pos="l" depth="2" NCoef="0" IVar="5" Cut="-2.2435710430145264e+00" cType="1" res="2.3221382871270180e-02" rms="4.6648913621902466e-01" purity="4.7858083248138428e-01" nType="0">
            <Node pos="l" depth="3" NCoef="0" IVar="-1" Cut="0.0000000000000000e+00" cType="1" res="-1.1169976554811001e-02" rms="4.6667739748954773e-01" purity="4.7176274657249451e-01" nType="-99"/>
            <Node pos="r" depth="3" NCoef="0" IVar="-1" Cut="0.0000000000000000e+00" cType="1" res="3.8245577365159988e-02" rms="4.6594026684761047e-01" purity="4.8085129261016846e-01" nType="-99"/>
          </Node>
          <Node pos="r" depth="2" NCoef="0" IVar="-1" Cut="0.0000000000000000e+00" cType="1" res="5.6597068905830383e-03" rms="4.6665123105049133e-01" purity="4.6570026874542236e-01" nType="-99"/>
        </Node>
        <Node pos="r" depth="1" NCoef="0" IVar="4" Cut="3.0276589393615723e+00" cType="1" res="-1.2411853298544884e-02" rms="4.6653491258621216e-01" purity="5.0769484043121338e-01" nType="0">
          <Node pos="l" depth="2" NCoef="0" IVar="4" Cut="1.2969017028808594e+00" cType="1" res="-6.9503472186625004e-03" rms="4.6733364462852478e-01" purity="5.2406764030456543e-01" nType="0">
            <Node pos="l" depth="3" NCoef="0" IVar="-1" Cut="0.0000000000000000e+00" cType="1" res="-3.5797692835330963e-02" rms="4.6756115555763245e-01" purity="4.6421042084693909e-01" nType="-99"/>
            <Node pos="r" depth="3" NCoef="0" IVar="-1" Cut="0.0000000000000000e+00" cType="1" res="-4.9909553490579128e-03" rms="4.6725472807884216e-01" purity="5.3072094917297363e-01" nType="-99"/>
          </Node>
          <Node pos="r" depth="2" NCoef="0" IVar="6" Cut="7.4756264686584473e-01" cType="1" res="-3.7671219557523727e-02" rms="4.6198368072509766e-01" purity="4.3197080492973328e-01" nType="0">
            <Node pos="l" depth="3" NCoef="0" IVar="-1" Cut="0.0000000000000000e+00" cType="1" res="3.3151428215205669e-03" rms="4.6620067954063416e-01" purity="4.9708443880081177e-01" nType="-99"/>
            <Node pos="r" depth="3" NCoef="0" IVar="-1" Cut="0.0000000000000000e+00" cType="1" res="-3.5600899718701839e-03" rms="4.5256140828132629e-01" purity="3.5705757141113281e-01" nType="-99"/>
          </Node>
        </Node>
      </Node>
    </BinaryTree>
    <BinaryTree type="DecisionTree" boostWeight="1.0000000000000000e+00" itree="105">
      <Node pos="s" depth="0" NCoef="0" IVar="6" Cut="-2.8423781394958496e+00" cType="1" res="-2.8634141199290752e-03" rms="4.6534609794616699e-01" purity="5.0393456220626831e-01" nType="0">
        <Node pos="l" depth="1" NCoef="0" IVar="6" Cut="-2.9849438667297363e+00" cType="1" res="2.7150230482220650e-02" rms="4.7464707493782043e-01" purity="5.0257843732833862e-01" nType="0">
          <Node pos="l" depth="2" NCoef="0" IVar="-1" Cut="0.0000000000000000e+00" cType="1" res="2.2744897753000259e-02" rms="4.7697201371192932e-01" purity="4.9665516614913940e-01" nType="-99"/>
          <Node pos="r" depth="2" NCoef="0" IVar="-1" Cut="0.0000000000000000e+00" cType="1" res="4.0480025112628937e-02" rms="4.7204366326332092e-01" purity="5.0875079631805420e-01" nType="-99"/>
        </Node>
        <Node pos="r" depth="1" NCoef="0" IVar="8" Cut="7.3769148437500000e+04" cType="1" res="-6.1525143682956696e-03" rms="4.6419754624366760e-01" purity="5.0408321619033813e-01" nType="0">
          <Node pos="l" depth="2" NCoef="0" IVar="9" Cut="3.6466929687500000e+04" cType="1" res="0.0000000000000000e+00" rms="0.0000000000000000e+00" purity="4.2825087904930115e-01" nType="0">
            <Node pos="l" depth="3" NCoef="0" IVar="-1" Cut="0.0000000000000000e+00" cType="1" res="-2.3847848176956177e-02" rms="4.5594117045402527e-01" purity="3.3838772773742676e-01" nType="-99"/>
            <Node pos="r" depth="3" NCoef="0" IVar="-1" Cut="0.0000000000000000e+00" cType="1" res="2.0408011041581631e-03" rms="4.8041737079620361e-01" purity="5.3592658042907715e-01" nType="-99"/>
          </Node>
          <Node pos="r" depth="2" NCoef="0" IVar="6" Cut="1.7162060737609863e+00" cType="1" res="2.5675110518932343e-03" rms="4.5842832326889038e-01" purity="6.3694816827774048e-01" nType="0">
            <Node pos="l" depth="3" NCoef="0" IVar="-1" Cut="0.0000000000000000e+00" cType="1" res="9.9209090694785118e-03" rms="4.5111766457557678e-01" purity="6.5914750099182129e-01" nType="-99"/>
            <Node pos="r" depth="3" NCoef="0" IVar="-1" Cut="0.0000000000000000e+00" cType="1" res="-1.3232938013970852e-02" rms="4.7571074962615967e-01" purity="5.8184486627578735e-01" nType="-99"/>
          </Node>
        </Node>
      </Node>
    </BinaryTree>
    <BinaryTree type="DecisionTree" boostWeight="1.0000000000000000e+00" itree="106">
      <Node pos="s" depth="0" NCoef="0" IVar="6" Cut="1.3463398218154907e+00" cType="1" res="-4.5411721803247929e-03" rms="4.6509751677513123e-01" purity="4.9952089786529541e-01" nType="0">
        <Node pos="l" depth="1" NCoef="0" IVar="5" Cut="-2.2439894676208496e+00" cType="1" res="-1.3158814981579781e-02" rms="4.6329995989799500e-01" purity="5.1226454973220825e-01" nType="0">
          <Node pos="l" depth="2" NCoef="0" IVar="4" Cut="2.7053234577178955e+00" cType="1" res="1.2620323104783893e-03" rms="4.7030231356620789e-01" purity="5.2174967527389526e-01" nType="0">
            <Node pos="l" depth="3" NCoef="0" IVar="-1" Cut="0.0000000000000000e+00" cType="1" res="-8.1353308632969856e-03" rms="4.7044306993484497e-01" purity="5.0835382938385010e-01" nType="-99"/>
            <Node pos="r" depth="3" NCoef="0" IVar="-1" Cut="0.0000000000000000e+00" cType="1" res="3.8811519742012024e-02" rms="4.6826010942459106e-01" purity="5.6138116121292114e-01" nType="-99"/>
          </Node>
          <Node pos="r" depth="2" NCoef="0" IVar="7" Cut="6.0000000000000000e+00" cType="1" res="-1.9384970888495445e-02" rms="4.6010294556617737e-01" purity="5.0816857814788818e-01" nType="0">
            <Node pos="l" depth="3" NCoef="0" IVar="-1" Cut="0.0000000000000000e+00" cType="1" res="-1.2234450317919254e-02" rms="4.6144551038742065e-01" purity="4.5944797992706299e-01" nType="-99"/>
            <Node pos="r" depth="3" NCoef="0" IVar="-1" Cut="0.0000000000000000e+00" cType="1" res="-4.1879136115312576e-02" rms="4.5684731006622314e-01" purity="6.1192065477371216e-01" nType="-99"/>
          </Node>
        </Node>
        <Node pos="r" depth="1" NCoef="0" IVar="5" Cut="2.5428361892700195e+00" cType="1" res="9.8287761211395264e-03" rms="4.6772658824920654e-01" purity="4.7827091813087463e-01" nType="0">
          <Node pos="l" depth="2" NCoef="0" IVar="4" Cut="2.9344499111175537e+00" cType="1" res="3.3559270668774843e-03" rms="4.6793600916862488e-01" purity="4.5736768841743469e-01" nType="0">
            <Node pos="l" depth="3" NCoef="0" IVar="-1" Cut="0.0000000000000000e+00" cType="1" res="9.6198366954922676e-03" rms="4.7226741909980774e-01" purity="4.7051915526390076e-01" nType="-99"/>
            <Node pos="r" depth="3" NCoef="0" IVar="-1" Cut="0.0000000000000000e+00" cType="1" res="-4.0511037223041058e-03" rms="4.4532924890518188e-01" purity="3.9393255114555359e-01" nType="-99"/>
          </Node>
          <Node pos="r" depth="2" NCoef="0" IVar="-1" Cut="0.0000000000000000e+00" cType="1" res="3.5251103341579437e-02" rms="4.6572494506835938e-01" purity="5.7061457633972168e-01" nType="-99"/>
        </Node>
      </Node>
    </BinaryTree>
    <BinaryTree type="DecisionTree" boostWeight="1.0000000000000000e+00" itree="107">
      <Node pos="s" depth="0" NCoef="0" IVar="4" Cut="3.2380807399749756e+00" cType="1" res="1.3553783064708114e-03" rms="4.6516457200050354e-01" purity="5.0373786687850952e-01" nType="0">
        <Node pos="l" depth="1" NCoef="0" IVar="5" Cut="2.2437345981597900e+00" cType="1" res="3.2157907262444496e-03" rms="4.6719688177108765e-01" purity="5.1470291614532471e-01" nType="0">
          <Node pos="l" depth="2" NCoef="0" IVar="6" Cut="-1.3464059829711914e+00" cType="1" res="7.2283688932657242e-03" rms="4.6842837333679199e-01" purity="5.0574702024459839e-01" nType="0">
            <Node pos="l" depth="3" NCoef="0" IVar="-1" Cut="0.0000000000000000e+00" cType="1" res="-7.0714210160076618e-03" rms="4.7645300626754761e-01" purity="4.6843048930168152e-01" nType="-99"/>
            <Node pos="r" depth="3" NCoef="0" IVar="-1" Cut="0.0000000000000000e+00" cType="1" res="1.9224055111408234e-02" rms="4.6199277043342590e-01" purity="5.3397887945175171e-01" nType="-99"/>
          </Node>
          <Node pos="r" depth="2" NCoef="0" IVar="8" Cut="7.8059906250000000e+04" cType="1" res="-1.0938307270407677e-02" rms="4.6254882216453552e-01" purity="5.4629433155059814e-01" nType="0">
            <Node pos="l" depth="3" NCoef="0" IVar="-1" Cut="0.0000000000000000e+00" cType="1" res="-2.2381009534001350e-02" rms="4.7116848826408386e-01" purity="4.7013518214225769e-01" nType="-99"/>
            <Node pos="r" depth="3" NCoef="0" IVar="-1" Cut="0.0000000000000000e+00" cType="1" res="2.9067276045680046e-03" rms="4.4882354140281677e-01" purity="6.6181981563568115e-01" nType="-99"/>
          </Node>
        </Node>
        <Node pos="r" depth="1" NCoef="0" IVar="-1" Cut="0.0000000000000000e+00" cType="1" res="-3.5283146426081657e-03" rms="4.3324109911918640e-01" purity="3.4240129590034485e-01" nType="-99"/>
      </Node>
    </BinaryTree>
    <BinaryTree type="DecisionTree" boostWeight="1.0000000000000000e+00" itree="108">
      <Node pos="s" depth="0" NCoef="0" IVar="5" Cut="2.8421614170074463e+00" cType="1" res="-1.0796340648084879e-03" rms="4.6643382310867310e-01" purity="5.0485605001449585e-01" nType="0">
        <Node pos="l" depth="1" NCoef="0" IVar="6" Cut="-1.6456028223037720e+00" cType="1" res="-2.7667584363371134e-03" rms="4.6645435690879822e-01" purity="4.9819514155387878e-01" nType="0">
          <Node pos="l" depth="2" NCoef="0" IVar="9" Cut="6.2940933593750000e+04" cType="1" res="5.7311016134917736e-03" rms="4.7451943159103394e-01" purity="4.7480046749114990e-01" nType="0">
            <Node pos="l" depth="3" NCoef="0" IVar="-1" Cut="0.0000000000000000e+00" cType="1" res="1.3131264597177505e-02" rms="4.7657635807991028e-01" purity="4.4841983914375305e-01" nType="-99"/>
            <Node pos="r" depth="3" NCoef="0" IVar="-1" Cut="0.0000000000000000e+00" cType="1" res="-2.8155036270618439e-02" rms="4.6206718683242798e-01" purity="6.1440509557723999e-01" nType="-99"/>
          </Node>
          <Node pos="r" depth="2" NCoef="0" IVar="6" Cut="1.0899450778961182e+00" cType="1" res="0.0000000000000000e+00" rms="0.0000000000000000e+00" purity="5.1068502664566040e-01" nType="0">
            <Node pos="l" depth="3" NCoef="0" IVar="-1" Cut="0.0000000000000000e+00" cType="1" res="-1.8397048115730286e-02" rms="4.4936436414718628e-01" purity="5.6637895107269287e-01" nType="-99"/>
            <Node pos="r" depth="3" NCoef="0" IVar="-1" Cut="0.0000000000000000e+00" cType="1" res="-2.0275013521313667e-03" rms="4.6980896592140198e-01" purity="4.7540876269340515e-01" nType="-99"/>
          </Node>
        </Node>
        <Node pos="r" depth="1" NCoef="0" IVar="-1" Cut="0.0000000000000000e+00" cType="1" res="2.0174810662865639e-02" rms="4.6571305394172668e-01" purity="5.8461529016494751e-01" nType="-99"/>
      </Node>
    </BinaryTree>
    <BinaryTree type="DecisionTree" boostWeight="1.0000000000000000e+00" itree="109">
      <Node pos="s" depth="0" NCoef="0" IVar="8" Cut="7.3588218750000000e+04" cType="1" res="-4.0476359426975250e-03" rms="4.6239915490150452e-01" purity="4.9783819913864136e-01" nType="0">
        <Node pos="l" depth="1" NCoef="0" IVar="2" Cut="3.4445953369140625e+02" cType="1" res="-9.1620646417140961e-03" rms="4.6552070975303650e-01" purity="4.2245900630950928e-01" nType="0">
          <Node pos="l" depth="2" NCoef="0" IVar="2" Cut="1.4396093750000000e+02" cType="1" res="-5.5103432387113571e-03" rms="4.6938458085060120e-01" purity="4.2837685346603394e-01" nType="0">
            <Node pos="l" depth="3" NCoef="0" IVar="-1" Cut="0.0000000000000000e+00" cType="1" res="-7.9068811610341072e-03" rms="4.5269811153411865e-01" purity="3.4887433052062988e-01" nType="-99"/>
            <Node pos="r" depth="3" NCoef="0" IVar="-1" Cut="0.0000000000000000e+00" cType="1" res="-2.0845117978751659e-03" rms="4.7147232294082642e-01" purity="4.3909907341003418e-01" nType="-99"/>
          </Node>
          <Node pos="r" depth="2" NCoef="0" IVar="-1" Cut="0.0000000000000000e+00" cType="1" res="-3.2747415825724602e-03" rms="4.3128401041030884e-01" purity="3.7381535768508911e-01" nType="-99"/>
        </Node>
        <Node pos="r" depth="1" NCoef="0" IVar="3" Cut="3.6361513137817383e+00" cType="1" res="5.3639900870621204e-03" rms="4.5644938945770264e-01" purity="6.3655167818069458e-01" nType="0">
          <Node pos="l" depth="2" NCoef="0" IVar="1" Cut="1.5133051562500000e+05" cType="1" res="-6.3456506468355656e-03" rms="4.7490370273590088e-01" purity="5.7773405313491821e-01" nType="0">
            <Node pos="l" depth="3" NCoef="0" IVar="-1" Cut="0.0000000000000000e+00" cType="1" res="-3.6608368158340454e-02" rms="4.8519930243492126e-01" purity="5.4109615087509155e-01" nType="-99"/>
            <Node pos="r" depth="3" NCoef="0" IVar="-1" Cut="0.0000000000000000e+00" cType="1" res="3.0053446069359779e-02" rms="4.5909696817398071e-01" purity="6.2041074037551880e-01" nType="-99"/>
          </Node>
          <Node pos="r" depth="2" NCoef="0" IVar="9" Cut="4.6567421875000000e+04" cType="1" res="1.2513277120888233e-02" rms="4.4465428590774536e-01" purity="6.7246264219284058e-01" nType="0">
            <Node pos="l" depth="3" NCoef="0" IVar="-1" Cut="0.0000000000000000e+00" cType="1" res="4.0234774351119995e-02" rms="4.7537064552307129e-01" purity="5.4432046413421631e-01" nType="-99"/>
            <Node pos="r" depth="3" NCoef="0" IVar="-1" Cut="0.0000000000000000e+00" cType="1" res="7.9126972705125809e-03" rms="4.3544250726699829e-01" purity="7.0859169960021973e-01" nType="-99"/>
          </Node>
        </Node>
      </Node>
    </BinaryTree>
    <BinaryTree type="DecisionTree" boostWeight="1.0000000000000000e+00" itree="110">
      <Node pos="s" depth="0" NCoef="0" IVar="5" Cut="-2.5429883003234863e+00" cType="1" res="-9.6585165010765195e-04" rms="4.6559354662895203e-01" purity="5.0373405218124390e-01" nType="0">
        <Node pos="l" depth="1" NCoef="0" IVar="4" Cut="2.4936132431030273e+00" cType="1" res="-3.2409489154815674e-02" rms="4.6262237429618835e-01" purity="4.9870082736015320e-01" nType="0">
          <Node pos="l" depth="2" NCoef="0" IVar="5" Cut="-2.7994751930236816e+00" cType="1" res="-5.5437744595110416e-03" rms="4.7220823168754578e-01" purity="5.3289806842803955e-01" nType="0">
            <Node pos="l" depth="3" NCoef="0" IVar="-1" Cut="0.0000000000000000e+00" cType="1" res="-1.8800685182213783e-02" rms="4.7180104255676270e-01" purity="5.2912080287933350e-01" nType="-99"/>
            <Node pos="r" depth="3" NCoef="0" IVar="-1" Cut="0.0000000000000000e+00" cType="1" res="8.4123965352773666e-03" rms="4.7238913178443909e-01" purity="5.3754425048828125e-01" nType="-99"/>
          </Node>
          <Node pos="r" depth="2" NCoef="0" IVar="-1" Cut="0.0000000000000000e+00" cType="1" res="-4.1117086075246334e-03" rms="4.4515410065650940e-01" purity="4.4824624061584473e-01" nType="-99"/>
        </Node>
        <Node pos="r" depth="1" NCoef="0" IVar="4" Cut="2.9684450626373291e+00" cType="1" res="0.0000000000000000e+00" rms="0.0000000000000000e+00" purity="5.0470083951950073e-01" nType="0">
          <Node pos="l" depth="2" NCoef="0" IVar="5" Cut="1.2467110157012939e+00" cType="1" res="1.3486575335264206e-03" rms="4.6629163622856140e-01" purity="5.0442123413085938e-01" nType="0">
            <Node pos="l" depth="3" NCoef="0" IVar="-1" Cut="0.0000000000000000e+00" cType="1" res="-5.5218357592821121e-03" rms="4.6678721904754639e-01" purity="4.7516450285911560e-01" nType="-99"/>
            <Node pos="r" depth="3" NCoef="0" IVar="-1" Cut="0.0000000000000000e+00" cType="1" res="1.2152754701673985e-02" rms="4.6548697352409363e-01" purity="5.4122978448867798e-01" nType="-99"/>
          </Node>
          <Node pos="r" depth="2" NCoef="0" IVar="2" Cut="1.7570039367675781e+02" cType="1" res="2.7396958321332932e-02" rms="4.6305343508720398e-01" purity="5.0637620687484741e-01" nType="0">
            <Node pos="l" depth="3" NCoef="0" IVar="-1" Cut="0.0000000000000000e+00" cType="1" res="6.0083992779254913e-02" rms="4.5691865682601929e-01" purity="5.3918927907943726e-01" nType="-99"/>
            <Node pos="r" depth="3" NCoef="0" IVar="-1" Cut="0.0000000000000000e+00" cType="1" res="1.4491104520857334e-02" rms="4.6605217456817627e-01" purity="4.8786050081253052e-01" nType="-99"/>
          </Node>
        </Node>
      </Node>
    </BinaryTree>
    <BinaryTree type="DecisionTree" boostWeight="1.0000000000000000e+00" itree="111">
      <Node pos="s" depth="0" NCoef="0" IVar="6" Cut="1.3463412523269653e+00" cType="1" res="-7.6866224408149719e-03" rms="4.6511092782020569e-01" purity="4.9728265404701233e-01" nType="0">
        <Node pos="l" depth="1" NCoef="0" IVar="3" Cut="2.9497721195220947e+00" cType="1" res="-1.2897333363071084e-04" rms="4.6426191926002502e-01" purity="5.2008235454559326e-01" nType="0">
          <Node pos="l" depth="2" NCoef="0" IVar="0" Cut="1.4330960937500000e+05" cType="1" res="9.4841038808226585e-03" rms="4.8008683323860168e-01" purity="4.8638969659805298e-01" nType="0">
            <Node pos="l" depth="3" NCoef="0" IVar="-1" Cut="0.0000000000000000e+00" cType="1" res="3.1781062483787537e-02" rms="4.8046466708183289e-01" purity="4.8691865801811218e-01" nType="-99"/>
            <Node pos="r" depth="3" NCoef="0" IVar="-1" Cut="0.0000000000000000e+00" cType="1" res="-3.7221357226371765e-02" rms="4.7625961899757385e-01" purity="4.8521187901496887e-01" nType="-99"/>
          </Node>
          <Node pos="r" depth="2" NCoef="0" IVar="8" Cut="9.9096007812500000e+04" cType="1" res="-5.2629811689257622e-03" rms="4.5550215244293213e-01" purity="5.3807640075683594e-01" nType="0">
            <Node pos="l" depth="3" NCoef="0" IVar="-1" Cut="0.0000000000000000e+00" cType="1" res="-1.3341014273464680e-02" rms="4.6308952569961548e-01" purity="4.8676270246505737e-01" nType="-99"/>
            <Node pos="r" depth="3" NCoef="0" IVar="-1" Cut="0.0000000000000000e+00" cType="1" res="1.8373548984527588e-02" rms="4.2565208673477173e-01" purity="7.2790050506591797e-01" nType="-99"/>
          </Node>
        </Node>
        <Node pos="r" depth="1" NCoef="0" IVar="9" Cut="4.6564507812500000e+04" cType="1" res="-1.9973149523139000e-02" rms="4.6622648835182190e-01" purity="4.6021699905395508e-01" nType="0">
          <Node pos="l" depth="2" NCoef="0" IVar="9" Cut="3.1161216796875000e+04" cType="1" res="-7.3664323426783085e-03" rms="4.6255004405975342e-01" purity="3.9637100696563721e-01" nType="0">
            <Node pos="l" depth="3" NCoef="0" IVar="-1" Cut="0.0000000000000000e+00" cType="1" res="-7.0360633544623852e-03" rms="4.3723905086517334e-01" purity="2.9697135090827942e-01" nType="-99"/>
            <Node pos="r" depth="3" NCoef="0" IVar="-1" Cut="0.0000000000000000e+00" cType="1" res="1.6533598303794861e-02" rms="4.8217877745628357e-01" purity="4.8179927468299866e-01" nType="-99"/>
          </Node>
          <Node pos="r" depth="2" NCoef="0" IVar="2" Cut="2.3578843688964844e+02" cType="1" res="0.0000000000000000e+00" rms="0.0000000000000000e+00" purity="5.7943993806838989e-01" nType="0">
            <Node pos="l" depth="3" NCoef="0" IVar="-1" Cut="0.0000000000000000e+00" cType="1" res="-8.9823957532644272e-03" rms="4.7454893589019775e-01" purity="5.5347269773483276e-01" nType="-99"/>
            <Node pos="r" depth="3" NCoef="0" IVar="-1" Cut="0.0000000000000000e+00" cType="1" res="-4.7275223769247532e-03" rms="4.6549886465072632e-01" purity="6.2176829576492310e-01" nType="-99"/>
          </Node>
        </Node>
      </Node>
    </BinaryTree>
    <BinaryTree type="DecisionTree" boostWeight="1.0000000000000000e+00" itree="112">
      <Node pos="s" depth="0" NCoef="0" IVar="4" Cut="2.9988031387329102e+00" cType="1" res="-1.4329981990158558e-02" rms="4.6724492311477661e-01" purity="4.9321487545967102e-01" nType="0">
        <Node pos="l" depth="1" NCoef="0" IVar="2" Cut="4.1209057617187500e+02" cType="1" res="-6.1157145537436008e-03" rms="4.6731752157211304e-01" purity="5.0379157066345215e-01" nType="0">
          <Node pos="l" depth="2" NCoef="0" IVar="4" Cut="2.8586478233337402e+00" cType="1" res="0.0000000000000000e+00" rms="0.0000000000000000e+00" purity="5.0078421831130981e-01" nType="0">
            <Node pos="l" depth="3" NCoef="0" IVar="-1" Cut="0.0000000000000000e+00" cType="1" res="-1.2237369082868099e-03" rms="4.6671375632286072e-01" purity="4.9788889288902283e-01" nType="-99"/>
            <Node pos="r" depth="3" NCoef="0" IVar="-1" Cut="0.0000000000000000e+00" cType="1" res="-2.3533452302217484e-02" rms="4.6587893366813660e-01" purity="5.4470878839492798e-01" nType="-99"/>
          </Node>
          <Node pos="r" depth="2" NCoef="0" IVar="-1" Cut="0.0000000000000000e+00" cType="1" res="-3.8092408329248428e-02" rms="4.7224766016006470e-01" purity="5.3704291582107544e-01" nType="-99"/>
        </Node>
        <Node pos="r" depth="1" NCoef="0" IVar="6" Cut="2.2434263229370117e+00" cType="1" res="0.0000000000000000e+00" rms="0.0000000000000000e+00" purity="4.3382883071899414e-01" nType="0">
          <Node pos="l" depth="2" NCoef="0" IVar="6" Cut="-1.0902301073074341e+00" cType="1" res="-2.6387383695691824e-03" rms="4.6088087558746338e-01" purity="5.1394611597061157e-01" nType="0">
            <Node pos="l" depth="3" NCoef="0" IVar="-1" Cut="0.0000000000000000e+00" cType="1" res="-1.1157832108438015e-02" rms="4.7294244170188904e-01" purity="4.8018461465835571e-01" nType="-99"/>
            <Node pos="r" depth="3" NCoef="0" IVar="-1" Cut="0.0000000000000000e+00" cType="1" res="5.9906491078436375e-03" rms="4.4496509432792664e-01" purity="5.5672729015350342e-01" nType="-99"/>
          </Node>
          <Node pos="r" depth="2" NCoef="0" IVar="-1" Cut="0.0000000000000000e+00" cType="1" res="-4.8856572248041630e-03" rms="4.5007029175758362e-01" purity="2.8044736385345459e-01" nType="-99"/>
        </Node>
      </Node>
    </BinaryTree>
    <BinaryTree type="DecisionTree" boostWeight="1.0000000000000000e+00" itree="113">
      <Node pos="s" depth="0" NCoef="0" IVar="6" Cut="4.4875222444534302e-01" cType="1" res="0.0000000000000000e+00" rms="0.0000000000000000e+00" purity="4.9975457787513733e-01" nType="0">
        <Node pos="l" depth="1" NCoef="0" IVar="2" Cut="3.6466503906250000e+02" cType="1" res="6.6573135554790497e-03" rms="4.6785467863082886e-01" purity="5.1926779747009277e-01" nType="0">
          <Node pos="l" depth="2" NCoef="0" IVar="5" Cut="-2.8423564434051514e+00" cType="1" res="9.7376788035035133e-03" rms="4.6618095040321350e-01" purity="5.1877498626708984e-01" nType="0">
            <Node pos="l" depth="3" NCoef="0" IVar="-1" Cut="0.0000000000000000e+00" cType="1" res="4.3734695762395859e-02" rms="4.7550764679908752e-01" purity="5.4471987485885620e-01" nType="-99"/>
            <Node pos="r" depth="3" NCoef="0" IVar="-1" Cut="0.0000000000000000e+00" cType="1" res="7.9726250842213631e-03" rms="4.6507489681243896e-01" purity="5.1601570844650269e-01" nType="-99"/>
          </Node>
          <Node pos="r" depth="2" NCoef="0" IVar="-1" Cut="0.0000000000000000e+00" cType="1" res="-1.8518492579460144e-02" rms="4.7999122738838196e-01" purity="5.2309787273406982e-01" nType="-99"/>
        </Node>
        <Node pos="r" depth="1" NCoef="0" IVar="4" Cut="2.6754078865051270e+00" cType="1" res="-1.5941752120852470e-02" rms="4.6792837977409363e-01" purity="4.7818639874458313e-01" nType="0">
          <Node pos="l" depth="2" NCoef="0" IVar="9" Cut="6.8129031250000000e+04" cType="1" res="-3.8738315925002098e-03" rms="4.7184616327285767e-01" purity="4.9195381999015808e-01" nType="0">
            <Node pos="l" depth="3" NCoef="0" IVar="-1" Cut="0.0000000000000000e+00" cType="1" res="4.7450754791498184e-03" rms="4.7439888119697571e-01" purity="4.6572855114936829e-01" nType="-99"/>
            <Node pos="r" depth="3" NCoef="0" IVar="-1" Cut="0.0000000000000000e+00" cType="1" res="-4.1192587465047836e-02" rms="4.5589083433151245e-01" purity="6.2991583347320557e-01" nType="-99"/>
          </Node>
          <Node pos="r" depth="2" NCoef="0" IVar="4" Cut="3.0802371501922607e+00" cType="1" res="-4.6132124960422516e-02" rms="4.5658555626869202e-01" purity="4.4374427199363708e-01" nType="0">
            <Node pos="l" depth="3" NCoef="0" IVar="-1" Cut="0.0000000000000000e+00" cType="1" res="-6.0704362113028765e-04" rms="4.5169109106063843e-01" purity="5.2537894248962402e-01" nType="-99"/>
            <Node pos="r" depth="3" NCoef="0" IVar="-1" Cut="0.0000000000000000e+00" cType="1" res="-4.0291603654623032e-03" rms="4.5686113834381104e-01" purity="3.4695756435394287e-01" nType="-99"/>
          </Node>
        </Node>
      </Node>
    </BinaryTree>
    <BinaryTree type="DecisionTree" boostWeight="1.0000000000000000e+00" itree="114">
      <Node pos="s" depth="0" NCoef="0" IVar="2" Cut="2.1392872619628906e+02" cType="1" res="-5.7093342766165733e-03" rms="4.6635124087333679e-01" purity="4.9591618776321411e-01" nType="0">
        <Node pos="l" depth="1" NCoef="0" IVar="4" Cut="3.1314973831176758e+00" cType="1" res="-1.3437243178486824e-02" rms="4.6330446004867554e-01" purity="4.9365136027336121e-01" nType="0">
          <Node pos="l" depth="2" NCoef="0" IVar="6" Cut="1.9446197748184204e+00" cType="1" res="-5.3996304050087929e-03" rms="4.6551913022994995e-01" purity="5.0855416059494019e-01" nType="0">
            <Node pos="l" depth="3" NCoef="0" IVar="-1" Cut="0.0000000000000000e+00" cType="1" res="-2.2828008513897657e-04" rms="4.6373510360717773e-01" purity="5.3386461734771729e-01" nType="-99"/>
            <Node pos="r" depth="3" NCoef="0" IVar="-1" Cut="0.0000000000000000e+00" cType="1" res="-1.3246980495750904e-02" rms="4.6963360905647278e-01" purity="4.4628140330314636e-01" nType="-99"/>
          </Node>
          <Node pos="r" depth="2" NCoef="0" IVar="-1" Cut="0.0000000000000000e+00" cType="1" res="-2.9164981096982956e-03" rms="4.3692660331726074e-01" purity="3.6217388510704041e-01" nType="-99"/>
        </Node>
        <Node pos="r" depth="1" NCoef="0" IVar="5" Cut="-2.2438435554504395e+00" cType="1" res="7.8363558277487755e-03" rms="4.7133865952491760e-01" purity="4.9988609552383423e-01" nType="0">
          <Node pos="l" depth="2" NCoef="0" IVar="5" Cut="-2.7140343189239502e+00" cType="1" res="2.8707744553685188e-02" rms="4.7681394219398499e-01" purity="5.3781312704086304e-01" nType="0">
            <Node pos="l" depth="3" NCoef="0" IVar="-1" Cut="0.0000000000000000e+00" cType="1" res="8.3832507953047752e-03" rms="4.6467337012290955e-01" purity="5.2968674898147583e-01" nType="-99"/>
            <Node pos="r" depth="3" NCoef="0" IVar="-1" Cut="0.0000000000000000e+00" cType="1" res="5.4740637540817261e-02" rms="4.8760396242141724e-01" purity="5.4581296443939209e-01" nType="-99"/>
          </Node>
          <Node pos="r" depth="2" NCoef="0" IVar="6" Cut="2.2438521385192871e+00" cType="1" res="1.1703511700034142e-03" rms="4.6938097476959229e-01" purity="4.8777276277542114e-01" nType="0">
            <Node pos="l" depth="3" NCoef="0" IVar="-1" Cut="0.0000000000000000e+00" cType="1" res="-3.9412393234670162e-03" rms="4.6575316786766052e-01" purity="4.7284778952598572e-01" nType="-99"/>
            <Node pos="r" depth="3" NCoef="0" IVar="-1" Cut="0.0000000000000000e+00" cType="1" res="2.2990008816123009e-02" rms="4.7595340013504028e-01" purity="5.1712524890899658e-01" nType="-99"/>
          </Node>
        </Node>
      </Node>
    </BinaryTree>
    <BinaryTree type="DecisionTree" boostWeight="1.0000000000000000e+00" itree="115">
      <Node pos="s" depth="0" NCoef="0" IVar="4" Cut="3.2324471473693848e+00" cType="1" res="-1.0181046091020107e-02" rms="4.6534213423728943e-01" purity="4.9470293521881104e-01" nType="0">
        <Node pos="l" depth="1" NCoef="0" IVar="4" Cut="8.1869989633560181e-01" cType="1" res="-2.6042852550745010e-03" rms="4.6725946664810181e-01" purity="5.1059991121292114e-01" nType="0">
          <Node pos="l" depth="2" NCoef="0" IVar="6" Cut="-1.4972665905952454e-01" cType="1" res="-2.0457291975617409e-02" rms="4.6514883637428284e-01" purity="4.4370567798614502e-01" nType="0">
            <Node pos="l" depth="3" NCoef="0" IVar="-1" Cut="0.0000000000000000e+00" cType="1" res="-5.3388483822345734e-02" rms="4.6763578057289124e-01" purity="4.2906892299652100e-01" nType="-99"/>
            <Node pos="r" depth="3" NCoef="0" IVar="-1" Cut="0.0000000000000000e+00" cType="1" res="-1.7386260442435741e-03" rms="4.6211791038513184e-01" purity="4.5664072036743164e-01" nType="-99"/>
          </Node>
          <Node pos="r" depth="2" NCoef="0" IVar="3" Cut="5.6440114974975586e+00" cType="1" res="0.0000000000000000e+00" rms="0.0000000000000000e+00" purity="5.2154332399368286e-01" nType="0">
            <Node pos="l" depth="3" NCoef="0" IVar="-1" Cut="0.0000000000000000e+00" cType="1" res="5.0804396159946918e-03" rms="4.7440141439437866e-01" purity="5.1646006107330322e-01" nType="-99"/>
            <Node pos="r" depth="3" NCoef="0" IVar="-1" Cut="0.0000000000000000e+00" cType="1" res="-9.3968762084841728e-03" rms="4.5591160655021667e-01" purity="5.2989810705184937e-01" nType="-99"/>
          </Node>
        </Node>
        <Node pos="r" depth="1" NCoef="0" IVar="-1" Cut="0.0000000000000000e+00" cType="1" res="-2.8103042859584093e-03" rms="4.3103739619255066e-01" purity="3.0227917432785034e-01" nType="-99"/>
      </Node>
    </BinaryTree>
    <BinaryTree type="DecisionTree" boostWeight="1.0000000000000000e+00" itree="116">
      <Node pos="s" depth="0" NCoef="0" IVar="4" Cut="6.0984086990356445e-01" cType="1" res="-2.7844298165291548e-03" rms="4.6599811315536499e-01" purity="5.0097328424453735e-01" nType="0">
        <Node pos="l" depth="1" NCoef="0" IVar="-1" Cut="0.0000000000000000e+00" cType="1" res="2.5182932615280151e-02" rms="4.7464099526405334e-01" purity="4.9486735463142395e-01" nType="-99"/>
        <Node pos="r" depth="1" NCoef="0" IVar="2" Cut="3.6101770019531250e+02" cType="1" res="-4.3875882402062416e-03" rms="4.6535724401473999e-01" purity="5.0139141082763672e-01" nType="0">
          <Node pos="l" depth="2" NCoef="0" IVar="2" Cut="2.1784768676757812e+02" cType="1" res="0.0000000000000000e+00" rms="0.0000000000000000e+00" purity="5.0017774105072021e-01" nType="0">
            <Node pos="l" depth="3" NCoef="0" IVar="-1" Cut="0.0000000000000000e+00" cType="1" res="-5.2113765850663185e-03" rms="4.6263203024864197e-01" purity="5.0286227464675903e-01" nType="-99"/>
            <Node pos="r" depth="3" NCoef="0" IVar="-1" Cut="0.0000000000000000e+00" cType="1" res="1.2231804430484772e-02" rms="4.7348263859748840e-01" purity="4.9250739812850952e-01" nType="-99"/>
          </Node>
          <Node pos="r" depth="2" NCoef="0" IVar="6" Cut="-1.9447449445724487e+00" cType="1" res="-2.2351745516061783e-02" rms="4.6372547745704651e-01" purity="5.1008087396621704e-01" nType="0">
            <Node pos="l" depth="3" NCoef="0" IVar="-1" Cut="0.0000000000000000e+00" cType="1" res="2.8124405071139336e-02" rms="4.8046222329139709e-01" purity="5.7152247428894043e-01" nType="-99"/>
            <Node pos="r" depth="3" NCoef="0" IVar="-1" Cut="0.0000000000000000e+00" cType="1" res="-7.1611236780881882e-03" rms="4.5227053761482239e-01" purity="4.7567501664161682e-01" nType="-99"/>
          </Node>
        </Node>
      </Node>
    </BinaryTree>
    <BinaryTree type="DecisionTree" boostWeight="1.0000000000000000e+00" itree="117">
      <Node pos="s" depth="0" NCoef="0" IVar="4" Cut="2.9684450626373291e+00" cType="1" res="-3.8393745198845863e-03" rms="4.6612161397933960e-01" purity="5.0216734409332275e-01" nType="0">
        <Node pos="l" depth="1" NCoef="0" IVar="4" Cut="2.2768032550811768e+00" cType="1" res="-2.8977906913496554e-04" rms="4.6701458096504211e-01" purity="5.0721335411071777e-01" nType="0">
          <Node pos="l" depth="2" NCoef="0" IVar="2" Cut="2.0891647338867188e+02" cType="1" res="-3.9562294259667397e-03" rms="4.6621525287628174e-01" purity="4.8720088601112366e-01" nType="0">
            <Node pos="l" depth="3" NCoef="0" IVar="-1" Cut="0.0000000000000000e+00" cType="1" res="1.0157736251130700e-03" rms="4.6511620283126831e-01" purity="4.9772435426712036e-01" nType="-99"/>
            <Node pos="r" depth="3" NCoef="0" IVar="-1" Cut="0.0000000000000000e+00" cType="1" res="-1.4188566245138645e-02" rms="4.6789148449897766e-01" purity="4.7002944350242615e-01" nType="-99"/>
          </Node>
          <Node pos="r" depth="2" NCoef="0" IVar="8" Cut="5.9511644531250000e+04" cType="1" res="9.5294089987874031e-03" rms="4.6900734305381775e-01" purity="5.6080907583236694e-01" nType="0">
            <Node pos="l" depth="3" NCoef="0" IVar="-1" Cut="0.0000000000000000e+00" cType="1" res="3.1740341335535049e-02" rms="4.7919777035713196e-01" purity="4.6426677703857422e-01" nType="-99"/>
            <Node pos="r" depth="3" NCoef="0" IVar="-1" Cut="0.0000000000000000e+00" cType="1" res="-4.8556104302406311e-03" rms="4.5977565646171570e-01" purity="6.4251160621643066e-01" nType="-99"/>
          </Node>
        </Node>
        <Node pos="r" depth="1" NCoef="0" IVar="5" Cut="-1.9448040723800659e+00" cType="1" res="-2.3074662312865257e-02" rms="4.6077725291252136e-01" purity="4.7482284903526306e-01" nType="0">
          <Node pos="l" depth="2" NCoef="0" IVar="-1" Cut="0.0000000000000000e+00" cType="1" res="-4.2122574523091316e-03" rms="4.5085629820823669e-01" purity="4.3142747879028320e-01" nType="-99"/>
          <Node pos="r" depth="2" NCoef="0" IVar="5" Cut="1.2043489217758179e+00" cType="1" res="7.1467836387455463e-03" rms="4.6316871047019958e-01" purity="4.9800875782966614e-01" nType="0">
            <Node pos="l" depth="3" NCoef="0" IVar="-1" Cut="0.0000000000000000e+00" cType="1" res="4.1698735207319260e-02" rms="4.6354660391807556e-01" purity="5.1689827442169189e-01" nType="-99"/>
            <Node pos="r" depth="3" NCoef="0" IVar="-1" Cut="0.0000000000000000e+00" cType="1" res="-1.8452242016792297e-02" rms="4.6154290437698364e-01" purity="4.8275411128997803e-01" nType="-99"/>
          </Node>
        </Node>
      </Node>
    </BinaryTree>
    <BinaryTree type="DecisionTree" boostWeight="1.0000000000000000e+00" itree="118">
      <Node pos="s" depth="0" NCoef="0" IVar="2" Cut="3.5844351196289062e+02" cType="1" res="-7.5598866678774357e-03" rms="4.6375989913940430e-01" purity="4.9876609444618225e-01" nType="0">
        <Node pos="l" depth="1" NCoef="0" IVar="4" Cut="2.6783056259155273e+00" cType="1" res="-1.1411615647375584e-02" rms="4.6357995271682739e-01" purity="4.9092355370521545e-01" nType="0">
          <Node pos="l" depth="2" NCoef="0" IVar="5" Cut="-1.9446767568588257e+00" cType="1" res="-6.6958861425518990e-03" rms="4.6445629000663757e-01" purity="4.8913940787315369e-01" nType="0">
            <Node pos="l" depth="3" NCoef="0" IVar="-1" Cut="0.0000000000000000e+00" cType="1" res="-2.2583145648241043e-02" rms="4.6496835350990295e-01" purity="4.9710872769355774e-01" nType="-99"/>
            <Node pos="r" depth="3" NCoef="0" IVar="-1" Cut="0.0000000000000000e+00" cType="1" res="6.7946605850011110e-04" rms="4.6405178308486938e-01" purity="4.8632836341857910e-01" nType="-99"/>
          </Node>
          <Node pos="r" depth="2" NCoef="0" IVar="9" Cut="4.3270535156250000e+04" cType="1" res="-2.5574902072548866e-02" rms="4.6064788103103638e-01" purity="4.9628204107284546e-01" nType="0">
            <Node pos="l" depth="3" NCoef="0" IVar="-1" Cut="0.0000000000000000e+00" cType="1" res="-3.8044914603233337e-02" rms="4.6264103055000305e-01" purity="3.7823367118835449e-01" nType="-99"/>
            <Node pos="r" depth="3" NCoef="0" IVar="-1" Cut="0.0000000000000000e+00" cType="1" res="-1.0290820151567459e-02" rms="4.5774796605110168e-01" purity="6.3170993328094482e-01" nType="-99"/>
          </Node>
        </Node>
        <Node pos="r" depth="1" NCoef="0" IVar="3" Cut="4.1709103584289551e+00" cType="1" res="2.0726669579744339e-02" rms="4.6410083770751953e-01" purity="5.5636054277420044e-01" nType="0">
          <Node pos="l" depth="2" NCoef="0" IVar="-1" Cut="0.0000000000000000e+00" cType="1" res="3.9070451748557389e-04" rms="4.6890985965728760e-01" purity="4.9364730715751648e-01" nType="-99"/>
          <Node pos="r" depth="2" NCoef="0" IVar="-1" Cut="0.0000000000000000e+00" cType="1" res="4.4484384357929230e-02" rms="4.6023797988891602e-01" purity="6.0037600994110107e-01" nType="-99"/>
        </Node>
      </Node>
    </BinaryTree>
    <BinaryTree type="DecisionTree" boostWeight="1.0000000000000000e+00" itree="119">
      <Node pos="s" depth="0" NCoef="0" IVar="2" Cut="5.1134411621093750e+02" cType="1" res="2.9973560012876987e-03" rms="4.6498957276344299e-01" purity="5.0601184368133545e-01" nType="0">
        <Node pos="l" depth="1" NCoef="0" IVar="2" Cut="1.4626406860351562e+02" cType="1" res="4.4013024307787418e-03" rms="4.6510609984397888e-01" purity="5.0300526618957520e-01" nType="0">
          <Node pos="l" depth="2" NCoef="0" IVar="4" Cut="1.7551571130752563e+00" cType="1" res="-1.7471510916948318e-02" rms="4.6327722072601318e-01" purity="4.1894638538360596e-01" nType="0">
            <Node pos="l" depth="3" NCoef="0" IVar="-1" Cut="0.0000000000000000e+00" cType="1" res="2.0648243371397257e-03" rms="4.6362188458442688e-01" purity="4.1221174597740173e-01" nType="-99"/>
            <Node pos="r" depth="3" NCoef="0" IVar="-1" Cut="0.0000000000000000e+00" cType="1" res="-1.3225520960986614e-02" rms="4.6215632557868958e-01" purity="4.2545002698898315e-01" nType="-99"/>
          </Node>
          <Node pos="r" depth="2" NCoef="0" IVar="2" Cut="1.8103280639648438e+02" cType="1" res="0.0000000000000000e+00" rms="0.0000000000000000e+00" purity="5.1220983266830444e-01" nType="0">
            <Node pos="l" depth="3" NCoef="0" IVar="-1" Cut="0.0000000000000000e+00" cType="1" res="2.0425507798790932e-02" rms="4.6002450585365295e-01" purity="5.5488586425781250e-01" nType="-99"/>
            <Node pos="r" depth="3" NCoef="0" IVar="-1" Cut="0.0000000000000000e+00" cType="1" res="-5.5025849724188447e-04" rms="4.6858856081962585e-01" purity="4.8333773016929626e-01" nType="-99"/>
          </Node>
        </Node>
        <Node pos="r" depth="1" NCoef="0" IVar="-1" Cut="0.0000000000000000e+00" cType="1" res="-2.1807622164487839e-02" rms="4.6195119619369507e-01" purity="5.6326377391815186e-01" nType="-99"/>
      </Node>
    </BinaryTree>
    <BinaryTree type="DecisionTree" boostWeight="1.0000000000000000e+00" itree="120">
      <Node pos="s" depth="0" NCoef="0" IVar="4" Cut="3.2655649185180664e+00" cType="1" res="-5.9373327530920506e-03" rms="4.6459296345710754e-01" purity="4.9818512797355652e-01" nType="0">
        <Node pos="l" depth="1" NCoef="0" IVar="6" Cut="1.0471394062042236e+00" cType="1" res="0.0000000000000000e+00" rms="0.0000000000000000e+00" purity="5.1124155521392822e-01" nType="0">
          <Node pos="l" depth="2" NCoef="0" IVar="2" Cut="2.7999160766601562e+02" cType="1" res="5.6304829195141792e-03" rms="4.6341082453727722e-01" purity="5.3067475557327271e-01" nType="0">
            <Node pos="l" depth="3" NCoef="0" IVar="-1" Cut="0.0000000000000000e+00" cType="1" res="1.1231732554733753e-02" rms="4.6160617470741272e-01" purity="5.3518241643905640e-01" nType="-99"/>
            <Node pos="r" depth="3" NCoef="0" IVar="-1" Cut="0.0000000000000000e+00" cType="1" res="-8.0255465582013130e-03" rms="4.7031611204147339e-01" purity="5.1231622695922852e-01" nType="-99"/>
          </Node>
          <Node pos="r" depth="2" NCoef="0" IVar="5" Cut="-1.6452900171279907e+00" cType="1" res="0.0000000000000000e+00" rms="0.0000000000000000e+00" purity="4.8203432559967041e-01" nType="0">
            <Node pos="l" depth="3" NCoef="0" IVar="-1" Cut="0.0000000000000000e+00" cType="1" res="1.6128363087773323e-02" rms="4.4818505644798279e-01" purity="6.5277010202407837e-01" nType="-99"/>
            <Node pos="r" depth="3" NCoef="0" IVar="-1" Cut="0.0000000000000000e+00" cType="1" res="-1.9464878365397453e-02" rms="4.7457474470138550e-01" purity="4.5542076230049133e-01" nType="-99"/>
          </Node>
        </Node>
        <Node pos="r" depth="1" NCoef="0" IVar="-1" Cut="0.0000000000000000e+00" cType="1" res="-2.1029820200055838e-03" rms="4.3136945366859436e-01" purity="3.1809335947036743e-01" nType="-99"/>
      </Node>
    </BinaryTree>
    <BinaryTree type="DecisionTree" boostWeight="1.0000000000000000e+00" itree="121">
      <Node pos="s" depth="0" NCoef="0" IVar="5" Cut="-2.2440147399902344e+00" cType="1" res="4.8485565930604935e-03" rms="4.6499252319335938e-01" purity="5.1050621271133423e-01" nType="0">
        <Node pos="l" depth="1" NCoef="0" IVar="6" Cut="-1.6458253860473633e+00" cType="1" res="-8.0674896016716957e-03" rms="4.6882826089859009e-01" purity="5.3220933675765991e-01" nType="0">
          <Node pos="l" depth="2" NCoef="0" IVar="6" Cut="-2.6430311203002930e+00" cType="1" res="6.9036264903843403e-03" rms="4.8295128345489502e-01" purity="5.3341013193130493e-01" nType="0">
            <Node pos="l" depth="3" NCoef="0" IVar="-1" Cut="0.0000000000000000e+00" cType="1" res="-2.3589517921209335e-02" rms="4.7891017794609070e-01" purity="5.4694133996963501e-01" nType="-99"/>
            <Node pos="r" depth="3" NCoef="0" IVar="-1" Cut="0.0000000000000000e+00" cType="1" res="3.6794118583202362e-02" rms="4.8478338122367859e-01" purity="5.2280849218368530e-01" nType="-99"/>
          </Node>
          <Node pos="r" depth="2" NCoef="0" IVar="9" Cut="4.2483781250000000e+04" cType="1" res="-2.0002195611596107e-02" rms="4.5690602064132690e-01" purity="5.3125202655792236e-01" nType="0">
            <Node pos="l" depth="3" NCoef="0" IVar="-1" Cut="0.0000000000000000e+00" cType="1" res="-2.1310856565833092e-02" rms="4.6068480610847473e-01" purity="3.5884973406791687e-01" nType="-99"/>
            <Node pos="r" depth="3" NCoef="0" IVar="-1" Cut="0.0000000000000000e+00" cType="1" res="4.0518501773476601e-03" rms="4.5275613665580750e-01" purity="6.5352976322174072e-01" nType="-99"/>
          </Node>
        </Node>
        <Node pos="r" depth="1" NCoef="0" IVar="6" Cut="-2.2439808845520020e+00" cType="1" res="8.5696429014205933e-03" rms="4.6381482481956482e-01" purity="5.0425362586975098e-01" nType="0">
          <Node pos="l" depth="2" NCoef="0" IVar="5" Cut="-1.4743561744689941e+00" cType="1" res="2.0923497155308723e-02" rms="4.7379943728446960e-01" purity="4.6794921159744263e-01" nType="0">
            <Node pos="l" depth="3" NCoef="0" IVar="-1" Cut="0.0000000000000000e+00" cType="1" res="-5.4483562707901001e-03" rms="4.7970747947692871e-01" purity="4.7193855047225952e-01" nType="-99"/>
            <Node pos="r" depth="3" NCoef="0" IVar="-1" Cut="0.0000000000000000e+00" cType="1" res="3.1639255583286285e-02" rms="4.7124955058097839e-01" purity="4.6648529171943665e-01" nType="-99"/>
          </Node>
          <Node pos="r" depth="2" NCoef="0" IVar="6" Cut="-1.4743657112121582e+00" cType="1" res="4.9029714427888393e-03" rms="4.6074599027633667e-01" purity="5.1502889394760132e-01" nType="0">
            <Node pos="l" depth="3" NCoef="0" IVar="-1" Cut="0.0000000000000000e+00" cType="1" res="-1.3352899812161922e-02" rms="4.6567910909652710e-01" purity="4.9019172787666321e-01" nType="-99"/>
            <Node pos="r" depth="3" NCoef="0" IVar="-1" Cut="0.0000000000000000e+00" cType="1" res="6.0462099500000477e-03" rms="4.5997673273086548e-01" purity="5.1856279373168945e-01" nType="-99"/>
          </Node>
        </Node>
      </Node>
    </BinaryTree>
    <BinaryTree type="DecisionTree" boostWeight="1.0000000000000000e+00" itree="122">
      <Node pos="s" depth="0" NCoef="0" IVar="4" Cut="3.0050628185272217e+00" cType="1" res="-7.6323398388922215e-03" rms="4.6656897664070129e-01" purity="5.0142347812652588e-01" nType="0">
        <Node pos="l" depth="1" NCoef="0" IVar="6" Cut="-2.5431835651397705e+00" cType="1" res="0.0000000000000000e+00" rms="0.0000000000000000e+00" purity="5.0901502370834351e-01" nType="0">
          <Node pos="l" depth="2" NCoef="0" IVar="4" Cut="1.2227481603622437e+00" cType="1" res="-2.2516490891575813e-02" rms="4.7666400671005249e-01" purity="4.7016060352325439e-01" nType="0">
            <Node pos="l" depth="3" NCoef="0" IVar="-1" Cut="0.0000000000000000e+00" cType="1" res="3.3911755308508873e-03" rms="4.6963039040565491e-01" purity="4.3384703993797302e-01" nType="-99"/>
            <Node pos="r" depth="3" NCoef="0" IVar="-1" Cut="0.0000000000000000e+00" cType="1" res="-3.6782935261726379e-02" rms="4.7889617085456848e-01" purity="4.8351505398750305e-01" nType="-99"/>
          </Node>
          <Node pos="r" depth="2" NCoef="0" IVar="6" Cut="-9.1898626089096069e-01" cType="1" res="3.7741940468549728e-04" rms="4.6531662344932556e-01" purity="5.1738661527633667e-01" nType="0">
            <Node pos="l" depth="3" NCoef="0" IVar="-1" Cut="0.0000000000000000e+00" cType="1" res="1.7248604446649551e-02" rms="4.6773767471313477e-01" purity="5.2347254753112793e-01" nType="-99"/>
            <Node pos="r" depth="3" NCoef="0" IVar="-1" Cut="0.0000000000000000e+00" cType="1" res="-7.3914919048547745e-03" rms="4.6415749192237854e-01" purity="5.1492309570312500e-01" nType="-99"/>
          </Node>
        </Node>
        <Node pos="r" depth="1" NCoef="0" IVar="5" Cut="1.3461703062057495e+00" cType="1" res="0.0000000000000000e+00" rms="0.0000000000000000e+00" purity="4.5737409591674805e-01" nType="0">
          <Node pos="l" depth="2" NCoef="0" IVar="6" Cut="-1.3465430736541748e+00" cType="1" res="-6.0992896556854248e-02" rms="4.5863744616508484e-01" purity="4.3151202797889709e-01" nType="0">
            <Node pos="l" depth="3" NCoef="0" IVar="-1" Cut="0.0000000000000000e+00" cType="1" res="-3.9203176274895668e-03" rms="4.7315818071365356e-01" purity="4.6174788475036621e-01" nType="-99"/>
            <Node pos="r" depth="3" NCoef="0" IVar="-1" Cut="0.0000000000000000e+00" cType="1" res="-3.5683631431311369e-03" rms="4.4223108887672424e-01" purity="4.0841254591941833e-01" nType="-99"/>
          </Node>
          <Node pos="r" depth="2" NCoef="0" IVar="-1" Cut="0.0000000000000000e+00" cType="1" res="3.0145730823278427e-02" rms="4.5961990952491760e-01" purity="5.0603777170181274e-01" nType="-99"/>
        </Node>
      </Node>
    </BinaryTree>
    <BinaryTree type="DecisionTree" boostWeight="1.0000000000000000e+00" itree="123">
      <Node pos="s" depth="0" NCoef="0" IVar="2" Cut="2.1442689514160156e+02" cType="1" res="-2.0051272585988045e-03" rms="4.6523082256317139e-01" purity="5.0392985343933105e-01" nType="0">
        <Node pos="l" depth="1" NCoef="0" IVar="6" Cut="-1.9446872472763062e+00" cType="1" res="-6.5048434771597385e-03" rms="4.6347403526306152e-01" purity="5.0427067279815674e-01" nType="0">
          <Node pos="l" depth="2" NCoef="0" IVar="5" Cut="-7.4787586927413940e-01" cType="1" res="-2.4723000824451447e-02" rms="4.7646185755729675e-01" purity="4.3584626913070679e-01" nType="0">
            <Node pos="l" depth="3" NCoef="0" IVar="-1" Cut="0.0000000000000000e+00" cType="1" res="-4.7065731137990952e-02" rms="4.7615671157836914e-01" purity="4.1489621996879578e-01" nType="-99"/>
            <Node pos="r" depth="3" NCoef="0" IVar="-1" Cut="0.0000000000000000e+00" cType="1" res="6.7815720103681087e-03" rms="4.7540843486785889e-01" purity="4.7299697995185852e-01" nType="-99"/>
          </Node>
          <Node pos="r" depth="2" NCoef="0" IVar="6" Cut="1.2039391994476318e+00" cType="1" res="3.4233380574733019e-04" rms="4.5831033587455750e-01" purity="5.2998751401901245e-01" nType="0">
            <Node pos="l" depth="3" NCoef="0" IVar="-1" Cut="0.0000000000000000e+00" cType="1" res="1.2669693678617477e-02" rms="4.4403630495071411e-01" purity="6.0728979110717773e-01" nType="-99"/>
            <Node pos="r" depth="3" NCoef="0" IVar="-1" Cut="0.0000000000000000e+00" cType="1" res="-8.6884899064898491e-03" rms="4.7087457776069641e-01" purity="4.5874345302581787e-01" nType="-99"/>
          </Node>
        </Node>
        <Node pos="r" depth="1" NCoef="0" IVar="6" Cut="-1.9447770118713379e+00" cType="1" res="5.9672500938177109e-03" rms="4.6822109818458557e-01" purity="5.0332605838775635e-01" nType="0">
          <Node pos="l" depth="2" NCoef="0" IVar="8" Cut="6.4637117187500000e+04" cType="1" res="2.5914685800671577e-02" rms="4.7525900602340698e-01" purity="5.2523362636566162e-01" nType="0">
            <Node pos="l" depth="3" NCoef="0" IVar="-1" Cut="0.0000000000000000e+00" cType="1" res="5.3914591670036316e-02" rms="4.7176465392112732e-01" purity="4.5112636685371399e-01" nType="-99"/>
            <Node pos="r" depth="3" NCoef="0" IVar="-1" Cut="0.0000000000000000e+00" cType="1" res="9.1017503291368484e-03" rms="4.7788736224174500e-01" purity="5.9475284814834595e-01" nType="-99"/>
          </Node>
          <Node pos="r" depth="2" NCoef="0" IVar="6" Cut="7.1986240148544312e-01" cType="1" res="-3.6879321560263634e-03" rms="4.6446865797042847e-01" purity="4.9272209405899048e-01" nType="0">
            <Node pos="l" depth="3" NCoef="0" IVar="-1" Cut="0.0000000000000000e+00" cType="1" res="-1.4425804838538170e-02" rms="4.5610702037811279e-01" purity="4.8643851280212402e-01" nType="-99"/>
            <Node pos="r" depth="3" NCoef="0" IVar="-1" Cut="0.0000000000000000e+00" cType="1" res="6.4357523806393147e-03" rms="4.6808850765228271e-01" purity="4.9573597311973572e-01" nType="-99"/>
          </Node>
        </Node>
      </Node>
    </BinaryTree>
    <BinaryTree type="DecisionTree" boostWeight="1.0000000000000000e+00" itree="124">
      <Node pos="s" depth="0" NCoef="0" IVar="8" Cut="6.4493972656250000e+04" cType="1" res="-7.7683753333985806e-03" rms="4.6576571464538574e-01" purity="4.9870601296424866e-01" nType="0">
        <Node pos="l" depth="1" NCoef="0" IVar="8" Cut="5.5136050781250000e+04" cType="1" res="-3.2437566551379859e-04" rms="4.6888139843940735e-01" purity="4.1339582204818726e-01" nType="0">
          <Node pos="l" depth="2" NCoef="0" IVar="8" Cut="4.9433574218750000e+04" cType="1" res="5.6502469815313816e-03" rms="4.6529754996299744e-01" purity="3.9140757918357849e-01" nType="0">
            <Node pos="l" depth="3" NCoef="0" IVar="-1" Cut="0.0000000000000000e+00" cType="1" res="-2.4635281879454851e-03" rms="4.6091946959495544e-01" purity="3.6292099952697754e-01" nType="-99"/>
            <Node pos="r" depth="3" NCoef="0" IVar="-1" Cut="0.0000000000000000e+00" cType="1" res="4.4310390949249268e-02" rms="4.8075398802757263e-01" purity="5.0291240215301514e-01" nType="-99"/>
          </Node>
          <Node pos="r" depth="2" NCoef="0" IVar="9" Cut="3.8060902343750000e+04" cType="1" res="-2.0452037453651428e-02" rms="4.8021155595779419e-01" purity="4.8747122287750244e-01" nType="0">
            <Node pos="l" depth="3" NCoef="0" IVar="-1" Cut="0.0000000000000000e+00" cType="1" res="9.9718999117612839e-03" rms="4.7594371438026428e-01" purity="4.3276512622833252e-01" nType="-99"/>
            <Node pos="r" depth="3" NCoef="0" IVar="-1" Cut="0.0000000000000000e+00" cType="1" res="-4.2644646018743515e-02" rms="4.8170703649520874e-01" purity="5.1585996150970459e-01" nType="-99"/>
          </Node>
        </Node>
        <Node pos="r" depth="1" NCoef="0" IVar="4" Cut="2.9616189002990723e+00" cType="1" res="0.0000000000000000e+00" rms="0.0000000000000000e+00" purity="6.0008031129837036e-01" nType="0">
          <Node pos="l" depth="2" NCoef="0" IVar="5" Cut="2.5428438186645508e+00" cType="1" res="0.0000000000000000e+00" rms="0.0000000000000000e+00" purity="6.1382234096527100e-01" nType="0">
            <Node pos="l" depth="3" NCoef="0" IVar="-1" Cut="0.0000000000000000e+00" cType="1" res="-1.4482324011623859e-02" rms="4.6501973271369934e-01" purity="6.0265588760375977e-01" nType="-99"/>
            <Node pos="r" depth="3" NCoef="0" IVar="-1" Cut="0.0000000000000000e+00" cType="1" res="9.6856849268078804e-03" rms="4.4904598593711853e-01" purity="6.5796273946762085e-01" nType="-99"/>
          </Node>
          <Node pos="r" depth="2" NCoef="0" IVar="-1" Cut="0.0000000000000000e+00" cType="1" res="-6.3154958188533783e-03" rms="4.5969101786613464e-01" purity="5.3454339504241943e-01" nType="-99"/>
        </Node>
      </Node>
    </BinaryTree>
    <BinaryTree type="DecisionTree" boostWeight="1.0000000000000000e+00" itree="125">
      <Node pos="s" depth="0" NCoef="0" IVar="5" Cut="-2.2439894676208496e+00" cType="1" res="-4.0857736021280289e-03" rms="4.6671152114868164e-01" purity="5.0057601928710938e-01" nType="0">
        <Node pos="l" depth="1" NCoef="0" IVar="5" Cut="-2.7569224834442139e+00" cType="1" res="-2.1070610731840134e-02" rms="4.6944132447242737e-01" purity="5.1567649841308594e-01" nType="0">
          <Node pos="l" depth="2" NCoef="0" IVar="4" Cut="2.2050821781158447e+00" cType="1" res="5.7335663586854935e-03" rms="4.7284272313117981e-01" purity="5.5151909589767456e-01" nType="0">
            <Node pos="l" depth="3" NCoef="0" IVar="-1" Cut="0.0000000000000000e+00" cType="1" res="-1.0892958380281925e-02" rms="4.7286778688430786e-01" purity="5.2214854955673218e-01" nType="-99"/>
            <Node pos="r" depth="3" NCoef="0" IVar="-1" Cut="0.0000000000000000e+00" cType="1" res="3.2354727387428284e-02" rms="4.7209379076957703e-01" purity="5.8848798274993896e-01" nType="-99"/>
          </Node>
          <Node pos="r" depth="2" NCoef="0" IVar="7" Cut="5.0000000000000000e+00" cType="1" res="-4.0668375790119171e-02" rms="4.6596392989158630e-01" purity="4.8947030305862427e-01" nType="0">
            <Node pos="l" depth="3" NCoef="0" IVar="-1" Cut="0.0000000000000000e+00" cType="1" res="-1.3744393363595009e-02" rms="4.6891671419143677e-01" purity="3.9532795548439026e-01" nType="-99"/>
            <Node pos="r" depth="3" NCoef="0" IVar="-1" Cut="0.0000000000000000e+00" cType="1" res="-2.3549286648631096e-02" rms="4.6240261197090149e-01" purity="5.6868070363998413e-01" nType="-99"/>
          </Node>
        </Node>
        <Node pos="r" depth="1" NCoef="0" IVar="8" Cut="1.0186449218750000e+05" cType="1" res="0.0000000000000000e+00" rms="0.0000000000000000e+00" purity="4.9632257223129272e-01" nType="0">
          <Node pos="l" depth="2" NCoef="0" IVar="4" Cut="2.2260150909423828e+00" cType="1" res="2.9587657190859318e-03" rms="4.6852251887321472e-01" purity="4.6581923961639404e-01" nType="0">
            <Node pos="l" depth="3" NCoef="0" IVar="-1" Cut="0.0000000000000000e+00" cType="1" res="1.2439597398042679e-02" rms="4.7108069062232971e-01" purity="4.5757305622100830e-01" nType="-99"/>
            <Node pos="r" depth="3" NCoef="0" IVar="-1" Cut="0.0000000000000000e+00" cType="1" res="-5.7029551826417446e-03" rms="4.6443086862564087e-01" purity="4.7808453440666199e-01" nType="-99"/>
          </Node>
          <Node pos="r" depth="2" NCoef="0" IVar="8" Cut="1.3655796875000000e+05" cType="1" res="0.0000000000000000e+00" rms="0.0000000000000000e+00" purity="6.6462361812591553e-01" nType="0">
            <Node pos="l" depth="3" NCoef="0" IVar="-1" Cut="0.0000000000000000e+00" cType="1" res="-2.7170844376087189e-02" rms="4.5499473810195923e-01" purity="6.4536386728286743e-01" nType="-99"/>
            <Node pos="r" depth="3" NCoef="0" IVar="-1" Cut="0.0000000000000000e+00" cType="1" res="5.1699518226087093e-03" rms="4.4371595978736877e-01" purity="6.9082510471343994e-01" nType="-99"/>
          </Node>
        </Node>
      </Node>
    </BinaryTree>
    <BinaryTree type="DecisionTree" boostWeight="1.0000000000000000e+00" itree="126">
      <Node pos="s" depth="0" NCoef="0" IVar="7" Cut="6.0000000000000000e+00" cType="1" res="0.0000000000000000e+00" rms="0.0000000000000000e+00" purity="4.9293869733810425e-01" nType="0">
        <Node pos="l" depth="1" NCoef="0" IVar="2" Cut="3.6101770019531250e+02" cType="1" res="-4.5284135267138481e-03" rms="4.6901029348373413e-01" purity="4.6323743462562561e-01" nType="0">
          <Node pos="l" depth="2" NCoef="0" IVar="2" Cut="2.6077236938476562e+02" cType="1" res="0.0000000000000000e+00" rms="0.0000000000000000e+00" purity="4.4582587480545044e-01" nType="0">
            <Node pos="l" depth="3" NCoef="0" IVar="-1" Cut="0.0000000000000000e+00" cType="1" res="-3.7704326678067446e-03" rms="4.6642783284187317e-01" purity="4.4749689102172852e-01" nType="-99"/>
            <Node pos="r" depth="3" NCoef="0" IVar="-1" Cut="0.0000000000000000e+00" cType="1" res="-1.3476314023137093e-02" rms="4.6933382749557495e-01" purity="4.3798723816871643e-01" nType="-99"/>
          </Node>
          <Node pos="r" depth="2" NCoef="0" IVar="3" Cut="5.6347670555114746e+00" cType="1" res="1.5790598466992378e-02" rms="4.7893410921096802e-01" purity="5.5718827247619629e-01" nType="0">
            <Node pos="l" depth="3" NCoef="0" IVar="-1" Cut="0.0000000000000000e+00" cType="1" res="3.8374356925487518e-02" rms="4.8014742136001587e-01" purity="5.6611651182174683e-01" nType="-99"/>
            <Node pos="r" depth="3" NCoef="0" IVar="-1" Cut="0.0000000000000000e+00" cType="1" res="-1.1013169772922993e-02" rms="4.7595104575157166e-01" purity="5.4638093709945679e-01" nType="-99"/>
          </Node>
        </Node>
        <Node pos="r" depth="1" NCoef="0" IVar="4" Cut="2.9742615222930908e+00" cType="1" res="-2.9917603358626366e-02" rms="4.6305808424949646e-01" purity="5.7468467950820923e-01" nType="0">
          <Node pos="l" depth="2" NCoef="0" IVar="5" Cut="1.9445699453353882e+00" cType="1" res="-1.4293429441750050e-02" rms="4.6286174654960632e-01" purity="5.9633332490921021e-01" nType="0">
            <Node pos="l" depth="3" NCoef="0" IVar="-1" Cut="0.0000000000000000e+00" cType="1" res="-7.8361199484788813e-06" rms="4.6129387617111206e-01" purity="6.0269588232040405e-01" nType="-99"/>
            <Node pos="r" depth="3" NCoef="0" IVar="-1" Cut="0.0000000000000000e+00" cType="1" res="-4.2906630784273148e-02" rms="4.6486940979957581e-01" purity="5.7958000898361206e-01" nType="-99"/>
          </Node>
          <Node pos="r" depth="2" NCoef="0" IVar="-1" Cut="0.0000000000000000e+00" cType="1" res="-4.3181912042200565e-03" rms="4.5709103345870972e-01" purity="4.7474098205566406e-01" nType="-99"/>
        </Node>
      </Node>
    </BinaryTree>
    <BinaryTree type="DecisionTree" boostWeight="1.0000000000000000e+00" itree="127">
      <Node pos="s" depth="0" NCoef="0" IVar="2" Cut="2.0087438964843750e+02" cType="1" res="4.3789748451672494e-04" rms="4.6547955274581909e-01" purity="5.0174921751022339e-01" nType="0">
        <Node pos="l" depth="1" NCoef="0" IVar="5" Cut="4.4888862967491150e-01" cType="1" res="7.2426949627697468e-03" rms="4.6349436044692993e-01" purity="5.1682966947555542e-01" nType="0">
          <Node pos="l" depth="2" NCoef="0" IVar="6" Cut="-4.4883865118026733e-01" cType="1" res="1.8930817022919655e-02" rms="4.6574100852012634e-01" purity="5.2114772796630859e-01" nType="0">
            <Node pos="l" depth="3" NCoef="0" IVar="-1" Cut="0.0000000000000000e+00" cType="1" res="9.6984887495636940e-03" rms="4.7611406445503235e-01" purity="4.6343868970870972e-01" nType="-99"/>
            <Node pos="r" depth="3" NCoef="0" IVar="-1" Cut="0.0000000000000000e+00" cType="1" res="4.3149363249540329e-02" rms="4.4649896025657654e-01" purity="6.2179440259933472e-01" nType="-99"/>
          </Node>
          <Node pos="r" depth="2" NCoef="0" IVar="2" Cut="1.4889793395996094e+02" cType="1" res="-6.6512194462120533e-03" rms="4.6042361855506897e-01" purity="5.1169657707214355e-01" nType="0">
            <Node pos="l" depth="3" NCoef="0" IVar="-1" Cut="0.0000000000000000e+00" cType="1" res="-2.8007104992866516e-02" rms="4.4780457019805908e-01" purity="4.1578051447868347e-01" nType="-99"/>
            <Node pos="r" depth="3" NCoef="0" IVar="-1" Cut="0.0000000000000000e+00" cType="1" res="-4.2945423047058284e-05" rms="4.6312963962554932e-01" purity="5.3451293706893921e-01" nType="-99"/>
          </Node>
        </Node>
        <Node pos="r" depth="1" NCoef="0" IVar="4" Cut="1.3933610916137695e+00" cType="1" res="-8.9214975014328957e-03" rms="4.6803471446037292e-01" purity="4.8100751638412476e-01" nType="0">
          <Node pos="l" depth="2" NCoef="0" IVar="8" Cut="6.2850144531250000e+04" cType="1" res="5.2111744880676270e-03" rms="4.6802714467048645e-01" purity="4.3810525536537170e-01" nType="0">
            <Node pos="l" depth="3" NCoef="0" IVar="-1" Cut="0.0000000000000000e+00" cType="1" res="-1.3565653003752232e-02" rms="4.4670268893241882e-01" purity="3.1270486116409302e-01" nType="-99"/>
            <Node pos="r" depth="3" NCoef="0" IVar="-1" Cut="0.0000000000000000e+00" cType="1" res="1.8292948603630066e-02" rms="4.8286956548690796e-01" purity="5.3052711486816406e-01" nType="-99"/>
          </Node>
          <Node pos="r" depth="2" NCoef="0" IVar="3" Cut="7.0321235656738281e+00" cType="1" res="-1.6461782157421112e-02" rms="4.6786415576934814e-01" purity="5.0389742851257324e-01" nType="0">
            <Node pos="l" depth="3" NCoef="0" IVar="-1" Cut="0.0000000000000000e+00" cType="1" res="-9.1223781928420067e-03" rms="4.6981126070022583e-01" purity="4.8470860719680786e-01" nType="-99"/>
            <Node pos="r" depth="3" NCoef="0" IVar="-1" Cut="0.0000000000000000e+00" cType="1" res="-7.3430704651400447e-04" rms="4.6255806088447571e-01" purity="5.5209535360336304e-01" nType="-99"/>
          </Node>
        </Node>
      </Node>
    </BinaryTree>
    <BinaryTree type="DecisionTree" boostWeight="1.0000000000000000e+00" itree="128">
      <Node pos="s" depth="0" NCoef="0" IVar="7" Cut="6.0000000000000000e+00" cType="1" res="0.0000000000000000e+00" rms="0.0000000000000000e+00" purity="4.9681997299194336e-01" nType="0">
        <Node pos="l" depth="1" NCoef="0" IVar="2" Cut="5.1425781250000000e+02" cType="1" res="-1.2443996034562588e-02" rms="4.6760785579681396e-01" purity="4.5382443070411682e-01" nType="0">
          <Node pos="l" depth="2" NCoef="0" IVar="4" Cut="3.2324471473693848e+00" cType="1" res="-9.7910352051258087e-03" rms="4.6684545278549194e-01" purity="4.4856742024421692e-01" nType="0">
            <Node pos="l" depth="3" NCoef="0" IVar="-1" Cut="0.0000000000000000e+00" cType="1" res="-5.7421103119850159e-03" rms="4.6875575184822083e-01" purity="4.5877924561500549e-01" nType="-99"/>
            <Node pos="r" depth="3" NCoef="0" IVar="-1" Cut="0.0000000000000000e+00" cType="1" res="-2.9887252021580935e-03" rms="4.3726694583892822e-01" purity="3.1155449151992798e-01" nType="-99"/>
          </Node>
          <Node pos="r" depth="2" NCoef="0" IVar="-1" Cut="0.0000000000000000e+00" cType="1" res="-3.4759037196636200e-02" rms="4.7674587368965149e-01" purity="5.2880805730819702e-01" nType="-99"/>
        </Node>
        <Node pos="r" depth="1" NCoef="0" IVar="9" Cut="9.3874945312500000e+04" cType="1" res="9.2550506815314293e-03" rms="4.5601472258567810e-01" purity="6.1633920669555664e-01" nType="0">
          <Node pos="l" depth="2" NCoef="0" IVar="9" Cut="6.7954781250000000e+04" cType="1" res="0.0000000000000000e+00" rms="0.0000000000000000e+00" purity="5.9896647930145264e-01" nType="0">
            <Node pos="l" depth="3" NCoef="0" IVar="-1" Cut="0.0000000000000000e+00" cType="1" res="2.6483032852411270e-03" rms="4.6989873051643372e-01" purity="5.5881851911544800e-01" nType="-99"/>
            <Node pos="r" depth="3" NCoef="0" IVar="-1" Cut="0.0000000000000000e+00" cType="1" res="6.3032299280166626e-02" rms="4.3432420492172241e-01" purity="7.1095561981201172e-01" nType="-99"/>
          </Node>
          <Node pos="r" depth="2" NCoef="0" IVar="-1" Cut="0.0000000000000000e+00" cType="1" res="-2.0994320511817932e-02" rms="4.2864874005317688e-01" purity="7.0178270339965820e-01" nType="-99"/>
        </Node>
      </Node>
    </BinaryTree>
    <BinaryTree type="DecisionTree" boostWeight="1.0000000000000000e+00" itree="129">
      <Node pos="s" depth="0" NCoef="0" IVar="3" Cut="5.7150473594665527e+00" cType="1" res="2.3905471898615360e-03" rms="4.6680930256843567e-01" purity="5.0890684127807617e-01" nType="0">
        <Node pos="l" depth="1" NCoef="0" IVar="1" Cut="2.0929907812500000e+05" cType="1" res="-2.7503960300236940e-03" rms="4.7289088368415833e-01" purity="4.9522677063941956e-01" nType="0">
          <Node pos="l" depth="2" NCoef="0" IVar="3" Cut="2.6873033046722412e+00" cType="1" res="-6.2989941798150539e-03" rms="4.7537329792976379e-01" purity="5.0656783580780029e-01" nType="0">
            <Node pos="l" depth="3" NCoef="0" IVar="-1" Cut="0.0000000000000000e+00" cType="1" res="1.0002496419474483e-03" rms="4.7921031713485718e-01" purity="4.7635677456855774e-01" nType="-99"/>
            <Node pos="r" depth="3" NCoef="0" IVar="-1" Cut="0.0000000000000000e+00" cType="1" res="-4.6742237173020840e-03" rms="4.7120004892349243e-01" purity="5.3821402788162231e-01" nType="-99"/>
          </Node>
          <Node pos="r" depth="2" NCoef="0" IVar="-1" Cut="0.0000000000000000e+00" cType="1" res="2.9017547145485878e-02" rms="4.5374980568885803e-01" purity="4.1337153315544128e-01" nType="-99"/>
        </Node>
        <Node pos="r" depth="1" NCoef="0" IVar="5" Cut="-1.6456665992736816e+00" cType="1" res="1.0555014945566654e-02" rms="4.5686581730842590e-01" purity="5.3063255548477173e-01" nType="0">
          <Node pos="l" depth="2" NCoef="0" IVar="9" Cut="4.2469535156250000e+04" cType="1" res="2.5360995903611183e-02" rms="4.5663598179817200e-01" purity="5.9329646825790405e-01" nType="0">
            <Node pos="l" depth="3" NCoef="0" IVar="-1" Cut="0.0000000000000000e+00" cType="1" res="5.2957367151975632e-02" rms="4.6589255332946777e-01" purity="4.7959527373313904e-01" nType="-99"/>
            <Node pos="r" depth="3" NCoef="0" IVar="-1" Cut="0.0000000000000000e+00" cType="1" res="1.1596080847084522e-02" rms="4.4841718673706055e-01" purity="6.8426293134689331e-01" nType="-99"/>
          </Node>
          <Node pos="r" depth="2" NCoef="0" IVar="6" Cut="-2.5431640148162842e+00" cType="1" res="4.5447847805917263e-03" rms="4.5682218670845032e-01" purity="5.0519520044326782e-01" nType="0">
            <Node pos="l" depth="3" NCoef="0" IVar="-1" Cut="0.0000000000000000e+00" cType="1" res="-3.5503629595041275e-02" rms="4.5769065618515015e-01" purity="4.2305162549018860e-01" nType="-99"/>
            <Node pos="r" depth="3" NCoef="0" IVar="-1" Cut="0.0000000000000000e+00" cType="1" res="1.2609879486262798e-02" rms="4.5632728934288025e-01" purity="5.2441745996475220e-01" nType="-99"/>
          </Node>
        </Node>
      </Node>
    </BinaryTree>
    <BinaryTree type="DecisionTree" boostWeight="1.0000000000000000e+00" itree="130">
      <Node pos="s" depth="0" NCoef="0" IVar="4" Cut="2.9988031387329102e+00" cType="1" res="-1.2518109753727913e-02" rms="4.6380618214607239e-01" purity="4.8989254236221313e-01" nType="0">
        <Node pos="l" depth="1" NCoef="0" IVar="5" Cut="1.6454780101776123e+00" cType="1" res="-4.1207289323210716e-03" rms="4.6464633941650391e-01" purity="5.0201010704040527e-01" nType="0">
          <Node pos="l" depth="2" NCoef="0" IVar="5" Cut="-8.6203652620315552e-01" cType="1" res="-9.5214340835809708e-03" rms="4.6541777253150940e-01" purity="4.8273351788520813e-01" nType="0">
            <Node pos="l" depth="3" NCoef="0" IVar="-1" Cut="0.0000000000000000e+00" cType="1" res="-9.9170964676886797e-04" rms="4.6648779511451721e-01" purity="5.1522690057754517e-01" nType="-99"/>
            <Node pos="r" depth="3" NCoef="0" IVar="-1" Cut="0.0000000000000000e+00" cType="1" res="-1.2926302850246429e-02" rms="4.6335393190383911e-01" purity="4.2975461483001709e-01" nType="-99"/>
          </Node>
          <Node pos="r" depth="2" NCoef="0" IVar="6" Cut="-7.4822163581848145e-01" cType="1" res="7.4148871935904026e-03" rms="4.6278324723243713e-01" purity="5.4318386316299438e-01" nType="0">
            <Node pos="l" depth="3" NCoef="0" IVar="-1" Cut="0.0000000000000000e+00" cType="1" res="3.1670574098825455e-02" rms="4.3524536490440369e-01" purity="7.0679849386215210e-01" nType="-99"/>
            <Node pos="r" depth="3" NCoef="0" IVar="-1" Cut="0.0000000000000000e+00" cType="1" res="2.1103604231029749e-03" rms="4.6878951787948608e-01" purity="5.0506621599197388e-01" nType="-99"/>
          </Node>
        </Node>
        <Node pos="r" depth="1" NCoef="0" IVar="5" Cut="-1.9445608854293823e+00" cType="1" res="0.0000000000000000e+00" rms="0.0000000000000000e+00" purity="4.2590922117233276e-01" nType="0">
          <Node pos="l" depth="2" NCoef="0" IVar="-1" Cut="0.0000000000000000e+00" cType="1" res="-3.7770727649331093e-03" rms="4.3906995654106140e-01" purity="3.6021214723587036e-01" nType="-99"/>
          <Node pos="r" depth="2" NCoef="0" IVar="6" Cut="1.0467859506607056e+00" cType="1" res="0.0000000000000000e+00" rms="0.0000000000000000e+00" purity="4.6452525258064270e-01" nType="0">
            <Node pos="l" depth="3" NCoef="0" IVar="-1" Cut="0.0000000000000000e+00" cType="1" res="1.7271462827920914e-02" rms="4.5756971836090088e-01" purity="5.5494570732116699e-01" nType="-99"/>
            <Node pos="r" depth="3" NCoef="0" IVar="-1" Cut="0.0000000000000000e+00" cType="1" res="-3.0437496025115252e-03" rms="4.6205428242683411e-01" purity="3.8468781113624573e-01" nType="-99"/>
          </Node>
        </Node>
      </Node>
    </BinaryTree>
    <BinaryTree type="DecisionTree" boostWeight="1.0000000000000000e+00" itree="131">
      <Node pos="s" depth="0" NCoef="0" IVar="4" Cut="3.0050628185272217e+00" cType="1" res="-1.2014715000987053e-02" rms="4.6625125408172607e-01" purity="4.9182131886482239e-01" nType="0">
        <Node pos="l" depth="1" NCoef="0" IVar="6" Cut="2.5431087017059326e+00" cType="1" res="-2.4738723877817392e-03" rms="4.6677315235137939e-01" purity="5.0404512882232666e-01" nType="0">
          <Node pos="l" depth="2" NCoef="0" IVar="6" Cut="2.2722456455230713e+00" cType="1" res="9.2272227630019188e-04" rms="4.6550899744033813e-01" purity="5.1626920700073242e-01" nType="0">
            <Node pos="l" depth="3" NCoef="0" IVar="-1" Cut="0.0000000000000000e+00" cType="1" res="-2.7866356540471315e-03" rms="4.6344044804573059e-01" purity="5.1664274930953979e-01" nType="-99"/>
            <Node pos="r" depth="3" NCoef="0" IVar="-1" Cut="0.0000000000000000e+00" cType="1" res="3.6441605538129807e-02" rms="4.8675304651260376e-01" purity="5.1198953390121460e-01" nType="-99"/>
          </Node>
          <Node pos="r" depth="2" NCoef="0" IVar="3" Cut="3.7365260124206543e+00" cType="1" res="-1.7394995316863060e-02" rms="4.7199693322181702e-01" purity="4.5034515857696533e-01" nType="0">
            <Node pos="l" depth="3" NCoef="0" IVar="-1" Cut="0.0000000000000000e+00" cType="1" res="-8.7671373039484024e-03" rms="4.6998432278633118e-01" purity="3.8514193892478943e-01" nType="-99"/>
            <Node pos="r" depth="3" NCoef="0" IVar="-1" Cut="0.0000000000000000e+00" cType="1" res="2.8720721602439880e-03" rms="4.7204655408859253e-01" purity="4.8840281367301941e-01" nType="-99"/>
          </Node>
        </Node>
        <Node pos="r" depth="1" NCoef="0" IVar="6" Cut="7.4758845567703247e-01" cType="1" res="0.0000000000000000e+00" rms="0.0000000000000000e+00" purity="4.2351821064949036e-01" nType="0">
          <Node pos="l" depth="2" NCoef="0" IVar="-1" Cut="0.0000000000000000e+00" cType="1" res="-2.7177727315574884e-03" rms="4.6103167533874512e-01" purity="5.2078002691268921e-01" nType="-99"/>
          <Node pos="r" depth="2" NCoef="0" IVar="-1" Cut="0.0000000000000000e+00" cType="1" res="-3.2406980171799660e-03" rms="4.4996392726898193e-01" purity="3.2842451333999634e-01" nType="-99"/>
        </Node>
      </Node>
    </BinaryTree>
    <BinaryTree type="DecisionTree" boostWeight="1.0000000000000000e+00" itree="132">
      <Node pos="s" depth="0" NCoef="0" IVar="4" Cut="2.7183501720428467e+00" cType="1" res="-8.8013587519526482e-03" rms="4.6302404999732971e-01" purity="4.9388265609741211e-01" nType="0">
        <Node pos="l" depth="1" NCoef="0" IVar="6" Cut="-1.3464053869247437e+00" cType="1" res="-2.1875693928450346e-03" rms="4.6551468968391418e-01" purity="5.0188201665878296e-01" nType="0">
          <Node pos="l" depth="2" NCoef="0" IVar="4" Cut="9.6975171566009521e-01" cType="1" res="-1.2879768386483192e-02" rms="4.7146797180175781e-01" purity="4.6215030550956726e-01" nType="0">
            <Node pos="l" depth="3" NCoef="0" IVar="-1" Cut="0.0000000000000000e+00" cType="1" res="1.7480872571468353e-02" rms="4.6826943755149841e-01" purity="4.6874797344207764e-01" nType="-99"/>
            <Node pos="r" depth="3" NCoef="0" IVar="-1" Cut="0.0000000000000000e+00" cType="1" res="-1.6414366662502289e-02" rms="4.7206234931945801e-01" purity="4.6030971407890320e-01" nType="-99"/>
          </Node>
          <Node pos="r" depth="2" NCoef="0" IVar="6" Cut="-7.0514243841171265e-01" cType="1" res="4.0099062025547028e-03" rms="4.6191558241844177e-01" purity="5.2491152286529541e-01" nType="0">
            <Node pos="l" depth="3" NCoef="0" IVar="-1" Cut="0.0000000000000000e+00" cType="1" res="4.5302178710699081e-02" rms="4.4452968239784241e-01" purity="6.0930031538009644e-01" nType="-99"/>
            <Node pos="r" depth="3" NCoef="0" IVar="-1" Cut="0.0000000000000000e+00" cType="1" res="2.0759593462571502e-04" rms="4.6380701661109924e-01" purity="5.1480209827423096e-01" nType="-99"/>
          </Node>
        </Node>
        <Node pos="r" depth="1" NCoef="0" IVar="3" Cut="6.3687982559204102e+00" cType="1" res="-2.8708798810839653e-02" rms="4.5486509799957275e-01" purity="4.6980470418930054e-01" nType="0">
          <Node pos="l" depth="2" NCoef="0" IVar="0" Cut="1.5635617187500000e+05" cType="1" res="-4.1045855730772018e-02" rms="4.5227423310279846e-01" purity="4.3162965774536133e-01" nType="0">
            <Node pos="l" depth="3" NCoef="0" IVar="-1" Cut="0.0000000000000000e+00" cType="1" res="-6.0432692989706993e-03" rms="4.4830951094627380e-01" purity="3.7776333093643188e-01" nType="-99"/>
            <Node pos="r" depth="3" NCoef="0" IVar="-1" Cut="0.0000000000000000e+00" cType="1" res="1.5968590974807739e-02" rms="4.5834901928901672e-01" purity="5.7804882526397705e-01" nType="-99"/>
          </Node>
          <Node pos="r" depth="2" NCoef="0" IVar="-1" Cut="0.0000000000000000e+00" cType="1" res="3.4389696083962917e-03" rms="4.5994913578033447e-01" purity="5.6810897588729858e-01" nType="-99"/>
        </Node>
      </Node>
    </BinaryTree>
    <BinaryTree type="DecisionTree" boostWeight="1.0000000000000000e+00" itree="133">
      <Node pos="s" depth="0" NCoef="0" IVar="6" Cut="2.2439157962799072e+00" cType="1" res="-2.3267609067261219e-03" rms="4.6205139160156250e-01" purity="5.0282394886016846e-01" nType="0">
        <Node pos="l" depth="1" NCoef="0" IVar="4" Cut="3.2711985111236572e+00" cType="1" res="-8.1577710807323456e-03" rms="4.5800891518592834e-01" purity="5.0690674781799316e-01" nType="0">
          <Node pos="l" depth="2" NCoef="0" IVar="8" Cut="5.8784957031250000e+04" cType="1" res="-3.1616371124982834e-03" rms="4.5929712057113647e-01" purity="5.1880997419357300e-01" nType="0">
            <Node pos="l" depth="3" NCoef="0" IVar="-1" Cut="0.0000000000000000e+00" cType="1" res="-1.4256206341087818e-02" rms="4.5932278037071228e-01" purity="3.8723051548004150e-01" nType="-99"/>
            <Node pos="r" depth="3" NCoef="0" IVar="-1" Cut="0.0000000000000000e+00" cType="1" res="4.9941786564886570e-03" rms="4.5912683010101318e-01" purity="6.2200671434402466e-01" nType="-99"/>
          </Node>
          <Node pos="r" depth="2" NCoef="0" IVar="-1" Cut="0.0000000000000000e+00" cType="1" res="-3.3617920707911253e-03" rms="4.3044111132621765e-01" purity="3.2365533709526062e-01" nType="-99"/>
        </Node>
        <Node pos="r" depth="1" NCoef="0" IVar="3" Cut="3.6521537303924561e+00" cType="1" res="1.5215603634715080e-02" rms="4.7357252240180969e-01" purity="4.9054083228111267e-01" nType="0">
          <Node pos="l" depth="2" NCoef="0" IVar="-1" Cut="0.0000000000000000e+00" cType="1" res="-6.8493802100419998e-03" rms="4.7901067137718201e-01" purity="4.3208843469619751e-01" nType="-99"/>
          <Node pos="r" depth="2" NCoef="0" IVar="9" Cut="4.1802851562500000e+04" cType="1" res="2.8218507766723633e-02" rms="4.7006702423095703e-01" purity="5.2246510982513428e-01" nType="0">
            <Node pos="l" depth="3" NCoef="0" IVar="-1" Cut="0.0000000000000000e+00" cType="1" res="5.6178316473960876e-02" rms="4.7208124399185181e-01" purity="4.4689276814460754e-01" nType="-99"/>
            <Node pos="r" depth="3" NCoef="0" IVar="-1" Cut="0.0000000000000000e+00" cType="1" res="7.6443483121693134e-03" rms="4.6636331081390381e-01" purity="6.3086479902267456e-01" nType="-99"/>
          </Node>
        </Node>
      </Node>
    </BinaryTree>
    <BinaryTree type="DecisionTree" boostWeight="1.0000000000000000e+00" itree="134">
      <Node pos="s" depth="0" NCoef="0" IVar="6" Cut="-1.3464154005050659e+00" cType="1" res="-6.1005325987935066e-03" rms="4.6526947617530823e-01" purity="4.9965253472328186e-01" nType="0">
        <Node pos="l" depth="1" NCoef="0" IVar="3" Cut="1.3130627870559692e+00" cType="1" res="3.4472569823265076e-03" rms="4.7101783752441406e-01" purity="4.8220404982566833e-01" nType="0">
          <Node pos="l" depth="2" NCoef="0" IVar="-1" Cut="0.0000000000000000e+00" cType="1" res="-1.5513223595917225e-02" rms="4.7944137454032898e-01" purity="4.0658238530158997e-01" nType="-99"/>
          <Node pos="r" depth="2" NCoef="0" IVar="4" Cut="2.1841397285461426e+00" cType="1" res="0.0000000000000000e+00" rms="0.0000000000000000e+00" purity="4.9844694137573242e-01" nType="0">
            <Node pos="l" depth="3" NCoef="0" IVar="-1" Cut="0.0000000000000000e+00" cType="1" res="1.6292090294882655e-03" rms="4.6668964624404907e-01" purity="4.7006627917289734e-01" nType="-99"/>
            <Node pos="r" depth="3" NCoef="0" IVar="-1" Cut="0.0000000000000000e+00" cType="1" res="1.8202826380729675e-02" rms="4.7229942679405212e-01" purity="5.3826469182968140e-01" nType="-99"/>
          </Node>
        </Node>
        <Node pos="r" depth="1" NCoef="0" IVar="6" Cut="1.0047181844711304e+00" cType="1" res="-1.1700022034347057e-02" rms="4.6177312731742859e-01" purity="5.0988548994064331e-01" nType="0">
          <Node pos="l" depth="2" NCoef="0" IVar="7" Cut="7.0000000000000000e+00" cType="1" res="-2.5369189679622650e-02" rms="4.5051205158233643e-01" purity="5.6515705585479736e-01" nType="0">
            <Node pos="l" depth="3" NCoef="0" IVar="-1" Cut="0.0000000000000000e+00" cType="1" res="-2.2053480148315430e-02" rms="4.5133465528488159e-01" purity="5.4662072658538818e-01" nType="-99"/>
            <Node pos="r" depth="3" NCoef="0" IVar="-1" Cut="0.0000000000000000e+00" cType="1" res="-7.8251339495182037e-02" rms="4.4573432207107544e-01" purity="6.4191144704818726e-01" nType="-99"/>
          </Node>
          <Node pos="r" depth="2" NCoef="0" IVar="6" Cut="1.8188376426696777e+00" cType="1" res="-4.2289984412491322e-03" rms="4.6764457225799561e-01" purity="4.7967633605003357e-01" nType="0">
            <Node pos="l" depth="3" NCoef="0" IVar="-1" Cut="0.0000000000000000e+00" cType="1" res="2.9212972149252892e-02" rms="4.5200350880622864e-01" purity="5.3649663925170898e-01" nType="-99"/>
            <Node pos="r" depth="3" NCoef="0" IVar="-1" Cut="0.0000000000000000e+00" cType="1" res="-8.7523721158504486e-03" rms="4.7172358632087708e-01" purity="4.6345356106758118e-01" nType="-99"/>
          </Node>
        </Node>
      </Node>
    </BinaryTree>
    <BinaryTree type="DecisionTree" boostWeight="1.0000000000000000e+00" itree="135">
      <Node pos="s" depth="0" NCoef="0" IVar="6" Cut="2.5430891513824463e+00" cType="1" res="-3.8990459870547056e-03" rms="4.6312153339385986e-01" purity="4.9982249736785889e-01" nType="0">
        <Node pos="l" depth="1" NCoef="0" IVar="3" Cut="1.1012974739074707e+01" cType="1" res="7.0242048241198063e-04" rms="4.6012753248214722e-01" purity="5.1136201620101929e-01" nType="0">
          <Node pos="l" depth="2" NCoef="0" IVar="2" Cut="3.4318963623046875e+02" cType="1" res="3.6784908734261990e-03" rms="4.6157443523406982e-01" purity="5.1643419265747070e-01" nType="0">
            <Node pos="l" depth="3" NCoef="0" IVar="-1" Cut="0.0000000000000000e+00" cType="1" res="7.6215742155909538e-03" rms="4.6089470386505127e-01" purity="5.1790356636047363e-01" nType="-99"/>
            <Node pos="r" depth="3" NCoef="0" IVar="-1" Cut="0.0000000000000000e+00" cType="1" res="-6.4314124174416065e-03" rms="4.6586343646049500e-01" purity="5.0549042224884033e-01" nType="-99"/>
          </Node>
          <Node pos="r" depth="2" NCoef="0" IVar="-1" Cut="0.0000000000000000e+00" cType="1" res="-4.2645815759897232e-02" rms="4.4373995065689087e-01" purity="4.5896801352500916e-01" nType="-99"/>
        </Node>
        <Node pos="r" depth="1" NCoef="0" IVar="8" Cut="5.9437453125000000e+04" cType="1" res="-2.3970372974872589e-02" rms="4.7544047236442566e-01" purity="4.4948783516883850e-01" nType="0">
          <Node pos="l" depth="2" NCoef="0" IVar="9" Cut="3.2856687500000000e+04" cType="1" res="0.0000000000000000e+00" rms="0.0000000000000000e+00" purity="3.9390280842781067e-01" nType="0">
            <Node pos="l" depth="3" NCoef="0" IVar="-1" Cut="0.0000000000000000e+00" cType="1" res="1.1932602152228355e-02" rms="4.6204671263694763e-01" purity="3.5118645429611206e-01" nType="-99"/>
            <Node pos="r" depth="3" NCoef="0" IVar="-1" Cut="0.0000000000000000e+00" cType="1" res="-2.4756470695137978e-02" rms="4.8660945892333984e-01" purity="4.4623300433158875e-01" nType="-99"/>
          </Node>
          <Node pos="r" depth="2" NCoef="0" IVar="6" Cut="2.8565566539764404e+00" cType="1" res="-4.3749194592237473e-02" rms="4.7693783044815063e-01" purity="5.1928186416625977e-01" nType="0">
            <Node pos="l" depth="3" NCoef="0" IVar="-1" Cut="0.0000000000000000e+00" cType="1" res="-1.4502646401524544e-02" rms="4.7992810606956482e-01" purity="5.4859077930450439e-01" nType="-99"/>
            <Node pos="r" depth="3" NCoef="0" IVar="-1" Cut="0.0000000000000000e+00" cType="1" res="-1.5636287629604340e-02" rms="4.7170302271842957e-01" purity="4.8895579576492310e-01" nType="-99"/>
          </Node>
        </Node>
      </Node>
    </BinaryTree>
    <BinaryTree type="DecisionTree" boostWeight="1.0000000000000000e+00" itree="136">
      <Node pos="s" depth="0" NCoef="0" IVar="6" Cut="-2.8423113822937012e+00" cType="1" res="0.0000000000000000e+00" rms="0.0000000000000000e+00" purity="4.9989196658134460e-01" nType="0">
        <Node pos="l" depth="1" NCoef="0" IVar="5" Cut="-1.0490037202835083e+00" cType="1" res="2.4833338335156441e-02" rms="4.7844114899635315e-01" purity="4.9377095699310303e-01" nType="0">
          <Node pos="l" depth="2" NCoef="0" IVar="-1" Cut="0.0000000000000000e+00" cType="1" res="4.1993819177150726e-02" rms="4.7792288661003113e-01" purity="5.5450677871704102e-01" nType="-99"/>
          <Node pos="r" depth="2" NCoef="0" IVar="-1" Cut="0.0000000000000000e+00" cType="1" res="2.1270627155900002e-02" rms="4.7868084907531738e-01" purity="4.4524186849594116e-01" nType="-99"/>
        </Node>
        <Node pos="r" depth="1" NCoef="0" IVar="4" Cut="3.2655649185180664e+00" cType="1" res="0.0000000000000000e+00" rms="0.0000000000000000e+00" purity="5.0053703784942627e-01" nType="0">
          <Node pos="l" depth="2" NCoef="0" IVar="8" Cut="1.2216117187500000e+05" cType="1" res="-3.7691271863877773e-03" rms="4.6464201807975769e-01" purity="5.0901585817337036e-01" nType="0">
            <Node pos="l" depth="3" NCoef="0" IVar="-1" Cut="0.0000000000000000e+00" cType="1" res="-4.4978391379117966e-03" rms="4.6788752079010010e-01" purity="4.8695370554924011e-01" nType="-99"/>
            <Node pos="r" depth="3" NCoef="0" IVar="-1" Cut="0.0000000000000000e+00" cType="1" res="1.3323102146387100e-02" rms="4.3532624840736389e-01" purity="6.9959348440170288e-01" nType="-99"/>
          </Node>
          <Node pos="r" depth="2" NCoef="0" IVar="-1" Cut="0.0000000000000000e+00" cType="1" res="-2.5492681190371513e-02" rms="4.3936991691589355e-01" purity="3.5694652795791626e-01" nType="-99"/>
        </Node>
      </Node>
    </BinaryTree>
    <BinaryTree type="DecisionTree" boostWeight="1.0000000000000000e+00" itree="137">
      <Node pos="s" depth="0" NCoef="0" IVar="7" Cut="6.0000000000000000e+00" cType="1" res="2.8712229686789215e-04" rms="4.6569278836250305e-01" purity="5.0115203857421875e-01" nType="0">
        <Node pos="l" depth="1" NCoef="0" IVar="5" Cut="-2.2439894676208496e+00" cType="1" res="5.4060402326285839e-03" rms="4.6703198552131653e-01" purity="4.6925947070121765e-01" nType="0">
          <Node pos="l" depth="2" NCoef="0" IVar="3" Cut="4.5738868713378906e+00" cType="1" res="-1.2574211694300175e-02" rms="4.6821120381355286e-01" purity="4.8411482572555542e-01" nType="0">
            <Node pos="l" depth="3" NCoef="0" IVar="-1" Cut="0.0000000000000000e+00" cType="1" res="-1.7221234738826752e-02" rms="4.7197958827018738e-01" purity="4.3540364503860474e-01" nType="-99"/>
            <Node pos="r" depth="3" NCoef="0" IVar="-1" Cut="0.0000000000000000e+00" cType="1" res="1.0191556997597218e-02" rms="4.6136951446533203e-01" purity="5.6121695041656494e-01" nType="-99"/>
          </Node>
          <Node pos="r" depth="2" NCoef="0" IVar="8" Cut="7.4665023437500000e+04" cType="1" res="1.0444279760122299e-02" rms="4.6657675504684448e-01" purity="4.6509686112403870e-01" nType="0">
            <Node pos="l" depth="3" NCoef="0" IVar="-1" Cut="0.0000000000000000e+00" cType="1" res="6.4310729503631592e-03" rms="4.6712139248847961e-01" purity="4.1824668645858765e-01" nType="-99"/>
            <Node pos="r" depth="3" NCoef="0" IVar="-1" Cut="0.0000000000000000e+00" cType="1" res="2.8383223339915276e-02" rms="4.6430525183677673e-01" purity="6.2628972530364990e-01" nType="-99"/>
          </Node>
        </Node>
        <Node pos="r" depth="1" NCoef="0" IVar="6" Cut="1.3456243276596069e+00" cType="1" res="-1.3686249963939190e-02" rms="4.6174857020378113e-01" purity="5.8827358484268188e-01" nType="0">
          <Node pos="l" depth="2" NCoef="0" IVar="8" Cut="6.3715089843750000e+04" cType="1" res="-5.7045475114136934e-04" rms="4.5803037285804749e-01" purity="6.2566739320755005e-01" nType="0">
            <Node pos="l" depth="3" NCoef="0" IVar="-1" Cut="0.0000000000000000e+00" cType="1" res="3.3800758421421051e-02" rms="4.8448166251182556e-01" purity="5.3043955564498901e-01" nType="-99"/>
            <Node pos="r" depth="3" NCoef="0" IVar="-1" Cut="0.0000000000000000e+00" cType="1" res="-1.5300464816391468e-02" rms="4.4707897305488586e-01" purity="6.6150861978530884e-01" nType="-99"/>
          </Node>
          <Node pos="r" depth="2" NCoef="0" IVar="-1" Cut="0.0000000000000000e+00" cType="1" res="-5.4986528120934963e-03" rms="4.6851614117622375e-01" purity="5.0626522302627563e-01" nType="-99"/>
        </Node>
      </Node>
    </BinaryTree>
    <BinaryTree type="DecisionTree" boostWeight="1.0000000000000000e+00" itree="138">
      <Node pos="s" depth="0" NCoef="0" IVar="4" Cut="3.0597388744354248e+00" cType="1" res="-7.9444497823715210e-03" rms="4.6438527107238770e-01" purity="4.9582538008689880e-01" nType="0">
        <Node pos="l" depth="1" NCoef="0" IVar="4" Cut="7.7759295701980591e-01" cType="1" res="-2.6332251727581024e-03" rms="4.6499705314636230e-01" purity="5.0594931840896606e-01" nType="0">
          <Node pos="l" depth="2" NCoef="0" IVar="5" Cut="1.4949308335781097e-01" cType="1" res="-2.3068714886903763e-02" rms="4.6791601181030273e-01" purity="4.3927851319313049e-01" nType="0">
            <Node pos="l" depth="3" NCoef="0" IVar="-1" Cut="0.0000000000000000e+00" cType="1" res="-7.7362041338346899e-05" rms="4.7186547517776489e-01" purity="4.5334285497665405e-01" nType="-99"/>
            <Node pos="r" depth="3" NCoef="0" IVar="-1" Cut="0.0000000000000000e+00" cType="1" res="-5.8846991509199142e-02" rms="4.6251612901687622e-01" purity="4.2454469203948975e-01" nType="-99"/>
          </Node>
          <Node pos="r" depth="2" NCoef="0" IVar="1" Cut="2.6666246875000000e+05" cType="1" res="4.1032253648154438e-04" rms="4.6448382735252380e-01" purity="5.1587885618209839e-01" nType="0">
            <Node pos="l" depth="3" NCoef="0" IVar="-1" Cut="0.0000000000000000e+00" cType="1" res="2.7553085237741470e-03" rms="4.6641895174980164e-01" purity="5.2965331077575684e-01" nType="-99"/>
            <Node pos="r" depth="3" NCoef="0" IVar="-1" Cut="0.0000000000000000e+00" cType="1" res="-5.0227016210556030e-02" rms="4.3012958765029907e-01" purity="2.9321879148483276e-01" nType="-99"/>
          </Node>
        </Node>
        <Node pos="r" depth="1" NCoef="0" IVar="7" Cut="5.0000000000000000e+00" cType="1" res="-4.5823462307453156e-02" rms="4.5821684598922729e-01" purity="4.2362236976623535e-01" nType="0">
          <Node pos="l" depth="2" NCoef="0" IVar="-1" Cut="0.0000000000000000e+00" cType="1" res="-4.3717627413570881e-03" rms="4.6058785915374756e-01" purity="3.7555372714996338e-01" nType="-99"/>
          <Node pos="r" depth="2" NCoef="0" IVar="-1" Cut="0.0000000000000000e+00" cType="1" res="-3.6303608212620020e-03" rms="4.5475101470947266e-01" purity="4.5468977093696594e-01" nType="-99"/>
        </Node>
      </Node>
    </BinaryTree>
    <BinaryTree type="DecisionTree" boostWeight="1.0000000000000000e+00" itree="139">
      <Node pos="s" depth="0" NCoef="0" IVar="4" Cut="3.1929476261138916e+00" cType="1" res="-5.2823051810264587e-03" rms="4.6284314990043640e-01" purity="4.9710160493850708e-01" nType="0">
        <Node pos="l" depth="1" NCoef="0" IVar="7" Cut="6.0000000000000000e+00" cType="1" res="-1.7303776694461703e-03" rms="4.6427112817764282e-01" purity="5.0847977399826050e-01" nType="0">
          <Node pos="l" depth="2" NCoef="0" IVar="5" Cut="-1.9445472955703735e+00" cType="1" res="0.0000000000000000e+00" rms="0.0000000000000000e+00" purity="4.6503874659538269e-01" nType="0">
            <Node pos="l" depth="3" NCoef="0" IVar="-1" Cut="0.0000000000000000e+00" cType="1" res="-1.8138740211725235e-02" rms="4.7069650888442993e-01" purity="4.7168129682540894e-01" nType="-99"/>
            <Node pos="r" depth="3" NCoef="0" IVar="-1" Cut="0.0000000000000000e+00" cType="1" res="-1.0011591948568821e-03" rms="4.6611511707305908e-01" purity="4.6254482865333557e-01" nType="-99"/>
          </Node>
          <Node pos="r" depth="2" NCoef="0" IVar="2" Cut="1.9606460571289062e+02" cType="1" res="1.4853294938802719e-02" rms="4.5471534132957458e-01" purity="6.3044768571853638e-01" nType="0">
            <Node pos="l" depth="3" NCoef="0" IVar="-1" Cut="0.0000000000000000e+00" cType="1" res="9.5858480781316757e-03" rms="4.5113560557365417e-01" purity="6.3406658172607422e-01" nType="-99"/>
            <Node pos="r" depth="3" NCoef="0" IVar="-1" Cut="0.0000000000000000e+00" cType="1" res="4.2579554021358490e-02" rms="4.6398049592971802e-01" purity="6.2028896808624268e-01" nType="-99"/>
          </Node>
        </Node>
        <Node pos="r" depth="1" NCoef="0" IVar="-1" Cut="0.0000000000000000e+00" cType="1" res="-3.1117892358452082e-03" rms="4.4363185763359070e-01" purity="3.6378520727157593e-01" nType="-99"/>
      </Node>
    </BinaryTree>
    <BinaryTree type="DecisionTree" boostWeight="1.0000000000000000e+00" itree="140">
      <Node pos="s" depth="0" NCoef="0" IVar="5" Cut="-2.5430648326873779e+00" cType="1" res="-3.3302237279713154e-03" rms="4.6425110101699829e-01" purity="5.0212186574935913e-01" nType="0">
        <Node pos="l" depth="1" NCoef="0" IVar="4" Cut="2.7558386325836182e+00" cType="1" res="-2.1069340407848358e-02" rms="4.6072524785995483e-01" purity="5.0706285238265991e-01" nType="0">
          <Node pos="l" depth="2" NCoef="0" IVar="4" Cut="1.6238178014755249e+00" cType="1" res="0.0000000000000000e+00" rms="0.0000000000000000e+00" purity="5.4187053442001343e-01" nType="0">
            <Node pos="l" depth="3" NCoef="0" IVar="-1" Cut="0.0000000000000000e+00" cType="1" res="-1.6288623213768005e-02" rms="4.6669375896453857e-01" purity="4.9042496085166931e-01" nType="-99"/>
            <Node pos="r" depth="3" NCoef="0" IVar="-1" Cut="0.0000000000000000e+00" cType="1" res="1.4427097514271736e-02" rms="4.5986914634704590e-01" purity="5.9854036569595337e-01" nType="-99"/>
          </Node>
          <Node pos="r" depth="2" NCoef="0" IVar="-1" Cut="0.0000000000000000e+00" cType="1" res="-3.9435746148228645e-03" rms="4.4631719589233398e-01" purity="4.2809987068176270e-01" nType="-99"/>
        </Node>
        <Node pos="r" depth="1" NCoef="0" IVar="4" Cut="2.1764395236968994e+00" cType="1" res="1.0465792001923546e-04" rms="4.6485251188278198e-01" purity="5.0116509199142456e-01" nType="0">
          <Node pos="l" depth="2" NCoef="0" IVar="3" Cut="3.7651472091674805e+00" cType="1" res="-6.2351706437766552e-03" rms="4.6325466036796570e-01" purity="4.7791838645935059e-01" nType="0">
            <Node pos="l" depth="3" NCoef="0" IVar="-1" Cut="0.0000000000000000e+00" cType="1" res="6.4310408197343349e-03" rms="4.7263413667678833e-01" purity="4.8500412702560425e-01" nType="-99"/>
            <Node pos="r" depth="3" NCoef="0" IVar="-1" Cut="0.0000000000000000e+00" cType="1" res="-1.8419181928038597e-02" rms="4.5687827467918396e-01" purity="4.7331526875495911e-01" nType="-99"/>
          </Node>
          <Node pos="r" depth="2" NCoef="0" IVar="8" Cut="6.3534789062500000e+04" cType="1" res="9.2390421777963638e-03" rms="4.6699374914169312e-01" purity="5.3465878963470459e-01" nType="0">
            <Node pos="l" depth="3" NCoef="0" IVar="-1" Cut="0.0000000000000000e+00" cType="1" res="1.9997682422399521e-02" rms="4.7403615713119507e-01" purity="4.5295608043670654e-01" nType="-99"/>
            <Node pos="r" depth="3" NCoef="0" IVar="-1" Cut="0.0000000000000000e+00" cType="1" res="-2.9003829695284367e-03" rms="4.5836418867111206e-01" purity="6.2973743677139282e-01" nType="-99"/>
          </Node>
        </Node>
      </Node>
    </BinaryTree>
    <BinaryTree type="DecisionTree" boostWeight="1.0000000000000000e+00" itree="141">
      <Node pos="s" depth="0" NCoef="0" IVar="4" Cut="3.2655649185180664e+00" cType="1" res="-4.4738198630511761e-03" rms="4.6385812759399414e-01" purity="4.9449503421783447e-01" nType="0">
        <Node pos="l" depth="1" NCoef="0" IVar="9" Cut="4.6565824218750000e+04" cType="1" res="-1.1066929437220097e-03" rms="4.6639809012413025e-01" purity="5.0715887546539307e-01" nType="0">
          <Node pos="l" depth="2" NCoef="0" IVar="9" Cut="2.9108892578125000e+04" cType="1" res="4.9190325662493706e-03" rms="4.7110360860824585e-01" purity="4.2414706945419312e-01" nType="0">
            <Node pos="l" depth="3" NCoef="0" IVar="-1" Cut="0.0000000000000000e+00" cType="1" res="-7.9676657915115356e-03" rms="4.4735276699066162e-01" purity="3.1288096308708191e-01" nType="-99"/>
            <Node pos="r" depth="3" NCoef="0" IVar="-1" Cut="0.0000000000000000e+00" cType="1" res="1.4628536067903042e-02" rms="4.8094734549522400e-01" purity="4.7302404046058655e-01" nType="-99"/>
          </Node>
          <Node pos="r" depth="2" NCoef="0" IVar="0" Cut="2.2364839062500000e+05" cType="1" res="-1.0272999294102192e-02" rms="4.5899593830108643e-01" purity="6.3343614339828491e-01" nType="0">
            <Node pos="l" depth="3" NCoef="0" IVar="-1" Cut="0.0000000000000000e+00" cType="1" res="-1.5809284523129463e-02" rms="4.6821117401123047e-01" purity="6.0980343818664551e-01" nType="-99"/>
            <Node pos="r" depth="3" NCoef="0" IVar="-1" Cut="0.0000000000000000e+00" cType="1" res="1.1774459853768349e-02" rms="4.1581133008003235e-01" purity="7.3677563667297363e-01" nType="-99"/>
          </Node>
        </Node>
        <Node pos="r" depth="1" NCoef="0" IVar="-1" Cut="0.0000000000000000e+00" cType="1" res="-2.4825455620884895e-03" rms="4.2558014392852783e-01" purity="3.2386898994445801e-01" nType="-99"/>
      </Node>
    </BinaryTree>
    <BinaryTree type="DecisionTree" boostWeight="1.0000000000000000e+00" itree="142">
      <Node pos="s" depth="0" NCoef="0" IVar="4" Cut="2.9671986103057861e+00" cType="1" res="-9.0784206986427307e-03" rms="4.6334347128868103e-01" purity="4.9330762028694153e-01" nType="0">
        <Node pos="l" depth="1" NCoef="0" IVar="5" Cut="-4.4864410161972046e-01" cType="1" res="3.7169325514696538e-04" rms="4.6599036455154419e-01" purity="5.0736582279205322e-01" nType="0">
          <Node pos="l" depth="2" NCoef="0" IVar="5" Cut="-2.7564778327941895e+00" cType="1" res="0.0000000000000000e+00" rms="0.0000000000000000e+00" purity="5.2352786064147949e-01" nType="0">
            <Node pos="l" depth="3" NCoef="0" IVar="-1" Cut="0.0000000000000000e+00" cType="1" res="2.8078449890017509e-02" rms="4.6504539251327515e-01" purity="5.6576800346374512e-01" nType="-99"/>
            <Node pos="r" depth="3" NCoef="0" IVar="-1" Cut="0.0000000000000000e+00" cType="1" res="1.2591046281158924e-02" rms="4.6716022491455078e-01" purity="5.1225024461746216e-01" nType="-99"/>
          </Node>
          <Node pos="r" depth="2" NCoef="0" IVar="0" Cut="2.2677195312500000e+05" cType="1" res="-1.1087213642895222e-02" rms="4.6503484249114990e-01" purity="4.9352645874023438e-01" nType="0">
            <Node pos="l" depth="3" NCoef="0" IVar="-1" Cut="0.0000000000000000e+00" cType="1" res="-1.6234837472438812e-02" rms="4.6812087297439575e-01" purity="4.7651180624961853e-01" nType="-99"/>
            <Node pos="r" depth="3" NCoef="0" IVar="-1" Cut="0.0000000000000000e+00" cType="1" res="3.1735397875308990e-02" rms="4.4132974743843079e-01" purity="6.1327832937240601e-01" nType="-99"/>
          </Node>
        </Node>
        <Node pos="r" depth="1" NCoef="0" IVar="2" Cut="1.7978567504882812e+02" cType="1" res="0.0000000000000000e+00" rms="0.0000000000000000e+00" purity="4.2093011736869812e-01" nType="0">
          <Node pos="l" depth="2" NCoef="0" IVar="-1" Cut="0.0000000000000000e+00" cType="1" res="-1.2723050080239773e-02" rms="4.5165002346038818e-01" purity="4.8974636197090149e-01" nType="-99"/>
          <Node pos="r" depth="2" NCoef="0" IVar="6" Cut="7.4796485900878906e-01" cType="1" res="-8.3844870328903198e-02" rms="4.4106397032737732e-01" purity="3.8048130273818970e-01" nType="0">
            <Node pos="l" depth="3" NCoef="0" IVar="-1" Cut="0.0000000000000000e+00" cType="1" res="-4.1148461401462555e-02" rms="4.5005342364311218e-01" purity="4.7168415784835815e-01" nType="-99"/>
            <Node pos="r" depth="3" NCoef="0" IVar="-1" Cut="0.0000000000000000e+00" cType="1" res="-3.8295364938676357e-03" rms="4.2912364006042480e-01" purity="3.0025380849838257e-01" nType="-99"/>
          </Node>
        </Node>
      </Node>
    </BinaryTree>
    <BinaryTree type="DecisionTree" boostWeight="1.0000000000000000e+00" itree="143">
      <Node pos="s" depth="0" NCoef="0" IVar="2" Cut="5.1464276123046875e+02" cType="1" res="3.8768094964325428e-03" rms="4.6450805664062500e-01" purity="5.0267314910888672e-01" nType="0">
        <Node pos="l" depth="1" NCoef="0" IVar="2" Cut="3.8592694091796875e+02" cType="1" res="2.2445158101618290e-03" rms="4.6425065398216248e-01" purity="4.9727824330329895e-01" nType="0">
          <Node pos="l" depth="2" NCoef="0" IVar="5" Cut="-2.8423984050750732e+00" cType="1" res="4.4400203041732311e-03" rms="4.6592432260513306e-01" purity="5.0092864036560059e-01" nType="0">
            <Node pos="l" depth="3" NCoef="0" IVar="-1" Cut="0.0000000000000000e+00" cType="1" res="-2.1949214860796928e-02" rms="4.6607139706611633e-01" purity="5.2304130792617798e-01" nType="-99"/>
            <Node pos="r" depth="3" NCoef="0" IVar="-1" Cut="0.0000000000000000e+00" cType="1" res="6.2256273813545704e-03" rms="4.6585190296173096e-01" purity="4.9920943379402161e-01" nType="-99"/>
          </Node>
          <Node pos="r" depth="2" NCoef="0" IVar="-1" Cut="0.0000000000000000e+00" cType="1" res="-2.7038909029215574e-03" rms="4.3796744942665100e-01" purity="4.4422760605812073e-01" nType="-99"/>
        </Node>
        <Node pos="r" depth="1" NCoef="0" IVar="-1" Cut="0.0000000000000000e+00" cType="1" res="3.7581600248813629e-02" rms="4.6838274598121643e-01" purity="6.0860812664031982e-01" nType="-99"/>
      </Node>
    </BinaryTree>
    <BinaryTree type="DecisionTree" boostWeight="1.0000000000000000e+00" itree="144">
      <Node pos="s" depth="0" NCoef="0" IVar="6" Cut="-1.0471906661987305e+00" cType="1" res="0.0000000000000000e+00" rms="0.0000000000000000e+00" purity="5.0098609924316406e-01" nType="0">
        <Node pos="l" depth="1" NCoef="0" IVar="6" Cut="-1.4463863372802734e+00" cType="1" res="-1.5658674761652946e-02" rms="4.6659404039382935e-01" purity="4.7506168484687805e-01" nType="0">
          <Node pos="l" depth="2" NCoef="0" IVar="9" Cut="4.3438656250000000e+04" cType="1" res="-1.1701503768563271e-02" rms="4.7009778022766113e-01" purity="4.7260344028472900e-01" nType="0">
            <Node pos="l" depth="3" NCoef="0" IVar="-1" Cut="0.0000000000000000e+00" cType="1" res="-2.0174710080027580e-02" rms="4.6621051430702209e-01" purity="3.9064887166023254e-01" nType="-99"/>
            <Node pos="r" depth="3" NCoef="0" IVar="-1" Cut="0.0000000000000000e+00" cType="1" res="-5.4969391785562038e-03" rms="4.7567123174667358e-01" purity="5.9309118986129761e-01" nType="-99"/>
          </Node>
          <Node pos="r" depth="2" NCoef="0" IVar="-1" Cut="0.0000000000000000e+00" cType="1" res="-1.3775461353361607e-02" rms="4.3671479821205139e-01" purity="4.9445497989654541e-01" nType="-99"/>
        </Node>
        <Node pos="r" depth="1" NCoef="0" IVar="6" Cut="-2.4892218410968781e-01" cType="1" res="5.5779367685317993e-03" rms="4.5928296446800232e-01" purity="5.1806867122650146e-01" nType="0">
          <Node pos="l" depth="2" NCoef="0" IVar="-1" Cut="0.0000000000000000e+00" cType="1" res="3.8328085094690323e-02" rms="4.5353981852531433e-01" purity="6.1397409439086914e-01" nType="-99"/>
          <Node pos="r" depth="2" NCoef="0" IVar="6" Cut="1.8500645160675049e+00" cType="1" res="1.1824113316833973e-03" rms="4.5997461676597595e-01" purity="5.0372099876403809e-01" nType="0">
            <Node pos="l" depth="3" NCoef="0" IVar="-1" Cut="0.0000000000000000e+00" cType="1" res="-3.5786246880888939e-03" rms="4.4055604934692383e-01" purity="5.3538525104522705e-01" nType="-99"/>
            <Node pos="r" depth="3" NCoef="0" IVar="-1" Cut="0.0000000000000000e+00" cType="1" res="6.6861636005342007e-03" rms="4.7218000888824463e-01" purity="4.8287233710289001e-01" nType="-99"/>
          </Node>
        </Node>
      </Node>
    </BinaryTree>
    <BinaryTree type="DecisionTree" boostWeight="1.0000000000000000e+00" itree="145">
      <Node pos="s" depth="0" NCoef="0" IVar="5" Cut="-2.5432066917419434e+00" cType="1" res="-5.6953094899654388e-03" rms="4.6390590071678162e-01" purity="4.9535214900970459e-01" nType="0">
        <Node pos="l" depth="1" NCoef="0" IVar="9" Cut="4.3438894531250000e+04" cType="1" res="-1.9500739872455597e-02" rms="4.5994195342063904e-01" purity="5.0491368770599365e-01" nType="0">
          <Node pos="l" depth="2" NCoef="0" IVar="-1" Cut="0.0000000000000000e+00" cType="1" res="-3.2990821637213230e-03" rms="4.5711842179298401e-01" purity="3.6294829845428467e-01" nType="-99"/>
          <Node pos="r" depth="2" NCoef="0" IVar="-1" Cut="0.0000000000000000e+00" cType="1" res="1.1099933646619320e-02" rms="4.6079200506210327e-01" purity="6.3786309957504272e-01" nType="-99"/>
        </Node>
        <Node pos="r" depth="1" NCoef="0" IVar="5" Cut="-2.0016884803771973e+00" cType="1" res="-3.1430497765541077e-03" rms="4.6459007263183594e-01" purity="4.9358448386192322e-01" nType="0">
          <Node pos="l" depth="2" NCoef="0" IVar="3" Cut="4.6053013801574707e+00" cType="1" res="0.0000000000000000e+00" rms="0.0000000000000000e+00" purity="5.4164999723434448e-01" nType="0">
            <Node pos="l" depth="3" NCoef="0" IVar="-1" Cut="0.0000000000000000e+00" cType="1" res="4.1031006723642349e-02" rms="4.7567921876907349e-01" purity="5.2668023109436035e-01" nType="-99"/>
            <Node pos="r" depth="3" NCoef="0" IVar="-1" Cut="0.0000000000000000e+00" cType="1" res="6.9402493536472321e-03" rms="4.6020421385765076e-01" purity="5.6023168563842773e-01" nType="-99"/>
          </Node>
          <Node pos="r" depth="2" NCoef="0" IVar="1" Cut="2.6666250000000000e+05" cType="1" res="-7.3807295411825180e-03" rms="4.6372222900390625e-01" purity="4.8585051298141479e-01" nType="0">
            <Node pos="l" depth="3" NCoef="0" IVar="-1" Cut="0.0000000000000000e+00" cType="1" res="-7.7218306250870228e-03" rms="4.6567857265472412e-01" purity="4.9676075577735901e-01" nType="-99"/>
            <Node pos="r" depth="3" NCoef="0" IVar="-1" Cut="0.0000000000000000e+00" cType="1" res="3.1520806252956390e-02" rms="4.3616288900375366e-01" purity="3.4291407465934753e-01" nType="-99"/>
          </Node>
        </Node>
      </Node>
    </BinaryTree>
    <BinaryTree type="DecisionTree" boostWeight="1.0000000000000000e+00" itree="146">
      <Node pos="s" depth="0" NCoef="0" IVar="4" Cut="2.9747047424316406e+00" cType="1" res="-1.3416511006653309e-02" rms="4.6465677022933960e-01" purity="4.9034860730171204e-01" nType="0">
        <Node pos="l" depth="1" NCoef="0" IVar="3" Cut="5.6440114974975586e+00" cType="1" res="-4.1963057592511177e-03" rms="4.6601265668869019e-01" purity="5.0400274991989136e-01" nType="0">
          <Node pos="l" depth="2" NCoef="0" IVar="6" Cut="2.5430891513824463e+00" cType="1" res="2.0483171101659536e-03" rms="4.7253334522247314e-01" purity="5.0532603263854980e-01" nType="0">
            <Node pos="l" depth="3" NCoef="0" IVar="-1" Cut="0.0000000000000000e+00" cType="1" res="-3.2825942616909742e-03" rms="4.6939128637313843e-01" purity="5.0503486394882202e-01" nType="-99"/>
            <Node pos="r" depth="3" NCoef="0" IVar="-1" Cut="0.0000000000000000e+00" cType="1" res="3.9715807884931564e-02" rms="4.8794496059417725e-01" purity="5.0688946247100830e-01" nType="-99"/>
          </Node>
          <Node pos="r" depth="2" NCoef="0" IVar="0" Cut="2.2095431250000000e+05" cType="1" res="-1.4066021889448166e-02" rms="4.5534163713455200e-01" purity="5.0191110372543335e-01" nType="0">
            <Node pos="l" depth="3" NCoef="0" IVar="-1" Cut="0.0000000000000000e+00" cType="1" res="-2.3342192173004150e-02" rms="4.6171933412551880e-01" purity="4.5172342658042908e-01" nType="-99"/>
            <Node pos="r" depth="3" NCoef="0" IVar="-1" Cut="0.0000000000000000e+00" cType="1" res="2.5442142505198717e-03" rms="4.4084727764129639e-01" purity="6.1027216911315918e-01" nType="-99"/>
          </Node>
        </Node>
        <Node pos="r" depth="1" NCoef="0" IVar="6" Cut="7.4796485900878906e-01" cType="1" res="-5.9455201029777527e-02" rms="4.5503962039947510e-01" purity="4.2217049002647400e-01" nType="0">
          <Node pos="l" depth="2" NCoef="0" IVar="-1" Cut="0.0000000000000000e+00" cType="1" res="-1.0771729284897447e-03" rms="4.6489948034286499e-01" purity="5.1290935277938843e-01" nType="-99"/>
          <Node pos="r" depth="2" NCoef="0" IVar="-1" Cut="0.0000000000000000e+00" cType="1" res="-3.4190237056463957e-03" rms="4.3914204835891724e-01" purity="3.3956342935562134e-01" nType="-99"/>
        </Node>
      </Node>
    </BinaryTree>
    <BinaryTree type="DecisionTree" boostWeight="1.0000000000000000e+00" itree="147">
      <Node pos="s" depth="0" NCoef="0" IVar="4" Cut="2.7320413589477539e+00" cType="1" res="-5.4058451205492020e-03" rms="4.6588313579559326e-01" purity="4.9989181756973267e-01" nType="0">
        <Node pos="l" depth="1" NCoef="0" IVar="7" Cut="6.0000000000000000e+00" cType="1" res="-4.5282085193321109e-04" rms="4.6742013096809387e-01" purity="5.0138235092163086e-01" nType="0">
          <Node pos="l" depth="2" NCoef="0" IVar="5" Cut="1.9446681737899780e+00" cType="1" res="3.1429650261998177e-03" rms="4.6955007314682007e-01" purity="4.6533590555191040e-01" nType="0">
            <Node pos="l" depth="3" NCoef="0" IVar="-1" Cut="0.0000000000000000e+00" cType="1" res="7.4280882254242897e-03" rms="4.7142446041107178e-01" purity="4.5239567756652832e-01" nType="-99"/>
            <Node pos="r" depth="3" NCoef="0" IVar="-1" Cut="0.0000000000000000e+00" cType="1" res="-1.4787788502871990e-02" rms="4.6401137113571167e-01" purity="5.0090181827545166e-01" nType="-99"/>
          </Node>
          <Node pos="r" depth="2" NCoef="0" IVar="5" Cut="2.2437117099761963e+00" cType="1" res="-1.0675216093659401e-02" rms="4.6122547984123230e-01" purity="6.0329896211624146e-01" nType="0">
            <Node pos="l" depth="3" NCoef="0" IVar="-1" Cut="0.0000000000000000e+00" cType="1" res="-2.0941354334354401e-02" rms="4.6053665876388550e-01" purity="5.9682816267013550e-01" nType="-99"/>
            <Node pos="r" depth="3" NCoef="0" IVar="-1" Cut="0.0000000000000000e+00" cType="1" res="1.0662415996193886e-02" rms="4.6301659941673279e-01" purity="6.2604463100433350e-01" nType="-99"/>
          </Node>
        </Node>
        <Node pos="r" depth="1" NCoef="0" IVar="3" Cut="6.4454283714294434e+00" cType="1" res="0.0000000000000000e+00" rms="0.0000000000000000e+00" purity="4.9536681175231934e-01" nType="0">
          <Node pos="l" depth="2" NCoef="0" IVar="0" Cut="1.4936517187500000e+05" cType="1" res="-3.0929109081625938e-02" rms="4.6239531040191650e-01" purity="4.5916292071342468e-01" nType="0">
            <Node pos="l" depth="3" NCoef="0" IVar="-1" Cut="0.0000000000000000e+00" cType="1" res="-3.4793573431670666e-03" rms="4.6365812420845032e-01" purity="4.0001419186592102e-01" nType="-99"/>
            <Node pos="r" depth="3" NCoef="0" IVar="-1" Cut="0.0000000000000000e+00" cType="1" res="5.2500255405902863e-03" rms="4.5803242921829224e-01" purity="5.6333512067794800e-01" nType="-99"/>
          </Node>
          <Node pos="r" depth="2" NCoef="0" IVar="-1" Cut="0.0000000000000000e+00" cType="1" res="9.2632593587040901e-03" rms="4.5544314384460449e-01" purity="5.9216636419296265e-01" nType="-99"/>
        </Node>
      </Node>
    </BinaryTree>
    <BinaryTree type="DecisionTree" boostWeight="1.0000000000000000e+00" itree="148">
      <Node pos="s" depth="0" NCoef="0" IVar="5" Cut="1.3461883068084717e+00" cType="1" res="0.0000000000000000e+00" rms="0.0000000000000000e+00" purity="4.9772772192955017e-01" nType="0">
        <Node pos="l" depth="1" NCoef="0" IVar="6" Cut="2.5431120395660400e+00" cType="1" res="0.0000000000000000e+00" rms="0.0000000000000000e+00" purity="4.7802597284317017e-01" nType="0">
          <Node pos="l" depth="2" NCoef="0" IVar="2" Cut="1.8002693176269531e+02" cType="1" res="-8.7514761835336685e-03" rms="4.6331027150154114e-01" purity="4.9366322159767151e-01" nType="0">
            <Node pos="l" depth="3" NCoef="0" IVar="-1" Cut="0.0000000000000000e+00" cType="1" res="3.7387739866971970e-03" rms="4.6227484941482544e-01" purity="5.2614200115203857e-01" nType="-99"/>
            <Node pos="r" depth="3" NCoef="0" IVar="-1" Cut="0.0000000000000000e+00" cType="1" res="-4.5867455191910267e-03" rms="4.6389880776405334e-01" purity="4.6819970011711121e-01" nType="-99"/>
          </Node>
          <Node pos="r" depth="2" NCoef="0" IVar="7" Cut="5.0000000000000000e+00" cType="1" res="-3.5268075764179230e-02" rms="4.6576640009880066e-01" purity="3.9561125636100769e-01" nType="0">
            <Node pos="l" depth="3" NCoef="0" IVar="-1" Cut="0.0000000000000000e+00" cType="1" res="-9.5515623688697815e-03" rms="4.6269690990447998e-01" purity="3.8729962706565857e-01" nType="-99"/>
            <Node pos="r" depth="3" NCoef="0" IVar="-1" Cut="0.0000000000000000e+00" cType="1" res="-2.0939987152814865e-02" rms="4.6749979257583618e-01" purity="4.0502569079399109e-01" nType="-99"/>
          </Node>
        </Node>
        <Node pos="r" depth="1" NCoef="0" IVar="3" Cut="6.1809620857238770e+00" cType="1" res="0.0000000000000000e+00" rms="0.0000000000000000e+00" purity="5.3206694126129150e-01" nType="0">
          <Node pos="l" depth="2" NCoef="0" IVar="4" Cut="1.6697343587875366e+00" cType="1" res="3.8076119381003082e-04" rms="4.6754956245422363e-01" purity="5.1167815923690796e-01" nType="0">
            <Node pos="l" depth="3" NCoef="0" IVar="-1" Cut="0.0000000000000000e+00" cType="1" res="2.4050159379839897e-02" rms="4.6627795696258545e-01" purity="5.1967340707778931e-01" nType="-99"/>
            <Node pos="r" depth="3" NCoef="0" IVar="-1" Cut="0.0000000000000000e+00" cType="1" res="-1.8321545794606209e-02" rms="4.6781501173973083e-01" purity="5.0588893890380859e-01" nType="-99"/>
          </Node>
          <Node pos="r" depth="2" NCoef="0" IVar="6" Cut="2.2434473037719727e+00" cType="1" res="3.0540909618139267e-02" rms="4.5271876454353333e-01" purity="5.7710593938827515e-01" nType="0">
            <Node pos="l" depth="3" NCoef="0" IVar="-1" Cut="0.0000000000000000e+00" cType="1" res="1.9907962530851364e-02" rms="4.3552780151367188e-01" purity="5.6766593456268311e-01" nType="-99"/>
            <Node pos="r" depth="3" NCoef="0" IVar="-1" Cut="0.0000000000000000e+00" cType="1" res="5.1406070590019226e-02" rms="4.7643348574638367e-01" purity="5.9120124578475952e-01" nType="-99"/>
          </Node>
        </Node>
      </Node>
    </BinaryTree>
    <BinaryTree type="DecisionTree" boostWeight="1.0000000000000000e+00" itree="149">
      <Node pos="s" depth="0" NCoef="0" IVar="4" Cut="3.0050628185272217e+00" cType="1" res="-3.0177584849298000e-03" rms="4.6502286195755005e-01" purity="4.9545300006866455e-01" nType="0">
        <Node pos="l" depth="1" NCoef="0" IVar="7" Cut="6.0000000000000000e+00" cType="1" res="6.1347201699391007e-04" rms="4.6702539920806885e-01" purity="5.0548726320266724e-01" nType="0">
          <Node pos="l" depth="2" NCoef="0" IVar="5" Cut="2.8421247005462646e+00" cType="1" res="4.3008988723158836e-03" rms="4.6896791458129883e-01" purity="4.7149223089218140e-01" nType="0">
            <Node pos="l" depth="3" NCoef="0" IVar="-1" Cut="0.0000000000000000e+00" cType="1" res="6.8399589508771896e-03" rms="4.6935573220252991e-01" purity="4.6902763843536377e-01" nType="-99"/>
            <Node pos="r" depth="3" NCoef="0" IVar="-1" Cut="0.0000000000000000e+00" cType="1" res="-5.6989870965480804e-02" rms="4.6113336086273193e-01" purity="5.0496309995651245e-01" nType="-99"/>
          </Node>
          <Node pos="r" depth="2" NCoef="0" IVar="9" Cut="4.4811339843750000e+04" cType="1" res="-9.5452470704913139e-03" rms="4.6148595213890076e-01" purity="5.9907615184783936e-01" nType="0">
            <Node pos="l" depth="3" NCoef="0" IVar="-1" Cut="0.0000000000000000e+00" cType="1" res="-2.6555517688393593e-02" rms="4.7558087110519409e-01" purity="4.6387958526611328e-01" nType="-99"/>
            <Node pos="r" depth="3" NCoef="0" IVar="-1" Cut="0.0000000000000000e+00" cType="1" res="-4.7734049148857594e-03" rms="4.5675548911094666e-01" purity="6.4220643043518066e-01" nType="-99"/>
          </Node>
        </Node>
        <Node pos="r" depth="1" NCoef="0" IVar="6" Cut="1.3459523916244507e+00" cType="1" res="-2.4717971682548523e-02" rms="4.5225262641906738e-01" purity="4.3545696139335632e-01" nType="0">
          <Node pos="l" depth="2" NCoef="0" IVar="-1" Cut="0.0000000000000000e+00" cType="1" res="-1.1609083041548729e-02" rms="4.6966588497161865e-01" purity="5.0414198637008667e-01" nType="-99"/>
          <Node pos="r" depth="2" NCoef="0" IVar="-1" Cut="0.0000000000000000e+00" cType="1" res="-3.8575017824769020e-03" rms="4.2686396837234497e-01" purity="3.4316679835319519e-01" nType="-99"/>
        </Node>
      </Node>
    </BinaryTree>
    <BinaryTree type="DecisionTree" boostWeight="1.0000000000000000e+00" itree="150">
      <Node pos="s" depth="0" NCoef="0" IVar="4" Cut="3.2711985111236572e+00" cType="1" res="-4.0683923289179802e-03" rms="4.6349406242370605e-01" purity="4.9778902530670166e-01" nType="0">
        <Node pos="l" depth="1" NCoef="0" IVar="7" Cut="7.0000000000000000e+00" cType="1" res="8.2590826787054539e-04" rms="4.6546837687492371e-01" purity="5.1200759410858154e-01" nType="0">
          <Node pos="l" depth="2" NCoef="0" IVar="3" Cut="-1.2848401069641113e+00" cType="1" res="-1.8515503033995628e-03" rms="4.6688109636306763e-01" purity="4.9689000844955444e-01" nType="0">
            <Node pos="l" depth="3" NCoef="0" IVar="-1" Cut="0.0000000000000000e+00" cType="1" res="2.5036925449967384e-02" rms="4.8142760992050171e-01" purity="4.5654869079589844e-01" nType="-99"/>
            <Node pos="r" depth="3" NCoef="0" IVar="-1" Cut="0.0000000000000000e+00" cType="1" res="-3.6697487812489271e-03" rms="4.6573701500892639e-01" purity="4.9984419345855713e-01" nType="-99"/>
          </Node>
          <Node pos="r" depth="2" NCoef="0" IVar="5" Cut="-1.4964814484119415e-01" cType="1" res="2.2815614938735962e-02" rms="4.5310360193252563e-01" purity="6.3630145788192749e-01" nType="0">
            <Node pos="l" depth="3" NCoef="0" IVar="-1" Cut="0.0000000000000000e+00" cType="1" res="1.0356819257140160e-02" rms="4.5138156414031982e-01" purity="6.2222987413406372e-01" nType="-99"/>
            <Node pos="r" depth="3" NCoef="0" IVar="-1" Cut="0.0000000000000000e+00" cType="1" res="4.1207667440176010e-02" rms="4.5432022213935852e-01" purity="6.4967036247253418e-01" nType="-99"/>
          </Node>
        </Node>
        <Node pos="r" depth="1" NCoef="0" IVar="-1" Cut="0.0000000000000000e+00" cType="1" res="-2.4244158994406462e-03" rms="4.2870271205902100e-01" purity="2.9694524407386780e-01" nType="-99"/>
      </Node>
    </BinaryTree>
    <BinaryTree type="DecisionTree" boostWeight="1.0000000000000000e+00" itree="151">
      <Node pos="s" depth="0" NCoef="0" IVar="5" Cut="-2.2440147399902344e+00" cType="1" res="-2.5433456175960600e-04" rms="4.6616274118423462e-01" purity="5.0221353769302368e-01" nType="0">
        <Node pos="l" depth="1" NCoef="0" IVar="6" Cut="-1.6457613706588745e+00" cType="1" res="-1.6670228913426399e-02" rms="4.6454256772994995e-01" purity="5.1824837923049927e-01" nType="0">
          <Node pos="l" depth="2" NCoef="0" IVar="2" Cut="2.3426841735839844e+02" cType="1" res="3.1182207167148590e-03" rms="4.8021429777145386e-01" purity="5.2009159326553345e-01" nType="0">
            <Node pos="l" depth="3" NCoef="0" IVar="-1" Cut="0.0000000000000000e+00" cType="1" res="1.8274020403623581e-02" rms="4.7898826003074646e-01" purity="5.1495432853698730e-01" nType="-99"/>
            <Node pos="r" depth="3" NCoef="0" IVar="-1" Cut="0.0000000000000000e+00" cType="1" res="-1.0737261734902859e-02" rms="4.8136106133460999e-01" purity="5.2675068378448486e-01" nType="-99"/>
          </Node>
          <Node pos="r" depth="2" NCoef="0" IVar="5" Cut="-2.7569363117218018e+00" cType="1" res="-3.1867813318967819e-02" rms="4.5154964923858643e-01" purity="5.1683276891708374e-01" nType="0">
            <Node pos="l" depth="3" NCoef="0" IVar="-1" Cut="0.0000000000000000e+00" cType="1" res="-4.0401341393589973e-03" rms="4.5402219891548157e-01" purity="4.7485682368278503e-01" nType="-99"/>
            <Node pos="r" depth="3" NCoef="0" IVar="-1" Cut="0.0000000000000000e+00" cType="1" res="-6.1015179380774498e-03" rms="4.4752356410026550e-01" purity="5.5901652574539185e-01" nType="-99"/>
          </Node>
        </Node>
        <Node pos="r" depth="1" NCoef="0" IVar="6" Cut="1.6455230712890625e+00" cType="1" res="4.5661688782274723e-03" rms="4.6652773022651672e-01" purity="4.9750491976737976e-01" nType="0">
          <Node pos="l" depth="2" NCoef="0" IVar="7" Cut="7.0000000000000000e+00" cType="1" res="1.2423088774085045e-02" rms="4.6020811796188354e-01" purity="5.2645653486251831e-01" nType="0">
            <Node pos="l" depth="3" NCoef="0" IVar="-1" Cut="0.0000000000000000e+00" cType="1" res="1.8442403525114059e-02" rms="4.6055150032043457e-01" purity="5.1080781221389771e-01" nType="-99"/>
            <Node pos="r" depth="3" NCoef="0" IVar="-1" Cut="0.0000000000000000e+00" cType="1" res="-1.5938416123390198e-02" rms="4.5717984437942505e-01" purity="6.2648999691009521e-01" nType="-99"/>
          </Node>
          <Node pos="r" depth="2" NCoef="0" IVar="7" Cut="6.0000000000000000e+00" cType="1" res="-7.1485461667180061e-03" rms="4.7552821040153503e-01" purity="4.5440420508384705e-01" nType="0">
            <Node pos="l" depth="3" NCoef="0" IVar="-1" Cut="0.0000000000000000e+00" cType="1" res="5.6675761006772518e-03" rms="4.7524982690811157e-01" purity="4.5509049296379089e-01" nType="-99"/>
            <Node pos="r" depth="3" NCoef="0" IVar="-1" Cut="0.0000000000000000e+00" cType="1" res="-5.8877901174128056e-03" rms="4.7326236963272095e-01" purity="4.5157372951507568e-01" nType="-99"/>
          </Node>
        </Node>
      </Node>
    </BinaryTree>
    <BinaryTree type="DecisionTree" boostWeight="1.0000000000000000e+00" itree="152">
      <Node pos="s" depth="0" NCoef="0" IVar="4" Cut="3.2324471473693848e+00" cType="1" res="-4.9857017584145069e-03" rms="4.6442088484764099e-01" purity="5.0159579515457153e-01" nType="0">
        <Node pos="l" depth="1" NCoef="0" IVar="0" Cut="2.2677807812500000e+05" cType="1" res="-6.8091731518507004e-03" rms="4.6558254957199097e-01" purity="5.0745183229446411e-01" nType="0">
          <Node pos="l" depth="2" NCoef="0" IVar="0" Cut="1.4542967187500000e+05" cType="1" res="-4.2086387984454632e-03" rms="4.6822038292884827e-01" purity="4.9435192346572876e-01" nType="0">
            <Node pos="l" depth="3" NCoef="0" IVar="-1" Cut="0.0000000000000000e+00" cType="1" res="-1.1421222239732742e-02" rms="4.7577059268951416e-01" purity="4.4997456669807434e-01" nType="-99"/>
            <Node pos="r" depth="3" NCoef="0" IVar="-1" Cut="0.0000000000000000e+00" cType="1" res="1.0780074633657932e-02" rms="4.6070903539657593e-01" purity="5.3554189205169678e-01" nType="-99"/>
          </Node>
          <Node pos="r" depth="2" NCoef="0" IVar="3" Cut="1.1422123908996582e+01" cType="1" res="-2.6085739955306053e-02" rms="4.4506934285163879e-01" purity="6.0455536842346191e-01" nType="0">
            <Node pos="l" depth="3" NCoef="0" IVar="-1" Cut="0.0000000000000000e+00" cType="1" res="-1.0036885738372803e-01" rms="4.3319073319435120e-01" purity="6.6326475143432617e-01" nType="-99"/>
            <Node pos="r" depth="3" NCoef="0" IVar="-1" Cut="0.0000000000000000e+00" cType="1" res="8.2479119300842285e-03" rms="4.5438039302825928e-01" purity="5.4632031917572021e-01" nType="-99"/>
          </Node>
        </Node>
        <Node pos="r" depth="1" NCoef="0" IVar="-1" Cut="0.0000000000000000e+00" cType="1" res="5.4401564411818981e-03" rms="4.4525432586669922e-01" purity="4.1162076592445374e-01" nType="-99"/>
      </Node>
    </BinaryTree>
    <BinaryTree type="DecisionTree" boostWeight="1.0000000000000000e+00" itree="153">
      <Node pos="s" depth="0" NCoef="0" IVar="4" Cut="2.9747047424316406e+00" cType="1" res="-5.7504442520439625e-03" rms="4.6277618408203125e-01" purity="4.9922916293144226e-01" nType="0">
        <Node pos="l" depth="1" NCoef="0" IVar="7" Cut="6.0000000000000000e+00" cType="1" res="3.8975009374553338e-05" rms="4.6329599618911743e-01" purity="5.0912469625473022e-01" nType="0">
          <Node pos="l" depth="2" NCoef="0" IVar="1" Cut="2.6666246875000000e+05" cType="1" res="-4.7965282574295998e-03" rms="4.6665194630622864e-01" purity="4.6814665198326111e-01" nType="0">
            <Node pos="l" depth="3" NCoef="0" IVar="-1" Cut="0.0000000000000000e+00" cType="1" res="-7.9083126038312912e-03" rms="4.6851745247840881e-01" purity="4.7917965054512024e-01" nType="-99"/>
            <Node pos="r" depth="3" NCoef="0" IVar="-1" Cut="0.0000000000000000e+00" cType="1" res="3.7627018988132477e-02" rms="4.4134914875030518e-01" purity="3.3219408988952637e-01" nType="-99"/>
          </Node>
          <Node pos="r" depth="2" NCoef="0" IVar="3" Cut="7.8510475158691406e+00" cType="1" res="1.3387538492679596e-02" rms="4.5363017916679382e-01" purity="6.2267404794692993e-01" nType="0">
            <Node pos="l" depth="3" NCoef="0" IVar="-1" Cut="0.0000000000000000e+00" cType="1" res="2.1474599838256836e-02" rms="4.5995306968688965e-01" purity="6.2119776010513306e-01" nType="-99"/>
            <Node pos="r" depth="3" NCoef="0" IVar="-1" Cut="0.0000000000000000e+00" cType="1" res="-1.5759063884615898e-02" rms="4.2813879251480103e-01" purity="6.2821203470230103e-01" nType="-99"/>
          </Node>
        </Node>
        <Node pos="r" depth="1" NCoef="0" IVar="7" Cut="6.0000000000000000e+00" cType="1" res="-3.6723796278238297e-02" rms="4.5869630575180054e-01" purity="4.4616517424583435e-01" nType="0">
          <Node pos="l" depth="2" NCoef="0" IVar="8" Cut="6.2782535156250000e+04" cType="1" res="-1.2321139685809612e-02" rms="4.6063673496246338e-01" purity="4.3192398548126221e-01" nType="0">
            <Node pos="l" depth="3" NCoef="0" IVar="-1" Cut="0.0000000000000000e+00" cType="1" res="-5.8635985478758812e-03" rms="4.4622671604156494e-01" purity="3.4543392062187195e-01" nType="-99"/>
            <Node pos="r" depth="3" NCoef="0" IVar="-1" Cut="0.0000000000000000e+00" cType="1" res="3.1676429789513350e-03" rms="4.7918152809143066e-01" purity="5.5010473728179932e-01" nType="-99"/>
          </Node>
          <Node pos="r" depth="2" NCoef="0" IVar="-1" Cut="0.0000000000000000e+00" cType="1" res="-3.9603929035365582e-03" rms="4.4959199428558350e-01" purity="4.7792881727218628e-01" nType="-99"/>
        </Node>
      </Node>
    </BinaryTree>
    <BinaryTree type="DecisionTree" boostWeight="1.0000000000000000e+00" itree="154">
      <Node pos="s" depth="0" NCoef="0" IVar="4" Cut="2.9616189002990723e+00" cType="1" res="-6.4787669107317924e-03" rms="4.6474802494049072e-01" purity="4.9577653408050537e-01" nType="0">
        <Node pos="l" depth="1" NCoef="0" IVar="5" Cut="7.4790275096893311e-01" cType="1" res="-2.3112965282052755e-03" rms="4.6569818258285522e-01" purity="5.0458258390426636e-01" nType="0">
          <Node pos="l" depth="2" NCoef="0" IVar="4" Cut="7.7229273319244385e-01" cType="1" res="-8.4383087232708931e-03" rms="4.6507316827774048e-01" purity="4.8823192715644836e-01" nType="0">
            <Node pos="l" depth="3" NCoef="0" IVar="-1" Cut="0.0000000000000000e+00" cType="1" res="-4.2900774627923965e-02" rms="4.6574667096138000e-01" purity="4.1667610406875610e-01" nType="-99"/>
            <Node pos="r" depth="3" NCoef="0" IVar="-1" Cut="0.0000000000000000e+00" cType="1" res="-3.8498265203088522e-03" rms="4.6483784914016724e-01" purity="4.9941501021385193e-01" nType="-99"/>
          </Node>
          <Node pos="r" depth="2" NCoef="0" IVar="2" Cut="3.6192538452148438e+02" cType="1" res="0.0000000000000000e+00" rms="0.0000000000000000e+00" purity="5.2633249759674072e-01" nType="0">
            <Node pos="l" depth="3" NCoef="0" IVar="-1" Cut="0.0000000000000000e+00" cType="1" res="2.0602513104677200e-03" rms="4.6675863862037659e-01" purity="5.1600533723831177e-01" nType="-99"/>
            <Node pos="r" depth="3" NCoef="0" IVar="-1" Cut="0.0000000000000000e+00" cType="1" res="4.0473505854606628e-02" rms="4.6275201439857483e-01" purity="6.0323625802993774e-01" nType="-99"/>
          </Node>
        </Node>
        <Node pos="r" depth="1" NCoef="0" IVar="6" Cut="1.3462014198303223e+00" cType="1" res="-2.8311453759670258e-02" rms="4.5912045240402222e-01" purity="4.4964283704757690e-01" nType="0">
          <Node pos="l" depth="2" NCoef="0" IVar="2" Cut="1.8732751464843750e+02" cType="1" res="8.2113360986113548e-03" rms="4.6404111385345459e-01" purity="5.2466529607772827e-01" nType="0">
            <Node pos="l" depth="3" NCoef="0" IVar="-1" Cut="0.0000000000000000e+00" cType="1" res="-8.6064059287309647e-03" rms="4.5897045731544495e-01" purity="5.3705894947052002e-01" nType="-99"/>
            <Node pos="r" depth="3" NCoef="0" IVar="-1" Cut="0.0000000000000000e+00" cType="1" res="2.5997493416070938e-02" rms="4.6812164783477783e-01" purity="5.1325643062591553e-01" nType="-99"/>
          </Node>
          <Node pos="r" depth="2" NCoef="0" IVar="-1" Cut="0.0000000000000000e+00" cType="1" res="-5.1894700154662132e-03" rms="4.4784343242645264e-01" purity="3.4944480657577515e-01" nType="-99"/>
        </Node>
      </Node>
    </BinaryTree>
    <BinaryTree type="DecisionTree" boostWeight="1.0000000000000000e+00" itree="155">
      <Node pos="s" depth="0" NCoef="0" IVar="6" Cut="2.2439208030700684e+00" cType="1" res="6.3095847144722939e-03" rms="4.6618732810020447e-01" purity="5.0818610191345215e-01" nType="0">
        <Node pos="l" depth="1" NCoef="0" IVar="4" Cut="1.6819379329681396e+00" cType="1" res="0.0000000000000000e+00" rms="0.0000000000000000e+00" purity="5.2209693193435669e-01" nType="0">
          <Node pos="l" depth="2" NCoef="0" IVar="9" Cut="6.3587484375000000e+04" cType="1" res="0.0000000000000000e+00" rms="0.0000000000000000e+00" purity="4.9390685558319092e-01" nType="0">
            <Node pos="l" depth="3" NCoef="0" IVar="-1" Cut="0.0000000000000000e+00" cType="1" res="3.3876292407512665e-02" rms="4.6853217482566833e-01" purity="4.4141724705696106e-01" nType="-99"/>
            <Node pos="r" depth="3" NCoef="0" IVar="-1" Cut="0.0000000000000000e+00" cType="1" res="-3.6531961522996426e-03" rms="4.5272275805473328e-01" purity="6.6119730472564697e-01" nType="-99"/>
          </Node>
          <Node pos="r" depth="2" NCoef="0" IVar="2" Cut="3.6449957275390625e+02" cType="1" res="5.3045656532049179e-03" rms="4.6142101287841797e-01" purity="5.4494076967239380e-01" nType="0">
            <Node pos="l" depth="3" NCoef="0" IVar="-1" Cut="0.0000000000000000e+00" cType="1" res="7.9181501641869545e-03" rms="4.6143266558647156e-01" purity="5.4680085182189941e-01" nType="-99"/>
            <Node pos="r" depth="3" NCoef="0" IVar="-1" Cut="0.0000000000000000e+00" cType="1" res="-4.0303487330675125e-03" rms="4.6045425534248352e-01" purity="5.2923905849456787e-01" nType="-99"/>
          </Node>
        </Node>
        <Node pos="r" depth="1" NCoef="0" IVar="7" Cut="6.0000000000000000e+00" cType="1" res="-1.0295676998794079e-02" rms="4.7496828436851501e-01" purity="4.6656838059425354e-01" nType="0">
          <Node pos="l" depth="2" NCoef="0" IVar="3" Cut="4.8995175361633301e+00" cType="1" res="1.7306341032963246e-04" rms="4.7352561354637146e-01" purity="4.6742764115333557e-01" nType="0">
            <Node pos="l" depth="3" NCoef="0" IVar="-1" Cut="0.0000000000000000e+00" cType="1" res="1.4650316908955574e-02" rms="4.7820055484771729e-01" purity="4.6732279658317566e-01" nType="-99"/>
            <Node pos="r" depth="3" NCoef="0" IVar="-1" Cut="0.0000000000000000e+00" cType="1" res="-1.6267193481326103e-02" rms="4.6840259432792664e-01" purity="4.6752935647964478e-01" nType="-99"/>
          </Node>
          <Node pos="r" depth="2" NCoef="0" IVar="-1" Cut="0.0000000000000000e+00" cType="1" res="-4.3674032203853130e-03" rms="4.7854536771774292e-01" purity="4.6306407451629639e-01" nType="-99"/>
        </Node>
      </Node>
    </BinaryTree>
    <BinaryTree type="DecisionTree" boostWeight="1.0000000000000000e+00" itree="156">
      <Node pos="s" depth="0" NCoef="0" IVar="9" Cut="8.7433531250000000e+04" cType="1" res="-8.3594154566526413e-03" rms="4.6502491831779480e-01" purity="4.9920609593391418e-01" nType="0">
        <Node pos="l" depth="1" NCoef="0" IVar="5" Cut="-1.3465642929077148e+00" cType="1" res="-1.1096626520156860e-02" rms="4.6844398975372314e-01" purity="4.7829353809356689e-01" nType="0">
          <Node pos="l" depth="2" NCoef="0" IVar="6" Cut="4.4862404465675354e-01" cType="1" res="-2.4472501128911972e-02" rms="4.7095087170600891e-01" purity="4.8118719458580017e-01" nType="0">
            <Node pos="l" depth="3" NCoef="0" IVar="-1" Cut="0.0000000000000000e+00" cType="1" res="-1.2003331445157528e-02" rms="4.7418037056922913e-01" purity="4.6684503555297852e-01" nType="-99"/>
            <Node pos="r" depth="3" NCoef="0" IVar="-1" Cut="0.0000000000000000e+00" cType="1" res="-4.1343425400555134e-03" rms="4.5562750101089478e-01" purity="5.3933125734329224e-01" nType="-99"/>
          </Node>
          <Node pos="r" depth="2" NCoef="0" IVar="5" Cut="2.7136282920837402e+00" cType="1" res="-3.3282516524195671e-03" rms="4.6680596470832825e-01" purity="4.7661295533180237e-01" nType="0">
            <Node pos="l" depth="3" NCoef="0" IVar="-1" Cut="0.0000000000000000e+00" cType="1" res="2.4822747800499201e-03" rms="4.6735206246376038e-01" purity="4.7126600146293640e-01" nType="-99"/>
            <Node pos="r" depth="3" NCoef="0" IVar="-1" Cut="0.0000000000000000e+00" cType="1" res="-2.9299488291144371e-02" rms="4.6295318007469177e-01" purity="5.0385946035385132e-01" nType="-99"/>
          </Node>
        </Node>
        <Node pos="r" depth="1" NCoef="0" IVar="5" Cut="1.4786934852600098e-01" cType="1" res="0.0000000000000000e+00" rms="0.0000000000000000e+00" purity="7.3094743490219116e-01" nType="0">
          <Node pos="l" depth="2" NCoef="0" IVar="-1" Cut="0.0000000000000000e+00" cType="1" res="2.5951607152819633e-02" rms="4.2194294929504395e-01" purity="7.2728335857391357e-01" nType="-99"/>
          <Node pos="r" depth="2" NCoef="0" IVar="-1" Cut="0.0000000000000000e+00" cType="1" res="2.6032414287328720e-02" rms="4.2625337839126587e-01" purity="7.3456358909606934e-01" nType="-99"/>
        </Node>
      </Node>
    </BinaryTree>
    <BinaryTree type="DecisionTree" boostWeight="1.0000000000000000e+00" itree="157">
      <Node pos="s" depth="0" NCoef="0" IVar="7" Cut="5.0000000000000000e+00" cType="1" res="-3.1762348953634501e-03" rms="4.6397933363914490e-01" purity="5.0435525178909302e-01" nType="0">
        <Node pos="l" depth="1" NCoef="0" IVar="5" Cut="-7.4814325571060181e-01" cType="1" res="5.8114891871809959e-03" rms="4.6885177493095398e-01" purity="4.3255382776260376e-01" nType="0">
          <Node pos="l" depth="2" NCoef="0" IVar="5" Cut="-1.5461083650588989e+00" cType="1" res="1.9053101539611816e-02" rms="4.7390767931938171e-01" purity="4.5265710353851318e-01" nType="0">
            <Node pos="l" depth="3" NCoef="0" IVar="-1" Cut="0.0000000000000000e+00" cType="1" res="1.6390984877943993e-02" rms="4.7613754868507385e-01" purity="4.5910793542861938e-01" nType="-99"/>
            <Node pos="r" depth="3" NCoef="0" IVar="-1" Cut="0.0000000000000000e+00" cType="1" res="4.3542303144931793e-02" rms="4.6578231453895569e-01" purity="4.3057501316070557e-01" nType="-99"/>
          </Node>
          <Node pos="r" depth="2" NCoef="0" IVar="8" Cut="4.9062648437500000e+04" cType="1" res="-4.6136765740811825e-03" rms="4.6456706523895264e-01" purity="4.1672641038894653e-01" nType="0">
            <Node pos="l" depth="3" NCoef="0" IVar="-1" Cut="0.0000000000000000e+00" cType="1" res="-2.2047484293580055e-02" rms="4.4706657528877258e-01" purity="3.1025967001914978e-01" nType="-99"/>
            <Node pos="r" depth="3" NCoef="0" IVar="-1" Cut="0.0000000000000000e+00" cType="1" res="1.3970087282359600e-02" rms="4.8099672794342041e-01" purity="5.2443021535873413e-01" nType="-99"/>
          </Node>
        </Node>
        <Node pos="r" depth="1" NCoef="0" IVar="4" Cut="2.7320413589477539e+00" cType="1" res="-1.0088818147778511e-02" rms="4.6008476614952087e-01" purity="5.5952757596969604e-01" nType="0">
          <Node pos="l" depth="2" NCoef="0" IVar="2" Cut="2.6794769287109375e+02" cType="1" res="0.0000000000000000e+00" rms="0.0000000000000000e+00" purity="5.6568473577499390e-01" nType="0">
            <Node pos="l" depth="3" NCoef="0" IVar="-1" Cut="0.0000000000000000e+00" cType="1" res="2.3372941650450230e-03" rms="4.6357181668281555e-01" purity="5.7108151912689209e-01" nType="-99"/>
            <Node pos="r" depth="3" NCoef="0" IVar="-1" Cut="0.0000000000000000e+00" cType="1" res="-2.2656805813312531e-02" rms="4.5846679806709290e-01" purity="5.2648162841796875e-01" nType="-99"/>
          </Node>
          <Node pos="r" depth="2" NCoef="0" IVar="6" Cut="1.6449791193008423e+00" cType="1" res="-2.9031112790107727e-02" rms="4.5045900344848633e-01" purity="5.4183244705200195e-01" nType="0">
            <Node pos="l" depth="3" NCoef="0" IVar="-1" Cut="0.0000000000000000e+00" cType="1" res="-1.2903325259685516e-02" rms="4.4912391901016235e-01" purity="5.9664863348007202e-01" nType="-99"/>
            <Node pos="r" depth="3" NCoef="0" IVar="-1" Cut="0.0000000000000000e+00" cType="1" res="-4.4955750927329063e-03" rms="4.5104804635047913e-01" purity="4.2460653185844421e-01" nType="-99"/>
          </Node>
        </Node>
      </Node>
    </BinaryTree>
    <BinaryTree type="DecisionTree" boostWeight="1.0000000000000000e+00" itree="158">
      <Node pos="s" depth="0" NCoef="0" IVar="5" Cut="2.8421213626861572e+00" cType="1" res="-3.8346732035279274e-03" rms="4.6484234929084778e-01" purity="5.0198203325271606e-01" nType="0">
        <Node pos="l" depth="1" NCoef="0" IVar="1" Cut="2.6666250000000000e+05" cType="1" res="-6.2804846093058586e-03" rms="4.6546888351440430e-01" purity="4.9577283859252930e-01" nType="0">
          <Node pos="l" depth="2" NCoef="0" IVar="3" Cut="9.0309104919433594e+00" cType="1" res="-3.0071348883211613e-03" rms="4.6728971600532532e-01" purity="5.0978946685791016e-01" nType="0">
            <Node pos="l" depth="3" NCoef="0" IVar="-1" Cut="0.0000000000000000e+00" cType="1" res="-4.0147062391042709e-03" rms="4.6875026822090149e-01" purity="5.0344902276992798e-01" nType="-99"/>
            <Node pos="r" depth="3" NCoef="0" IVar="-1" Cut="0.0000000000000000e+00" cType="1" res="1.9249971956014633e-02" rms="4.5774373412132263e-01" purity="5.4911720752716064e-01" nType="-99"/>
          </Node>
          <Node pos="r" depth="2" NCoef="0" IVar="-1" Cut="0.0000000000000000e+00" cType="1" res="-6.6547594964504242e-02" rms="4.3727782368659973e-01" purity="3.0357936024665833e-01" nType="-99"/>
        </Node>
        <Node pos="r" depth="1" NCoef="0" IVar="-1" Cut="0.0000000000000000e+00" cType="1" res="2.4910949170589447e-02" rms="4.5612195134162903e-01" purity="5.7736688852310181e-01" nType="-99"/>
      </Node>
    </BinaryTree>
    <BinaryTree type="DecisionTree" boostWeight="1.0000000000000000e+00" itree="159">
      <Node pos="s" depth="0" NCoef="0" IVar="6" Cut="1.6455203294754028e+00" cType="1" res="-7.7576101757586002e-03" rms="4.6461889147758484e-01" purity="4.9807640910148621e-01" nType="0">
        <Node pos="l" depth="1" NCoef="0" IVar="6" Cut="-8.6211401224136353e-01" cType="1" res="6.7098205909132957e-04" rms="4.6214932203292847e-01" purity="5.2381670475006104e-01" nType="0">
          <Node pos="l" depth="2" NCoef="0" IVar="5" Cut="1.6454685926437378e+00" cType="1" res="-4.2773033492267132e-03" rms="4.7076725959777832e-01" purity="4.9349996447563171e-01" nType="0">
            <Node pos="l" depth="3" NCoef="0" IVar="-1" Cut="0.0000000000000000e+00" cType="1" res="-1.0194166563451290e-02" rms="4.7564762830734253e-01" purity="4.5957657694816589e-01" nType="-99"/>
            <Node pos="r" depth="3" NCoef="0" IVar="-1" Cut="0.0000000000000000e+00" cType="1" res="2.8124589473009109e-02" rms="4.3945139646530151e-01" purity="6.9669848680496216e-01" nType="-99"/>
          </Node>
          <Node pos="r" depth="2" NCoef="0" IVar="4" Cut="1.9585791826248169e+00" cType="1" res="0.0000000000000000e+00" rms="0.0000000000000000e+00" purity="5.7679128646850586e-01" nType="0">
            <Node pos="l" depth="3" NCoef="0" IVar="-1" Cut="0.0000000000000000e+00" cType="1" res="-2.1659387857653201e-04" rms="4.5451855659484863e-01" purity="5.3125691413879395e-01" nType="-99"/>
            <Node pos="r" depth="3" NCoef="0" IVar="-1" Cut="0.0000000000000000e+00" cType="1" res="2.4913037195801735e-02" rms="4.3599763512611389e-01" purity="6.3434785604476929e-01" nType="-99"/>
          </Node>
        </Node>
        <Node pos="r" depth="1" NCoef="0" IVar="5" Cut="1.0469344854354858e+00" cType="1" res="-2.3807877674698830e-02" rms="4.6886688470840454e-01" purity="4.4905999302864075e-01" nType="0">
          <Node pos="l" depth="2" NCoef="0" IVar="8" Cut="5.9731343750000000e+04" cType="1" res="-4.1291538625955582e-02" rms="4.6347692608833313e-01" purity="4.2235860228538513e-01" nType="0">
            <Node pos="l" depth="3" NCoef="0" IVar="-1" Cut="0.0000000000000000e+00" cType="1" res="-4.1438420303165913e-03" rms="4.5718607306480408e-01" purity="3.6915323138237000e-01" nType="-99"/>
            <Node pos="r" depth="3" NCoef="0" IVar="-1" Cut="0.0000000000000000e+00" cType="1" res="-7.1938182227313519e-03" rms="4.6792957186698914e-01" purity="4.8465541005134583e-01" nType="-99"/>
          </Node>
          <Node pos="r" depth="2" NCoef="0" IVar="4" Cut="2.6914212703704834e+00" cType="1" res="-1.2096920050680637e-02" rms="4.7208082675933838e-01" purity="4.6694520115852356e-01" nType="0">
            <Node pos="l" depth="3" NCoef="0" IVar="-1" Cut="0.0000000000000000e+00" cType="1" res="-2.4047773331403732e-02" rms="4.7458052635192871e-01" purity="4.6825569868087769e-01" nType="-99"/>
            <Node pos="r" depth="3" NCoef="0" IVar="-1" Cut="0.0000000000000000e+00" cType="1" res="1.9801620393991470e-02" rms="4.6343323588371277e-01" purity="4.6320739388465881e-01" nType="-99"/>
          </Node>
        </Node>
      </Node>
    </BinaryTree>
    <BinaryTree type="DecisionTree" boostWeight="1.0000000000000000e+00" itree="160">
      <Node pos="s" depth="0" NCoef="0" IVar="4" Cut="2.1985180377960205e+00" cType="1" res="-7.4301664426457137e-05" rms="4.6276617050170898e-01" purity="5.0391155481338501e-01" nType="0">
        <Node pos="l" depth="1" NCoef="0" IVar="8" Cut="6.2685824218750000e+04" cType="1" res="1.0202568955719471e-02" rms="4.6728640794754028e-01" purity="5.0111109018325806e-01" nType="0">
          <Node pos="l" depth="2" NCoef="0" IVar="5" Cut="2.2434237003326416e+00" cType="1" res="0.0000000000000000e+00" rms="0.0000000000000000e+00" purity="4.1229525208473206e-01" nType="0">
            <Node pos="l" depth="3" NCoef="0" IVar="-1" Cut="0.0000000000000000e+00" cType="1" res="1.7137713730335236e-02" rms="4.6945735812187195e-01" purity="4.0247559547424316e-01" nType="-99"/>
            <Node pos="r" depth="3" NCoef="0" IVar="-1" Cut="0.0000000000000000e+00" cType="1" res="6.3030332326889038e-02" rms="4.6934264898300171e-01" purity="4.6482381224632263e-01" nType="-99"/>
          </Node>
          <Node pos="r" depth="2" NCoef="0" IVar="9" Cut="4.6564882812500000e+04" cType="1" res="-7.2551774792373180e-04" rms="4.6439796686172485e-01" purity="6.0100710391998291e-01" nType="0">
            <Node pos="l" depth="3" NCoef="0" IVar="-1" Cut="0.0000000000000000e+00" cType="1" res="-2.0666671916842461e-02" rms="4.8107564449310303e-01" purity="4.8426610231399536e-01" nType="-99"/>
            <Node pos="r" depth="3" NCoef="0" IVar="-1" Cut="0.0000000000000000e+00" cType="1" res="6.8794297985732555e-03" rms="4.5771592855453491e-01" purity="6.4536023139953613e-01" nType="-99"/>
          </Node>
        </Node>
        <Node pos="r" depth="1" NCoef="0" IVar="4" Cut="3.3544907569885254e+00" cType="1" res="-1.4125441201031208e-02" rms="4.5613881945610046e-01" purity="5.0774043798446655e-01" nType="0">
          <Node pos="l" depth="2" NCoef="0" IVar="4" Cut="3.1342105865478516e+00" cType="1" res="0.0000000000000000e+00" rms="0.0000000000000000e+00" purity="5.3655582666397095e-01" nType="0">
            <Node pos="l" depth="3" NCoef="0" IVar="-1" Cut="0.0000000000000000e+00" cType="1" res="-3.4552845172584057e-03" rms="4.6042385697364807e-01" purity="5.3409683704376221e-01" nType="-99"/>
            <Node pos="r" depth="3" NCoef="0" IVar="-1" Cut="0.0000000000000000e+00" cType="1" res="3.9472185075283051e-02" rms="4.5902866125106812e-01" purity="5.5508184432983398e-01" nType="-99"/>
          </Node>
          <Node pos="r" depth="2" NCoef="0" IVar="-1" Cut="0.0000000000000000e+00" cType="1" res="-3.3493333030492067e-03" rms="4.1856312751770020e-01" purity="2.9967191815376282e-01" nType="-99"/>
        </Node>
      </Node>
    </BinaryTree>
    <BinaryTree type="DecisionTree" boostWeight="1.0000000000000000e+00" itree="161">
      <Node pos="s" depth="0" NCoef="0" IVar="8" Cut="7.3769296875000000e+04" cType="1" res="-6.5099233761429787e-03" rms="4.6410855650901794e-01" purity="5.0099080801010132e-01" nType="0">
        <Node pos="l" depth="1" NCoef="0" IVar="4" Cut="3.1929476261138916e+00" cType="1" res="-1.1486949399113655e-02" rms="4.6796414256095886e-01" purity="4.2929491400718689e-01" nType="0">
          <Node pos="l" depth="2" NCoef="0" IVar="5" Cut="7.4809181690216064e-01" cType="1" res="-7.9968627542257309e-03" rms="4.7032564878463745e-01" purity="4.4022807478904724e-01" nType="0">
            <Node pos="l" depth="3" NCoef="0" IVar="-1" Cut="0.0000000000000000e+00" cType="1" res="7.6143849582877010e-05" rms="4.7010913491249084e-01" purity="4.4038027524948120e-01" nType="-99"/>
            <Node pos="r" depth="3" NCoef="0" IVar="-1" Cut="0.0000000000000000e+00" cType="1" res="-5.9526646509766579e-03" rms="4.7039604187011719e-01" purity="4.4001802802085876e-01" nType="-99"/>
          </Node>
          <Node pos="r" depth="2" NCoef="0" IVar="-1" Cut="0.0000000000000000e+00" cType="1" res="-2.4101668968796730e-03" rms="4.3691059947013855e-01" purity="2.9979074001312256e-01" nType="-99"/>
        </Node>
        <Node pos="r" depth="1" NCoef="0" IVar="3" Cut="3.5292935371398926e+00" cType="1" res="2.9223598539829254e-03" rms="4.5656347274780273e-01" purity="6.3686621189117432e-01" nType="0">
          <Node pos="l" depth="2" NCoef="0" IVar="3" Cut="1.5906797647476196e+00" cType="1" res="1.3291635550558567e-02" rms="4.7461414337158203e-01" purity="5.9397256374359131e-01" nType="0">
            <Node pos="l" depth="3" NCoef="0" IVar="-1" Cut="0.0000000000000000e+00" cType="1" res="4.5387815684080124e-02" rms="4.7761672735214233e-01" purity="5.8497321605682373e-01" nType="-99"/>
            <Node pos="r" depth="3" NCoef="0" IVar="-1" Cut="0.0000000000000000e+00" cType="1" res="-1.6136288642883301e-02" rms="4.7026935219764709e-01" purity="6.0130035877227783e-01" nType="-99"/>
          </Node>
          <Node pos="r" depth="2" NCoef="0" IVar="5" Cut="2.5429725646972656e+00" cType="1" res="-3.2187981996685266e-03" rms="4.4541457295417786e-01" purity="6.6226977109909058e-01" nType="0">
            <Node pos="l" depth="3" NCoef="0" IVar="-1" Cut="0.0000000000000000e+00" cType="1" res="3.0385754071176052e-03" rms="4.4548648595809937e-01" purity="6.6176319122314453e-01" nType="-99"/>
            <Node pos="r" depth="3" NCoef="0" IVar="-1" Cut="0.0000000000000000e+00" cType="1" res="-3.5119712352752686e-02" rms="4.4439631700515747e-01" purity="6.6433465480804443e-01" nType="-99"/>
          </Node>
        </Node>
      </Node>
    </BinaryTree>
    <BinaryTree type="DecisionTree" boostWeight="1.0000000000000000e+00" itree="162">
      <Node pos="s" depth="0" NCoef="0" IVar="4" Cut="3.2711985111236572e+00" cType="1" res="-1.0060843080282211e-02" rms="4.6216318011283875e-01" purity="4.9509361386299133e-01" nType="0">
        <Node pos="l" depth="1" NCoef="0" IVar="7" Cut="7.0000000000000000e+00" cType="1" res="0.0000000000000000e+00" rms="0.0000000000000000e+00" purity="5.0640219449996948e-01" nType="0">
          <Node pos="l" depth="2" NCoef="0" IVar="4" Cut="6.9671672582626343e-01" cType="1" res="-9.2406757175922394e-03" rms="4.6477338671684265e-01" purity="4.9030333757400513e-01" nType="0">
            <Node pos="l" depth="3" NCoef="0" IVar="-1" Cut="0.0000000000000000e+00" cType="1" res="1.8237337470054626e-02" rms="4.6281307935714722e-01" purity="4.5463407039642334e-01" nType="-99"/>
            <Node pos="r" depth="3" NCoef="0" IVar="-1" Cut="0.0000000000000000e+00" cType="1" res="-6.5828058868646622e-03" rms="4.6490967273712158e-01" purity="4.9420818686485291e-01" nType="-99"/>
          </Node>
          <Node pos="r" depth="2" NCoef="0" IVar="4" Cut="1.9024214744567871e+00" cType="1" res="1.4624278992414474e-02" rms="4.5245742797851562e-01" purity="6.3822227716445923e-01" nType="0">
            <Node pos="l" depth="3" NCoef="0" IVar="-1" Cut="0.0000000000000000e+00" cType="1" res="7.9353442415595055e-03" rms="4.6043047308921814e-01" purity="6.0284405946731567e-01" nType="-99"/>
            <Node pos="r" depth="3" NCoef="0" IVar="-1" Cut="0.0000000000000000e+00" cType="1" res="2.3851301521062851e-02" rms="4.4416609406471252e-01" purity="6.7369151115417480e-01" nType="-99"/>
          </Node>
        </Node>
        <Node pos="r" depth="1" NCoef="0" IVar="-1" Cut="0.0000000000000000e+00" cType="1" res="-2.1166063379496336e-03" rms="4.3775230646133423e-01" purity="3.2205682992935181e-01" nType="-99"/>
      </Node>
    </BinaryTree>
    <BinaryTree type="DecisionTree" boostWeight="1.0000000000000000e+00" itree="163">
      <Node pos="s" depth="0" NCoef="0" IVar="5" Cut="-1.9448040723800659e+00" cType="1" res="-1.8323124386370182e-03" rms="4.6557822823524475e-01" purity="5.0365841388702393e-01" nType="0">
        <Node pos="l" depth="1" NCoef="0" IVar="4" Cut="1.6673995256423950e+00" cType="1" res="1.7150709405541420e-02" rms="4.6574023365974426e-01" purity="5.4637789726257324e-01" nType="0">
          <Node pos="l" depth="2" NCoef="0" IVar="5" Cut="-2.7425107955932617e+00" cType="1" res="4.6185427345335484e-03" rms="4.6905907988548279e-01" purity="5.0566542148590088e-01" nType="0">
            <Node pos="l" depth="3" NCoef="0" IVar="-1" Cut="0.0000000000000000e+00" cType="1" res="2.5851136073470116e-02" rms="4.6908208727836609e-01" purity="5.1756888628005981e-01" nType="-99"/>
            <Node pos="r" depth="3" NCoef="0" IVar="-1" Cut="0.0000000000000000e+00" cType="1" res="-4.2663896456360817e-03" rms="4.6885648369789124e-01" purity="4.9889135360717773e-01" nType="-99"/>
          </Node>
          <Node pos="r" depth="2" NCoef="0" IVar="5" Cut="-2.5148200988769531e+00" cType="1" res="2.6245813816785812e-02" rms="4.6310436725616455e-01" purity="5.7592475414276123e-01" nType="0">
            <Node pos="l" depth="3" NCoef="0" IVar="-1" Cut="0.0000000000000000e+00" cType="1" res="4.3437663465738297e-02" rms="4.5995989441871643e-01" purity="5.9701311588287354e-01" nType="-99"/>
            <Node pos="r" depth="3" NCoef="0" IVar="-1" Cut="0.0000000000000000e+00" cType="1" res="1.0842374525964260e-02" rms="4.6684595942497253e-01" purity="5.4773879051208496e-01" nType="-99"/>
          </Node>
        </Node>
        <Node pos="r" depth="1" NCoef="0" IVar="6" Cut="-2.2439813613891602e+00" cType="1" res="0.0000000000000000e+00" rms="0.0000000000000000e+00" purity="4.8714047670364380e-01" nType="0">
          <Node pos="l" depth="2" NCoef="0" IVar="4" Cut="2.2606675624847412e+00" cType="1" res="6.4598093740642071e-04" rms="4.7248679399490356e-01" purity="4.4569352269172668e-01" nType="0">
            <Node pos="l" depth="3" NCoef="0" IVar="-1" Cut="0.0000000000000000e+00" cType="1" res="1.0440706275403500e-02" rms="4.6660968661308289e-01" purity="4.2832848429679871e-01" nType="-99"/>
            <Node pos="r" depth="3" NCoef="0" IVar="-1" Cut="0.0000000000000000e+00" cType="1" res="-1.2334629893302917e-02" rms="4.8135060071945190e-01" purity="4.7314205765724182e-01" nType="-99"/>
          </Node>
          <Node pos="r" depth="2" NCoef="0" IVar="4" Cut="3.0043828487396240e+00" cType="1" res="-1.1883889324963093e-02" rms="4.6326911449432373e-01" purity="4.9858722090721130e-01" nType="0">
            <Node pos="l" depth="3" NCoef="0" IVar="-1" Cut="0.0000000000000000e+00" cType="1" res="-7.2088320739567280e-03" rms="4.6568650007247925e-01" purity="5.0854671001434326e-01" nType="-99"/>
            <Node pos="r" depth="3" NCoef="0" IVar="-1" Cut="0.0000000000000000e+00" cType="1" res="-4.4627697207033634e-03" rms="4.4747912883758545e-01" purity="4.4030275940895081e-01" nType="-99"/>
          </Node>
        </Node>
      </Node>
    </BinaryTree>
    <BinaryTree type="DecisionTree" boostWeight="1.0000000000000000e+00" itree="164">
      <Node pos="s" depth="0" NCoef="0" IVar="4" Cut="3.2201938629150391e+00" cType="1" res="-8.0297784879803658e-03" rms="4.6415072679519653e-01" purity="4.9825689196586609e-01" nType="0">
        <Node pos="l" depth="1" NCoef="0" IVar="4" Cut="3.0703234672546387e+00" cType="1" res="-4.3362313881516457e-03" rms="4.6521103382110596e-01" purity="5.0930881500244141e-01" nType="0">
          <Node pos="l" depth="2" NCoef="0" IVar="6" Cut="7.4787819385528564e-01" cType="1" res="-2.5327778421342373e-03" rms="4.6564164757728577e-01" purity="5.0809514522552490e-01" nType="0">
            <Node pos="l" depth="3" NCoef="0" IVar="-1" Cut="0.0000000000000000e+00" cType="1" res="-9.8770773038268089e-03" rms="4.6380728483200073e-01" purity="5.1518833637237549e-01" nType="-99"/>
            <Node pos="r" depth="3" NCoef="0" IVar="-1" Cut="0.0000000000000000e+00" cType="1" res="6.5656891092658043e-03" rms="4.6791449189186096e-01" purity="4.9876329302787781e-01" nType="-99"/>
          </Node>
          <Node pos="r" depth="2" NCoef="0" IVar="-1" Cut="0.0000000000000000e+00" cType="1" res="-1.4429090544581413e-02" rms="4.5631694793701172e-01" purity="5.3084856271743774e-01" nType="-99"/>
        </Node>
        <Node pos="r" depth="1" NCoef="0" IVar="-1" Cut="0.0000000000000000e+00" cType="1" res="-4.1158436797559261e-03" rms="4.4665795564651489e-01" purity="3.4938600659370422e-01" nType="-99"/>
      </Node>
    </BinaryTree>
    <BinaryTree type="DecisionTree" boostWeight="1.0000000000000000e+00" itree="165">
      <Node pos="s" depth="0" NCoef="0" IVar="3" Cut="5.9305644035339355e+00" cType="1" res="-6.8127056583762169e-03" rms="4.6408474445343018e-01" purity="4.9828124046325684e-01" nType="0">
        <Node pos="l" depth="1" NCoef="0" IVar="0" Cut="1.6133600000000000e+05" cType="1" res="-1.2752202339470387e-02" rms="4.6991300582885742e-01" purity="4.8491784930229187e-01" nType="0">
          <Node pos="l" depth="2" NCoef="0" IVar="3" Cut="9.6976590156555176e-01" cType="1" res="-7.0225377567112446e-03" rms="4.7325417399406433e-01" purity="4.6690696477890015e-01" nType="0">
            <Node pos="l" depth="3" NCoef="0" IVar="-1" Cut="0.0000000000000000e+00" cType="1" res="-1.0735745541751385e-02" rms="4.7196373343467712e-01" purity="3.9601945877075195e-01" nType="-99"/>
            <Node pos="r" depth="3" NCoef="0" IVar="-1" Cut="0.0000000000000000e+00" cType="1" res="2.6962609263136983e-04" rms="4.7352257370948792e-01" purity="4.9417153000831604e-01" nType="-99"/>
          </Node>
          <Node pos="r" depth="2" NCoef="0" IVar="5" Cut="1.9444211721420288e+00" cType="1" res="-3.5185832530260086e-02" rms="4.5590361952781677e-01" purity="5.5543690919876099e-01" nType="0">
            <Node pos="l" depth="3" NCoef="0" IVar="-1" Cut="0.0000000000000000e+00" cType="1" res="-6.7627072334289551e-02" rms="4.5711824297904968e-01" purity="5.3067094087600708e-01" nType="-99"/>
            <Node pos="r" depth="3" NCoef="0" IVar="-1" Cut="0.0000000000000000e+00" cType="1" res="7.6796910725533962e-03" rms="4.5031452178955078e-01" purity="6.1145657300949097e-01" nType="-99"/>
          </Node>
        </Node>
        <Node pos="r" depth="1" NCoef="0" IVar="9" Cut="7.7405312500000000e+04" cType="1" res="3.7630824372172356e-03" rms="4.5332902669906616e-01" purity="5.2207577228546143e-01" nType="0">
          <Node pos="l" depth="2" NCoef="0" IVar="4" Cut="2.9198296070098877e+00" cType="1" res="-2.5883223861455917e-03" rms="4.6111699938774109e-01" purity="4.8093962669372559e-01" nType="0">
            <Node pos="l" depth="3" NCoef="0" IVar="-1" Cut="0.0000000000000000e+00" cType="1" res="3.6724077071994543e-03" rms="4.6120667457580566e-01" purity="4.7691991925239563e-01" nType="-99"/>
            <Node pos="r" depth="3" NCoef="0" IVar="-1" Cut="0.0000000000000000e+00" cType="1" res="-1.2005318887531757e-02" rms="4.5954453945159912e-01" purity="5.0200837850570679e-01" nType="-99"/>
          </Node>
          <Node pos="r" depth="2" NCoef="0" IVar="-1" Cut="0.0000000000000000e+00" cType="1" res="4.9883145838975906e-02" rms="4.0027719736099243e-01" purity="7.7352261543273926e-01" nType="-99"/>
        </Node>
      </Node>
    </BinaryTree>
    <BinaryTree type="DecisionTree" boostWeight="1.0000000000000000e+00" itree="166">
      <Node pos="s" depth="0" NCoef="0" IVar="2" Cut="5.0748284912109375e+02" cType="1" res="0.0000000000000000e+00" rms="0.0000000000000000e+00" purity="5.0513321161270142e-01" nType="0">
        <Node pos="l" depth="1" NCoef="0" IVar="4" Cut="3.2711985111236572e+00" cType="1" res="3.9798631332814693e-03" rms="4.6504974365234375e-01" purity="5.0234311819076538e-01" nType="0">
          <Node pos="l" depth="2" NCoef="0" IVar="5" Cut="2.2437410354614258e+00" cType="1" res="0.0000000000000000e+00" rms="0.0000000000000000e+00" purity="5.0790208578109741e-01" nType="0">
            <Node pos="l" depth="3" NCoef="0" IVar="-1" Cut="0.0000000000000000e+00" cType="1" res="5.4432670585811138e-03" rms="4.6677342057228088e-01" purity="4.9888494610786438e-01" nType="-99"/>
            <Node pos="r" depth="3" NCoef="0" IVar="-1" Cut="0.0000000000000000e+00" cType="1" res="-8.0284988507628441e-03" rms="4.6221432089805603e-01" purity="5.4007726907730103e-01" nType="-99"/>
          </Node>
          <Node pos="r" depth="2" NCoef="0" IVar="-1" Cut="0.0000000000000000e+00" cType="1" res="6.2427474185824394e-03" rms="4.5070761442184448e-01" purity="4.0452095866203308e-01" nType="-99"/>
        </Node>
        <Node pos="r" depth="1" NCoef="0" IVar="-1" Cut="0.0000000000000000e+00" cType="1" res="-2.2933578118681908e-02" rms="4.6617451310157776e-01" purity="5.5586546659469604e-01" nType="-99"/>
      </Node>
    </BinaryTree>
    <BinaryTree type="DecisionTree" boostWeight="1.0000000000000000e+00" itree="167">
      <Node pos="s" depth="0" NCoef="0" IVar="4" Cut="2.9988031387329102e+00" cType="1" res="-4.8103649169206619e-03" rms="4.6417546272277832e-01" purity="4.9939227104187012e-01" nType="0">
        <Node pos="l" depth="1" NCoef="0" IVar="1" Cut="2.6666415625000000e+05" cType="1" res="-1.2868682388216257e-03" rms="4.6553602814674377e-01" purity="5.0675117969512939e-01" nType="0">
          <Node pos="l" depth="2" NCoef="0" IVar="3" Cut="1.4765073060989380e+00" cType="1" res="0.0000000000000000e+00" rms="0.0000000000000000e+00" purity="5.1865929365158081e-01" nType="0">
            <Node pos="l" depth="3" NCoef="0" IVar="-1" Cut="0.0000000000000000e+00" cType="1" res="-1.6988558694720268e-02" rms="4.8152032494544983e-01" purity="4.4160538911819458e-01" nType="-99"/>
            <Node pos="r" depth="3" NCoef="0" IVar="-1" Cut="0.0000000000000000e+00" cType="1" res="1.3075424067210406e-04" rms="4.6271935105323792e-01" purity="5.3758060932159424e-01" nType="-99"/>
          </Node>
          <Node pos="r" depth="2" NCoef="0" IVar="-1" Cut="0.0000000000000000e+00" cType="1" res="2.8950866311788559e-02" rms="4.5170503854751587e-01" purity="3.5169616341590881e-01" nType="-99"/>
        </Node>
        <Node pos="r" depth="1" NCoef="0" IVar="6" Cut="7.4758845567703247e-01" cType="1" res="-2.5427671149373055e-02" rms="4.5558696985244751e-01" purity="4.5633235573768616e-01" nType="0">
          <Node pos="l" depth="2" NCoef="0" IVar="-1" Cut="0.0000000000000000e+00" cType="1" res="6.3414033502340317e-03" rms="4.6555489301681519e-01" purity="5.2826243638992310e-01" nType="-99"/>
          <Node pos="r" depth="2" NCoef="0" IVar="-1" Cut="0.0000000000000000e+00" cType="1" res="-3.3580376766622066e-03" rms="4.4079208374023438e-01" purity="3.7154826521873474e-01" nType="-99"/>
        </Node>
      </Node>
    </BinaryTree>
    <BinaryTree type="DecisionTree" boostWeight="1.0000000000000000e+00" itree="168">
      <Node pos="s" depth="0" NCoef="0" IVar="5" Cut="-2.5430731773376465e+00" cType="1" res="0.0000000000000000e+00" rms="0.0000000000000000e+00" purity="4.9352803826332092e-01" nType="0">
        <Node pos="l" depth="1" NCoef="0" IVar="9" Cut="4.3438894531250000e+04" cType="1" res="-2.8061950579285622e-02" rms="4.6367090940475464e-01" purity="5.0591140985488892e-01" nType="0">
          <Node pos="l" depth="2" NCoef="0" IVar="-1" Cut="0.0000000000000000e+00" cType="1" res="-4.5239012688398361e-03" rms="4.6522635221481323e-01" purity="3.6111620068550110e-01" nType="-99"/>
          <Node pos="r" depth="2" NCoef="0" IVar="-1" Cut="0.0000000000000000e+00" cType="1" res="4.6158190816640854e-03" rms="4.5993715524673462e-01" purity="6.3716071844100952e-01" nType="-99"/>
        </Node>
        <Node pos="r" depth="1" NCoef="0" IVar="6" Cut="-4.4883060455322266e-01" cType="1" res="-4.3157860636711121e-03" rms="4.6282118558883667e-01" purity="4.9124705791473389e-01" nType="0">
          <Node pos="l" depth="2" NCoef="0" IVar="5" Cut="2.3292891979217529e+00" cType="1" res="-1.3878701254725456e-02" rms="4.6513625979423523e-01" purity="4.8726007342338562e-01" nType="0">
            <Node pos="l" depth="3" NCoef="0" IVar="-1" Cut="0.0000000000000000e+00" cType="1" res="-9.8325330764055252e-03" rms="4.6745055913925171e-01" purity="4.6517273783683777e-01" nType="-99"/>
            <Node pos="r" depth="3" NCoef="0" IVar="-1" Cut="0.0000000000000000e+00" cType="1" res="-3.9290934801101685e-02" rms="4.4803071022033691e-01" purity="6.3646292686462402e-01" nType="-99"/>
          </Node>
          <Node pos="r" depth="2" NCoef="0" IVar="8" Cut="6.2661074218750000e+04" cType="1" res="2.7170004323124886e-03" rms="4.6098458766937256e-01" purity="4.9417924880981445e-01" nType="0">
            <Node pos="l" depth="3" NCoef="0" IVar="-1" Cut="0.0000000000000000e+00" cType="1" res="-4.3026776984333992e-03" rms="4.6087643504142761e-01" purity="3.8956287503242493e-01" nType="-99"/>
            <Node pos="r" depth="3" NCoef="0" IVar="-1" Cut="0.0000000000000000e+00" cType="1" res="1.4808660373091698e-02" rms="4.6086850762367249e-01" purity="6.1501044034957886e-01" nType="-99"/>
          </Node>
        </Node>
      </Node>
    </BinaryTree>
    <BinaryTree type="DecisionTree" boostWeight="1.0000000000000000e+00" itree="169">
      <Node pos="s" depth="0" NCoef="0" IVar="5" Cut="-2.5432066917419434e+00" cType="1" res="-7.3559512384235859e-03" rms="4.6254506707191467e-01" purity="4.9061775207519531e-01" nType="0">
        <Node pos="l" depth="1" NCoef="0" IVar="4" Cut="2.7458066940307617e+00" cType="1" res="-3.7272196263074875e-02" rms="4.5954856276512146e-01" purity="4.9015307426452637e-01" nType="0">
          <Node pos="l" depth="2" NCoef="0" IVar="5" Cut="-2.7710742950439453e+00" cType="1" res="-2.0208889618515968e-02" rms="4.6161982417106628e-01" purity="5.1188439130783081e-01" nType="0">
            <Node pos="l" depth="3" NCoef="0" IVar="-1" Cut="0.0000000000000000e+00" cType="1" res="-4.1844509541988373e-02" rms="4.6432739496231079e-01" purity="5.0875794887542725e-01" nType="-99"/>
            <Node pos="r" depth="3" NCoef="0" IVar="-1" Cut="0.0000000000000000e+00" cType="1" res="-4.5303438673727214e-04" rms="4.5677921175956726e-01" purity="5.1666575670242310e-01" nType="-99"/>
          </Node>
          <Node pos="r" depth="2" NCoef="0" IVar="-1" Cut="0.0000000000000000e+00" cType="1" res="-3.5296501591801643e-03" rms="4.5229372382164001e-01" purity="4.4006651639938354e-01" nType="-99"/>
        </Node>
        <Node pos="r" depth="1" NCoef="0" IVar="6" Cut="-1.6456105709075928e+00" cType="1" res="-1.9365950720384717e-03" rms="4.6287900209426880e-01" purity="4.9070188403129578e-01" nType="0">
          <Node pos="l" depth="2" NCoef="0" IVar="6" Cut="-2.7854197025299072e+00" cType="1" res="1.1147065088152885e-02" rms="4.7143059968948364e-01" purity="4.6849551796913147e-01" nType="0">
            <Node pos="l" depth="3" NCoef="0" IVar="-1" Cut="0.0000000000000000e+00" cType="1" res="-1.9779785070568323e-03" rms="4.6866419911384583e-01" purity="4.5343008637428284e-01" nType="-99"/>
            <Node pos="r" depth="3" NCoef="0" IVar="-1" Cut="0.0000000000000000e+00" cType="1" res="1.7272349447011948e-02" rms="4.7273221611976624e-01" purity="4.7636196017265320e-01" nType="-99"/>
          </Node>
          <Node pos="r" depth="2" NCoef="0" IVar="6" Cut="1.7737168073654175e+00" cType="1" res="-8.0917235463857651e-03" rms="4.5867174863815308e-01" purity="5.0114881992340088e-01" nType="0">
            <Node pos="l" depth="3" NCoef="0" IVar="-1" Cut="0.0000000000000000e+00" cType="1" res="-1.3001923449337482e-02" rms="4.3956431746482849e-01" purity="5.4472237825393677e-01" nType="-99"/>
            <Node pos="r" depth="3" NCoef="0" IVar="-1" Cut="0.0000000000000000e+00" cType="1" res="2.8497665189206600e-03" rms="4.7485119104385376e-01" purity="4.6207424998283386e-01" nType="-99"/>
          </Node>
        </Node>
      </Node>
    </BinaryTree>
    <BinaryTree type="DecisionTree" boostWeight="1.0000000000000000e+00" itree="170">
      <Node pos="s" depth="0" NCoef="0" IVar="5" Cut="2.5430574417114258e+00" cType="1" res="3.8997163064777851e-03" rms="4.6546965837478638e-01" purity="5.0402921438217163e-01" nType="0">
        <Node pos="l" depth="1" NCoef="0" IVar="7" Cut="7.0000000000000000e+00" cType="1" res="9.2225935077294707e-04" rms="4.6695619821548462e-01" purity="4.9216675758361816e-01" nType="0">
          <Node pos="l" depth="2" NCoef="0" IVar="5" Cut="-2.8708515167236328e+00" cType="1" res="3.6327345296740532e-03" rms="4.6791487932205200e-01" purity="4.7973802685737610e-01" nType="0">
            <Node pos="l" depth="3" NCoef="0" IVar="-1" Cut="0.0000000000000000e+00" cType="1" res="3.9833180606365204e-02" rms="4.6821665763854980e-01" purity="5.5798059701919556e-01" nType="-99"/>
            <Node pos="r" depth="3" NCoef="0" IVar="-1" Cut="0.0000000000000000e+00" cType="1" res="1.0125001426786184e-03" rms="4.6780234575271606e-01" purity="4.7333830595016479e-01" nType="-99"/>
          </Node>
          <Node pos="r" depth="2" NCoef="0" IVar="5" Cut="-1.6391362249851227e-01" cType="1" res="-2.0773243159055710e-02" rms="4.5867910981178284e-01" purity="5.9173423051834106e-01" nType="0">
            <Node pos="l" depth="3" NCoef="0" IVar="-1" Cut="0.0000000000000000e+00" cType="1" res="-3.3332310616970062e-02" rms="4.5794481039047241e-01" purity="5.8917206525802612e-01" nType="-99"/>
            <Node pos="r" depth="3" NCoef="0" IVar="-1" Cut="0.0000000000000000e+00" cType="1" res="-1.0168307460844517e-02" rms="4.5939099788665771e-01" purity="5.9515231847763062e-01" nType="-99"/>
          </Node>
        </Node>
        <Node pos="r" depth="1" NCoef="0" IVar="2" Cut="2.2004098510742188e+02" cType="1" res="2.0209556445479393e-02" rms="4.5685938000679016e-01" purity="5.6905364990234375e-01" nType="0">
          <Node pos="l" depth="2" NCoef="0" IVar="2" Cut="1.7050756835937500e+02" cType="1" res="7.7231447212398052e-03" rms="4.5746827125549316e-01" purity="5.6230580806732178e-01" nType="0">
            <Node pos="l" depth="3" NCoef="0" IVar="-1" Cut="0.0000000000000000e+00" cType="1" res="1.8577538430690765e-02" rms="4.4464078545570374e-01" purity="5.7519346475601196e-01" nType="-99"/>
            <Node pos="r" depth="3" NCoef="0" IVar="-1" Cut="0.0000000000000000e+00" cType="1" res="-5.0391824916005135e-03" rms="4.7007977962493896e-01" purity="5.4890614748001099e-01" nType="-99"/>
          </Node>
          <Node pos="r" depth="2" NCoef="0" IVar="-1" Cut="0.0000000000000000e+00" cType="1" res="4.0178362280130386e-02" rms="4.5495674014091492e-01" purity="5.8091759681701660e-01" nType="-99"/>
        </Node>
      </Node>
    </BinaryTree>
    <BinaryTree type="DecisionTree" boostWeight="1.0000000000000000e+00" itree="171">
      <Node pos="s" depth="0" NCoef="0" IVar="6" Cut="7.4794584512710571e-01" cType="1" res="-6.1757797375321388e-03" rms="4.6553593873977661e-01" purity="4.9627900123596191e-01" nType="0">
        <Node pos="l" depth="1" NCoef="0" IVar="2" Cut="2.1313981628417969e+02" cType="1" res="6.6982698626816273e-03" rms="4.6441781520843506e-01" purity="5.2197301387786865e-01" nType="0">
          <Node pos="l" depth="2" NCoef="0" IVar="3" Cut="5.7150473594665527e+00" cType="1" res="1.5362236648797989e-02" rms="4.6107476949691772e-01" purity="5.3877645730972290e-01" nType="0">
            <Node pos="l" depth="3" NCoef="0" IVar="-1" Cut="0.0000000000000000e+00" cType="1" res="2.6765465736389160e-02" rms="4.6953108906745911e-01" purity="5.3859311342239380e-01" nType="-99"/>
            <Node pos="r" depth="3" NCoef="0" IVar="-1" Cut="0.0000000000000000e+00" cType="1" res="-1.9280913984403014e-03" rms="4.4326561689376831e-01" purity="5.3914171457290649e-01" nType="-99"/>
          </Node>
          <Node pos="r" depth="2" NCoef="0" IVar="4" Cut="1.3944491147994995e+00" cType="1" res="-9.0962853282690048e-03" rms="4.7004035115242004e-01" purity="4.9134007096290588e-01" nType="0">
            <Node pos="l" depth="3" NCoef="0" IVar="-1" Cut="0.0000000000000000e+00" cType="1" res="1.0573828592896461e-02" rms="4.7256857156753540e-01" purity="4.4159987568855286e-01" nType="-99"/>
            <Node pos="r" depth="3" NCoef="0" IVar="-1" Cut="0.0000000000000000e+00" cType="1" res="-1.8575906753540039e-02" rms="4.6835142374038696e-01" purity="5.1885503530502319e-01" nType="-99"/>
          </Node>
        </Node>
        <Node pos="r" depth="1" NCoef="0" IVar="5" Cut="1.0472003221511841e+00" cType="1" res="-2.2525751963257790e-02" rms="4.6644020080566406e-01" purity="4.6364763379096985e-01" nType="0">
          <Node pos="l" depth="2" NCoef="0" IVar="4" Cut="2.7178659439086914e+00" cType="1" res="-4.7798067331314087e-02" rms="4.5362269878387451e-01" purity="4.5583534240722656e-01" nType="0">
            <Node pos="l" depth="3" NCoef="0" IVar="-1" Cut="0.0000000000000000e+00" cType="1" res="-5.8513646945357323e-03" rms="4.6313926577568054e-01" purity="5.1000756025314331e-01" nType="-99"/>
            <Node pos="r" depth="3" NCoef="0" IVar="-1" Cut="0.0000000000000000e+00" cType="1" res="-3.4276936203241348e-03" rms="4.2272618412971497e-01" purity="3.5075610876083374e-01" nType="-99"/>
          </Node>
          <Node pos="r" depth="2" NCoef="0" IVar="6" Cut="1.8878415822982788e+00" cType="1" res="-4.7335219569504261e-03" rms="4.7444987297058105e-01" purity="4.6914771199226379e-01" nType="0">
            <Node pos="l" depth="3" NCoef="0" IVar="-1" Cut="0.0000000000000000e+00" cType="1" res="-2.9798874631524086e-02" rms="4.6018224954605103e-01" purity="4.2466449737548828e-01" nType="-99"/>
            <Node pos="r" depth="3" NCoef="0" IVar="-1" Cut="0.0000000000000000e+00" cType="1" res="3.4691600594669580e-03" rms="4.7988831996917725e-01" purity="4.8722946643829346e-01" nType="-99"/>
          </Node>
        </Node>
      </Node>
    </BinaryTree>
    <BinaryTree type="DecisionTree" boostWeight="1.0000000000000000e+00" itree="172">
      <Node pos="s" depth="0" NCoef="0" IVar="4" Cut="2.9988031387329102e+00" cType="1" res="0.0000000000000000e+00" rms="0.0000000000000000e+00" purity="5.0066137313842773e-01" nType="0">
        <Node pos="l" depth="1" NCoef="0" IVar="5" Cut="2.8422451019287109e+00" cType="1" res="5.0981139065697789e-04" rms="4.6510541439056396e-01" purity="5.1067370176315308e-01" nType="0">
          <Node pos="l" depth="2" NCoef="0" IVar="5" Cut="2.5571997165679932e+00" cType="1" res="0.0000000000000000e+00" rms="0.0000000000000000e+00" purity="5.0368642807006836e-01" nType="0">
            <Node pos="l" depth="3" NCoef="0" IVar="-1" Cut="0.0000000000000000e+00" cType="1" res="1.1076248483732343e-03" rms="4.6568873524665833e-01" purity="5.0133895874023438e-01" nType="-99"/>
            <Node pos="r" depth="3" NCoef="0" IVar="-1" Cut="0.0000000000000000e+00" cType="1" res="-3.1032532453536987e-02" rms="4.6011391282081604e-01" purity="5.3188073635101318e-01" nType="-99"/>
          </Node>
          <Node pos="r" depth="2" NCoef="0" IVar="-1" Cut="0.0000000000000000e+00" cType="1" res="2.4069974198937416e-02" rms="4.6195048093795776e-01" purity="6.0151946544647217e-01" nType="-99"/>
        </Node>
        <Node pos="r" depth="1" NCoef="0" IVar="5" Cut="1.3464338779449463e+00" cType="1" res="-4.3571349233388901e-02" rms="4.5458653569221497e-01" purity="4.4293698668479919e-01" nType="0">
          <Node pos="l" depth="2" NCoef="0" IVar="6" Cut="-1.0474115610122681e+00" cType="1" res="-6.5910197794437408e-02" rms="4.5067325234413147e-01" purity="4.2618322372436523e-01" nType="0">
            <Node pos="l" depth="3" NCoef="0" IVar="-1" Cut="0.0000000000000000e+00" cType="1" res="-2.6307191699743271e-02" rms="4.6196433901786804e-01" purity="4.3729558587074280e-01" nType="-99"/>
            <Node pos="r" depth="3" NCoef="0" IVar="-1" Cut="0.0000000000000000e+00" cType="1" res="-3.2975859940052032e-03" rms="4.3789246678352356e-01" purity="4.1656556725502014e-01" nType="-99"/>
          </Node>
          <Node pos="r" depth="2" NCoef="0" IVar="-1" Cut="0.0000000000000000e+00" cType="1" res="-8.1429909914731979e-04" rms="4.5896124839782715e-01" purity="4.7499421238899231e-01" nType="-99"/>
        </Node>
      </Node>
    </BinaryTree>
    <BinaryTree type="DecisionTree" boostWeight="1.0000000000000000e+00" itree="173">
      <Node pos="s" depth="0" NCoef="0" IVar="4" Cut="3.2655649185180664e+00" cType="1" res="-6.8887788802385330e-03" rms="4.6312287449836731e-01" purity="4.9402648210525513e-01" nType="0">
        <Node pos="l" depth="1" NCoef="0" IVar="5" Cut="1.3461805582046509e+00" cType="1" res="-2.5256033986806870e-03" rms="4.6503093838691711e-01" purity="5.0702720880508423e-01" nType="0">
          <Node pos="l" depth="2" NCoef="0" IVar="2" Cut="3.3970773315429688e+02" cType="1" res="-7.7735129743814468e-03" rms="4.6311154961585999e-01" purity="4.8791447281837463e-01" nType="0">
            <Node pos="l" depth="3" NCoef="0" IVar="-1" Cut="0.0000000000000000e+00" cType="1" res="-4.6149147674441338e-03" rms="4.6079668402671814e-01" purity="4.7880873084068298e-01" nType="-99"/>
            <Node pos="r" depth="3" NCoef="0" IVar="-1" Cut="0.0000000000000000e+00" cType="1" res="2.0386403426527977e-02" rms="4.7851392626762390e-01" purity="5.5287915468215942e-01" nType="-99"/>
          </Node>
          <Node pos="r" depth="2" NCoef="0" IVar="8" Cut="5.1424289062500000e+04" cType="1" res="6.9046597927808762e-03" rms="4.6831250190734863e-01" purity="5.4137194156646729e-01" nType="0">
            <Node pos="l" depth="3" NCoef="0" IVar="-1" Cut="0.0000000000000000e+00" cType="1" res="2.6167355477809906e-02" rms="4.7747316956520081e-01" purity="4.1535758972167969e-01" nType="-99"/>
            <Node pos="r" depth="3" NCoef="0" IVar="-1" Cut="0.0000000000000000e+00" cType="1" res="-2.1027515176683664e-03" rms="4.6362096071243286e-01" purity="6.0161578655242920e-01" nType="-99"/>
          </Node>
        </Node>
        <Node pos="r" depth="1" NCoef="0" IVar="-1" Cut="0.0000000000000000e+00" cType="1" res="-2.2529345005750656e-03" rms="4.3023371696472168e-01" purity="3.0872142314910889e-01" nType="-99"/>
      </Node>
    </BinaryTree>
    <BinaryTree type="DecisionTree" boostWeight="1.0000000000000000e+00" itree="174">
      <Node pos="s" depth="0" NCoef="0" IVar="6" Cut="2.2439157962799072e+00" cType="1" res="-6.3351010903716087e-03" rms="4.6257284283638000e-01" purity="4.9230253696441650e-01" nType="0">
        <Node pos="l" depth="1" NCoef="0" IVar="6" Cut="1.4745475053787231e+00" cType="1" res="-8.5881532868370414e-04" rms="4.6068549156188965e-01" purity="5.0940763950347900e-01" nType="0">
          <Node pos="l" depth="2" NCoef="0" IVar="6" Cut="1.0344452857971191e+00" cType="1" res="-3.4704757854342461e-03" rms="4.5985734462738037e-01" purity="5.1045292615890503e-01" nType="0">
            <Node pos="l" depth="3" NCoef="0" IVar="-1" Cut="0.0000000000000000e+00" cType="1" res="-1.5438352711498737e-03" rms="4.6335640549659729e-01" purity="5.1522916555404663e-01" nType="-99"/>
            <Node pos="r" depth="3" NCoef="0" IVar="-1" Cut="0.0000000000000000e+00" cType="1" res="-3.3265121746808290e-03" rms="4.1605395078659058e-01" purity="4.5452433824539185e-01" nType="-99"/>
          </Node>
          <Node pos="r" depth="2" NCoef="0" IVar="2" Cut="1.8127189636230469e+02" cType="1" res="1.5476269647479057e-02" rms="4.6549952030181885e-01" purity="5.0286978483200073e-01" nType="0">
            <Node pos="l" depth="3" NCoef="0" IVar="-1" Cut="0.0000000000000000e+00" cType="1" res="4.4575564563274384e-02" rms="4.6261191368103027e-01" purity="5.4432702064514160e-01" nType="-99"/>
            <Node pos="r" depth="3" NCoef="0" IVar="-1" Cut="0.0000000000000000e+00" cType="1" res="-3.2438854686915874e-03" rms="4.6723797917366028e-01" purity="4.6681454777717590e-01" nType="-99"/>
          </Node>
        </Node>
        <Node pos="r" depth="1" NCoef="0" IVar="7" Cut="6.0000000000000000e+00" cType="1" res="-2.1849447861313820e-02" rms="4.6750882267951965e-01" purity="4.4386494159698486e-01" nType="0">
          <Node pos="l" depth="2" NCoef="0" IVar="6" Cut="2.9705436229705811e+00" cType="1" res="-1.1702966876327991e-02" rms="4.6751627326011658e-01" purity="4.4459769129753113e-01" nType="0">
            <Node pos="l" depth="3" NCoef="0" IVar="-1" Cut="0.0000000000000000e+00" cType="1" res="-1.5573647106066346e-03" rms="4.7488710284233093e-01" purity="4.5906111598014832e-01" nType="-99"/>
            <Node pos="r" depth="3" NCoef="0" IVar="-1" Cut="0.0000000000000000e+00" cType="1" res="-5.7538794353604317e-03" rms="4.4356447458267212e-01" purity="4.0165176987648010e-01" nType="-99"/>
          </Node>
          <Node pos="r" depth="2" NCoef="0" IVar="-1" Cut="0.0000000000000000e+00" cType="1" res="-5.5595687590539455e-03" rms="4.6473503112792969e-01" purity="4.4048938155174255e-01" nType="-99"/>
        </Node>
      </Node>
    </BinaryTree>
    <BinaryTree type="DecisionTree" boostWeight="1.0000000000000000e+00" itree="175">
      <Node pos="s" depth="0" NCoef="0" IVar="4" Cut="2.9820849895477295e+00" cType="1" res="-7.5794331496581435e-04" rms="4.6596208214759827e-01" purity="5.0285065174102783e-01" nType="0">
        <Node pos="l" depth="1" NCoef="0" IVar="6" Cut="2.8423008918762207e+00" cType="1" res="2.5831761304289103e-03" rms="4.6724453568458557e-01" purity="5.1004409790039062e-01" nType="0">
          <Node pos="l" depth="2" NCoef="0" IVar="4" Cut="2.4317371845245361e+00" cType="1" res="3.6750527215190232e-04" rms="4.6598660945892334e-01" purity="5.1007753610610962e-01" nType="0">
            <Node pos="l" depth="3" NCoef="0" IVar="-1" Cut="0.0000000000000000e+00" cType="1" res="-2.2737809922546148e-03" rms="4.6654343605041504e-01" purity="4.9563878774642944e-01" nType="-99"/>
            <Node pos="r" depth="3" NCoef="0" IVar="-1" Cut="0.0000000000000000e+00" cType="1" res="1.0283128358423710e-02" rms="4.6390113234519958e-01" purity="5.6132090091705322e-01" nType="-99"/>
          </Node>
          <Node pos="r" depth="2" NCoef="0" IVar="5" Cut="7.4790179729461670e-01" cType="1" res="2.2763336077332497e-02" rms="4.7807711362838745e-01" purity="5.0973904132843018e-01" nType="0">
            <Node pos="l" depth="3" NCoef="0" IVar="-1" Cut="0.0000000000000000e+00" cType="1" res="2.5149034336209297e-02" rms="4.8105308413505554e-01" purity="4.6325090527534485e-01" nType="-99"/>
            <Node pos="r" depth="3" NCoef="0" IVar="-1" Cut="0.0000000000000000e+00" cType="1" res="2.4643853306770325e-02" rms="4.7480452060699463e-01" purity="5.6036937236785889e-01" nType="-99"/>
          </Node>
        </Node>
        <Node pos="r" depth="1" NCoef="0" IVar="6" Cut="2.2430026531219482e+00" cType="1" res="-1.9623089581727982e-02" rms="4.5819666981697083e-01" purity="4.6223399043083191e-01" nType="0">
          <Node pos="l" depth="2" NCoef="0" IVar="8" Cut="7.4917757812500000e+04" cType="1" res="7.1213818155229092e-03" rms="4.5752575993537903e-01" purity="5.1932537555694580e-01" nType="0">
            <Node pos="l" depth="3" NCoef="0" IVar="-1" Cut="0.0000000000000000e+00" cType="1" res="-8.7373773567378521e-05" rms="4.6314513683319092e-01" purity="4.3459549546241760e-01" nType="-99"/>
            <Node pos="r" depth="3" NCoef="0" IVar="-1" Cut="0.0000000000000000e+00" cType="1" res="1.9897025078535080e-02" rms="4.4848063588142395e-01" purity="6.5020078420639038e-01" nType="-99"/>
          </Node>
          <Node pos="r" depth="2" NCoef="0" IVar="-1" Cut="0.0000000000000000e+00" cType="1" res="-3.2327033113688231e-03" rms="4.5382863283157349e-01" purity="3.3146461844444275e-01" nType="-99"/>
        </Node>
      </Node>
    </BinaryTree>
    <BinaryTree type="DecisionTree" boostWeight="1.0000000000000000e+00" itree="176">
      <Node pos="s" depth="0" NCoef="0" IVar="4" Cut="3.2201938629150391e+00" cType="1" res="-5.9841740876436234e-03" rms="4.6302244067192078e-01" purity="4.9928337335586548e-01" nType="0">
        <Node pos="l" depth="1" NCoef="0" IVar="6" Cut="-2.5431728363037109e+00" cType="1" res="-3.1689712777733803e-03" rms="4.6366000175476074e-01" purity="5.0964593887329102e-01" nType="0">
          <Node pos="l" depth="2" NCoef="0" IVar="2" Cut="2.0377192687988281e+02" cType="1" res="9.3214623630046844e-03" rms="4.7280573844909668e-01" purity="4.8904737830162048e-01" nType="0">
            <Node pos="l" depth="3" NCoef="0" IVar="-1" Cut="0.0000000000000000e+00" cType="1" res="-1.3183870352804661e-02" rms="4.7608363628387451e-01" purity="4.4237622618675232e-01" nType="-99"/>
            <Node pos="r" depth="3" NCoef="0" IVar="-1" Cut="0.0000000000000000e+00" cType="1" res="3.9712131023406982e-02" rms="4.6785920858383179e-01" purity="5.4308986663818359e-01" nType="-99"/>
          </Node>
          <Node pos="r" depth="2" NCoef="0" IVar="7" Cut="6.0000000000000000e+00" cType="1" res="-5.9095285832881927e-03" rms="4.6157488226890564e-01" purity="5.1417642831802368e-01" nType="0">
            <Node pos="l" depth="3" NCoef="0" IVar="-1" Cut="0.0000000000000000e+00" cType="1" res="-8.7198987603187561e-03" rms="4.6574145555496216e-01" purity="4.6487572789192200e-01" nType="-99"/>
            <Node pos="r" depth="3" NCoef="0" IVar="-1" Cut="0.0000000000000000e+00" cType="1" res="4.4686924666166306e-03" rms="4.5114544034004211e-01" purity="6.3404780626296997e-01" nType="-99"/>
          </Node>
        </Node>
        <Node pos="r" depth="1" NCoef="0" IVar="-1" Cut="0.0000000000000000e+00" cType="1" res="-3.1588836573064327e-03" rms="4.5219343900680542e-01" purity="3.5452291369438171e-01" nType="-99"/>
      </Node>
    </BinaryTree>
    <BinaryTree type="DecisionTree" boostWeight="1.0000000000000000e+00" itree="177">
      <Node pos="s" depth="0" NCoef="0" IVar="1" Cut="2.6666250000000000e+05" cType="1" res="-7.0175924338400364e-03" rms="4.6311980485916138e-01" purity="4.9714958667755127e-01" nType="0">
        <Node pos="l" depth="1" NCoef="0" IVar="6" Cut="2.2439060211181641e+00" cType="1" res="-5.2244327962398529e-03" rms="4.6512135863304138e-01" purity="5.1169615983963013e-01" nType="0">
          <Node pos="l" depth="2" NCoef="0" IVar="8" Cut="1.3762271875000000e+05" cType="1" res="0.0000000000000000e+00" rms="0.0000000000000000e+00" purity="5.2987807989120483e-01" nType="0">
            <Node pos="l" depth="3" NCoef="0" IVar="-1" Cut="0.0000000000000000e+00" cType="1" res="1.4658226864412427e-03" rms="4.6568304300308228e-01" purity="5.1630514860153198e-01" nType="-99"/>
            <Node pos="r" depth="3" NCoef="0" IVar="-1" Cut="0.0000000000000000e+00" cType="1" res="-3.5051729530096054e-02" rms="4.3395876884460449e-01" purity="6.9362586736679077e-01" nType="-99"/>
          </Node>
          <Node pos="r" depth="2" NCoef="0" IVar="4" Cut="2.9217648506164551e+00" cType="1" res="-1.8186340108513832e-02" rms="4.6977323293685913e-01" purity="4.5981180667877197e-01" nType="0">
            <Node pos="l" depth="3" NCoef="0" IVar="-1" Cut="0.0000000000000000e+00" cType="1" res="-8.1728920340538025e-03" rms="4.7412332892417908e-01" purity="4.8227423429489136e-01" nType="-99"/>
            <Node pos="r" depth="3" NCoef="0" IVar="-1" Cut="0.0000000000000000e+00" cType="1" res="-4.2393091134727001e-03" rms="4.4962173700332642e-01" purity="3.7032547593116760e-01" nType="-99"/>
          </Node>
        </Node>
        <Node pos="r" depth="1" NCoef="0" IVar="-1" Cut="0.0000000000000000e+00" cType="1" res="-3.7385284900665283e-02" rms="4.3531581759452820e-01" purity="3.0623444914817810e-01" nType="-99"/>
      </Node>
    </BinaryTree>
    <BinaryTree type="DecisionTree" boostWeight="1.0000000000000000e+00" itree="178">
      <Node pos="s" depth="0" NCoef="0" IVar="4" Cut="3.0120081901550293e+00" cType="1" res="-1.0740896686911583e-02" rms="4.6608296036720276e-01" purity="4.8791638016700745e-01" nType="0">
        <Node pos="l" depth="1" NCoef="0" IVar="4" Cut="7.8734600543975830e-01" cType="1" res="0.0000000000000000e+00" rms="0.0000000000000000e+00" purity="5.0212693214416504e-01" nType="0">
          <Node pos="l" depth="2" NCoef="0" IVar="4" Cut="5.5557423830032349e-01" cType="1" res="2.5355456396937370e-02" rms="4.7460743784904480e-01" purity="4.7210645675659180e-01" nType="0">
            <Node pos="l" depth="3" NCoef="0" IVar="-1" Cut="0.0000000000000000e+00" cType="1" res="-2.2271117195487022e-03" rms="4.7661983966827393e-01" purity="4.6299195289611816e-01" nType="-99"/>
            <Node pos="r" depth="3" NCoef="0" IVar="-1" Cut="0.0000000000000000e+00" cType="1" res="4.8312254250049591e-02" rms="4.7241264581680298e-01" purity="4.7815579175949097e-01" nType="-99"/>
          </Node>
          <Node pos="r" depth="2" NCoef="0" IVar="4" Cut="1.2110971212387085e+00" cType="1" res="-6.2707243487238884e-03" rms="4.6665239334106445e-01" purity="5.0701630115509033e-01" nType="0">
            <Node pos="l" depth="3" NCoef="0" IVar="-1" Cut="0.0000000000000000e+00" cType="1" res="-3.6457009613513947e-02" rms="4.5813840627670288e-01" purity="4.3786409497261047e-01" nType="-99"/>
            <Node pos="r" depth="3" NCoef="0" IVar="-1" Cut="0.0000000000000000e+00" cType="1" res="-9.2387542827054858e-04" rms="4.6863681077957153e-01" purity="5.2445888519287109e-01" nType="-99"/>
          </Node>
        </Node>
        <Node pos="r" depth="1" NCoef="0" IVar="6" Cut="1.4935645461082458e-01" cType="1" res="-5.9416700154542923e-02" rms="4.5291391015052795e-01" purity="4.1019311547279358e-01" nType="0">
          <Node pos="l" depth="2" NCoef="0" IVar="-1" Cut="0.0000000000000000e+00" cType="1" res="5.6117860367521644e-04" rms="4.6629583835601807e-01" purity="5.0324159860610962e-01" nType="-99"/>
          <Node pos="r" depth="2" NCoef="0" IVar="-1" Cut="0.0000000000000000e+00" cType="1" res="-3.4794600214809179e-03" rms="4.3642717599868774e-01" purity="3.3723026514053345e-01" nType="-99"/>
        </Node>
      </Node>
    </BinaryTree>
    <BinaryTree type="DecisionTree" boostWeight="1.0000000000000000e+00" itree="179">
      <Node pos="s" depth="0" NCoef="0" IVar="5" Cut="2.8422451019287109e+00" cType="1" res="1.1229728115722537e-03" rms="4.6512171626091003e-01" purity="5.0567477941513062e-01" nType="0">
        <Node pos="l" depth="1" NCoef="0" IVar="2" Cut="2.9786450195312500e+02" cType="1" res="0.0000000000000000e+00" rms="0.0000000000000000e+00" purity="5.0247597694396973e-01" nType="0">
          <Node pos="l" depth="2" NCoef="0" IVar="2" Cut="2.3000599670410156e+02" cType="1" res="6.7797829397022724e-03" rms="4.6444436907768250e-01" purity="5.0051683187484741e-01" nType="0">
            <Node pos="l" depth="3" NCoef="0" IVar="-1" Cut="0.0000000000000000e+00" cType="1" res="4.0207444690167904e-03" rms="4.6239995956420898e-01" purity="5.0446099042892456e-01" nType="-99"/>
            <Node pos="r" depth="3" NCoef="0" IVar="-1" Cut="0.0000000000000000e+00" cType="1" res="2.9748518019914627e-02" rms="4.7488036751747131e-01" purity="4.7932389378547668e-01" nType="-99"/>
          </Node>
          <Node pos="r" depth="2" NCoef="0" IVar="4" Cut="1.4103810787200928e+00" cType="1" res="0.0000000000000000e+00" rms="0.0000000000000000e+00" purity="5.1150470972061157e-01" nType="0">
            <Node pos="l" depth="3" NCoef="0" IVar="-1" Cut="0.0000000000000000e+00" cType="1" res="-3.3715963363647461e-02" rms="4.6686556935310364e-01" purity="4.3643528223037720e-01" nType="-99"/>
            <Node pos="r" depth="3" NCoef="0" IVar="-1" Cut="0.0000000000000000e+00" cType="1" res="9.4342906959354877e-04" rms="4.7025990486145020e-01" purity="5.5292063951492310e-01" nType="-99"/>
          </Node>
        </Node>
        <Node pos="r" depth="1" NCoef="0" IVar="-1" Cut="0.0000000000000000e+00" cType="1" res="-3.4003835171461105e-02" rms="4.6083852648735046e-01" purity="5.4592782258987427e-01" nType="-99"/>
      </Node>
    </BinaryTree>
    <BinaryTree type="DecisionTree" boostWeight="1.0000000000000000e+00" itree="180">
      <Node pos="s" depth="0" NCoef="0" IVar="5" Cut="-2.5432150363922119e+00" cType="1" res="-3.6194899585098028e-03" rms="4.6500670909881592e-01" purity="4.9773469567298889e-01" nType="0">
        <Node pos="l" depth="1" NCoef="0" IVar="4" Cut="2.5157310962677002e+00" cType="1" res="-3.0789447948336601e-02" rms="4.6244838833808899e-01" purity="4.9030238389968872e-01" nType="0">
          <Node pos="l" depth="2" NCoef="0" IVar="4" Cut="1.3717440366744995e+00" cType="1" res="8.0692470073699951e-03" rms="4.7425380349159241e-01" purity="5.3060686588287354e-01" nType="0">
            <Node pos="l" depth="3" NCoef="0" IVar="-1" Cut="0.0000000000000000e+00" cType="1" res="2.6604520156979561e-02" rms="4.7672170400619507e-01" purity="4.9268755316734314e-01" nType="-99"/>
            <Node pos="r" depth="3" NCoef="0" IVar="-1" Cut="0.0000000000000000e+00" cType="1" res="-9.0352259576320648e-03" rms="4.7090774774551392e-01" purity="5.7340210676193237e-01" nType="-99"/>
          </Node>
          <Node pos="r" depth="2" NCoef="0" IVar="-1" Cut="0.0000000000000000e+00" cType="1" res="-4.8238700255751610e-03" rms="4.3843474984169006e-01" purity="4.3130290508270264e-01" nType="-99"/>
        </Node>
        <Node pos="r" depth="1" NCoef="0" IVar="4" Cut="2.9616189002990723e+00" cType="1" res="0.0000000000000000e+00" rms="0.0000000000000000e+00" purity="4.9918350577354431e-01" nType="0">
          <Node pos="l" depth="2" NCoef="0" IVar="6" Cut="-2.2439687252044678e+00" cType="1" res="-1.4662978937849402e-03" rms="4.6687743067741394e-01" purity="4.9923679232597351e-01" nType="0">
            <Node pos="l" depth="3" NCoef="0" IVar="-1" Cut="0.0000000000000000e+00" cType="1" res="1.4186697080731392e-02" rms="4.7878575325012207e-01" purity="4.6738028526306152e-01" nType="-99"/>
            <Node pos="r" depth="3" NCoef="0" IVar="-1" Cut="0.0000000000000000e+00" cType="1" res="-5.4272850975394249e-03" rms="4.6308380365371704e-01" purity="5.0899761915206909e-01" nType="-99"/>
          </Node>
          <Node pos="r" depth="2" NCoef="0" IVar="5" Cut="7.0513910055160522e-01" cType="1" res="1.9825424998998642e-02" rms="4.5579326152801514e-01" purity="4.9887573719024658e-01" nType="0">
            <Node pos="l" depth="3" NCoef="0" IVar="-1" Cut="0.0000000000000000e+00" cType="1" res="4.0444049984216690e-02" rms="4.6818900108337402e-01" purity="5.1723933219909668e-01" nType="-99"/>
            <Node pos="r" depth="3" NCoef="0" IVar="-1" Cut="0.0000000000000000e+00" cType="1" res="9.0704560279846191e-03" rms="4.4518727064132690e-01" purity="4.8399072885513306e-01" nType="-99"/>
          </Node>
        </Node>
      </Node>
    </BinaryTree>
    <BinaryTree type="DecisionTree" boostWeight="1.0000000000000000e+00" itree="181">
      <Node pos="s" depth="0" NCoef="0" IVar="7" Cut="6.0000000000000000e+00" cType="1" res="-5.5339862592518330e-03" rms="4.6343362331390381e-01" purity="4.9709323048591614e-01" nType="0">
        <Node pos="l" depth="1" NCoef="0" IVar="6" Cut="-2.8423554897308350e+00" cType="1" res="-8.5245125228539109e-04" rms="4.6574813127517700e-01" purity="4.6353870630264282e-01" nType="0">
          <Node pos="l" depth="2" NCoef="0" IVar="9" Cut="3.5035527343750000e+04" cType="1" res="-2.1114625036716461e-02" rms="4.6905112266540527e-01" purity="4.6000126004219055e-01" nType="0">
            <Node pos="l" depth="3" NCoef="0" IVar="-1" Cut="0.0000000000000000e+00" cType="1" res="-4.0503807365894318e-02" rms="4.5650821924209595e-01" purity="3.5222437977790833e-01" nType="-99"/>
            <Node pos="r" depth="3" NCoef="0" IVar="-1" Cut="0.0000000000000000e+00" cType="1" res="-4.4336197897791862e-03" rms="4.8077270388603210e-01" purity="5.6881159543991089e-01" nType="-99"/>
          </Node>
          <Node pos="r" depth="2" NCoef="0" IVar="3" Cut="5.6440114974975586e+00" cType="1" res="0.0000000000000000e+00" rms="0.0000000000000000e+00" purity="4.6397572755813599e-01" nType="0">
            <Node pos="l" depth="3" NCoef="0" IVar="-1" Cut="0.0000000000000000e+00" cType="1" res="4.9868435598909855e-03" rms="4.6789321303367615e-01" purity="4.6726173162460327e-01" nType="-99"/>
            <Node pos="r" depth="3" NCoef="0" IVar="-1" Cut="0.0000000000000000e+00" cType="1" res="-5.8947629295289516e-03" rms="4.6070945262908936e-01" purity="4.5842173695564270e-01" nType="-99"/>
          </Node>
        </Node>
        <Node pos="r" depth="1" NCoef="0" IVar="6" Cut="2.2434110641479492e+00" cType="1" res="-1.8445866182446480e-02" rms="4.5676335692405701e-01" purity="5.8948689699172974e-01" nType="0">
          <Node pos="l" depth="2" NCoef="0" IVar="5" Cut="1.9445935487747192e+00" cType="1" res="-4.7151059843599796e-03" rms="4.5418170094490051e-01" purity="6.2554550170898438e-01" nType="0">
            <Node pos="l" depth="3" NCoef="0" IVar="-1" Cut="0.0000000000000000e+00" cType="1" res="3.1829564832150936e-03" rms="4.5443311333656311e-01" purity="6.2670546770095825e-01" nType="-99"/>
            <Node pos="r" depth="3" NCoef="0" IVar="-1" Cut="0.0000000000000000e+00" cType="1" res="-2.3556360974907875e-02" rms="4.5294263958930969e-01" purity="6.2242567539215088e-01" nType="-99"/>
          </Node>
          <Node pos="r" depth="2" NCoef="0" IVar="-1" Cut="0.0000000000000000e+00" cType="1" res="-3.4680031239986420e-03" rms="4.6309244632720947e-01" purity="4.3403378129005432e-01" nType="-99"/>
        </Node>
      </Node>
    </BinaryTree>
    <BinaryTree type="DecisionTree" boostWeight="1.0000000000000000e+00" itree="182">
      <Node pos="s" depth="0" NCoef="0" IVar="4" Cut="3.2250001430511475e+00" cType="1" res="-3.6427681334316730e-03" rms="4.6572598814964294e-01" purity="4.9738919734954834e-01" nType="0">
        <Node pos="l" depth="1" NCoef="0" IVar="9" Cut="8.9693320312500000e+04" cType="1" res="-7.5411977013573050e-04" rms="4.6608451008796692e-01" purity="5.0756913423538208e-01" nType="0">
          <Node pos="l" depth="2" NCoef="0" IVar="8" Cut="1.0186434375000000e+05" cType="1" res="9.2878541909158230e-04" rms="4.6828970313072205e-01" purity="4.9229058623313904e-01" nType="0">
            <Node pos="l" depth="3" NCoef="0" IVar="-1" Cut="0.0000000000000000e+00" cType="1" res="-1.6570299630984664e-03" rms="4.6958827972412109e-01" purity="4.7252970933914185e-01" nType="-99"/>
            <Node pos="r" depth="3" NCoef="0" IVar="-1" Cut="0.0000000000000000e+00" cType="1" res="2.5404289364814758e-02" rms="4.5608675479888916e-01" purity="6.6518527269363403e-01" nType="-99"/>
          </Node>
          <Node pos="r" depth="2" NCoef="0" IVar="-1" Cut="0.0000000000000000e+00" cType="1" res="-2.7756096795201302e-02" rms="4.3753647804260254e-01" purity="6.9542217254638672e-01" nType="-99"/>
        </Node>
        <Node pos="r" depth="1" NCoef="0" IVar="-1" Cut="0.0000000000000000e+00" cType="1" res="-3.0543068423867226e-03" rms="4.5877185463905334e-01" purity="3.5487636923789978e-01" nType="-99"/>
      </Node>
    </BinaryTree>
    <BinaryTree type="DecisionTree" boostWeight="1.0000000000000000e+00" itree="183">
      <Node pos="s" depth="0" NCoef="0" IVar="4" Cut="2.7320413589477539e+00" cType="1" res="-2.4541830644011497e-03" rms="4.6483334898948669e-01" purity="5.0067186355590820e-01" nType="0">
        <Node pos="l" depth="1" NCoef="0" IVar="6" Cut="-2.5431940555572510e+00" cType="1" res="1.5978581504896283e-03" rms="4.6604180335998535e-01" purity="5.0072634220123291e-01" nType="0">
          <Node pos="l" depth="2" NCoef="0" IVar="3" Cut="7.1692051887512207e+00" cType="1" res="1.8382322043180466e-02" rms="4.7369825839996338e-01" purity="4.9496433138847351e-01" nType="0">
            <Node pos="l" depth="3" NCoef="0" IVar="-1" Cut="0.0000000000000000e+00" cType="1" res="3.1776748597621918e-02" rms="4.8065876960754395e-01" purity="5.0996488332748413e-01" nType="-99"/>
            <Node pos="r" depth="3" NCoef="0" IVar="-1" Cut="0.0000000000000000e+00" cType="1" res="-1.0617992840707302e-02" rms="4.5793193578720093e-01" purity="4.6397644281387329e-01" nType="-99"/>
          </Node>
          <Node pos="r" depth="2" NCoef="0" IVar="5" Cut="-1.4953058958053589e-01" cType="1" res="-1.9270869670435786e-03" rms="4.6434074640274048e-01" purity="5.0193649530410767e-01" nType="0">
            <Node pos="l" depth="3" NCoef="0" IVar="-1" Cut="0.0000000000000000e+00" cType="1" res="-7.5306515209376812e-03" rms="4.6301332116127014e-01" purity="5.0016289949417114e-01" nType="-99"/>
            <Node pos="r" depth="3" NCoef="0" IVar="-1" Cut="0.0000000000000000e+00" cType="1" res="3.1611786689609289e-03" rms="4.6528211236000061e-01" purity="5.0327402353286743e-01" nType="-99"/>
          </Node>
        </Node>
        <Node pos="r" depth="1" NCoef="0" IVar="6" Cut="2.5425455570220947e+00" cType="1" res="-1.5422206372022629e-02" rms="4.6070501208305359e-01" purity="5.0049746036529541e-01" nType="0">
          <Node pos="l" depth="2" NCoef="0" IVar="5" Cut="1.6455086469650269e+00" cType="1" res="-2.5795653462409973e-02" rms="4.5730444788932800e-01" purity="5.0294458866119385e-01" nType="0">
            <Node pos="l" depth="3" NCoef="0" IVar="-1" Cut="0.0000000000000000e+00" cType="1" res="-3.7912360858172178e-03" rms="4.5736500620841980e-01" purity="4.8473760485649109e-01" nType="-99"/>
            <Node pos="r" depth="3" NCoef="0" IVar="-1" Cut="0.0000000000000000e+00" cType="1" res="1.8938397988677025e-02" rms="4.5444002747535706e-01" purity="5.4650843143463135e-01" nType="-99"/>
          </Node>
          <Node pos="r" depth="2" NCoef="0" IVar="-1" Cut="0.0000000000000000e+00" cType="1" res="3.8386046886444092e-02" rms="4.7243481874465942e-01" purity="4.9000445008277893e-01" nType="-99"/>
        </Node>
      </Node>
    </BinaryTree>
    <BinaryTree type="DecisionTree" boostWeight="1.0000000000000000e+00" itree="184">
      <Node pos="s" depth="0" NCoef="0" IVar="1" Cut="2.6483278125000000e+05" cType="1" res="-2.6302118785679340e-03" rms="4.6374759078025818e-01" purity="5.0272154808044434e-01" nType="0">
        <Node pos="l" depth="1" NCoef="0" IVar="3" Cut="-1.1199638843536377e+00" cType="1" res="-5.2556204609572887e-03" rms="4.6465685963630676e-01" purity="5.1420372724533081e-01" nType="0">
          <Node pos="l" depth="2" NCoef="0" IVar="-1" Cut="0.0000000000000000e+00" cType="1" res="-2.9826011508703232e-02" rms="4.6751064062118530e-01" purity="4.0041825175285339e-01" nType="-99"/>
          <Node pos="r" depth="2" NCoef="0" IVar="1" Cut="1.6827721875000000e+05" cType="1" res="-2.9935594648122787e-03" rms="4.6435365080833435e-01" purity="5.2329212427139282e-01" nType="0">
            <Node pos="l" depth="3" NCoef="0" IVar="-1" Cut="0.0000000000000000e+00" cType="1" res="1.9557208288460970e-03" rms="4.6956303715705872e-01" purity="5.5314165353775024e-01" nType="-99"/>
            <Node pos="r" depth="3" NCoef="0" IVar="-1" Cut="0.0000000000000000e+00" cType="1" res="-1.3704106211662292e-02" rms="4.5229980349540710e-01" purity="4.5669063925743103e-01" nType="-99"/>
          </Node>
        </Node>
        <Node pos="r" depth="1" NCoef="0" IVar="-1" Cut="0.0000000000000000e+00" cType="1" res="4.1931342333555222e-02" rms="4.5038563013076782e-01" purity="3.5360890626907349e-01" nType="-99"/>
      </Node>
    </BinaryTree>
    <BinaryTree type="DecisionTree" boostWeight="1.0000000000000000e+00" itree="185">
      <Node pos="s" depth="0" NCoef="0" IVar="4" Cut="3.2655649185180664e+00" cType="1" res="4.8656199942342937e-04" rms="4.6541747450828552e-01" purity="5.0244396924972534e-01" nType="0">
        <Node pos="l" depth="1" NCoef="0" IVar="4" Cut="1.7411834001541138e+00" cType="1" res="7.2479145601391792e-03" rms="4.6676871180534363e-01" purity="5.1771336793899536e-01" nType="0">
          <Node pos="l" depth="2" NCoef="0" IVar="2" Cut="2.0790040588378906e+02" cType="1" res="1.4517731033265591e-02" rms="4.6707576513290405e-01" purity="4.8925441503524780e-01" nType="0">
            <Node pos="l" depth="3" NCoef="0" IVar="-1" Cut="0.0000000000000000e+00" cType="1" res="6.6398433409631252e-03" rms="4.6347364783287048e-01" purity="4.9304339289665222e-01" nType="-99"/>
            <Node pos="r" depth="3" NCoef="0" IVar="-1" Cut="0.0000000000000000e+00" cType="1" res="3.4069709479808807e-02" rms="4.7233101725578308e-01" purity="4.8334169387817383e-01" nType="-99"/>
          </Node>
          <Node pos="r" depth="2" NCoef="0" IVar="4" Cut="2.2493391036987305e+00" cType="1" res="5.6347670033574104e-04" rms="4.6638622879981995e-01" purity="5.4388082027435303e-01" nType="0">
            <Node pos="l" depth="3" NCoef="0" IVar="-1" Cut="0.0000000000000000e+00" cType="1" res="-7.1011260151863098e-03" rms="4.6766224503517151e-01" purity="5.1735043525695801e-01" nType="-99"/>
            <Node pos="r" depth="3" NCoef="0" IVar="-1" Cut="0.0000000000000000e+00" cType="1" res="3.6082125734537840e-03" rms="4.6575811505317688e-01" purity="5.5595850944519043e-01" nType="-99"/>
          </Node>
        </Node>
        <Node pos="r" depth="1" NCoef="0" IVar="-1" Cut="0.0000000000000000e+00" cType="1" res="-3.1311055645346642e-03" rms="4.3458896875381470e-01" purity="2.8566628694534302e-01" nType="-99"/>
      </Node>
    </BinaryTree>
    <BinaryTree type="DecisionTree" boostWeight="1.0000000000000000e+00" itree="186">
      <Node pos="s" depth="0" NCoef="0" IVar="4" Cut="2.9526097774505615e+00" cType="1" res="0.0000000000000000e+00" rms="0.0000000000000000e+00" purity="4.9981173872947693e-01" nType="0">
        <Node pos="l" depth="1" NCoef="0" IVar="4" Cut="1.7147874832153320e+00" cType="1" res="3.1288887839764357e-04" rms="4.6427115797996521e-01" purity="5.0920134782791138e-01" nType="0">
          <Node pos="l" depth="2" NCoef="0" IVar="6" Cut="-2.2439959049224854e+00" cType="1" res="0.0000000000000000e+00" rms="0.0000000000000000e+00" purity="4.7307530045509338e-01" nType="0">
            <Node pos="l" depth="3" NCoef="0" IVar="-1" Cut="0.0000000000000000e+00" cType="1" res="-3.6684595048427582e-02" rms="4.6950283646583557e-01" purity="4.2839950323104858e-01" nType="-99"/>
            <Node pos="r" depth="3" NCoef="0" IVar="-1" Cut="0.0000000000000000e+00" cType="1" res="-2.9208341147750616e-03" rms="4.6202209591865540e-01" purity="4.8642057180404663e-01" nType="-99"/>
          </Node>
          <Node pos="r" depth="2" NCoef="0" IVar="6" Cut="2.8419444561004639e+00" cType="1" res="0.0000000000000000e+00" rms="0.0000000000000000e+00" purity="5.4797321557998657e-01" nType="0">
            <Node pos="l" depth="3" NCoef="0" IVar="-1" Cut="0.0000000000000000e+00" cType="1" res="1.4633910730481148e-02" rms="4.6380925178527832e-01" purity="5.5415481328964233e-01" nType="-99"/>
            <Node pos="r" depth="3" NCoef="0" IVar="-1" Cut="0.0000000000000000e+00" cType="1" res="-8.0143278464674950e-03" rms="4.6830210089683533e-01" purity="4.9994468688964844e-01" nType="-99"/>
          </Node>
        </Node>
        <Node pos="r" depth="1" NCoef="0" IVar="6" Cut="7.4762582778930664e-01" cType="1" res="-4.2478084564208984e-02" rms="4.5206168293952942e-01" purity="4.5345941185951233e-01" nType="0">
          <Node pos="l" depth="2" NCoef="0" IVar="5" Cut="-1.3464331626892090e+00" cType="1" res="6.5226556034758687e-04" rms="4.5742619037628174e-01" purity="5.3337246179580688e-01" nType="0">
            <Node pos="l" depth="3" NCoef="0" IVar="-1" Cut="0.0000000000000000e+00" cType="1" res="-1.2622401118278503e-02" rms="4.6179357171058655e-01" purity="4.8483720421791077e-01" nType="-99"/>
            <Node pos="r" depth="3" NCoef="0" IVar="-1" Cut="0.0000000000000000e+00" cType="1" res="1.5621831640601158e-02" rms="4.5196121931076050e-01" purity="5.8930540084838867e-01" nType="-99"/>
          </Node>
          <Node pos="r" depth="2" NCoef="0" IVar="-1" Cut="0.0000000000000000e+00" cType="1" res="-3.0472299549728632e-03" rms="4.4097304344177246e-01" purity="3.6380141973495483e-01" nType="-99"/>
        </Node>
      </Node>
    </BinaryTree>
    <BinaryTree type="DecisionTree" boostWeight="1.0000000000000000e+00" itree="187">
      <Node pos="s" depth="0" NCoef="0" IVar="4" Cut="6.0984086990356445e-01" cType="1" res="-1.6031234990805387e-03" rms="4.6579566597938538e-01" purity="5.0621539354324341e-01" nType="0">
        <Node pos="l" depth="1" NCoef="0" IVar="-1" Cut="0.0000000000000000e+00" cType="1" res="-4.5509900897741318e-02" rms="4.6919897198677063e-01" purity="4.4555309414863586e-01" nType="-99"/>
        <Node pos="r" depth="1" NCoef="0" IVar="9" Cut="9.3074835937500000e+04" cType="1" res="8.0965302186086774e-04" rms="4.6546697616577148e-01" purity="5.1028513908386230e-01" nType="0">
          <Node pos="l" depth="2" NCoef="0" IVar="6" Cut="2.8422803878784180e+00" cType="1" res="-5.8476353297010064e-04" rms="4.6821165084838867e-01" purity="4.9552202224731445e-01" nType="0">
            <Node pos="l" depth="3" NCoef="0" IVar="-1" Cut="0.0000000000000000e+00" cType="1" res="-2.7489077765494585e-03" rms="4.6707344055175781e-01" purity="4.9563226103782654e-01" nType="-99"/>
            <Node pos="r" depth="3" NCoef="0" IVar="-1" Cut="0.0000000000000000e+00" cType="1" res="1.7261225730180740e-02" rms="4.7738716006278992e-01" purity="4.9459165334701538e-01" nType="-99"/>
          </Node>
          <Node pos="r" depth="2" NCoef="0" IVar="-1" Cut="0.0000000000000000e+00" cType="1" res="3.0184440314769745e-02" rms="4.1913208365440369e-01" purity="7.4344217777252197e-01" nType="-99"/>
        </Node>
      </Node>
    </BinaryTree>
    <BinaryTree type="DecisionTree" boostWeight="1.0000000000000000e+00" itree="188">
      <Node pos="s" depth="0" NCoef="0" IVar="4" Cut="2.9988031387329102e+00" cType="1" res="-7.1939248591661453e-03" rms="4.6361950039863586e-01" purity="4.9812489748001099e-01" nType="0">
        <Node pos="l" depth="1" NCoef="0" IVar="5" Cut="-2.8423984050750732e+00" cType="1" res="5.8244750835001469e-04" rms="4.6444794535636902e-01" purity="5.0827711820602417e-01" nType="0">
          <Node pos="l" depth="2" NCoef="0" IVar="-1" Cut="0.0000000000000000e+00" cType="1" res="3.2655775547027588e-02" rms="4.5900565385818481e-01" purity="5.8642131090164185e-01" nType="-99"/>
          <Node pos="r" depth="2" NCoef="0" IVar="8" Cut="5.6172871093750000e+04" cType="1" res="-1.5072959940880537e-03" rms="4.6479603648185730e-01" purity="5.0229299068450928e-01" nType="0">
            <Node pos="l" depth="3" NCoef="0" IVar="-1" Cut="0.0000000000000000e+00" cType="1" res="-8.1500057131052017e-03" rms="4.6310940384864807e-01" purity="3.8271608948707581e-01" nType="-99"/>
            <Node pos="r" depth="3" NCoef="0" IVar="-1" Cut="0.0000000000000000e+00" cType="1" res="6.2743597663938999e-03" rms="4.6606019139289856e-01" purity="6.0153454542160034e-01" nType="-99"/>
          </Node>
        </Node>
        <Node pos="r" depth="1" NCoef="0" IVar="2" Cut="1.8588108825683594e+02" cType="1" res="-5.2524406462907791e-02" rms="4.5612916350364685e-01" purity="4.3894484639167786e-01" nType="0">
          <Node pos="l" depth="2" NCoef="0" IVar="-1" Cut="0.0000000000000000e+00" cType="1" res="-2.2223953157663345e-02" rms="4.5878240466117859e-01" purity="5.0147730112075806e-01" nType="-99"/>
          <Node pos="r" depth="2" NCoef="0" IVar="7" Cut="5.0000000000000000e+00" cType="1" res="-7.6701559126377106e-02" rms="4.5269888639450073e-01" purity="3.9524742960929871e-01" nType="0">
            <Node pos="l" depth="3" NCoef="0" IVar="-1" Cut="0.0000000000000000e+00" cType="1" res="-6.8112770095467567e-03" rms="4.6105858683586121e-01" purity="3.9147412776947021e-01" nType="-99"/>
            <Node pos="r" depth="3" NCoef="0" IVar="-1" Cut="0.0000000000000000e+00" cType="1" res="-3.6924858577549458e-03" rms="4.4005364179611206e-01" purity="3.9880660176277161e-01" nType="-99"/>
          </Node>
        </Node>
      </Node>
    </BinaryTree>
    <BinaryTree type="DecisionTree" boostWeight="1.0000000000000000e+00" itree="189">
      <Node pos="s" depth="0" NCoef="0" IVar="3" Cut="3.0869336128234863e+00" cType="1" res="-1.8349044257774949e-03" rms="4.6548947691917419e-01" purity="5.0347232818603516e-01" nType="0">
        <Node pos="l" depth="1" NCoef="0" IVar="8" Cut="1.0027806250000000e+05" cType="1" res="0.0000000000000000e+00" rms="0.0000000000000000e+00" purity="4.8411408066749573e-01" nType="0">
          <Node pos="l" depth="2" NCoef="0" IVar="4" Cut="1.6635315418243408e+00" cType="1" res="1.6071917489171028e-02" rms="4.7592204809188843e-01" purity="4.6133667230606079e-01" nType="0">
            <Node pos="l" depth="3" NCoef="0" IVar="-1" Cut="0.0000000000000000e+00" cType="1" res="3.7959560751914978e-02" rms="4.8182782530784607e-01" purity="4.6534535288810730e-01" nType="-99"/>
            <Node pos="r" depth="3" NCoef="0" IVar="-1" Cut="0.0000000000000000e+00" cType="1" res="4.2996732518076897e-03" rms="4.7191721200942993e-01" purity="4.5885226130485535e-01" nType="-99"/>
          </Node>
          <Node pos="r" depth="2" NCoef="0" IVar="-1" Cut="0.0000000000000000e+00" cType="1" res="-1.3464395888149738e-02" rms="4.6514123678207397e-01" purity="6.0802567005157471e-01" nType="-99"/>
        </Node>
        <Node pos="r" depth="1" NCoef="0" IVar="8" Cut="7.3752539062500000e+04" cType="1" res="-9.0848635882139206e-03" rms="4.6047976613044739e-01" purity="5.1387560367584229e-01" nType="0">
          <Node pos="l" depth="2" NCoef="0" IVar="5" Cut="1.9446444511413574e+00" cType="1" res="8.4427243564277887e-04" rms="4.6431094408035278e-01" purity="4.4538673758506775e-01" nType="0">
            <Node pos="l" depth="3" NCoef="0" IVar="-1" Cut="0.0000000000000000e+00" cType="1" res="7.1670645847916603e-03" rms="4.6327257156372070e-01" purity="4.4214555621147156e-01" nType="-99"/>
            <Node pos="r" depth="3" NCoef="0" IVar="-1" Cut="0.0000000000000000e+00" cType="1" res="-2.9516771435737610e-02" rms="4.6757751703262329e-01" purity="4.5785719156265259e-01" nType="-99"/>
          </Node>
          <Node pos="r" depth="2" NCoef="0" IVar="9" Cut="4.8525109375000000e+04" cType="1" res="-2.6095997542142868e-02" rms="4.5333561301231384e-01" purity="6.3121438026428223e-01" nType="0">
            <Node pos="l" depth="3" NCoef="0" IVar="-1" Cut="0.0000000000000000e+00" cType="1" res="-1.4271186664700508e-02" rms="4.7732469439506531e-01" purity="4.6450391411781311e-01" nType="-99"/>
            <Node pos="r" depth="3" NCoef="0" IVar="-1" Cut="0.0000000000000000e+00" cType="1" res="-1.4897818677127361e-02" rms="4.4388422369956970e-01" purity="6.8952459096908569e-01" nType="-99"/>
          </Node>
        </Node>
      </Node>
    </BinaryTree>
    <BinaryTree type="DecisionTree" boostWeight="1.0000000000000000e+00" itree="190">
      <Node pos="s" depth="0" NCoef="0" IVar="5" Cut="-2.5430731773376465e+00" cType="1" res="-4.1413605213165283e-03" rms="4.6439176797866821e-01" purity="5.0060725212097168e-01" nType="0">
        <Node pos="l" depth="1" NCoef="0" IVar="6" Cut="-1.4963494241237640e-01" cType="1" res="0.0000000000000000e+00" rms="0.0000000000000000e+00" purity="5.0270044803619385e-01" nType="0">
          <Node pos="l" depth="2" NCoef="0" IVar="5" Cut="-2.8565664291381836e+00" cType="1" res="2.6664268225431442e-03" rms="4.7558456659317017e-01" purity="5.0569176673889160e-01" nType="0">
            <Node pos="l" depth="3" NCoef="0" IVar="-1" Cut="0.0000000000000000e+00" cType="1" res="-3.0154598876833916e-02" rms="4.7181251645088196e-01" purity="5.1029068231582642e-01" nType="-99"/>
            <Node pos="r" depth="3" NCoef="0" IVar="-1" Cut="0.0000000000000000e+00" cType="1" res="2.7202844619750977e-02" rms="4.7731232643127441e-01" purity="5.0232267379760742e-01" nType="-99"/>
          </Node>
          <Node pos="r" depth="2" NCoef="0" IVar="-1" Cut="0.0000000000000000e+00" cType="1" res="-3.2108069863170385e-03" rms="4.3141987919807434e-01" purity="4.9724847078323364e-01" nType="-99"/>
        </Node>
        <Node pos="r" depth="1" NCoef="0" IVar="5" Cut="2.3292891979217529e+00" cType="1" res="1.6731054056435823e-03" rms="4.6440577507019043e-01" purity="5.0020545721054077e-01" nType="0">
          <Node pos="l" depth="2" NCoef="0" IVar="7" Cut="5.0000000000000000e+00" cType="1" res="-1.7930287867784500e-03" rms="4.6492832899093628e-01" purity="4.8387181758880615e-01" nType="0">
            <Node pos="l" depth="3" NCoef="0" IVar="-1" Cut="0.0000000000000000e+00" cType="1" res="-7.4181267991662025e-03" rms="4.6184888482093811e-01" purity="3.8978537917137146e-01" nType="-99"/>
            <Node pos="r" depth="3" NCoef="0" IVar="-1" Cut="0.0000000000000000e+00" cType="1" res="7.4490737169981003e-03" rms="4.6736320853233337e-01" purity="5.6304818391799927e-01" nType="-99"/>
          </Node>
          <Node pos="r" depth="2" NCoef="0" IVar="3" Cut="2.4190514087677002e+00" cType="1" res="1.2622847221791744e-02" rms="4.6257099509239197e-01" purity="5.5170351266860962e-01" nType="0">
            <Node pos="l" depth="3" NCoef="0" IVar="-1" Cut="0.0000000000000000e+00" cType="1" res="3.1096648424863815e-02" rms="4.7393894195556641e-01" purity="5.1962578296661377e-01" nType="-99"/>
            <Node pos="r" depth="3" NCoef="0" IVar="-1" Cut="0.0000000000000000e+00" cType="1" res="6.1745522543787956e-04" rms="4.5582783222198486e-01" purity="5.6910806894302368e-01" nType="-99"/>
          </Node>
        </Node>
      </Node>
    </BinaryTree>
    <BinaryTree type="DecisionTree" boostWeight="1.0000000000000000e+00" itree="191">
      <Node pos="s" depth="0" NCoef="0" IVar="5" Cut="-2.5426540374755859e+00" cType="1" res="0.0000000000000000e+00" rms="0.0000000000000000e+00" purity="5.0731748342514038e-01" nType="0">
        <Node pos="l" depth="1" NCoef="0" IVar="6" Cut="-4.4922876358032227e-01" cType="1" res="-2.5149745866656303e-02" rms="4.5989814400672913e-01" purity="5.1497435569763184e-01" nType="0">
          <Node pos="l" depth="2" NCoef="0" IVar="5" Cut="-2.7705569267272949e+00" cType="1" res="5.4076872766017914e-04" rms="4.7039246559143066e-01" purity="5.0796031951904297e-01" nType="0">
            <Node pos="l" depth="3" NCoef="0" IVar="-1" Cut="0.0000000000000000e+00" cType="1" res="2.6060599833726883e-02" rms="4.7163295745849609e-01" purity="5.5208194255828857e-01" nType="-99"/>
            <Node pos="r" depth="3" NCoef="0" IVar="-1" Cut="0.0000000000000000e+00" cType="1" res="-1.1657198891043663e-02" rms="4.6769466996192932e-01" purity="4.5500472187995911e-01" nType="-99"/>
          </Node>
          <Node pos="r" depth="2" NCoef="0" IVar="-1" Cut="0.0000000000000000e+00" cType="1" res="-4.2849024757742882e-03" rms="4.3936255574226379e-01" purity="5.2625316381454468e-01" nType="-99"/>
        </Node>
        <Node pos="r" depth="1" NCoef="0" IVar="2" Cut="2.0940417480468750e+02" cType="1" res="3.2893551979213953e-03" rms="4.6433895826339722e-01" purity="5.0589215755462646e-01" nType="0">
          <Node pos="l" depth="2" NCoef="0" IVar="7" Cut="6.0000000000000000e+00" cType="1" res="8.4084337577223778e-03" rms="4.6359598636627197e-01" purity="5.1447772979736328e-01" nType="0">
            <Node pos="l" depth="3" NCoef="0" IVar="-1" Cut="0.0000000000000000e+00" cType="1" res="1.5918103978037834e-02" rms="4.6646356582641602e-01" purity="4.6602374315261841e-01" nType="-99"/>
            <Node pos="r" depth="3" NCoef="0" IVar="-1" Cut="0.0000000000000000e+00" cType="1" res="-4.4789528474211693e-03" rms="4.5775845646858215e-01" purity="6.0821288824081421e-01" nType="-99"/>
          </Node>
          <Node pos="r" depth="2" NCoef="0" IVar="9" Cut="4.6565867187500000e+04" cType="1" res="-5.4919160902500153e-03" rms="4.6546062827110291e-01" purity="4.9123013019561768e-01" nType="0">
            <Node pos="l" depth="3" NCoef="0" IVar="-1" Cut="0.0000000000000000e+00" cType="1" res="-8.6166020482778549e-03" rms="4.6316209435462952e-01" purity="3.9310821890830994e-01" nType="-99"/>
            <Node pos="r" depth="3" NCoef="0" IVar="-1" Cut="0.0000000000000000e+00" cType="1" res="7.4690184555947781e-03" rms="4.6820688247680664e-01" purity="6.2201505899429321e-01" nType="-99"/>
          </Node>
        </Node>
      </Node>
    </BinaryTree>
    <BinaryTree type="DecisionTree" boostWeight="1.0000000000000000e+00" itree="192">
      <Node pos="s" depth="0" NCoef="0" IVar="7" Cut="7.0000000000000000e+00" cType="1" res="-8.4792906418442726e-03" rms="4.6445184946060181e-01" purity="5.0190937519073486e-01" nType="0">
        <Node pos="l" depth="1" NCoef="0" IVar="8" Cut="6.4477210937500000e+04" cType="1" res="-1.1153710074722767e-02" rms="4.6541050076484680e-01" purity="4.8628768324851990e-01" nType="0">
          <Node pos="l" depth="2" NCoef="0" IVar="6" Cut="2.8422818183898926e+00" cType="1" res="0.0000000000000000e+00" rms="0.0000000000000000e+00" purity="4.1416203975677490e-01" nType="0">
            <Node pos="l" depth="3" NCoef="0" IVar="-1" Cut="0.0000000000000000e+00" cType="1" res="-6.9378432817757130e-03" rms="4.6490088105201721e-01" purity="4.0827214717864990e-01" nType="-99"/>
            <Node pos="r" depth="3" NCoef="0" IVar="-1" Cut="0.0000000000000000e+00" cType="1" res="3.0435239896178246e-02" rms="4.7534501552581787e-01" purity="4.5598143339157104e-01" nType="-99"/>
          </Node>
          <Node pos="r" depth="2" NCoef="0" IVar="4" Cut="3.0043828487396240e+00" cType="1" res="-2.1533854305744171e-02" rms="4.6394544839859009e-01" purity="5.8688807487487793e-01" nType="0">
            <Node pos="l" depth="3" NCoef="0" IVar="-1" Cut="0.0000000000000000e+00" cType="1" res="-1.4945885166525841e-02" rms="4.6488207578659058e-01" purity="6.0421168804168701e-01" nType="-99"/>
            <Node pos="r" depth="3" NCoef="0" IVar="-1" Cut="0.0000000000000000e+00" cType="1" res="-5.2069383673369884e-03" rms="4.5589312911033630e-01" purity="4.9025583267211914e-01" nType="-99"/>
          </Node>
        </Node>
        <Node pos="r" depth="1" NCoef="0" IVar="4" Cut="2.1796123981475830e+00" cType="1" res="1.3605686835944653e-02" rms="4.5590248703956604e-01" purity="6.3063502311706543e-01" nType="0">
          <Node pos="l" depth="2" NCoef="0" IVar="-1" Cut="0.0000000000000000e+00" cType="1" res="2.9667073860764503e-02" rms="4.5722979307174683e-01" purity="6.2323218584060669e-01" nType="-99"/>
          <Node pos="r" depth="2" NCoef="0" IVar="-1" Cut="0.0000000000000000e+00" cType="1" res="-2.3250812664628029e-03" rms="4.5369756221771240e-01" purity="6.4026492834091187e-01" nType="-99"/>
        </Node>
      </Node>
    </BinaryTree>
    <BinaryTree type="DecisionTree" boostWeight="1.0000000000000000e+00" itree="193">
      <Node pos="s" depth="0" NCoef="0" IVar="4" Cut="2.9988031387329102e+00" cType="1" res="-1.0480328463017941e-02" rms="4.6328693628311157e-01" purity="4.9539551138877869e-01" nType="0">
        <Node pos="l" depth="1" NCoef="0" IVar="5" Cut="1.6454780101776123e+00" cType="1" res="-3.0959448777139187e-03" rms="4.6534174680709839e-01" purity="5.0901359319686890e-01" nType="0">
          <Node pos="l" depth="2" NCoef="0" IVar="4" Cut="2.0285069942474365e+00" cType="1" res="1.1214399710297585e-03" rms="4.6531561017036438e-01" purity="5.0030362606048584e-01" nType="0">
            <Node pos="l" depth="3" NCoef="0" IVar="-1" Cut="0.0000000000000000e+00" cType="1" res="9.0948594734072685e-03" rms="4.6643328666687012e-01" purity="4.7878450155258179e-01" nType="-99"/>
            <Node pos="r" depth="3" NCoef="0" IVar="-1" Cut="0.0000000000000000e+00" cType="1" res="-6.5060933120548725e-03" rms="4.6327045559883118e-01" purity="5.3612577915191650e-01" nType="-99"/>
          </Node>
          <Node pos="r" depth="2" NCoef="0" IVar="5" Cut="2.8565230369567871e+00" cType="1" res="-1.2163186445832253e-02" rms="4.6526855230331421e-01" purity="5.2773982286453247e-01" nType="0">
            <Node pos="l" depth="3" NCoef="0" IVar="-1" Cut="0.0000000000000000e+00" cType="1" res="-2.0918777212500572e-02" rms="4.6653372049331665e-01" purity="5.1068300008773804e-01" nType="-99"/>
            <Node pos="r" depth="3" NCoef="0" IVar="-1" Cut="0.0000000000000000e+00" cType="1" res="1.2159629724919796e-02" rms="4.5996278524398804e-01" purity="5.8962154388427734e-01" nType="-99"/>
          </Node>
        </Node>
        <Node pos="r" depth="1" NCoef="0" IVar="6" Cut="7.4758845567703247e-01" cType="1" res="-5.0434373319149017e-02" rms="4.4991010427474976e-01" purity="4.2171320319175720e-01" nType="0">
          <Node pos="l" depth="2" NCoef="0" IVar="-1" Cut="0.0000000000000000e+00" cType="1" res="-4.7084121033549309e-03" rms="4.6349501609802246e-01" purity="5.0752401351928711e-01" nType="-99"/>
          <Node pos="r" depth="2" NCoef="0" IVar="-1" Cut="0.0000000000000000e+00" cType="1" res="-2.9242036398500204e-03" rms="4.3198302388191223e-01" purity="3.3996126055717468e-01" nType="-99"/>
        </Node>
      </Node>
    </BinaryTree>
    <BinaryTree type="DecisionTree" boostWeight="1.0000000000000000e+00" itree="194">
      <Node pos="s" depth="0" NCoef="0" IVar="5" Cut="1.6455076932907104e+00" cType="1" res="-7.1528693661093712e-03" rms="4.6327754855155945e-01" purity="4.9864247441291809e-01" nType="0">
        <Node pos="l" depth="1" NCoef="0" IVar="4" Cut="3.0050628185272217e+00" cType="1" res="-1.3507760129868984e-02" rms="4.6419912576675415e-01" purity="4.8147141933441162e-01" nType="0">
          <Node pos="l" depth="2" NCoef="0" IVar="0" Cut="2.2677162500000000e+05" cType="1" res="-1.6364518553018570e-02" rms="4.6418464183807373e-01" purity="4.8116016387939453e-01" nType="0">
            <Node pos="l" depth="3" NCoef="0" IVar="-1" Cut="0.0000000000000000e+00" cType="1" res="-1.5947682783007622e-02" rms="4.6640178561210632e-01" purity="4.6515774726867676e-01" nType="-99"/>
            <Node pos="r" depth="3" NCoef="0" IVar="-1" Cut="0.0000000000000000e+00" cType="1" res="1.3802437111735344e-02" rms="4.4695314764976501e-01" purity="5.9751552343368530e-01" nType="-99"/>
          </Node>
          <Node pos="r" depth="2" NCoef="0" IVar="2" Cut="1.8732751464843750e+02" cType="1" res="5.3531532175838947e-03" rms="4.6385344862937927e-01" purity="4.8352622985839844e-01" nType="0">
            <Node pos="l" depth="3" NCoef="0" IVar="-1" Cut="0.0000000000000000e+00" cType="1" res="2.6078963652253151e-02" rms="4.6598237752914429e-01" purity="5.1273483037948608e-01" nType="-99"/>
            <Node pos="r" depth="3" NCoef="0" IVar="-1" Cut="0.0000000000000000e+00" cType="1" res="-1.5251907519996166e-02" rms="4.6105286478996277e-01" purity="4.5586872100830078e-01" nType="-99"/>
          </Node>
        </Node>
        <Node pos="r" depth="1" NCoef="0" IVar="3" Cut="4.2778534889221191e+00" cType="1" res="5.8526857756078243e-03" rms="4.6111282706260681e-01" purity="5.3378373384475708e-01" nType="0">
          <Node pos="l" depth="2" NCoef="0" IVar="6" Cut="1.6457771062850952e+00" cType="1" res="-4.6659060753881931e-03" rms="4.6998354792594910e-01" purity="5.0060319900512695e-01" nType="0">
            <Node pos="l" depth="3" NCoef="0" IVar="-1" Cut="0.0000000000000000e+00" cType="1" res="-1.7986297607421875e-02" rms="4.5916351675987244e-01" purity="5.2055436372756958e-01" nType="-99"/>
            <Node pos="r" depth="3" NCoef="0" IVar="-1" Cut="0.0000000000000000e+00" cType="1" res="9.9946204572916031e-03" rms="4.8158982396125793e-01" purity="4.7792753577232361e-01" nType="-99"/>
          </Node>
          <Node pos="r" depth="2" NCoef="0" IVar="3" Cut="8.7126207351684570e+00" cType="1" res="1.7708249390125275e-02" rms="4.5061120390892029e-01" purity="5.7118177413940430e-01" nType="0">
            <Node pos="l" depth="3" NCoef="0" IVar="-1" Cut="0.0000000000000000e+00" cType="1" res="3.1255532056093216e-02" rms="4.5450818538665771e-01" purity="5.7802981138229370e-01" nType="-99"/>
            <Node pos="r" depth="3" NCoef="0" IVar="-1" Cut="0.0000000000000000e+00" cType="1" res="-1.4839129522442818e-02" rms="4.4050964713096619e-01" purity="5.5568718910217285e-01" nType="-99"/>
          </Node>
        </Node>
      </Node>
    </BinaryTree>
    <BinaryTree type="DecisionTree" boostWeight="1.0000000000000000e+00" itree="195">
      <Node pos="s" depth="0" NCoef="0" IVar="2" Cut="1.9544731140136719e+02" cType="1" res="-2.6697916910052299e-03" rms="4.6640744805335999e-01" purity="5.0003516674041748e-01" nType="0">
        <Node pos="l" depth="1" NCoef="0" IVar="4" Cut="3.0226728916168213e+00" cType="1" res="0.0000000000000000e+00" rms="0.0000000000000000e+00" purity="5.0713694095611572e-01" nType="0">
          <Node pos="l" depth="2" NCoef="0" IVar="9" Cut="4.0234707031250000e+04" cType="1" res="0.0000000000000000e+00" rms="0.0000000000000000e+00" purity="5.1545548439025879e-01" nType="0">
            <Node pos="l" depth="3" NCoef="0" IVar="-1" Cut="0.0000000000000000e+00" cType="1" res="7.6801595278084278e-03" rms="4.6958628296852112e-01" purity="4.0821343660354614e-01" nType="-99"/>
            <Node pos="r" depth="3" NCoef="0" IVar="-1" Cut="0.0000000000000000e+00" cType="1" res="-1.5558977611362934e-02" rms="4.6044865250587463e-01" purity="6.2541288137435913e-01" nType="-99"/>
          </Node>
          <Node pos="r" depth="2" NCoef="0" IVar="-1" Cut="0.0000000000000000e+00" cType="1" res="-5.5382349528372288e-03" rms="4.5524933934211731e-01" purity="4.5235931873321533e-01" nType="-99"/>
        </Node>
        <Node pos="r" depth="1" NCoef="0" IVar="6" Cut="1.6455445289611816e+00" cType="1" res="4.7500203363597393e-03" rms="4.6907752752304077e-01" purity="4.9133196473121643e-01" nType="0">
          <Node pos="l" depth="2" NCoef="0" IVar="8" Cut="1.0378240625000000e+05" cType="1" res="-1.2130065588280559e-03" rms="4.6568489074707031e-01" purity="4.8210525512695312e-01" nType="0">
            <Node pos="l" depth="3" NCoef="0" IVar="-1" Cut="0.0000000000000000e+00" cType="1" res="2.7720031794160604e-03" rms="4.6432277560234070e-01" purity="4.4559562206268311e-01" nType="-99"/>
            <Node pos="r" depth="3" NCoef="0" IVar="-1" Cut="0.0000000000000000e+00" cType="1" res="-2.8084203600883484e-02" rms="4.7009637951850891e-01" purity="6.1714696884155273e-01" nType="-99"/>
          </Node>
          <Node pos="r" depth="2" NCoef="0" IVar="6" Cut="2.3582508563995361e+00" cType="1" res="1.5430007129907608e-02" rms="4.7490620613098145e-01" purity="5.0785726308822632e-01" nType="0">
            <Node pos="l" depth="3" NCoef="0" IVar="-1" Cut="0.0000000000000000e+00" cType="1" res="3.6702089011669159e-02" rms="4.7064614295959473e-01" purity="5.0589346885681152e-01" nType="-99"/>
            <Node pos="r" depth="3" NCoef="0" IVar="-1" Cut="0.0000000000000000e+00" cType="1" res="8.8856471702456474e-03" rms="4.7651320695877075e-01" purity="5.0872808694839478e-01" nType="-99"/>
          </Node>
        </Node>
      </Node>
    </BinaryTree>
    <BinaryTree type="DecisionTree" boostWeight="1.0000000000000000e+00" itree="196">
      <Node pos="s" depth="0" NCoef="0" IVar="4" Cut="1.3844337463378906e+00" cType="1" res="-3.4429396037012339e-03" rms="4.6440589427947998e-01" purity="4.9891728162765503e-01" nType="0">
        <Node pos="l" depth="1" NCoef="0" IVar="5" Cut="-1.6454426050186157e+00" cType="1" res="5.3898594342172146e-03" rms="4.6474403142929077e-01" purity="4.6941271424293518e-01" nType="0">
          <Node pos="l" depth="2" NCoef="0" IVar="1" Cut="1.5520532812500000e+05" cType="1" res="2.3262731730937958e-02" rms="4.6589747071266174e-01" purity="5.1418852806091309e-01" nType="0">
            <Node pos="l" depth="3" NCoef="0" IVar="-1" Cut="0.0000000000000000e+00" cType="1" res="4.7190979123115540e-02" rms="4.6753779053688049e-01" purity="5.8178776502609253e-01" nType="-99"/>
            <Node pos="r" depth="3" NCoef="0" IVar="-1" Cut="0.0000000000000000e+00" cType="1" res="8.1690046936273575e-03" rms="4.6368375420570374e-01" purity="4.5286390185356140e-01" nType="-99"/>
          </Node>
          <Node pos="r" depth="2" NCoef="0" IVar="2" Cut="1.8285031127929688e+02" cType="1" res="-3.5244501195847988e-03" rms="4.6391037106513977e-01" purity="4.4708022475242615e-01" nType="0">
            <Node pos="l" depth="3" NCoef="0" IVar="-1" Cut="0.0000000000000000e+00" cType="1" res="1.7402024939656258e-02" rms="4.6396794915199280e-01" purity="4.8462206125259399e-01" nType="-99"/>
            <Node pos="r" depth="3" NCoef="0" IVar="-1" Cut="0.0000000000000000e+00" cType="1" res="-2.7880910784006119e-02" rms="4.6318691968917847e-01" purity="4.1419988870620728e-01" nType="-99"/>
          </Node>
        </Node>
        <Node pos="r" depth="1" NCoef="0" IVar="5" Cut="-1.4959047734737396e-01" cType="1" res="-7.8759156167507172e-03" rms="4.6417275071144104e-01" purity="5.1372492313385010e-01" nType="0">
          <Node pos="l" depth="2" NCoef="0" IVar="4" Cut="2.9936959743499756e+00" cType="1" res="0.0000000000000000e+00" rms="0.0000000000000000e+00" purity="5.0305670499801636e-01" nType="0">
            <Node pos="l" depth="3" NCoef="0" IVar="-1" Cut="0.0000000000000000e+00" cType="1" res="-1.1240279302000999e-02" rms="4.6233263611793518e-01" purity="5.0581336021423340e-01" nType="-99"/>
            <Node pos="r" depth="3" NCoef="0" IVar="-1" Cut="0.0000000000000000e+00" cType="1" res="6.5771904774010181e-03" rms="4.7295919060707092e-01" purity="4.9233293533325195e-01" nType="-99"/>
          </Node>
          <Node pos="r" depth="2" NCoef="0" IVar="4" Cut="3.1519808769226074e+00" cType="1" res="1.7730618128553033e-03" rms="4.6347784996032715e-01" purity="5.2365809679031372e-01" nType="0">
            <Node pos="l" depth="3" NCoef="0" IVar="-1" Cut="0.0000000000000000e+00" cType="1" res="8.0229295417666435e-03" rms="4.6616619825363159e-01" purity="5.4531872272491455e-01" nType="-99"/>
            <Node pos="r" depth="3" NCoef="0" IVar="-1" Cut="0.0000000000000000e+00" cType="1" res="-7.2242603637278080e-03" rms="4.4270470738410950e-01" purity="3.7372791767120361e-01" nType="-99"/>
          </Node>
        </Node>
      </Node>
    </BinaryTree>
    <BinaryTree type="DecisionTree" boostWeight="1.0000000000000000e+00" itree="197">
      <Node pos="s" depth="0" NCoef="0" IVar="6" Cut="1.0471297502517700e+00" cType="1" res="-1.8932824023067951e-03" rms="4.6245381236076355e-01" purity="4.9962311983108521e-01" nType="0">
        <Node pos="l" depth="1" NCoef="0" IVar="5" Cut="-2.2439160346984863e+00" cType="1" res="3.6967650521546602e-03" rms="4.6100509166717529e-01" purity="5.2200102806091309e-01" nType="0">
          <Node pos="l" depth="2" NCoef="0" IVar="4" Cut="1.1506073474884033e+00" cType="1" res="0.0000000000000000e+00" rms="0.0000000000000000e+00" purity="5.0147670507431030e-01" nType="0">
            <Node pos="l" depth="3" NCoef="0" IVar="-1" Cut="0.0000000000000000e+00" cType="1" res="-4.4162530452013016e-02" rms="4.6926745772361755e-01" purity="4.3188428878784180e-01" nType="-99"/>
            <Node pos="r" depth="3" NCoef="0" IVar="-1" Cut="0.0000000000000000e+00" cType="1" res="-5.5393618531525135e-03" rms="4.6750703454017639e-01" purity="5.3043586015701294e-01" nType="-99"/>
          </Node>
          <Node pos="r" depth="2" NCoef="0" IVar="8" Cut="5.8784957031250000e+04" cType="1" res="1.1187273077666759e-02" rms="4.5762848854064941e-01" purity="5.3093791007995605e-01" nType="0">
            <Node pos="l" depth="3" NCoef="0" IVar="-1" Cut="0.0000000000000000e+00" cType="1" res="-1.4148954069241881e-03" rms="4.5976790785789490e-01" purity="3.9793014526367188e-01" nType="-99"/>
            <Node pos="r" depth="3" NCoef="0" IVar="-1" Cut="0.0000000000000000e+00" cType="1" res="2.3378582671284676e-02" rms="4.5560923218727112e-01" purity="6.3999706506729126e-01" nType="-99"/>
          </Node>
        </Node>
        <Node pos="r" depth="1" NCoef="0" IVar="5" Cut="-4.4857230782508850e-01" cType="1" res="-9.9996598437428474e-03" rms="4.6442714333534241e-01" purity="4.6717190742492676e-01" nType="0">
          <Node pos="l" depth="2" NCoef="0" IVar="-1" Cut="0.0000000000000000e+00" cType="1" res="2.0919568836688995e-02" rms="4.5710754394531250e-01" purity="6.2607401609420776e-01" nType="-99"/>
          <Node pos="r" depth="2" NCoef="0" IVar="4" Cut="1.1080988645553589e+00" cType="1" res="-1.6060547903180122e-02" rms="4.6580100059509277e-01" purity="4.3226122856140137e-01" nType="0">
            <Node pos="l" depth="3" NCoef="0" IVar="-1" Cut="0.0000000000000000e+00" cType="1" res="2.3568259552121162e-02" rms="4.7268161177635193e-01" purity="4.3231046199798584e-01" nType="-99"/>
            <Node pos="r" depth="3" NCoef="0" IVar="-1" Cut="0.0000000000000000e+00" cType="1" res="-5.4743187502026558e-03" rms="4.6346291899681091e-01" purity="4.3224784731864929e-01" nType="-99"/>
          </Node>
        </Node>
      </Node>
    </BinaryTree>
    <BinaryTree type="DecisionTree" boostWeight="1.0000000000000000e+00" itree="198">
      <Node pos="s" depth="0" NCoef="0" IVar="3" Cut="-1.5772001743316650e+00" cType="1" res="-6.1350422911345959e-03" rms="4.6442815661430359e-01" purity="4.9889272451400757e-01" nType="0">
        <Node pos="l" depth="1" NCoef="0" IVar="-1" Cut="0.0000000000000000e+00" cType="1" res="3.7823468446731567e-02" rms="4.8377779126167297e-01" purity="4.7443512082099915e-01" nType="-99"/>
        <Node pos="r" depth="1" NCoef="0" IVar="4" Cut="2.1928749084472656e+00" cType="1" res="-8.8337333872914314e-03" rms="4.6306568384170532e-01" purity="5.0041109323501587e-01" nType="0">
          <Node pos="l" depth="2" NCoef="0" IVar="3" Cut="2.3462107181549072e+00" cType="1" res="-1.0402947373222560e-04" rms="4.6475574374198914e-01" purity="4.9344903230667114e-01" nType="0">
            <Node pos="l" depth="3" NCoef="0" IVar="-1" Cut="0.0000000000000000e+00" cType="1" res="-1.5552434138953686e-02" rms="4.7959095239639282e-01" purity="4.6504929661750793e-01" nType="-99"/>
            <Node pos="r" depth="3" NCoef="0" IVar="-1" Cut="0.0000000000000000e+00" cType="1" res="5.3503122180700302e-03" rms="4.6042138338088989e-01" purity="5.0137543678283691e-01" nType="-99"/>
          </Node>
          <Node pos="r" depth="2" NCoef="0" IVar="5" Cut="-2.5430731773376465e+00" cType="1" res="-2.1570455282926559e-02" rms="4.6029183268547058e-01" purity="5.1056885719299316e-01" nType="0">
            <Node pos="l" depth="3" NCoef="0" IVar="-1" Cut="0.0000000000000000e+00" cType="1" res="-3.8122686091810465e-03" rms="4.5421692728996277e-01" purity="5.0832551717758179e-01" nType="-99"/>
            <Node pos="r" depth="3" NCoef="0" IVar="-1" Cut="0.0000000000000000e+00" cType="1" res="-1.2029507197439671e-02" rms="4.6119430661201477e-01" purity="5.1101523637771606e-01" nType="-99"/>
          </Node>
        </Node>
      </Node>
    </BinaryTree>
    <BinaryTree type="DecisionTree" boostWeight="1.0000000000000000e+00" itree="199">
      <Node pos="s" depth="0" NCoef="0" IVar="4" Cut="3.2705864906311035e+00" cType="1" res="-3.2915666233748198e-03" rms="4.6461689472198486e-01" purity="5.0252938270568848e-01" nType="0">
        <Node pos="l" depth="1" NCoef="0" IVar="4" Cut="6.8460595607757568e-01" cType="1" res="6.0501322150230408e-04" rms="4.6623691916465759e-01" purity="5.1484835147857666e-01" nType="0">
          <Node pos="l" depth="2" NCoef="0" IVar="4" Cut="5.3972917795181274e-01" cType="1" res="-2.4345172569155693e-02" rms="4.7166833281517029e-01" purity="4.4435220956802368e-01" nType="0">
            <Node pos="l" depth="3" NCoef="0" IVar="-1" Cut="0.0000000000000000e+00" cType="1" res="1.2526436476036906e-03" rms="4.7310721874237061e-01" purity="4.5820572972297668e-01" nType="-99"/>
            <Node pos="r" depth="3" NCoef="0" IVar="-1" Cut="0.0000000000000000e+00" cType="1" res="-7.6679699122905731e-02" rms="4.6840488910675049e-01" purity="4.2879936099052429e-01" nType="-99"/>
          </Node>
          <Node pos="r" depth="2" NCoef="0" IVar="6" Cut="1.3463243246078491e+00" cType="1" res="3.1299274414777756e-03" rms="4.6560925245285034e-01" purity="5.2198243141174316e-01" nType="0">
            <Node pos="l" depth="3" NCoef="0" IVar="-1" Cut="0.0000000000000000e+00" cType="1" res="1.0393830016255379e-02" rms="4.6211841702461243e-01" purity="5.4184639453887939e-01" nType="-99"/>
            <Node pos="r" depth="3" NCoef="0" IVar="-1" Cut="0.0000000000000000e+00" cType="1" res="-7.0724086835980415e-03" rms="4.7107577323913574e-01" purity="4.8951479792594910e-01" nType="-99"/>
          </Node>
        </Node>
        <Node pos="r" depth="1" NCoef="0" IVar="-1" Cut="0.0000000000000000e+00" cType="1" res="-2.1437720861285925e-03" rms="4.3530252575874329e-01" purity="3.1702014803886414e-01" nType="-99"/>
      </Node>
    </BinaryTree>
    <BinaryTree type="DecisionTree" boostWeight="1.0000000000000000e+00" itree="200">
      <Node pos="s" depth="0" NCoef="0" IVar="4" Cut="3.2757308483123779e+00" cType="1" res="-3.7473272532224655e-03" rms="4.6722030639648438e-01" purity="5.0441914796829224e-01" nType="0">
        <Node pos="l" depth="1" NCoef="0" IVar="4" Cut="2.9720056056976318e+00" cType="1" res="-5.8649429120123386e-03" rms="4.6734106540679932e-01" purity="5.0941485166549683e-01" nType="0">
          <Node pos="l" depth="2" NCoef="0" IVar="7" Cut="7.0000000000000000e+00" cType="1" res="-2.4270033463835716e-03" rms="4.6708431839942932e-01" purity="5.0924646854400635e-01" nType="0">
            <Node pos="l" depth="3" NCoef="0" IVar="-1" Cut="0.0000000000000000e+00" cType="1" res="-3.8105720886960626e-04" rms="4.6770858764648438e-01" purity="4.9853229522705078e-01" nType="-99"/>
            <Node pos="r" depth="3" NCoef="0" IVar="-1" Cut="0.0000000000000000e+00" cType="1" res="-2.5936782360076904e-02" rms="4.6129077672958374e-01" purity="6.0219985246658325e-01" nType="-99"/>
          </Node>
          <Node pos="r" depth="2" NCoef="0" IVar="4" Cut="3.1022388935089111e+00" cType="1" res="-3.4764219075441360e-02" rms="4.6845075488090515e-01" purity="5.1083475351333618e-01" nType="0">
            <Node pos="l" depth="3" NCoef="0" IVar="-1" Cut="0.0000000000000000e+00" cType="1" res="-1.1466690339148045e-03" rms="4.6836155652999878e-01" purity="5.5089694261550903e-01" nType="-99"/>
            <Node pos="r" depth="3" NCoef="0" IVar="-1" Cut="0.0000000000000000e+00" cType="1" res="-5.7476735673844814e-03" rms="4.6610105037689209e-01" purity="4.6798282861709595e-01" nType="-99"/>
          </Node>
        </Node>
        <Node pos="r" depth="1" NCoef="0" IVar="-1" Cut="0.0000000000000000e+00" cType="1" res="2.9605505988001823e-02" rms="4.6345150470733643e-01" purity="4.1553491353988647e-01" nType="-99"/>
      </Node>
    </BinaryTree>
    <BinaryTree type="DecisionTree" boostWeight="1.0000000000000000e+00" itree="201">
      <Node pos="s" depth="0" NCoef="0" IVar="4" Cut="2.9678785800933838e+00" cType="1" res="-4.5170225203037262e-03" rms="4.6425667405128479e-01" purity="5.0110691785812378e-01" nType="0">
        <Node pos="l" depth="1" NCoef="0" IVar="7" Cut="6.0000000000000000e+00" cType="1" res="1.0423521598568186e-04" rms="4.6536234021186829e-01" purity="5.0770711898803711e-01" nType="0">
          <Node pos="l" depth="2" NCoef="0" IVar="6" Cut="1.9446190595626831e+00" cType="1" res="-4.7260676510632038e-03" rms="4.6741235256195068e-01" purity="4.6765089035034180e-01" nType="0">
            <Node pos="l" depth="3" NCoef="0" IVar="-1" Cut="0.0000000000000000e+00" cType="1" res="1.6226385487243533e-03" rms="4.6440425515174866e-01" purity="4.7453045845031738e-01" nType="-99"/>
            <Node pos="r" depth="3" NCoef="0" IVar="-1" Cut="0.0000000000000000e+00" cType="1" res="-2.2157827392220497e-02" rms="4.7335803508758545e-01" purity="4.5330387353897095e-01" nType="-99"/>
          </Node>
          <Node pos="r" depth="2" NCoef="0" IVar="5" Cut="-1.4971309900283813e-01" cType="1" res="1.3826289214193821e-02" rms="4.5921126008033752e-01" purity="6.2154626846313477e-01" nType="0">
            <Node pos="l" depth="3" NCoef="0" IVar="-1" Cut="0.0000000000000000e+00" cType="1" res="3.1977903097867966e-02" rms="4.5861053466796875e-01" purity="6.3655644655227661e-01" nType="-99"/>
            <Node pos="r" depth="3" NCoef="0" IVar="-1" Cut="0.0000000000000000e+00" cType="1" res="2.6747663505375385e-03" rms="4.5950353145599365e-01" purity="6.0700285434722900e-01" nType="-99"/>
          </Node>
        </Node>
        <Node pos="r" depth="1" NCoef="0" IVar="5" Cut="1.9443247318267822e+00" cType="1" res="-2.8892563655972481e-02" rms="4.5760431885719299e-01" purity="4.6628212928771973e-01" nType="0">
          <Node pos="l" depth="2" NCoef="0" IVar="6" Cut="-1.4959368109703064e-01" cType="1" res="-5.0683777779340744e-02" rms="4.5473602414131165e-01" purity="4.3655648827552795e-01" nType="0">
            <Node pos="l" depth="3" NCoef="0" IVar="-1" Cut="0.0000000000000000e+00" cType="1" res="-3.6367206485010684e-04" rms="4.6782198548316956e-01" purity="4.8694816231727600e-01" nType="-99"/>
            <Node pos="r" depth="3" NCoef="0" IVar="-1" Cut="0.0000000000000000e+00" cType="1" res="-3.6786610726267099e-03" rms="4.3206498026847839e-01" purity="3.7871283292770386e-01" nType="-99"/>
          </Node>
          <Node pos="r" depth="2" NCoef="0" IVar="-1" Cut="0.0000000000000000e+00" cType="1" res="2.8747767210006714e-02" rms="4.6021652221679688e-01" purity="5.3911113739013672e-01" nType="-99"/>
        </Node>
      </Node>
    </BinaryTree>
    <BinaryTree type="DecisionTree" boostWeight="1.0000000000000000e+00" itree="202">
      <Node pos="s" depth="0" NCoef="0" IVar="4" Cut="3.0114457607269287e+00" cType="1" res="-9.0299248695373535e-03" rms="4.6355181932449341e-01" purity="4.9713510274887085e-01" nType="0">
        <Node pos="l" depth="1" NCoef="0" IVar="3" Cut="5.6440114974975586e+00" cType="1" res="-3.9170752279460430e-03" rms="4.6490445733070374e-01" purity="5.0771206617355347e-01" nType="0">
          <Node pos="l" depth="2" NCoef="0" IVar="6" Cut="-1.9448446035385132e+00" cType="1" res="0.0000000000000000e+00" rms="0.0000000000000000e+00" purity="4.9713370203971863e-01" nType="0">
            <Node pos="l" depth="3" NCoef="0" IVar="-1" Cut="0.0000000000000000e+00" cType="1" res="-3.1570456922054291e-02" rms="4.7935488820075989e-01" purity="4.4183215498924255e-01" nType="-99"/>
            <Node pos="r" depth="3" NCoef="0" IVar="-1" Cut="0.0000000000000000e+00" cType="1" res="-2.4172007106244564e-03" rms="4.7028335928916931e-01" purity="5.1805084943771362e-01" nType="-99"/>
          </Node>
          <Node pos="r" depth="2" NCoef="0" IVar="1" Cut="2.6666250000000000e+05" cType="1" res="8.0166850239038467e-03" rms="4.5180380344390869e-01" purity="5.2405482530593872e-01" nType="0">
            <Node pos="l" depth="3" NCoef="0" IVar="-1" Cut="0.0000000000000000e+00" cType="1" res="1.8447136506438255e-02" rms="4.5427787303924561e-01" purity="5.5704879760742188e-01" nType="-99"/>
            <Node pos="r" depth="3" NCoef="0" IVar="-1" Cut="0.0000000000000000e+00" cType="1" res="-5.1025360822677612e-02" rms="4.3191784620285034e-01" purity="2.9477408528327942e-01" nType="-99"/>
          </Node>
        </Node>
        <Node pos="r" depth="1" NCoef="0" IVar="5" Cut="-1.6451297998428345e+00" cType="1" res="-4.0974263101816177e-02" rms="4.5370692014694214e-01" purity="4.3105182051658630e-01" nType="0">
          <Node pos="l" depth="2" NCoef="0" IVar="-1" Cut="0.0000000000000000e+00" cType="1" res="-4.7823907807469368e-03" rms="4.4933912158012390e-01" purity="3.7986236810684204e-01" nType="-99"/>
          <Node pos="r" depth="2" NCoef="0" IVar="6" Cut="1.3460849523544312e+00" cType="1" res="-9.3540502712130547e-03" rms="4.5347693562507629e-01" purity="4.6246495842933655e-01" nType="0">
            <Node pos="l" depth="3" NCoef="0" IVar="-1" Cut="0.0000000000000000e+00" cType="1" res="-2.0023737102746964e-02" rms="4.5780977606773376e-01" purity="5.3209358453750610e-01" nType="-99"/>
            <Node pos="r" depth="3" NCoef="0" IVar="-1" Cut="0.0000000000000000e+00" cType="1" res="-6.8172020837664604e-04" rms="4.4913229346275330e-01" purity="3.9467677474021912e-01" nType="-99"/>
          </Node>
        </Node>
      </Node>
    </BinaryTree>
    <BinaryTree type="DecisionTree" boostWeight="1.0000000000000000e+00" itree="203">
      <Node pos="s" depth="0" NCoef="0" IVar="4" Cut="3.2250001430511475e+00" cType="1" res="-6.3612712547183037e-03" rms="4.6357497572898865e-01" purity="4.9377781152725220e-01" nType="0">
        <Node pos="l" depth="1" NCoef="0" IVar="4" Cut="3.0744373798370361e+00" cType="1" res="-2.8104367665946484e-03" rms="4.6599966287612915e-01" purity="5.0741100311279297e-01" nType="0">
          <Node pos="l" depth="2" NCoef="0" IVar="1" Cut="2.5764759375000000e+05" cType="1" res="-1.9190582679584622e-04" rms="4.6609610319137573e-01" purity="5.0801986455917358e-01" nType="0">
            <Node pos="l" depth="3" NCoef="0" IVar="-1" Cut="0.0000000000000000e+00" cType="1" res="-2.7822074480354786e-03" rms="4.6673014760017395e-01" purity="5.2102923393249512e-01" nType="-99"/>
            <Node pos="r" depth="3" NCoef="0" IVar="-1" Cut="0.0000000000000000e+00" cType="1" res="4.3194111436605453e-02" rms="4.5761084556579590e-01" purity="3.5686972737312317e-01" nType="-99"/>
          </Node>
          <Node pos="r" depth="2" NCoef="0" IVar="-1" Cut="0.0000000000000000e+00" cType="1" res="-4.2582345195114613e-03" rms="4.6202692389488220e-01" purity="4.9694928526878357e-01" nType="-99"/>
        </Node>
        <Node pos="r" depth="1" NCoef="0" IVar="-1" Cut="0.0000000000000000e+00" cType="1" res="-2.9548730235546827e-03" rms="4.2851674556732178e-01" purity="3.1823217868804932e-01" nType="-99"/>
      </Node>
    </BinaryTree>
    <BinaryTree type="DecisionTree" boostWeight="1.0000000000000000e+00" itree="204">
      <Node pos="s" depth="0" NCoef="0" IVar="7" Cut="6.0000000000000000e+00" cType="1" res="1.4763411600142717e-03" rms="4.6472036838531494e-01" purity="5.0708419084548950e-01" nType="0">
        <Node pos="l" depth="1" NCoef="0" IVar="6" Cut="-1.9448004961013794e+00" cType="1" res="0.0000000000000000e+00" rms="0.0000000000000000e+00" purity="4.7223839163780212e-01" nType="0">
          <Node pos="l" depth="2" NCoef="0" IVar="6" Cut="-2.5717670917510986e+00" cType="1" res="1.9955029711127281e-02" rms="4.7555065155029297e-01" purity="4.8235297203063965e-01" nType="0">
            <Node pos="l" depth="3" NCoef="0" IVar="-1" Cut="0.0000000000000000e+00" cType="1" res="9.1399224475026131e-03" rms="4.7285875678062439e-01" purity="4.8210880160331726e-01" nType="-99"/>
            <Node pos="r" depth="3" NCoef="0" IVar="-1" Cut="0.0000000000000000e+00" cType="1" res="4.2489569634199142e-02" rms="4.7916609048843384e-01" purity="4.8273828625679016e-01" nType="-99"/>
          </Node>
          <Node pos="r" depth="2" NCoef="0" IVar="4" Cut="2.7320413589477539e+00" cType="1" res="8.5394899360835552e-04" rms="4.6383464336395264e-01" purity="4.6725967526435852e-01" nType="0">
            <Node pos="l" depth="3" NCoef="0" IVar="-1" Cut="0.0000000000000000e+00" cType="1" res="6.6086100414395332e-03" rms="4.6563449501991272e-01" purity="4.7080501914024353e-01" nType="-99"/>
            <Node pos="r" depth="3" NCoef="0" IVar="-1" Cut="0.0000000000000000e+00" cType="1" res="-7.6581803150475025e-03" rms="4.5685210824012756e-01" purity="4.5462733507156372e-01" nType="-99"/>
          </Node>
        </Node>
        <Node pos="r" depth="1" NCoef="0" IVar="4" Cut="8.7490028142929077e-01" cType="1" res="-1.3646548613905907e-02" rms="4.5603778958320618e-01" purity="5.9981143474578857e-01" nType="0">
          <Node pos="l" depth="2" NCoef="0" IVar="-1" Cut="0.0000000000000000e+00" cType="1" res="3.5560406744480133e-02" rms="4.6871021389961243e-01" purity="5.9399664402008057e-01" nType="-99"/>
          <Node pos="r" depth="2" NCoef="0" IVar="2" Cut="1.8569264221191406e+02" cType="1" res="-2.2555856034159660e-02" rms="4.5309957861900330e-01" purity="6.0088396072387695e-01" nType="0">
            <Node pos="l" depth="3" NCoef="0" IVar="-1" Cut="0.0000000000000000e+00" cType="1" res="-1.0326675139367580e-02" rms="4.4957640767097473e-01" purity="6.2562018632888794e-01" nType="-99"/>
            <Node pos="r" depth="3" NCoef="0" IVar="-1" Cut="0.0000000000000000e+00" cType="1" res="-6.4791771583259106e-03" rms="4.5862507820129395e-01" purity="5.5358213186264038e-01" nType="-99"/>
          </Node>
        </Node>
      </Node>
    </BinaryTree>
    <BinaryTree type="DecisionTree" boostWeight="1.0000000000000000e+00" itree="205">
      <Node pos="s" depth="0" NCoef="0" IVar="4" Cut="6.0984086990356445e-01" cType="1" res="-5.0904075615108013e-03" rms="4.6490883827209473e-01" purity="5.0154846906661987e-01" nType="0">
        <Node pos="l" depth="1" NCoef="0" IVar="-1" Cut="0.0000000000000000e+00" cType="1" res="2.9729438945651054e-02" rms="4.6826562285423279e-01" purity="4.8690328001976013e-01" nType="-99"/>
        <Node pos="r" depth="1" NCoef="0" IVar="4" Cut="3.0177621841430664e+00" cType="1" res="-7.0320637896656990e-03" rms="4.6461006999015808e-01" purity="5.0257867574691772e-01" nType="0">
          <Node pos="l" depth="2" NCoef="0" IVar="4" Cut="1.8710312843322754e+00" cType="1" res="0.0000000000000000e+00" rms="0.0000000000000000e+00" purity="5.1029527187347412e-01" nType="0">
            <Node pos="l" depth="3" NCoef="0" IVar="-1" Cut="0.0000000000000000e+00" cType="1" res="-1.5678802505135536e-02" rms="4.6547135710716248e-01" purity="4.7548010945320129e-01" nType="-99"/>
            <Node pos="r" depth="3" NCoef="0" IVar="-1" Cut="0.0000000000000000e+00" cType="1" res="7.3948609642684460e-03" rms="4.6408918499946594e-01" purity="5.4987114667892456e-01" nType="-99"/>
          </Node>
          <Node pos="r" depth="2" NCoef="0" IVar="8" Cut="6.6650617187500000e+04" cType="1" res="-2.5837561115622520e-02" rms="4.6209999918937683e-01" purity="4.5670774579048157e-01" nType="0">
            <Node pos="l" depth="3" NCoef="0" IVar="-1" Cut="0.0000000000000000e+00" cType="1" res="6.3487282022833824e-03" rms="4.6138507127761841e-01" purity="4.0709453821182251e-01" nType="-99"/>
            <Node pos="r" depth="3" NCoef="0" IVar="-1" Cut="0.0000000000000000e+00" cType="1" res="-5.8578830212354660e-03" rms="4.6032553911209106e-01" purity="5.1026988029479980e-01" nType="-99"/>
          </Node>
        </Node>
      </Node>
    </BinaryTree>
    <BinaryTree type="DecisionTree" boostWeight="1.0000000000000000e+00" itree="206">
      <Node pos="s" depth="0" NCoef="0" IVar="4" Cut="2.9740247726440430e+00" cType="1" res="-9.7422050312161446e-03" rms="4.6290394663810730e-01" purity="4.9362421035766602e-01" nType="0">
        <Node pos="l" depth="1" NCoef="0" IVar="6" Cut="-2.2439899444580078e+00" cType="1" res="-3.5503036342561245e-03" rms="4.6560037136077881e-01" purity="5.0675255060195923e-01" nType="0">
          <Node pos="l" depth="2" NCoef="0" IVar="6" Cut="-2.7996497154235840e+00" cType="1" res="-1.9337536767125130e-02" rms="4.7126895189285278e-01" purity="4.5821014046669006e-01" nType="0">
            <Node pos="l" depth="3" NCoef="0" IVar="-1" Cut="0.0000000000000000e+00" cType="1" res="-3.4171650186181068e-03" rms="4.6766614913940430e-01" purity="4.7536134719848633e-01" nType="-99"/>
            <Node pos="r" depth="3" NCoef="0" IVar="-1" Cut="0.0000000000000000e+00" cType="1" res="-3.7068139761686325e-02" rms="4.7377070784568787e-01" purity="4.4430652260780334e-01" nType="-99"/>
          </Node>
          <Node pos="r" depth="2" NCoef="0" IVar="6" Cut="2.1157674789428711e+00" cType="1" res="0.0000000000000000e+00" rms="0.0000000000000000e+00" purity="5.2258300781250000e-01" nType="0">
            <Node pos="l" depth="3" NCoef="0" IVar="-1" Cut="0.0000000000000000e+00" cType="1" res="-5.5845757015049458e-03" rms="4.5509350299835205e-01" purity="5.3924560546875000e-01" nType="-99"/>
            <Node pos="r" depth="3" NCoef="0" IVar="-1" Cut="0.0000000000000000e+00" cType="1" res="1.3732346706092358e-02" rms="4.7788059711456299e-01" purity="4.9362960457801819e-01" nType="-99"/>
          </Node>
        </Node>
        <Node pos="r" depth="1" NCoef="0" IVar="6" Cut="7.4796485900878906e-01" cType="1" res="-4.0458291769027710e-02" rms="4.4802516698837280e-01" purity="4.2849823832511902e-01" nType="0">
          <Node pos="l" depth="2" NCoef="0" IVar="-1" Cut="0.0000000000000000e+00" cType="1" res="5.7830396108329296e-03" rms="4.6842047572135925e-01" purity="5.2392882108688354e-01" nType="-99"/>
          <Node pos="r" depth="2" NCoef="0" IVar="-1" Cut="0.0000000000000000e+00" cType="1" res="-3.6344593390822411e-03" rms="4.2396318912506104e-01" purity="3.4013399481773376e-01" nType="-99"/>
        </Node>
      </Node>
    </BinaryTree>
    <BinaryTree type="DecisionTree" boostWeight="1.0000000000000000e+00" itree="207">
      <Node pos="s" depth="0" NCoef="0" IVar="3" Cut="-1.3962131738662720e+00" cType="1" res="-5.8543360792100430e-03" rms="4.6237587928771973e-01" purity="4.9642172455787659e-01" nType="0">
        <Node pos="l" depth="1" NCoef="0" IVar="-1" Cut="0.0000000000000000e+00" cType="1" res="-2.1588413044810295e-02" rms="4.7237578034400940e-01" purity="4.1482290625572205e-01" nType="-99"/>
        <Node pos="r" depth="1" NCoef="0" IVar="6" Cut="-2.2439935207366943e+00" cType="1" res="-4.2604571208357811e-03" rms="4.6160992980003357e-01" purity="5.0226813554763794e-01" nType="0">
          <Node pos="l" depth="2" NCoef="0" IVar="6" Cut="-2.5005254745483398e+00" cType="1" res="5.9143956750631332e-03" rms="4.7374266386032104e-01" purity="4.7543877363204956e-01" nType="0">
            <Node pos="l" depth="3" NCoef="0" IVar="-1" Cut="0.0000000000000000e+00" cType="1" res="-6.5743210725486279e-03" rms="4.7126668691635132e-01" purity="4.6891683340072632e-01" nType="-99"/>
            <Node pos="r" depth="3" NCoef="0" IVar="-1" Cut="0.0000000000000000e+00" cType="1" res="5.9390947222709656e-02" rms="4.8008605837821960e-01" purity="4.9813485145568848e-01" nType="-99"/>
          </Node>
          <Node pos="r" depth="2" NCoef="0" IVar="8" Cut="1.4290815625000000e+05" cType="1" res="-7.7237146906554699e-03" rms="4.5735523104667664e-01" purity="5.1140022277832031e-01" nType="0">
            <Node pos="l" depth="3" NCoef="0" IVar="-1" Cut="0.0000000000000000e+00" cType="1" res="-7.3784696869552135e-03" rms="4.5943576097488403e-01" purity="4.9505504965782166e-01" nType="-99"/>
            <Node pos="r" depth="3" NCoef="0" IVar="-1" Cut="0.0000000000000000e+00" cType="1" res="3.5132702440023422e-02" rms="4.2795610427856445e-01" purity="7.2251284122467041e-01" nType="-99"/>
          </Node>
        </Node>
      </Node>
    </BinaryTree>
    <BinaryTree type="DecisionTree" boostWeight="1.0000000000000000e+00" itree="208">
      <Node pos="s" depth="0" NCoef="0" IVar="4" Cut="3.0043828487396240e+00" cType="1" res="-7.9047558829188347e-03" rms="4.6289739012718201e-01" purity="4.9563696980476379e-01" nType="0">
        <Node pos="l" depth="1" NCoef="0" IVar="1" Cut="2.5764756250000000e+05" cType="1" res="0.0000000000000000e+00" rms="0.0000000000000000e+00" purity="5.1074254512786865e-01" nType="0">
          <Node pos="l" depth="2" NCoef="0" IVar="6" Cut="2.8423008918762207e+00" cType="1" res="-4.4655742385657504e-05" rms="4.6584376692771912e-01" purity="5.2269500494003296e-01" nType="0">
            <Node pos="l" depth="3" NCoef="0" IVar="-1" Cut="0.0000000000000000e+00" cType="1" res="3.5970925819128752e-03" rms="4.6459758281707764e-01" purity="5.2842235565185547e-01" nType="-99"/>
            <Node pos="r" depth="3" NCoef="0" IVar="-1" Cut="0.0000000000000000e+00" cType="1" res="-1.5157766640186310e-02" rms="4.7592443227767944e-01" purity="4.7054672241210938e-01" nType="-99"/>
          </Node>
          <Node pos="r" depth="2" NCoef="0" IVar="-1" Cut="0.0000000000000000e+00" cType="1" res="3.1229445710778236e-02" rms="4.5584505796432495e-01" purity="3.7535661458969116e-01" nType="-99"/>
        </Node>
        <Node pos="r" depth="1" NCoef="0" IVar="8" Cut="7.4260703125000000e+04" cType="1" res="-6.0811836272478104e-02" rms="4.4717419147491455e-01" purity="4.1384190320968628e-01" nType="0">
          <Node pos="l" depth="2" NCoef="0" IVar="9" Cut="3.6350890625000000e+04" cType="1" res="-9.3195185065269470e-02" rms="4.3996566534042358e-01" purity="3.2018506526947021e-01" nType="0">
            <Node pos="l" depth="3" NCoef="0" IVar="-1" Cut="0.0000000000000000e+00" cType="1" res="-1.4174875803291798e-02" rms="4.4885838031768799e-01" purity="3.2769289612770081e-01" nType="-99"/>
            <Node pos="r" depth="3" NCoef="0" IVar="-1" Cut="0.0000000000000000e+00" cType="1" res="-2.9637352563440800e-03" rms="4.2442226409912109e-01" purity="3.1491568684577942e-01" nType="-99"/>
          </Node>
          <Node pos="r" depth="2" NCoef="0" IVar="-1" Cut="0.0000000000000000e+00" cType="1" res="9.0338205918669701e-03" rms="4.5455157756805420e-01" purity="6.1581557989120483e-01" nType="-99"/>
        </Node>
      </Node>
    </BinaryTree>
    <BinaryTree type="DecisionTree" boostWeight="1.0000000000000000e+00" itree="209">
      <Node pos="s" depth="0" NCoef="0" IVar="4" Cut="3.2757308483123779e+00" cType="1" res="-1.1019586585462093e-02" rms="4.6212303638458252e-01" purity="4.8837661743164062e-01" nType="0">
        <Node pos="l" depth="1" NCoef="0" IVar="5" Cut="-2.5430788993835449e+00" cType="1" res="-4.8292609862983227e-03" rms="4.6573910117149353e-01" purity="5.0547814369201660e-01" nType="0">
          <Node pos="l" depth="2" NCoef="0" IVar="4" Cut="2.2230155467987061e+00" cType="1" res="-2.6313167065382004e-02" rms="4.6607509255409241e-01" purity="5.1546901464462280e-01" nType="0">
            <Node pos="l" depth="3" NCoef="0" IVar="-1" Cut="0.0000000000000000e+00" cType="1" res="2.0595432724803686e-03" rms="4.7105854749679565e-01" purity="5.2894163131713867e-01" nType="-99"/>
            <Node pos="r" depth="3" NCoef="0" IVar="-1" Cut="0.0000000000000000e+00" cType="1" res="-2.0077394321560860e-02" rms="4.5727926492691040e-01" purity="4.9843877553939819e-01" nType="-99"/>
          </Node>
          <Node pos="r" depth="2" NCoef="0" IVar="7" Cut="5.0000000000000000e+00" cType="1" res="-1.0122783714905381e-03" rms="4.6556827425956726e-01" purity="5.0370883941650391e-01" nType="0">
            <Node pos="l" depth="3" NCoef="0" IVar="-1" Cut="0.0000000000000000e+00" cType="1" res="6.3309194520115852e-03" rms="4.6931266784667969e-01" purity="4.2581084370613098e-01" nType="-99"/>
            <Node pos="r" depth="3" NCoef="0" IVar="-1" Cut="0.0000000000000000e+00" cType="1" res="-5.7926815934479237e-03" rms="4.6248847246170044e-01" purity="5.6600946187973022e-01" nType="-99"/>
          </Node>
        </Node>
        <Node pos="r" depth="1" NCoef="0" IVar="-1" Cut="0.0000000000000000e+00" cType="1" res="-2.8799234423786402e-03" rms="4.0315902233123779e-01" purity="2.6438906788825989e-01" nType="-99"/>
      </Node>
    </BinaryTree>
    <BinaryTree type="DecisionTree" boostWeight="1.0000000000000000e+00" itree="210">
      <Node pos="s" depth="0" NCoef="0" IVar="4" Cut="2.9260892868041992e+00" cType="1" res="-9.5669506117701530e-03" rms="4.6511122584342957e-01" purity="4.9373590946197510e-01" nType="0">
        <Node pos="l" depth="1" NCoef="0" IVar="8" Cut="6.4525804687500000e+04" cType="1" res="-3.9675640873610973e-03" rms="4.6682497859001160e-01" purity="5.0403320789337158e-01" nType="0">
          <Node pos="l" depth="2" NCoef="0" IVar="8" Cut="4.0205285156250000e+04" cType="1" res="-1.1620056815445423e-02" rms="4.6844190359115601e-01" purity="4.0798506140708923e-01" nType="0">
            <Node pos="l" depth="3" NCoef="0" IVar="-1" Cut="0.0000000000000000e+00" cType="1" res="1.3186623342335224e-02" rms="4.5033052563667297e-01" purity="3.1516543030738831e-01" nType="-99"/>
            <Node pos="r" depth="3" NCoef="0" IVar="-1" Cut="0.0000000000000000e+00" cType="1" res="-2.4870784953236580e-02" rms="4.7665745019912720e-01" purity="4.5309093594551086e-01" nType="-99"/>
          </Node>
          <Node pos="r" depth="2" NCoef="0" IVar="8" Cut="1.3936121875000000e+05" cType="1" res="5.2832951769232750e-03" rms="4.6469461917877197e-01" purity="6.2014287710189819e-01" nType="0">
            <Node pos="l" depth="3" NCoef="0" IVar="-1" Cut="0.0000000000000000e+00" cType="1" res="1.0340197011828423e-02" rms="4.6815040707588196e-01" purity="6.1114275455474854e-01" nType="-99"/>
            <Node pos="r" depth="3" NCoef="0" IVar="-1" Cut="0.0000000000000000e+00" cType="1" res="-2.3079186677932739e-02" rms="4.4276896119117737e-01" purity="6.7382103204727173e-01" nType="-99"/>
          </Node>
        </Node>
        <Node pos="r" depth="1" NCoef="0" IVar="9" Cut="3.7778199218750000e+04" cType="1" res="-3.4772332757711411e-02" rms="4.5646765828132629e-01" purity="4.4738292694091797e-01" nType="0">
          <Node pos="l" depth="2" NCoef="0" IVar="-1" Cut="0.0000000000000000e+00" cType="1" res="2.0322599448263645e-03" rms="4.5479401946067810e-01" purity="3.5850548744201660e-01" nType="-99"/>
          <Node pos="r" depth="2" NCoef="0" IVar="6" Cut="7.4758917093276978e-01" cType="1" res="-6.0355685651302338e-02" rms="4.5561966300010681e-01" purity="5.0224369764328003e-01" nType="0">
            <Node pos="l" depth="3" NCoef="0" IVar="-1" Cut="0.0000000000000000e+00" cType="1" res="-1.0255591012537479e-02" rms="4.5757085084915161e-01" purity="6.0113579034805298e-01" nType="-99"/>
            <Node pos="r" depth="3" NCoef="0" IVar="-1" Cut="0.0000000000000000e+00" cType="1" res="-3.1663365662097931e-03" rms="4.4833338260650635e-01" purity="4.0781778097152710e-01" nType="-99"/>
          </Node>
        </Node>
      </Node>
    </BinaryTree>
    <BinaryTree type="DecisionTree" boostWeight="1.0000000000000000e+00" itree="211">
      <Node pos="s" depth="0" NCoef="0" IVar="5" Cut="-1.0472477674484253e+00" cType="1" res="1.6217111842706800e-03" rms="4.6426674723625183e-01" purity="5.0406020879745483e-01" nType="0">
        <Node pos="l" depth="1" NCoef="0" IVar="7" Cut="5.0000000000000000e+00" cType="1" res="-9.4257397577166557e-03" rms="4.6847742795944214e-01" purity="5.0914603471755981e-01" nType="0">
          <Node pos="l" depth="2" NCoef="0" IVar="4" Cut="2.7228374481201172e+00" cType="1" res="1.0064208880066872e-02" rms="4.7758963704109192e-01" purity="4.5181611180305481e-01" nType="0">
            <Node pos="l" depth="3" NCoef="0" IVar="-1" Cut="0.0000000000000000e+00" cType="1" res="2.0958816632628441e-02" rms="4.8150885105133057e-01" purity="4.6018254756927490e-01" nType="-99"/>
            <Node pos="r" depth="3" NCoef="0" IVar="-1" Cut="0.0000000000000000e+00" cType="1" res="-7.0889117196202278e-03" rms="4.6413555741310120e-01" purity="4.2601424455642700e-01" nType="-99"/>
          </Node>
          <Node pos="r" depth="2" NCoef="0" IVar="5" Cut="-2.7427372932434082e+00" cType="1" res="-2.4250401183962822e-02" rms="4.6088644862174988e-01" purity="5.5271863937377930e-01" nType="0">
            <Node pos="l" depth="3" NCoef="0" IVar="-1" Cut="0.0000000000000000e+00" cType="1" res="-3.2970567699521780e-03" rms="4.5599386096000671e-01" purity="5.3560554981231689e-01" nType="-99"/>
            <Node pos="r" depth="3" NCoef="0" IVar="-1" Cut="0.0000000000000000e+00" cType="1" res="-1.8134588375687599e-02" rms="4.6252128481864929e-01" purity="5.5958175659179688e-01" nType="-99"/>
          </Node>
        </Node>
        <Node pos="r" depth="1" NCoef="0" IVar="5" Cut="1.3462871313095093e+00" cType="1" res="9.0469839051365852e-03" rms="4.6126571297645569e-01" purity="5.0064390897750854e-01" nType="0">
          <Node pos="l" depth="2" NCoef="0" IVar="4" Cut="1.5079475641250610e+00" cType="1" res="2.3436591029167175e-02" rms="4.6326506137847900e-01" purity="4.6610680222511292e-01" nType="0">
            <Node pos="l" depth="3" NCoef="0" IVar="-1" Cut="0.0000000000000000e+00" cType="1" res="-9.3508671852760017e-05" rms="4.5822295546531677e-01" purity="3.9371716976165771e-01" nType="-99"/>
            <Node pos="r" depth="3" NCoef="0" IVar="-1" Cut="0.0000000000000000e+00" cType="1" res="3.2098010182380676e-02" rms="4.6569955348968506e-01" purity="5.0963014364242554e-01" nType="-99"/>
          </Node>
          <Node pos="r" depth="2" NCoef="0" IVar="5" Cut="1.7738814353942871e+00" cType="1" res="7.1222137194126844e-05" rms="4.5978614687919617e-01" purity="5.2218699455261230e-01" nType="0">
            <Node pos="l" depth="3" NCoef="0" IVar="-1" Cut="0.0000000000000000e+00" cType="1" res="-6.4219175837934017e-03" rms="4.5457816123962402e-01" purity="4.5920509099960327e-01" nType="-99"/>
            <Node pos="r" depth="3" NCoef="0" IVar="-1" Cut="0.0000000000000000e+00" cType="1" res="5.4185483604669571e-03" rms="4.6075507998466492e-01" purity="5.3555387258529663e-01" nType="-99"/>
          </Node>
        </Node>
      </Node>
    </BinaryTree>
    <BinaryTree type="DecisionTree" boostWeight="1.0000000000000000e+00" itree="212">
      <Node pos="s" depth="0" NCoef="0" IVar="5" Cut="1.9444838762283325e+00" cType="1" res="0.0000000000000000e+00" rms="0.0000000000000000e+00" purity="4.9951839447021484e-01" nType="0">
        <Node pos="l" depth="1" NCoef="0" IVar="4" Cut="3.0120081901550293e+00" cType="1" res="-8.3372499793767929e-03" rms="4.6468225121498108e-01" purity="4.8270398378372192e-01" nType="0">
          <Node pos="l" depth="2" NCoef="0" IVar="5" Cut="-2.1726989746093750e+00" cType="1" res="-1.5704759862273932e-03" rms="4.6817868947982788e-01" purity="4.9691927433013916e-01" nType="0">
            <Node pos="l" depth="3" NCoef="0" IVar="-1" Cut="0.0000000000000000e+00" cType="1" res="1.1115781962871552e-02" rms="4.6851316094398499e-01" purity="5.4800212383270264e-01" nType="-99"/>
            <Node pos="r" depth="3" NCoef="0" IVar="-1" Cut="0.0000000000000000e+00" cType="1" res="-8.6518051102757454e-03" rms="4.6790769696235657e-01" purity="4.7217088937759399e-01" nType="-99"/>
          </Node>
          <Node pos="r" depth="2" NCoef="0" IVar="6" Cut="-1.0473347902297974e+00" cType="1" res="-4.8406034708023071e-02" rms="4.4129255414009094e-01" purity="3.9852938055992126e-01" nType="0">
            <Node pos="l" depth="3" NCoef="0" IVar="-1" Cut="0.0000000000000000e+00" cType="1" res="-2.7588272932916880e-03" rms="4.6790674328804016e-01" purity="4.5232433080673218e-01" nType="-99"/>
            <Node pos="r" depth="3" NCoef="0" IVar="-1" Cut="0.0000000000000000e+00" cType="1" res="-5.1664491184055805e-03" rms="4.1605660319328308e-01" purity="3.5690784454345703e-01" nType="-99"/>
          </Node>
        </Node>
        <Node pos="r" depth="1" NCoef="0" IVar="8" Cut="6.2167347656250000e+04" cType="1" res="8.3670960739254951e-03" rms="4.6312588453292847e-01" purity="5.4431229829788208e-01" nType="0">
          <Node pos="l" depth="2" NCoef="0" IVar="8" Cut="4.2847410156250000e+04" cType="1" res="2.0725350826978683e-02" rms="4.6762809157371521e-01" purity="4.4489321112632751e-01" nType="0">
            <Node pos="l" depth="3" NCoef="0" IVar="-1" Cut="0.0000000000000000e+00" cType="1" res="-2.8463358059525490e-02" rms="4.4933664798736572e-01" purity="3.1437304615974426e-01" nType="-99"/>
            <Node pos="r" depth="3" NCoef="0" IVar="-1" Cut="0.0000000000000000e+00" cType="1" res="4.9417957663536072e-02" rms="4.7601538896560669e-01" purity="5.1803535223007202e-01" nType="-99"/>
          </Node>
          <Node pos="r" depth="2" NCoef="0" IVar="2" Cut="2.2240090942382812e+02" cType="1" res="-7.6647370588034391e-04" rms="4.5955660939216614e-01" purity="6.1778956651687622e-01" nType="0">
            <Node pos="l" depth="3" NCoef="0" IVar="-1" Cut="0.0000000000000000e+00" cType="1" res="1.6467574983835220e-02" rms="4.4845861196517944e-01" purity="6.5664327144622803e-01" nType="-99"/>
            <Node pos="r" depth="3" NCoef="0" IVar="-1" Cut="0.0000000000000000e+00" cType="1" res="-2.7156177908182144e-02" rms="4.7346764802932739e-01" purity="5.6462699174880981e-01" nType="-99"/>
          </Node>
        </Node>
      </Node>
    </BinaryTree>
    <BinaryTree type="DecisionTree" boostWeight="1.0000000000000000e+00" itree="213">
      <Node pos="s" depth="0" NCoef="0" IVar="6" Cut="-2.2439780235290527e+00" cType="1" res="-4.1162526031257585e-05" rms="4.6358320116996765e-01" purity="5.0535178184509277e-01" nType="0">
        <Node pos="l" depth="1" NCoef="0" IVar="5" Cut="1.4979729056358337e-01" cType="1" res="-1.4416824094951153e-02" rms="4.7480770945549011e-01" purity="4.6130287647247314e-01" nType="0">
          <Node pos="l" depth="2" NCoef="0" IVar="3" Cut="4.9625787734985352e+00" cType="1" res="-6.5790298394858837e-03" rms="4.7595205903053284e-01" purity="4.5905160903930664e-01" nType="0">
            <Node pos="l" depth="3" NCoef="0" IVar="-1" Cut="0.0000000000000000e+00" cType="1" res="5.1201405003666878e-03" rms="4.8253330588340759e-01" purity="4.5727929472923279e-01" nType="-99"/>
            <Node pos="r" depth="3" NCoef="0" IVar="-1" Cut="0.0000000000000000e+00" cType="1" res="-1.8426176160573959e-02" rms="4.6956092119216919e-01" purity="4.6069347858428955e-01" nType="-99"/>
          </Node>
          <Node pos="r" depth="2" NCoef="0" IVar="-1" Cut="0.0000000000000000e+00" cType="1" res="-5.4087497293949127e-02" rms="4.6847414970397949e-01" purity="4.7084343433380127e-01" nType="-99"/>
        </Node>
        <Node pos="r" depth="1" NCoef="0" IVar="5" Cut="-1.0473278760910034e+00" cType="1" res="4.7494457103312016e-03" rms="4.5968198776245117e-01" purity="5.2003085613250732e-01" nType="0">
          <Node pos="l" depth="2" NCoef="0" IVar="4" Cut="2.7121443748474121e+00" cType="1" res="-5.1781367510557175e-03" rms="4.5913374423980713e-01" purity="5.2734375000000000e-01" nType="0">
            <Node pos="l" depth="3" NCoef="0" IVar="-1" Cut="0.0000000000000000e+00" cType="1" res="-8.0149034038186073e-03" rms="4.6019846200942993e-01" purity="5.2288019657135010e-01" nType="-99"/>
            <Node pos="r" depth="3" NCoef="0" IVar="-1" Cut="0.0000000000000000e+00" cType="1" res="3.5025230608880520e-03" rms="4.5540261268615723e-01" purity="5.4192465543746948e-01" nType="-99"/>
          </Node>
          <Node pos="r" depth="2" NCoef="0" IVar="6" Cut="-1.9217924773693085e-01" cType="1" res="9.8506454378366470e-03" rms="4.5988008379936218e-01" purity="5.1627314090728760e-01" nType="0">
            <Node pos="l" depth="3" NCoef="0" IVar="-1" Cut="0.0000000000000000e+00" cType="1" res="3.5424426198005676e-02" rms="4.2797252535820007e-01" purity="7.0922136306762695e-01" nType="-99"/>
            <Node pos="r" depth="3" NCoef="0" IVar="-1" Cut="0.0000000000000000e+00" cType="1" res="6.0763284564018250e-03" rms="4.6622374653816223e-01" purity="4.7564965486526489e-01" nType="-99"/>
          </Node>
        </Node>
      </Node>
    </BinaryTree>
    <BinaryTree type="DecisionTree" boostWeight="1.0000000000000000e+00" itree="214">
      <Node pos="s" depth="0" NCoef="0" IVar="4" Cut="3.2711985111236572e+00" cType="1" res="-3.1134532764554024e-03" rms="4.6495553851127625e-01" purity="5.0214457511901855e-01" nType="0">
        <Node pos="l" depth="1" NCoef="0" IVar="5" Cut="1.3460714817047119e+00" cType="1" res="-8.9485233183950186e-04" rms="4.6625202894210815e-01" purity="5.1227438449859619e-01" nType="0">
          <Node pos="l" depth="2" NCoef="0" IVar="0" Cut="2.2677162500000000e+05" cType="1" res="5.6052305735647678e-03" rms="4.6696487069129944e-01" purity="5.0566738843917847e-01" nType="0">
            <Node pos="l" depth="3" NCoef="0" IVar="-1" Cut="0.0000000000000000e+00" cType="1" res="1.1102818883955479e-02" rms="4.7029498219490051e-01" purity="4.9442562460899353e-01" nType="-99"/>
            <Node pos="r" depth="3" NCoef="0" IVar="-1" Cut="0.0000000000000000e+00" cType="1" res="-4.5012168586254120e-02" rms="4.4115594029426575e-01" purity="5.8592849969863892e-01" nType="-99"/>
          </Node>
          <Node pos="r" depth="2" NCoef="0" IVar="7" Cut="6.0000000000000000e+00" cType="1" res="-1.2231073342263699e-02" rms="4.6478560566902161e-01" purity="5.2380144596099854e-01" nType="0">
            <Node pos="l" depth="3" NCoef="0" IVar="-1" Cut="0.0000000000000000e+00" cType="1" res="-1.7081718891859055e-02" rms="4.6859383583068848e-01" purity="4.8238870501518250e-01" nType="-99"/>
            <Node pos="r" depth="3" NCoef="0" IVar="-1" Cut="0.0000000000000000e+00" cType="1" res="5.5035827681422234e-03" rms="4.5346301794052124e-01" purity="6.4070743322372437e-01" nType="-99"/>
          </Node>
        </Node>
        <Node pos="r" depth="1" NCoef="0" IVar="-1" Cut="0.0000000000000000e+00" cType="1" res="-2.4221928324550390e-03" rms="4.4258081912994385e-01" purity="3.4265479445457458e-01" nType="-99"/>
      </Node>
    </BinaryTree>
    <BinaryTree type="DecisionTree" boostWeight="1.0000000000000000e+00" itree="215">
      <Node pos="s" depth="0" NCoef="0" IVar="9" Cut="5.9037468750000000e+04" cType="1" res="-6.0051097534596920e-03" rms="4.6299490332603455e-01" purity="4.9759942293167114e-01" nType="0">
        <Node pos="l" depth="1" NCoef="0" IVar="4" Cut="3.1804578304290771e+00" cType="1" res="-4.9140152987092733e-04" rms="4.6863475441932678e-01" purity="4.4698017835617065e-01" nType="0">
          <Node pos="l" depth="2" NCoef="0" IVar="9" Cut="3.3102964843750000e+04" cType="1" res="3.6685562226921320e-03" rms="4.7047549486160278e-01" purity="4.5783913135528564e-01" nType="0">
            <Node pos="l" depth="3" NCoef="0" IVar="-1" Cut="0.0000000000000000e+00" cType="1" res="-3.1242622062563896e-03" rms="4.5787754654884338e-01" purity="3.4778314828872681e-01" nType="-99"/>
            <Node pos="r" depth="3" NCoef="0" IVar="-1" Cut="0.0000000000000000e+00" cType="1" res="1.0462105274200439e-02" rms="4.7911903262138367e-01" purity="5.3576588630676270e-01" nType="-99"/>
          </Node>
          <Node pos="r" depth="2" NCoef="0" IVar="-1" Cut="0.0000000000000000e+00" cType="1" res="-3.0874551739543676e-03" rms="4.4376498460769653e-01" purity="3.2046470046043396e-01" nType="-99"/>
        </Node>
        <Node pos="r" depth="1" NCoef="0" IVar="6" Cut="2.2439103126525879e+00" cType="1" res="-2.1650789305567741e-02" rms="4.4623294472694397e-01" purity="6.4123624563217163e-01" nType="0">
          <Node pos="l" depth="2" NCoef="0" IVar="0" Cut="2.2364839062500000e+05" cType="1" res="-5.2274391055107117e-03" rms="4.4398921728134155e-01" purity="6.7830967903137207e-01" nType="0">
            <Node pos="l" depth="3" NCoef="0" IVar="-1" Cut="0.0000000000000000e+00" cType="1" res="-1.6168877482414246e-02" rms="4.5778346061706543e-01" purity="6.4829796552658081e-01" nType="-99"/>
            <Node pos="r" depth="3" NCoef="0" IVar="-1" Cut="0.0000000000000000e+00" cType="1" res="4.2726073414087296e-02" rms="3.8650122284889221e-01" purity="7.8962272405624390e-01" nType="-99"/>
          </Node>
          <Node pos="r" depth="2" NCoef="0" IVar="-1" Cut="0.0000000000000000e+00" cType="1" res="-4.0724836289882660e-03" rms="4.4922086596488953e-01" purity="5.0096207857131958e-01" nType="-99"/>
        </Node>
      </Node>
    </BinaryTree>
    <BinaryTree type="DecisionTree" boostWeight="1.0000000000000000e+00" itree="216">
      <Node pos="s" depth="0" NCoef="0" IVar="4" Cut="2.6969330310821533e+00" cType="1" res="0.0000000000000000e+00" rms="0.0000000000000000e+00" purity="4.9896159768104553e-01" nType="0">
        <Node pos="l" depth="1" NCoef="0" IVar="6" Cut="1.6454434394836426e+00" cType="1" res="3.8709124783053994e-04" rms="4.6591931581497192e-01" purity="5.0148540735244751e-01" nType="0">
          <Node pos="l" depth="2" NCoef="0" IVar="4" Cut="2.4472985267639160e+00" cType="1" res="1.1005548760294914e-02" rms="4.6284422278404236e-01" purity="5.2736175060272217e-01" nType="0">
            <Node pos="l" depth="3" NCoef="0" IVar="-1" Cut="0.0000000000000000e+00" cType="1" res="8.5895908996462822e-03" rms="4.6325442194938660e-01" purity="5.1664131879806519e-01" nType="-99"/>
            <Node pos="r" depth="3" NCoef="0" IVar="-1" Cut="0.0000000000000000e+00" cType="1" res="4.8929262906312943e-02" rms="4.5828408002853394e-01" purity="6.1507886648178101e-01" nType="-99"/>
          </Node>
          <Node pos="r" depth="2" NCoef="0" IVar="6" Cut="2.9277858734130859e+00" cType="1" res="-2.0539795979857445e-02" rms="4.7122108936309814e-01" purity="4.5048820972442627e-01" nType="0">
            <Node pos="l" depth="3" NCoef="0" IVar="-1" Cut="0.0000000000000000e+00" cType="1" res="-1.2201919220387936e-02" rms="4.7170242667198181e-01" purity="4.5210587978363037e-01" nType="-99"/>
            <Node pos="r" depth="3" NCoef="0" IVar="-1" Cut="0.0000000000000000e+00" cType="1" res="-5.7955577969551086e-02" rms="4.6786195039749146e-01" purity="4.4393345713615417e-01" nType="-99"/>
          </Node>
        </Node>
        <Node pos="r" depth="1" NCoef="0" IVar="6" Cut="2.2439134120941162e+00" cType="1" res="-2.1715365350246429e-02" rms="4.5652553439140320e-01" purity="4.9159997701644897e-01" nType="0">
          <Node pos="l" depth="2" NCoef="0" IVar="6" Cut="7.0467191934585571e-01" cType="1" res="-1.2355118058621883e-02" rms="4.5736166834831238e-01" purity="5.2420300245285034e-01" nType="0">
            <Node pos="l" depth="3" NCoef="0" IVar="-1" Cut="0.0000000000000000e+00" cType="1" res="-2.1062720566987991e-02" rms="4.5765975117683411e-01" purity="5.2139627933502197e-01" nType="-99"/>
            <Node pos="r" depth="3" NCoef="0" IVar="-1" Cut="0.0000000000000000e+00" cType="1" res="1.0058172047138214e-02" rms="4.5584753155708313e-01" purity="5.3283578157424927e-01" nType="-99"/>
          </Node>
          <Node pos="r" depth="2" NCoef="0" IVar="-1" Cut="0.0000000000000000e+00" cType="1" res="-4.2376900091767311e-03" rms="4.5369520783424377e-01" purity="4.1265332698822021e-01" nType="-99"/>
        </Node>
      </Node>
    </BinaryTree>
    <BinaryTree type="DecisionTree" boostWeight="1.0000000000000000e+00" itree="217">
      <Node pos="s" depth="0" NCoef="0" IVar="5" Cut="2.8421614170074463e+00" cType="1" res="-1.9905697554349899e-03" rms="4.6295037865638733e-01" purity="5.0134140253067017e-01" nType="0">
        <Node pos="l" depth="1" NCoef="0" IVar="5" Cut="2.5570602416992188e+00" cType="1" res="5.2268413128331304e-04" rms="4.6313273906707764e-01" purity="4.9930307269096375e-01" nType="0">
          <Node pos="l" depth="2" NCoef="0" IVar="4" Cut="3.2306339740753174e+00" cType="1" res="0.0000000000000000e+00" rms="0.0000000000000000e+00" purity="4.9240633845329285e-01" nType="0">
            <Node pos="l" depth="3" NCoef="0" IVar="-1" Cut="0.0000000000000000e+00" cType="1" res="-2.4227020330727100e-03" rms="4.6447554230690002e-01" purity="4.9736431241035461e-01" nType="-99"/>
            <Node pos="r" depth="3" NCoef="0" IVar="-1" Cut="0.0000000000000000e+00" cType="1" res="3.4255906939506531e-02" rms="4.5449036359786987e-01" purity="4.1856494545936584e-01" nType="-99"/>
          </Node>
          <Node pos="r" depth="2" NCoef="0" IVar="-1" Cut="0.0000000000000000e+00" cType="1" res="3.0367109924554825e-02" rms="4.5256009697914124e-01" purity="5.7901769876480103e-01" nType="-99"/>
        </Node>
        <Node pos="r" depth="1" NCoef="0" IVar="-1" Cut="0.0000000000000000e+00" cType="1" res="-2.2474581375718117e-02" rms="4.5964398980140686e-01" purity="5.2604001760482788e-01" nType="-99"/>
      </Node>
    </BinaryTree>
    <BinaryTree type="DecisionTree" boostWeight="1.0000000000000000e+00" itree="218">
      <Node pos="s" depth="0" NCoef="0" IVar="4" Cut="3.2324471473693848e+00" cType="1" res="-2.4794363416731358e-03" rms="4.6309173107147217e-01" purity="4.9818643927574158e-01" nType="0">
        <Node pos="l" depth="1" NCoef="0" IVar="2" Cut="2.0466293334960938e+02" cType="1" res="8.7715237168595195e-04" rms="4.6531122922897339e-01" purity="5.0956213474273682e-01" nType="0">
          <Node pos="l" depth="2" NCoef="0" IVar="4" Cut="6.8932950496673584e-01" cType="1" res="-3.9049033075571060e-03" rms="4.6227329969406128e-01" purity="5.1534962654113770e-01" nType="0">
            <Node pos="l" depth="3" NCoef="0" IVar="-1" Cut="0.0000000000000000e+00" cType="1" res="-3.3756978809833527e-02" rms="4.6378791332244873e-01" purity="4.5880824327468872e-01" nType="-99"/>
            <Node pos="r" depth="3" NCoef="0" IVar="-1" Cut="0.0000000000000000e+00" cType="1" res="-6.4646749524399638e-04" rms="4.6200028061866760e-01" purity="5.2100288867950439e-01" nType="-99"/>
          </Node>
          <Node pos="r" depth="2" NCoef="0" IVar="6" Cut="1.6454491615295410e+00" cType="1" res="7.9778311774134636e-03" rms="4.6969613432884216e-01" purity="5.0096857547760010e-01" nType="0">
            <Node pos="l" depth="3" NCoef="0" IVar="-1" Cut="0.0000000000000000e+00" cType="1" res="-1.4611484948545694e-03" rms="4.6512714028358459e-01" purity="4.9199438095092773e-01" nType="-99"/>
            <Node pos="r" depth="3" NCoef="0" IVar="-1" Cut="0.0000000000000000e+00" cType="1" res="1.2531549669802189e-02" rms="4.7670757770538330e-01" purity="5.1578152179718018e-01" nType="-99"/>
          </Node>
        </Node>
        <Node pos="r" depth="1" NCoef="0" IVar="-1" Cut="0.0000000000000000e+00" cType="1" res="-2.9833915177732706e-03" rms="4.2948386073112488e-01" purity="3.4473943710327148e-01" nType="-99"/>
      </Node>
    </BinaryTree>
    <BinaryTree type="DecisionTree" boostWeight="1.0000000000000000e+00" itree="219">
      <Node pos="s" depth="0" NCoef="0" IVar="7" Cut="7.0000000000000000e+00" cType="1" res="-1.4322102069854736e-03" rms="4.6135911345481873e-01" purity="5.0237238407135010e-01" nType="0">
        <Node pos="l" depth="1" NCoef="0" IVar="5" Cut="-2.5431666374206543e+00" cType="1" res="-3.2727357465773821e-03" rms="4.6233922243118286e-01" purity="4.8611438274383545e-01" nType="0">
          <Node pos="l" depth="2" NCoef="0" IVar="9" Cut="3.9409992187500000e+04" cType="1" res="0.0000000000000000e+00" rms="0.0000000000000000e+00" purity="4.7242119908332825e-01" nType="0">
            <Node pos="l" depth="3" NCoef="0" IVar="-1" Cut="0.0000000000000000e+00" cType="1" res="-3.1500200275331736e-03" rms="4.3921056389808655e-01" purity="3.1293812394142151e-01" nType="-99"/>
            <Node pos="r" depth="3" NCoef="0" IVar="-1" Cut="0.0000000000000000e+00" cType="1" res="-3.5833208821713924e-03" rms="4.7059801220893860e-01" purity="6.0752838850021362e-01" nType="-99"/>
          </Node>
          <Node pos="r" depth="2" NCoef="0" IVar="6" Cut="2.8422811031341553e+00" cType="1" res="4.3266713619232178e-03" rms="4.6268895268440247e-01" purity="4.8875865340232849e-01" nType="0">
            <Node pos="l" depth="3" NCoef="0" IVar="-1" Cut="0.0000000000000000e+00" cType="1" res="1.9137216731905937e-03" rms="4.6107941865921021e-01" purity="4.8806667327880859e-01" nType="-99"/>
            <Node pos="r" depth="3" NCoef="0" IVar="-1" Cut="0.0000000000000000e+00" cType="1" res="2.4499934166669846e-02" rms="4.7439372539520264e-01" purity="4.9407073855400085e-01" nType="-99"/>
          </Node>
        </Node>
        <Node pos="r" depth="1" NCoef="0" IVar="7" Cut="8.0000000000000000e+00" cType="1" res="1.3144108466804028e-02" rms="4.5323914289474487e-01" purity="6.3015937805175781e-01" nType="0">
          <Node pos="l" depth="2" NCoef="0" IVar="-1" Cut="0.0000000000000000e+00" cType="1" res="3.1525306403636932e-02" rms="4.5431199669837952e-01" purity="6.3855743408203125e-01" nType="-99"/>
          <Node pos="r" depth="2" NCoef="0" IVar="-1" Cut="0.0000000000000000e+00" cType="1" res="-1.3724108226597309e-02" rms="4.5060625672340393e-01" purity="6.1515188217163086e-01" nType="-99"/>
        </Node>
      </Node>
    </BinaryTree>
    <BinaryTree type="DecisionTree" boostWeight="1.0000000000000000e+00" itree="220">
      <Node pos="s" depth="0" NCoef="0" IVar="4" Cut="2.9988031387329102e+00" cType="1" res="-1.1100086383521557e-02" rms="4.6302601695060730e-01" purity="4.9179887771606445e-01" nType="0">
        <Node pos="l" depth="1" NCoef="0" IVar="4" Cut="1.4616647958755493e+00" cType="1" res="-1.8601513002067804e-03" rms="4.6548813581466675e-01" purity="5.0706881284713745e-01" nType="0">
          <Node pos="l" depth="2" NCoef="0" IVar="4" Cut="6.6322809457778931e-01" cType="1" res="8.4279775619506836e-03" rms="4.6648681163787842e-01" purity="4.7372782230377197e-01" nType="0">
            <Node pos="l" depth="3" NCoef="0" IVar="-1" Cut="0.0000000000000000e+00" cType="1" res="2.8381142765283585e-02" rms="4.7312718629837036e-01" purity="4.8379993438720703e-01" nType="-99"/>
            <Node pos="r" depth="3" NCoef="0" IVar="-1" Cut="0.0000000000000000e+00" cType="1" res="4.9775526858866215e-03" rms="4.6435612440109253e-01" purity="4.7065556049346924e-01" nType="-99"/>
          </Node>
          <Node pos="r" depth="2" NCoef="0" IVar="6" Cut="-2.5431640148162842e+00" cType="1" res="-9.3292789533734322e-03" rms="4.6461907029151917e-01" purity="5.3127413988113403e-01" nType="0">
            <Node pos="l" depth="3" NCoef="0" IVar="-1" Cut="0.0000000000000000e+00" cType="1" res="1.1071804910898209e-02" rms="4.8126763105392456e-01" purity="5.1777058839797974e-01" nType="-99"/>
            <Node pos="r" depth="3" NCoef="0" IVar="-1" Cut="0.0000000000000000e+00" cType="1" res="-9.6164923161268234e-03" rms="4.6035122871398926e-01" purity="5.3455579280853271e-01" nType="-99"/>
          </Node>
        </Node>
        <Node pos="r" depth="1" NCoef="0" IVar="6" Cut="7.4731987714767456e-01" cType="1" res="-6.0803618282079697e-02" rms="4.4628000259399414e-01" purity="4.0965873003005981e-01" nType="0">
          <Node pos="l" depth="2" NCoef="0" IVar="-1" Cut="0.0000000000000000e+00" cType="1" res="-3.3688235562294722e-03" rms="4.6088638901710510e-01" purity="5.0131577253341675e-01" nType="-99"/>
          <Node pos="r" depth="2" NCoef="0" IVar="-1" Cut="0.0000000000000000e+00" cType="1" res="-3.3803770784288645e-03" rms="4.2524352669715881e-01" purity="3.2451713085174561e-01" nType="-99"/>
        </Node>
      </Node>
    </BinaryTree>
    <BinaryTree type="DecisionTree" boostWeight="1.0000000000000000e+00" itree="221">
      <Node pos="s" depth="0" NCoef="0" IVar="4" Cut="2.9988031387329102e+00" cType="1" res="-2.7109545189887285e-03" rms="4.6362158656120300e-01" purity="5.0296592712402344e-01" nType="0">
        <Node pos="l" depth="1" NCoef="0" IVar="6" Cut="4.4874477386474609e-01" cType="1" res="4.3248050496913493e-04" rms="4.6527406573295593e-01" purity="5.1021713018417358e-01" nType="0">
          <Node pos="l" depth="2" NCoef="0" IVar="5" Cut="-2.8419864177703857e+00" cType="1" res="-8.1122415140271187e-03" rms="4.6394801139831543e-01" purity="5.1101171970367432e-01" nType="0">
            <Node pos="l" depth="3" NCoef="0" IVar="-1" Cut="0.0000000000000000e+00" cType="1" res="3.1219694763422012e-02" rms="4.6620821952819824e-01" purity="5.6729942560195923e-01" nType="-99"/>
            <Node pos="r" depth="3" NCoef="0" IVar="-1" Cut="0.0000000000000000e+00" cType="1" res="-1.0935448110103607e-02" rms="4.6352285146713257e-01" purity="5.0488132238388062e-01" nType="-99"/>
          </Node>
          <Node pos="r" depth="2" NCoef="0" IVar="3" Cut="6.0945997238159180e+00" cType="1" res="1.0352619923651218e-02" rms="4.6661257743835449e-01" purity="5.0929462909698486e-01" nType="0">
            <Node pos="l" depth="3" NCoef="0" IVar="-1" Cut="0.0000000000000000e+00" cType="1" res="1.7328327521681786e-02" rms="4.7025978565216064e-01" purity="5.1311236619949341e-01" nType="-99"/>
            <Node pos="r" depth="3" NCoef="0" IVar="-1" Cut="0.0000000000000000e+00" cType="1" res="-5.0197015516459942e-03" rms="4.5921236276626587e-01" purity="5.0196862220764160e-01" nType="-99"/>
          </Node>
        </Node>
        <Node pos="r" depth="1" NCoef="0" IVar="9" Cut="5.6026382812500000e+04" cType="1" res="-2.1562216803431511e-02" rms="4.5312815904617310e-01" purity="4.5948031544685364e-01" nType="0">
          <Node pos="l" depth="2" NCoef="0" IVar="2" Cut="1.8732751464843750e+02" cType="1" res="-1.0409450624138117e-03" rms="4.5997869968414307e-01" purity="4.1165190935134888e-01" nType="0">
            <Node pos="l" depth="3" NCoef="0" IVar="-1" Cut="0.0000000000000000e+00" cType="1" res="-1.8022866919636726e-02" rms="4.5532113313674927e-01" purity="4.0780475735664368e-01" nType="-99"/>
            <Node pos="r" depth="3" NCoef="0" IVar="-1" Cut="0.0000000000000000e+00" cType="1" res="1.9091837108135223e-02" rms="4.6361607313156128e-01" purity="4.1542094945907593e-01" nType="-99"/>
          </Node>
          <Node pos="r" depth="2" NCoef="0" IVar="-1" Cut="0.0000000000000000e+00" cType="1" res="-5.2654366008937359e-03" rms="4.3433913588523865e-01" purity="5.6441307067871094e-01" nType="-99"/>
        </Node>
      </Node>
    </BinaryTree>
    <BinaryTree type="DecisionTree" boostWeight="1.0000000000000000e+00" itree="222">
      <Node pos="s" depth="0" NCoef="0" IVar="6" Cut="-2.8423771858215332e+00" cType="1" res="-3.4447559155523777e-03" rms="4.6385684609413147e-01" purity="5.0430357456207275e-01" nType="0">
        <Node pos="l" depth="1" NCoef="0" IVar="5" Cut="-4.4846701622009277e-01" cType="1" res="2.9170941561460495e-02" rms="4.7427418828010559e-01" purity="5.0215148925781250e-01" nType="0">
          <Node pos="l" depth="2" NCoef="0" IVar="-1" Cut="0.0000000000000000e+00" cType="1" res="1.8511440604925156e-02" rms="4.7329154610633850e-01" purity="5.2295303344726562e-01" nType="-99"/>
          <Node pos="r" depth="2" NCoef="0" IVar="-1" Cut="0.0000000000000000e+00" cType="1" res="5.5639412254095078e-02" rms="4.7509503364562988e-01" purity="4.7519922256469727e-01" nType="-99"/>
        </Node>
        <Node pos="r" depth="1" NCoef="0" IVar="4" Cut="2.4158377647399902e+00" cType="1" res="-6.8992958404123783e-03" rms="4.6260508894920349e-01" purity="5.0453156232833862e-01" nType="0">
          <Node pos="l" depth="2" NCoef="0" IVar="6" Cut="1.7167640924453735e+00" cType="1" res="-3.0087495688349009e-03" rms="4.6573165059089661e-01" purity="4.9791306257247925e-01" nType="0">
            <Node pos="l" depth="3" NCoef="0" IVar="-1" Cut="0.0000000000000000e+00" cType="1" res="-8.8563160970807076e-03" rms="4.6094885468482971e-01" purity="5.0860071182250977e-01" nType="-99"/>
            <Node pos="r" depth="3" NCoef="0" IVar="-1" Cut="0.0000000000000000e+00" cType="1" res="5.7722628116607666e-03" rms="4.7402766346931458e-01" purity="4.7885373234748840e-01" nType="-99"/>
          </Node>
          <Node pos="r" depth="2" NCoef="0" IVar="5" Cut="-2.5431814193725586e+00" cType="1" res="-1.4802579768002033e-02" rms="4.5608559250831604e-01" purity="5.1797640323638916e-01" nType="0">
            <Node pos="l" depth="3" NCoef="0" IVar="-1" Cut="0.0000000000000000e+00" cType="1" res="-1.0595287196338177e-02" rms="4.4194513559341431e-01" purity="4.9117696285247803e-01" nType="-99"/>
            <Node pos="r" depth="3" NCoef="0" IVar="-1" Cut="0.0000000000000000e+00" cType="1" res="-1.1712518520653248e-02" rms="4.5890638232231140e-01" purity="5.2364587783813477e-01" nType="-99"/>
          </Node>
        </Node>
      </Node>
    </BinaryTree>
    <BinaryTree type="DecisionTree" boostWeight="1.0000000000000000e+00" itree="223">
      <Node pos="s" depth="0" NCoef="0" IVar="5" Cut="-2.5432150363922119e+00" cType="1" res="-3.3686438109725714e-03" rms="4.6369901299476624e-01" purity="5.0269287824630737e-01" nType="0">
        <Node pos="l" depth="1" NCoef="0" IVar="5" Cut="-2.7142438888549805e+00" cType="1" res="-2.4628905579447746e-02" rms="4.6513459086418152e-01" purity="5.1560592651367188e-01" nType="0">
          <Node pos="l" depth="2" NCoef="0" IVar="8" Cut="7.4496789062500000e+04" cType="1" res="-4.2042206972837448e-02" rms="4.6459552645683289e-01" purity="5.0625997781753540e-01" nType="0">
            <Node pos="l" depth="3" NCoef="0" IVar="-1" Cut="0.0000000000000000e+00" cType="1" res="-4.4839186593890190e-03" rms="4.6312880516052246e-01" purity="4.1474792361259460e-01" nType="-99"/>
            <Node pos="r" depth="3" NCoef="0" IVar="-1" Cut="0.0000000000000000e+00" cType="1" res="-1.3584372587502003e-02" rms="4.6443614363670349e-01" purity="6.1845970153808594e-01" nType="-99"/>
          </Node>
          <Node pos="r" depth="2" NCoef="0" IVar="-1" Cut="0.0000000000000000e+00" cType="1" res="2.4680795148015022e-02" rms="4.6344953775405884e-01" purity="5.4010480642318726e-01" nType="-99"/>
        </Node>
        <Node pos="r" depth="1" NCoef="0" IVar="6" Cut="2.8421831130981445e+00" cType="1" res="5.3763785399496555e-04" rms="4.6332868933677673e-01" purity="5.0032031536102295e-01" nType="0">
          <Node pos="l" depth="2" NCoef="0" IVar="6" Cut="2.5572071075439453e+00" cType="1" res="3.1018715817481279e-03" rms="4.6237078309059143e-01" purity="5.0551825761795044e-01" nType="0">
            <Node pos="l" depth="3" NCoef="0" IVar="-1" Cut="0.0000000000000000e+00" cType="1" res="2.5200247182510793e-04" rms="4.6073231101036072e-01" purity="5.0802814960479736e-01" nType="-99"/>
            <Node pos="r" depth="3" NCoef="0" IVar="-1" Cut="0.0000000000000000e+00" cType="1" res="2.6336917653679848e-02" rms="4.7466680407524109e-01" purity="4.8540815711021423e-01" nType="-99"/>
          </Node>
          <Node pos="r" depth="2" NCoef="0" IVar="5" Cut="7.0591574907302856e-01" cType="1" res="-2.0149419084191322e-02" rms="4.7047457098960876e-01" purity="4.5838525891304016e-01" nType="0">
            <Node pos="l" depth="3" NCoef="0" IVar="-1" Cut="0.0000000000000000e+00" cType="1" res="-1.2263510376214981e-02" rms="4.6292692422866821e-01" purity="3.8060629367828369e-01" nType="-99"/>
            <Node pos="r" depth="3" NCoef="0" IVar="-1" Cut="0.0000000000000000e+00" cType="1" res="2.3640980361960828e-04" rms="4.7632449865341187e-01" purity="5.2912974357604980e-01" nType="-99"/>
          </Node>
        </Node>
      </Node>
    </BinaryTree>
    <BinaryTree type="DecisionTree" boostWeight="1.0000000000000000e+00" itree="224">
      <Node pos="s" depth="0" NCoef="0" IVar="4" Cut="2.9740247726440430e+00" cType="1" res="0.0000000000000000e+00" rms="0.0000000000000000e+00" purity="4.9256151914596558e-01" nType="0">
        <Node pos="l" depth="1" NCoef="0" IVar="5" Cut="2.5429131984710693e+00" cType="1" res="-5.5275172926485538e-03" rms="4.6368268132209778e-01" purity="5.0602483749389648e-01" nType="0">
          <Node pos="l" depth="2" NCoef="0" IVar="4" Cut="1.4567939043045044e+00" cType="1" res="-2.6671460364013910e-03" rms="4.6442875266075134e-01" purity="4.9834322929382324e-01" nType="0">
            <Node pos="l" depth="3" NCoef="0" IVar="-1" Cut="0.0000000000000000e+00" cType="1" res="-1.4857928268611431e-02" rms="4.6374231576919556e-01" purity="4.4510671496391296e-01" nType="-99"/>
            <Node pos="r" depth="3" NCoef="0" IVar="-1" Cut="0.0000000000000000e+00" cType="1" res="4.3375073000788689e-03" rms="4.6480482816696167e-01" purity="5.3642463684082031e-01" nType="-99"/>
          </Node>
          <Node pos="r" depth="2" NCoef="0" IVar="3" Cut="4.0193505287170410e+00" cType="1" res="-2.1362345665693283e-02" rms="4.5920836925506592e-01" purity="5.4854947328567505e-01" nType="0">
            <Node pos="l" depth="3" NCoef="0" IVar="-1" Cut="0.0000000000000000e+00" cType="1" res="-4.2629480361938477e-02" rms="4.6643623709678650e-01" purity="5.0381737947463989e-01" nType="-99"/>
            <Node pos="r" depth="3" NCoef="0" IVar="-1" Cut="0.0000000000000000e+00" cType="1" res="1.6093823360279202e-03" rms="4.4910457730293274e-01" purity="6.0377234220504761e-01" nType="-99"/>
          </Node>
        </Node>
        <Node pos="r" depth="1" NCoef="0" IVar="4" Cut="3.3503992557525635e+00" cType="1" res="-5.2986074239015579e-02" rms="4.4788461923599243e-01" purity="4.2429935932159424e-01" nType="0">
          <Node pos="l" depth="2" NCoef="0" IVar="6" Cut="-1.3462356328964233e+00" cType="1" res="-2.5619817897677422e-02" rms="4.6185991168022156e-01" purity="5.0970959663391113e-01" nType="0">
            <Node pos="l" depth="3" NCoef="0" IVar="-1" Cut="0.0000000000000000e+00" cType="1" res="1.6522996127605438e-02" rms="4.7662243247032166e-01" purity="5.3149175643920898e-01" nType="-99"/>
            <Node pos="r" depth="3" NCoef="0" IVar="-1" Cut="0.0000000000000000e+00" cType="1" res="-5.5600963532924652e-03" rms="4.5126509666442871e-01" purity="4.9681249260902405e-01" nType="-99"/>
          </Node>
          <Node pos="r" depth="2" NCoef="0" IVar="-1" Cut="0.0000000000000000e+00" cType="1" res="-2.9969301540404558e-03" rms="4.1542354226112366e-01" purity="2.6337790489196777e-01" nType="-99"/>
        </Node>
      </Node>
    </BinaryTree>
    <BinaryTree type="DecisionTree" boostWeight="1.0000000000000000e+00" itree="225">
      <Node pos="s" depth="0" NCoef="0" IVar="6" Cut="1.3463082313537598e+00" cType="1" res="2.8312110807746649e-03" rms="4.6200817823410034e-01" purity="5.0561374425888062e-01" nType="0">
        <Node pos="l" depth="1" NCoef="0" IVar="4" Cut="6.0432124137878418e-01" cType="1" res="9.8424637690186501e-03" rms="4.6026936173439026e-01" purity="5.3085643053054810e-01" nType="0">
          <Node pos="l" depth="2" NCoef="0" IVar="-1" Cut="0.0000000000000000e+00" cType="1" res="-3.1644318252801895e-02" rms="4.6271935105323792e-01" purity="4.4067755341529846e-01" nType="-99"/>
          <Node pos="r" depth="2" NCoef="0" IVar="6" Cut="-5.7706588506698608e-01" cType="1" res="1.2591531500220299e-02" rms="4.5996519923210144e-01" purity="5.3780651092529297e-01" nType="0">
            <Node pos="l" depth="3" NCoef="0" IVar="-1" Cut="0.0000000000000000e+00" cType="1" res="8.4035405889153481e-03" rms="4.6689659357070923e-01" purity="5.0986158847808838e-01" nType="-99"/>
            <Node pos="r" depth="3" NCoef="0" IVar="-1" Cut="0.0000000000000000e+00" cType="1" res="3.4293543547391891e-02" rms="4.4085940718650818e-01" purity="6.1156958341598511e-01" nType="-99"/>
          </Node>
        </Node>
        <Node pos="r" depth="1" NCoef="0" IVar="4" Cut="2.6681828498840332e+00" cType="1" res="-8.5981730371713638e-03" rms="4.6460199356079102e-01" purity="4.6446427702903748e-01" nType="0">
          <Node pos="l" depth="2" NCoef="0" IVar="6" Cut="2.7995126247406006e+00" cType="1" res="-7.6526188058778644e-04" rms="4.7201660275459290e-01" purity="4.7559908032417297e-01" nType="0">
            <Node pos="l" depth="3" NCoef="0" IVar="-1" Cut="0.0000000000000000e+00" cType="1" res="-1.0689455084502697e-02" rms="4.6903854608535767e-01" purity="4.6382954716682434e-01" nType="-99"/>
            <Node pos="r" depth="3" NCoef="0" IVar="-1" Cut="0.0000000000000000e+00" cType="1" res="2.7445659041404724e-02" rms="4.7779741883277893e-01" purity="5.0365561246871948e-01" nType="-99"/>
          </Node>
          <Node pos="r" depth="2" NCoef="0" IVar="5" Cut="1.9445445537567139e+00" cType="1" res="-2.9463574290275574e-02" rms="4.4357290863990784e-01" purity="4.3480318784713745e-01" nType="0">
            <Node pos="l" depth="3" NCoef="0" IVar="-1" Cut="0.0000000000000000e+00" cType="1" res="-4.9964091740548611e-03" rms="4.3019786477088928e-01" purity="4.0760499238967896e-01" nType="-99"/>
            <Node pos="r" depth="3" NCoef="0" IVar="-1" Cut="0.0000000000000000e+00" cType="1" res="-1.5599334612488747e-02" rms="4.6270024776458740e-01" purity="4.7607800364494324e-01" nType="-99"/>
          </Node>
        </Node>
      </Node>
    </BinaryTree>
    <BinaryTree type="DecisionTree" boostWeight="1.0000000000000000e+00" itree="226">
      <Node pos="s" depth="0" NCoef="0" IVar="4" Cut="2.9684450626373291e+00" cType="1" res="-2.6866798289120197e-03" rms="4.6239903569221497e-01" purity="5.0280237197875977e-01" nType="0">
        <Node pos="l" depth="1" NCoef="0" IVar="1" Cut="2.6666250000000000e+05" cType="1" res="5.3317123092710972e-04" rms="4.6410426497459412e-01" purity="5.1089566946029663e-01" nType="0">
          <Node pos="l" depth="2" NCoef="0" IVar="4" Cut="2.5576708316802979e+00" cType="1" res="2.3285755887627602e-03" rms="4.6517470479011536e-01" purity="5.2474635839462280e-01" nType="0">
            <Node pos="l" depth="3" NCoef="0" IVar="-1" Cut="0.0000000000000000e+00" cType="1" res="-6.5871712286025286e-04" rms="4.6661248803138733e-01" purity="5.1237893104553223e-01" nType="-99"/>
            <Node pos="r" depth="3" NCoef="0" IVar="-1" Cut="0.0000000000000000e+00" cType="1" res="1.6818612813949585e-02" rms="4.5806652307510376e-01" purity="5.8321243524551392e-01" nType="-99"/>
          </Node>
          <Node pos="r" depth="2" NCoef="0" IVar="-1" Cut="0.0000000000000000e+00" cType="1" res="-3.3654164522886276e-02" rms="4.4844284653663635e-01" purity="3.2095277309417725e-01" nType="-99"/>
        </Node>
        <Node pos="r" depth="1" NCoef="0" IVar="5" Cut="-4.4824236631393433e-01" cType="1" res="-1.9879940897226334e-02" rms="4.5279750227928162e-01" purity="4.5958605408668518e-01" nType="0">
          <Node pos="l" depth="2" NCoef="0" IVar="-1" Cut="0.0000000000000000e+00" cType="1" res="2.8566997498273849e-02" rms="4.6436953544616699e-01" purity="5.2523738145828247e-01" nType="-99"/>
          <Node pos="r" depth="2" NCoef="0" IVar="-1" Cut="0.0000000000000000e+00" cType="1" res="-3.6081278230994940e-03" rms="4.4150808453559875e-01" purity="4.1191756725311279e-01" nType="-99"/>
        </Node>
      </Node>
    </BinaryTree>
    <BinaryTree type="DecisionTree" boostWeight="1.0000000000000000e+00" itree="227">
      <Node pos="s" depth="0" NCoef="0" IVar="8" Cut="6.3534941406250000e+04" cType="1" res="-1.1293529532849789e-02" rms="4.6410822868347168e-01" purity="4.9306610226631165e-01" nType="0">
        <Node pos="l" depth="1" NCoef="0" IVar="7" Cut="6.0000000000000000e+00" cType="1" res="-4.9270298331975937e-03" rms="4.6431949734687805e-01" purity="4.0570211410522461e-01" nType="0">
          <Node pos="l" depth="2" NCoef="0" IVar="5" Cut="-7.4700665473937988e-01" cType="1" res="-8.2400431856513023e-03" rms="4.6303212642669678e-01" purity="3.8699275255203247e-01" nType="0">
            <Node pos="l" depth="3" NCoef="0" IVar="-1" Cut="0.0000000000000000e+00" cType="1" res="-1.6598355025053024e-02" rms="4.6339997649192810e-01" purity="3.9071440696716309e-01" nType="-99"/>
            <Node pos="r" depth="3" NCoef="0" IVar="-1" Cut="0.0000000000000000e+00" cType="1" res="-2.6313273701816797e-04" rms="4.6261802315711975e-01" purity="3.8440459966659546e-01" nType="-99"/>
          </Node>
          <Node pos="r" depth="2" NCoef="0" IVar="-1" Cut="0.0000000000000000e+00" cType="1" res="1.6190078109502792e-02" rms="4.7127002477645874e-01" purity="5.1437878608703613e-01" nType="-99"/>
        </Node>
        <Node pos="r" depth="1" NCoef="0" IVar="4" Cut="2.9740247726440430e+00" cType="1" res="-1.8431901931762695e-02" rms="4.6376690268516541e-01" purity="5.9104537963867188e-01" nType="0">
          <Node pos="l" depth="2" NCoef="0" IVar="5" Cut="-1.9446572065353394e+00" cType="1" res="0.0000000000000000e+00" rms="0.0000000000000000e+00" purity="6.0576570034027100e-01" nType="0">
            <Node pos="l" depth="3" NCoef="0" IVar="-1" Cut="0.0000000000000000e+00" cType="1" res="8.8229477405548096e-03" rms="4.6506556868553162e-01" purity="6.1970281600952148e-01" nType="-99"/>
            <Node pos="r" depth="3" NCoef="0" IVar="-1" Cut="0.0000000000000000e+00" cType="1" res="-1.8639082089066505e-02" rms="4.6519097685813904e-01" purity="5.9874165058135986e-01" nType="-99"/>
          </Node>
          <Node pos="r" depth="2" NCoef="0" IVar="-1" Cut="0.0000000000000000e+00" cType="1" res="-7.3982933536171913e-03" rms="4.5323097705841064e-01" purity="5.1705449819564819e-01" nType="-99"/>
        </Node>
      </Node>
    </BinaryTree>
    <BinaryTree type="DecisionTree" boostWeight="1.0000000000000000e+00" itree="228">
      <Node pos="s" depth="0" NCoef="0" IVar="4" Cut="1.4025067090988159e+00" cType="1" res="-4.0555940940976143e-03" rms="4.6207720041275024e-01" purity="4.9779447913169861e-01" nType="0">
        <Node pos="l" depth="1" NCoef="0" IVar="5" Cut="1.0470032691955566e+00" cType="1" res="8.1218527629971504e-03" rms="4.6623003482818604e-01" purity="4.6423688530921936e-01" nType="0">
          <Node pos="l" depth="2" NCoef="0" IVar="2" Cut="2.0706814575195312e+02" cType="1" res="-3.0735360924154520e-03" rms="4.6505221724510193e-01" purity="4.3900009989738464e-01" nType="0">
            <Node pos="l" depth="3" NCoef="0" IVar="-1" Cut="0.0000000000000000e+00" cType="1" res="-1.9891764968633652e-02" rms="4.6270245313644409e-01" purity="4.4222226738929749e-01" nType="-99"/>
            <Node pos="r" depth="3" NCoef="0" IVar="-1" Cut="0.0000000000000000e+00" cType="1" res="1.9968269392848015e-02" rms="4.6792390942573547e-01" purity="4.3419435620307922e-01" nType="-99"/>
          </Node>
          <Node pos="r" depth="2" NCoef="0" IVar="4" Cut="7.8113150596618652e-01" cType="1" res="0.0000000000000000e+00" rms="0.0000000000000000e+00" purity="5.0036615133285522e-01" nType="0">
            <Node pos="l" depth="3" NCoef="0" IVar="-1" Cut="0.0000000000000000e+00" cType="1" res="4.5402359217405319e-02" rms="4.7044181823730469e-01" purity="5.1540070772171021e-01" nType="-99"/>
            <Node pos="r" depth="3" NCoef="0" IVar="-1" Cut="0.0000000000000000e+00" cType="1" res="1.4709210954606533e-02" rms="4.6523541212081909e-01" purity="4.9141511321067810e-01" nType="-99"/>
          </Node>
        </Node>
        <Node pos="r" depth="1" NCoef="0" IVar="4" Cut="3.4053485393524170e+00" cType="1" res="-1.0166719555854797e-02" rms="4.5985752344131470e-01" purity="5.1463502645492554e-01" nType="0">
          <Node pos="l" depth="2" NCoef="0" IVar="5" Cut="2.8421061038970947e+00" cType="1" res="-7.8134080395102501e-03" rms="4.6268725395202637e-01" purity="5.2780050039291382e-01" nType="0">
            <Node pos="l" depth="3" NCoef="0" IVar="-1" Cut="0.0000000000000000e+00" cType="1" res="-4.5388983562588692e-03" rms="4.6271809935569763e-01" purity="5.2224564552307129e-01" nType="-99"/>
            <Node pos="r" depth="3" NCoef="0" IVar="-1" Cut="0.0000000000000000e+00" cType="1" res="1.6228469088673592e-02" rms="4.6125787496566772e-01" purity="5.9955060482025146e-01" nType="-99"/>
          </Node>
          <Node pos="r" depth="2" NCoef="0" IVar="-1" Cut="0.0000000000000000e+00" cType="1" res="-8.7751569226384163e-03" rms="4.1099694371223450e-01" purity="3.0740475654602051e-01" nType="-99"/>
        </Node>
      </Node>
    </BinaryTree>
    <BinaryTree type="DecisionTree" boostWeight="1.0000000000000000e+00" itree="229">
      <Node pos="s" depth="0" NCoef="0" IVar="5" Cut="-1.6456521749496460e+00" cType="1" res="-3.5758665762841702e-03" rms="4.6307229995727539e-01" purity="5.0111395120620728e-01" nType="0">
        <Node pos="l" depth="1" NCoef="0" IVar="2" Cut="1.8543281555175781e+02" cType="1" res="-1.8668409436941147e-02" rms="4.6588078141212463e-01" purity="5.1343041658401489e-01" nType="0">
          <Node pos="l" depth="2" NCoef="0" IVar="3" Cut="3.5175876617431641e+00" cType="1" res="-1.3593975454568863e-03" rms="4.6102052927017212e-01" purity="5.5355983972549438e-01" nType="0">
            <Node pos="l" depth="3" NCoef="0" IVar="-1" Cut="0.0000000000000000e+00" cType="1" res="-1.7381938174366951e-02" rms="4.7475725412368774e-01" purity="4.9689638614654541e-01" nType="-99"/>
            <Node pos="r" depth="3" NCoef="0" IVar="-1" Cut="0.0000000000000000e+00" cType="1" res="1.2981748208403587e-02" rms="4.4816797971725464e-01" purity="6.0376405715942383e-01" nType="-99"/>
          </Node>
          <Node pos="r" depth="2" NCoef="0" IVar="6" Cut="-1.9440771341323853e+00" cType="1" res="0.0000000000000000e+00" rms="0.0000000000000000e+00" purity="4.7996377944946289e-01" nType="0">
            <Node pos="l" depth="3" NCoef="0" IVar="-1" Cut="0.0000000000000000e+00" cType="1" res="-1.0077196173369884e-02" rms="4.8008665442466736e-01" purity="5.0433003902435303e-01" nType="-99"/>
            <Node pos="r" depth="3" NCoef="0" IVar="-1" Cut="0.0000000000000000e+00" cType="1" res="-2.8332520276308060e-02" rms="4.5867323875427246e-01" purity="4.5817452669143677e-01" nType="-99"/>
          </Node>
        </Node>
        <Node pos="r" depth="1" NCoef="0" IVar="8" Cut="6.3538023437500000e+04" cType="1" res="3.7113034632056952e-03" rms="4.6153354644775391e-01" purity="4.9516713619232178e-01" nType="0">
          <Node pos="l" depth="2" NCoef="0" IVar="9" Cut="2.6820937500000000e+04" cType="1" res="-3.6828247830271721e-03" rms="4.6461284160614014e-01" purity="3.9678809046745300e-01" nType="0">
            <Node pos="l" depth="3" NCoef="0" IVar="-1" Cut="0.0000000000000000e+00" cType="1" res="-6.2298942357301712e-03" rms="4.1174578666687012e-01" purity="2.5177463889122009e-01" nType="-99"/>
            <Node pos="r" depth="3" NCoef="0" IVar="-1" Cut="0.0000000000000000e+00" cType="1" res="2.1668988665624056e-06" rms="4.7345155477523804e-01" purity="4.2301717400550842e-01" nType="-99"/>
          </Node>
          <Node pos="r" depth="2" NCoef="0" IVar="8" Cut="1.3654651562500000e+05" cType="1" res="1.3442810624837875e-02" rms="4.5726704597473145e-01" purity="6.2464499473571777e-01" nType="0">
            <Node pos="l" depth="3" NCoef="0" IVar="-1" Cut="0.0000000000000000e+00" cType="1" res="1.9525684416294098e-02" rms="4.5956188440322876e-01" purity="6.1554342508316040e-01" nType="-99"/>
            <Node pos="r" depth="3" NCoef="0" IVar="-1" Cut="0.0000000000000000e+00" cType="1" res="-7.4757714755833149e-03" rms="4.4340851902961731e-01" purity="6.7630732059478760e-01" nType="-99"/>
          </Node>
        </Node>
      </Node>
    </BinaryTree>
    <BinaryTree type="DecisionTree" boostWeight="1.0000000000000000e+00" itree="230">
      <Node pos="s" depth="0" NCoef="0" IVar="8" Cut="1.4019389062500000e+05" cType="1" res="-9.2761078849434853e-03" rms="4.6223559975624084e-01" purity="4.9269643425941467e-01" nType="0">
        <Node pos="l" depth="1" NCoef="0" IVar="4" Cut="2.9742615222930908e+00" cType="1" res="-1.1823969893157482e-02" rms="4.6411111950874329e-01" purity="4.7827589511871338e-01" nType="0">
          <Node pos="l" depth="2" NCoef="0" IVar="9" Cut="3.0402843750000000e+04" cType="1" res="-3.7662200629711151e-03" rms="4.6706566214561462e-01" purity="4.9174541234970093e-01" nType="0">
            <Node pos="l" depth="3" NCoef="0" IVar="-1" Cut="0.0000000000000000e+00" cType="1" res="7.4297613464295864e-03" rms="4.5737552642822266e-01" purity="3.4056466817855835e-01" nType="-99"/>
            <Node pos="r" depth="3" NCoef="0" IVar="-1" Cut="0.0000000000000000e+00" cType="1" res="-1.0389527305960655e-02" rms="4.7008857131004333e-01" purity="5.4133480787277222e-01" nType="-99"/>
          </Node>
          <Node pos="r" depth="2" NCoef="0" IVar="4" Cut="3.3487403392791748e+00" cType="1" res="-5.2249483764171600e-02" rms="4.4680696725845337e-01" purity="4.1069960594177246e-01" nType="0">
            <Node pos="l" depth="3" NCoef="0" IVar="-1" Cut="0.0000000000000000e+00" cType="1" res="-3.2761872280389071e-03" rms="4.6494960784912109e-01" purity="4.9831509590148926e-01" nType="-99"/>
            <Node pos="r" depth="3" NCoef="0" IVar="-1" Cut="0.0000000000000000e+00" cType="1" res="-3.0966263730078936e-03" rms="4.0308672189712524e-01" purity="2.4465866386890411e-01" nType="-99"/>
          </Node>
        </Node>
        <Node pos="r" depth="1" NCoef="0" IVar="-1" Cut="0.0000000000000000e+00" cType="1" res="3.5218391567468643e-02" rms="4.3159925937652588e-01" purity="7.0725798606872559e-01" nType="-99"/>
      </Node>
    </BinaryTree>
    <BinaryTree type="DecisionTree" boostWeight="1.0000000000000000e+00" itree="231">
      <Node pos="s" depth="0" NCoef="0" IVar="5" Cut="-1.3462449312210083e+00" cType="1" res="-6.2174266204237938e-03" rms="4.6319809556007385e-01" purity="4.9535259604454041e-01" nType="0">
        <Node pos="l" depth="1" NCoef="0" IVar="6" Cut="7.4781048297882080e-01" cType="1" res="2.7382860425859690e-03" rms="4.6515277028083801e-01" purity="5.1973265409469604e-01" nType="0">
          <Node pos="l" depth="2" NCoef="0" IVar="6" Cut="-5.4920190572738647e-01" cType="1" res="-3.3032079227268696e-03" rms="4.7101008892059326e-01" purity="4.8254993557929993e-01" nType="0">
            <Node pos="l" depth="3" NCoef="0" IVar="-1" Cut="0.0000000000000000e+00" cType="1" res="3.6734631285071373e-03" rms="4.7404032945632935e-01" purity="4.7312578558921814e-01" nType="-99"/>
            <Node pos="r" depth="3" NCoef="0" IVar="-1" Cut="0.0000000000000000e+00" cType="1" res="-4.5916493982076645e-02" rms="4.4997021555900574e-01" purity="5.4004955291748047e-01" nType="-99"/>
          </Node>
          <Node pos="r" depth="2" NCoef="0" IVar="-1" Cut="0.0000000000000000e+00" cType="1" res="3.2632250338792801e-02" rms="4.3747764825820923e-01" purity="6.8324881792068481e-01" nType="-99"/>
        </Node>
        <Node pos="r" depth="1" NCoef="0" IVar="7" Cut="6.0000000000000000e+00" cType="1" res="-1.1370833963155746e-02" rms="4.6197882294654846e-01" purity="4.8131823539733887e-01" nType="0">
          <Node pos="l" depth="2" NCoef="0" IVar="0" Cut="2.2559129687500000e+05" cType="1" res="-4.4931452721357346e-03" rms="4.6379062533378601e-01" purity="4.4825825095176697e-01" nType="0">
            <Node pos="l" depth="3" NCoef="0" IVar="-1" Cut="0.0000000000000000e+00" cType="1" res="-5.3552296012639999e-03" rms="4.6532779932022095e-01" purity="4.3737831711769104e-01" nType="-99"/>
            <Node pos="r" depth="3" NCoef="0" IVar="-1" Cut="0.0000000000000000e+00" cType="1" res="5.0062909722328186e-02" rms="4.4863811135292053e-01" purity="5.4268622398376465e-01" nType="-99"/>
          </Node>
          <Node pos="r" depth="2" NCoef="0" IVar="6" Cut="1.9445953369140625e+00" cType="1" res="-3.0033268034458160e-02" rms="4.5655015110969543e-01" purity="5.7099187374114990e-01" nType="0">
            <Node pos="l" depth="3" NCoef="0" IVar="-1" Cut="0.0000000000000000e+00" cType="1" res="-1.7324814572930336e-02" rms="4.5109152793884277e-01" purity="6.1757445335388184e-01" nType="-99"/>
            <Node pos="r" depth="3" NCoef="0" IVar="-1" Cut="0.0000000000000000e+00" cType="1" res="-4.9253157339990139e-03" rms="4.7069472074508667e-01" purity="4.3363040685653687e-01" nType="-99"/>
          </Node>
        </Node>
      </Node>
    </BinaryTree>
    <BinaryTree type="DecisionTree" boostWeight="1.0000000000000000e+00" itree="232">
      <Node pos="s" depth="0" NCoef="0" IVar="7" Cut="6.0000000000000000e+00" cType="1" res="-9.0989377349615097e-03" rms="4.6382194757461548e-01" purity="4.9200081825256348e-01" nType="0">
        <Node pos="l" depth="1" NCoef="0" IVar="5" Cut="-1.3462672233581543e+00" cType="1" res="0.0000000000000000e+00" rms="0.0000000000000000e+00" purity="4.6524751186370850e-01" nType="0">
          <Node pos="l" depth="2" NCoef="0" IVar="4" Cut="1.3983640670776367e+00" cType="1" res="1.4538872055709362e-02" rms="4.7043421864509583e-01" purity="4.9212437868118286e-01" nType="0">
            <Node pos="l" depth="3" NCoef="0" IVar="-1" Cut="0.0000000000000000e+00" cType="1" res="3.8884878158569336e-02" rms="4.6928131580352783e-01" purity="4.6976041793823242e-01" nType="-99"/>
            <Node pos="r" depth="3" NCoef="0" IVar="-1" Cut="0.0000000000000000e+00" cType="1" res="4.1244644671678543e-03" rms="4.7078123688697815e-01" purity="5.0427758693695068e-01" nType="-99"/>
          </Node>
          <Node pos="r" depth="2" NCoef="0" IVar="6" Cut="-2.8423206806182861e+00" cType="1" res="-8.0137159675359726e-03" rms="4.6385815739631653e-01" purity="4.4950473308563232e-01" nType="0">
            <Node pos="l" depth="3" NCoef="0" IVar="-1" Cut="0.0000000000000000e+00" cType="1" res="-6.5322034060955048e-02" rms="4.5692795515060425e-01" purity="3.8526064157485962e-01" nType="-99"/>
            <Node pos="r" depth="3" NCoef="0" IVar="-1" Cut="0.0000000000000000e+00" cType="1" res="-2.6441353838890791e-03" rms="4.6439495682716370e-01" purity="4.5695734024047852e-01" nType="-99"/>
          </Node>
        </Node>
        <Node pos="r" depth="1" NCoef="0" IVar="6" Cut="2.2432055473327637e+00" cType="1" res="-3.4845519810914993e-02" rms="4.5565176010131836e-01" purity="5.6517851352691650e-01" nType="0">
          <Node pos="l" depth="2" NCoef="0" IVar="4" Cut="1.1242662668228149e+00" cType="1" res="0.0000000000000000e+00" rms="0.0000000000000000e+00" purity="6.1290967464447021e-01" nType="0">
            <Node pos="l" depth="3" NCoef="0" IVar="-1" Cut="0.0000000000000000e+00" cType="1" res="1.3588609173893929e-02" rms="4.6791276335716248e-01" purity="5.8377844095230103e-01" nType="-99"/>
            <Node pos="r" depth="3" NCoef="0" IVar="-1" Cut="0.0000000000000000e+00" cType="1" res="-2.7004214003682137e-02" rms="4.5239296555519104e-01" purity="6.2212979793548584e-01" nType="-99"/>
          </Node>
          <Node pos="r" depth="2" NCoef="0" IVar="-1" Cut="0.0000000000000000e+00" cType="1" res="-3.8010582793504000e-03" rms="4.4541412591934204e-01" purity="3.8954329490661621e-01" nType="-99"/>
        </Node>
      </Node>
    </BinaryTree>
    <BinaryTree type="DecisionTree" boostWeight="1.0000000000000000e+00" itree="233">
      <Node pos="s" depth="0" NCoef="0" IVar="5" Cut="-2.5430731773376465e+00" cType="1" res="7.3147291550412774e-04" rms="4.6492773294448853e-01" purity="5.0141960382461548e-01" nType="0">
        <Node pos="l" depth="1" NCoef="0" IVar="7" Cut="6.0000000000000000e+00" cType="1" res="-2.7687380090355873e-02" rms="4.6482059359550476e-01" purity="5.0694942474365234e-01" nType="0">
          <Node pos="l" depth="2" NCoef="0" IVar="7" Cut="5.0000000000000000e+00" cType="1" res="0.0000000000000000e+00" rms="0.0000000000000000e+00" purity="4.5350149273872375e-01" nType="0">
            <Node pos="l" depth="3" NCoef="0" IVar="-1" Cut="0.0000000000000000e+00" cType="1" res="-1.9340960308909416e-02" rms="4.7048097848892212e-01" purity="4.5233660936355591e-01" nType="-99"/>
            <Node pos="r" depth="3" NCoef="0" IVar="-1" Cut="0.0000000000000000e+00" cType="1" res="-3.9767180569469929e-03" rms="4.5985507965087891e-01" purity="4.5477488636970520e-01" nType="-99"/>
          </Node>
          <Node pos="r" depth="2" NCoef="0" IVar="-1" Cut="0.0000000000000000e+00" cType="1" res="2.2711046040058136e-02" rms="4.5794323086738586e-01" purity="6.5467703342437744e-01" nType="-99"/>
        </Node>
        <Node pos="r" depth="1" NCoef="0" IVar="5" Cut="2.3292901515960693e+00" cType="1" res="5.9152725152671337e-03" rms="4.6475926041603088e-01" purity="5.0041121244430542e-01" nType="0">
          <Node pos="l" depth="2" NCoef="0" IVar="8" Cut="1.0013435937500000e+05" cType="1" res="1.0795224457979202e-02" rms="4.6527308225631714e-01" purity="4.8941341042518616e-01" nType="0">
            <Node pos="l" depth="3" NCoef="0" IVar="-1" Cut="0.0000000000000000e+00" cType="1" res="1.2868954800069332e-02" rms="4.6834444999694824e-01" purity="4.6189635992050171e-01" nType="-99"/>
            <Node pos="r" depth="3" NCoef="0" IVar="-1" Cut="0.0000000000000000e+00" cType="1" res="-1.6477540135383606e-02" rms="4.4482579827308655e-01" purity="6.6016644239425659e-01" nType="-99"/>
          </Node>
          <Node pos="r" depth="2" NCoef="0" IVar="4" Cut="1.9810767173767090e+00" cType="1" res="-9.7776977345347404e-03" rms="4.6275439858436584e-01" purity="5.3577804565429688e-01" nType="0">
            <Node pos="l" depth="3" NCoef="0" IVar="-1" Cut="0.0000000000000000e+00" cType="1" res="-2.6936246082186699e-02" rms="4.6156349778175354e-01" purity="5.1610589027404785e-01" nType="-99"/>
            <Node pos="r" depth="3" NCoef="0" IVar="-1" Cut="0.0000000000000000e+00" cType="1" res="6.8871299736201763e-03" rms="4.6338638663291931e-01" purity="5.5614632368087769e-01" nType="-99"/>
          </Node>
        </Node>
      </Node>
    </BinaryTree>
    <BinaryTree type="DecisionTree" boostWeight="1.0000000000000000e+00" itree="234">
      <Node pos="s" depth="0" NCoef="0" IVar="8" Cut="7.3588218750000000e+04" cType="1" res="0.0000000000000000e+00" rms="0.0000000000000000e+00" purity="5.0322228670120239e-01" nType="0">
        <Node pos="l" depth="1" NCoef="0" IVar="8" Cut="6.8961507812500000e+04" cType="1" res="-5.3903791122138500e-03" rms="4.6692067384719849e-01" purity="4.2787408828735352e-01" nType="0">
          <Node pos="l" depth="2" NCoef="0" IVar="4" Cut="8.7811386585235596e-01" cType="1" res="-2.2896633017808199e-03" rms="4.6719565987586975e-01" purity="4.2094695568084717e-01" nType="0">
            <Node pos="l" depth="3" NCoef="0" IVar="-1" Cut="0.0000000000000000e+00" cType="1" res="-3.7258878350257874e-02" rms="4.5440059900283813e-01" purity="3.3355638384819031e-01" nType="-99"/>
            <Node pos="r" depth="3" NCoef="0" IVar="-1" Cut="0.0000000000000000e+00" cType="1" res="8.7260163854807615e-04" rms="4.6892094612121582e-01" purity="4.3357476592063904e-01" nType="-99"/>
          </Node>
          <Node pos="r" depth="2" NCoef="0" IVar="-1" Cut="0.0000000000000000e+00" cType="1" res="-3.7539727054536343e-03" rms="4.6228155493736267e-01" purity="5.0717473030090332e-01" nType="-99"/>
        </Node>
        <Node pos="r" depth="1" NCoef="0" IVar="3" Cut="5.0833897590637207e+00" cType="1" res="1.0235089808702469e-02" rms="4.5373457670211792e-01" purity="6.4052677154541016e-01" nType="0">
          <Node pos="l" depth="2" NCoef="0" IVar="2" Cut="2.0314120483398438e+02" cType="1" res="2.1738138049840927e-02" rms="4.6212309598922729e-01" purity="6.2050944566726685e-01" nType="0">
            <Node pos="l" depth="3" NCoef="0" IVar="-1" Cut="0.0000000000000000e+00" cType="1" res="1.0212485678493977e-02" rms="4.5328742265701294e-01" purity="6.4260953664779663e-01" nType="-99"/>
            <Node pos="r" depth="3" NCoef="0" IVar="-1" Cut="0.0000000000000000e+00" cType="1" res="3.5518053919076920e-02" rms="4.7114601731300354e-01" purity="5.9655886888504028e-01" nType="-99"/>
          </Node>
          <Node pos="r" depth="2" NCoef="0" IVar="7" Cut="5.0000000000000000e+00" cType="1" res="0.0000000000000000e+00" rms="0.0000000000000000e+00" purity="6.6405534744262695e-01" nType="0">
            <Node pos="l" depth="3" NCoef="0" IVar="-1" Cut="0.0000000000000000e+00" cType="1" res="-3.2933410257101059e-02" rms="4.6770614385604858e-01" purity="5.5543237924575806e-01" nType="-99"/>
            <Node pos="r" depth="3" NCoef="0" IVar="-1" Cut="0.0000000000000000e+00" cType="1" res="1.1741865426301956e-02" rms="4.3374335765838623e-01" purity="7.0229709148406982e-01" nType="-99"/>
          </Node>
        </Node>
      </Node>
    </BinaryTree>
    <BinaryTree type="DecisionTree" boostWeight="1.0000000000000000e+00" itree="235">
      <Node pos="s" depth="0" NCoef="0" IVar="5" Cut="-2.8424098491668701e+00" cType="1" res="6.8398606963455677e-03" rms="4.6447983384132385e-01" purity="5.1132833957672119e-01" nType="0">
        <Node pos="l" depth="1" NCoef="0" IVar="-1" Cut="0.0000000000000000e+00" cType="1" res="-1.6129508614540100e-02" rms="4.6948471665382385e-01" purity="5.4675191640853882e-01" nType="-99"/>
        <Node pos="r" depth="1" NCoef="0" IVar="4" Cut="1.8873331546783447e+00" cType="1" res="8.4585472941398621e-03" rms="4.6405038237571716e-01" purity="5.0858223438262939e-01" nType="0">
          <Node pos="l" depth="2" NCoef="0" IVar="5" Cut="-1.4177328348159790e+00" cType="1" res="1.3334567658603191e-02" rms="4.6531409025192261e-01" purity="4.8726630210876465e-01" nType="0">
            <Node pos="l" depth="3" NCoef="0" IVar="-1" Cut="0.0000000000000000e+00" cType="1" res="3.7173926830291748e-02" rms="4.6797251701354980e-01" purity="5.2946007251739502e-01" nType="-99"/>
            <Node pos="r" depth="3" NCoef="0" IVar="-1" Cut="0.0000000000000000e+00" cType="1" res="6.2159248627722263e-03" rms="4.6398472785949707e-01" purity="4.6945917606353760e-01" nType="-99"/>
          </Node>
          <Node pos="r" depth="2" NCoef="0" IVar="5" Cut="-5.6287455558776855e-01" cType="1" res="3.5726670175790787e-03" rms="4.6272912621498108e-01" purity="5.2994132041931152e-01" nType="0">
            <Node pos="l" depth="3" NCoef="0" IVar="-1" Cut="0.0000000000000000e+00" cType="1" res="-9.4518549740314484e-03" rms="4.6736526489257812e-01" purity="5.2399367094039917e-01" nType="-99"/>
            <Node pos="r" depth="3" NCoef="0" IVar="-1" Cut="0.0000000000000000e+00" cType="1" res="7.5856358744204044e-03" rms="4.5946514606475830e-01" purity="5.3385651111602783e-01" nType="-99"/>
          </Node>
        </Node>
      </Node>
    </BinaryTree>
    <BinaryTree type="DecisionTree" boostWeight="1.0000000000000000e+00" itree="236">
      <Node pos="s" depth="0" NCoef="0" IVar="5" Cut="-1.9448156356811523e+00" cType="1" res="-6.2145679257810116e-03" rms="4.6443465352058411e-01" purity="4.9977946281433105e-01" nType="0">
        <Node pos="l" depth="1" NCoef="0" IVar="6" Cut="7.4780690670013428e-01" cType="1" res="-2.4791693314909935e-02" rms="4.6057841181755066e-01" purity="5.0488865375518799e-01" nType="0">
          <Node pos="l" depth="2" NCoef="0" IVar="5" Cut="-2.6286659240722656e+00" cType="1" res="-1.1706382036209106e-02" rms="4.6791175007820129e-01" purity="4.8948404192924500e-01" nType="0">
            <Node pos="l" depth="3" NCoef="0" IVar="-1" Cut="0.0000000000000000e+00" cType="1" res="3.3271079882979393e-03" rms="4.6751797199249268e-01" purity="5.2102327346801758e-01" nType="-99"/>
            <Node pos="r" depth="3" NCoef="0" IVar="-1" Cut="0.0000000000000000e+00" cType="1" res="-1.6834333539009094e-02" rms="4.6789878606796265e-01" purity="4.6500620245933533e-01" nType="-99"/>
          </Node>
          <Node pos="r" depth="2" NCoef="0" IVar="-1" Cut="0.0000000000000000e+00" cType="1" res="-4.1257697157561779e-03" rms="4.2984023690223694e-01" purity="5.6038695573806763e-01" nType="-99"/>
        </Node>
        <Node pos="r" depth="1" NCoef="0" IVar="6" Cut="-2.5431747436523438e+00" cType="1" res="1.2696580961346626e-03" rms="4.6576985716819763e-01" purity="4.9772113561630249e-01" nType="0">
          <Node pos="l" depth="2" NCoef="0" IVar="5" Cut="-7.2797993198037148e-03" cType="1" res="2.8204258531332016e-02" rms="4.7388094663619995e-01" purity="4.6429568529129028e-01" nType="0">
            <Node pos="l" depth="3" NCoef="0" IVar="-1" Cut="0.0000000000000000e+00" cType="1" res="1.5348157845437527e-02" rms="4.7076836228370667e-01" purity="4.2534801363945007e-01" nType="-99"/>
            <Node pos="r" depth="3" NCoef="0" IVar="-1" Cut="0.0000000000000000e+00" cType="1" res="7.4931927025318146e-02" rms="4.7786539793014526e-01" purity="5.3513348102569580e-01" nType="-99"/>
          </Node>
          <Node pos="r" depth="2" NCoef="0" IVar="8" Cut="6.3538023437500000e+04" cType="1" res="-4.1374429129064083e-03" rms="4.6393606066703796e-01" purity="5.0443130731582642e-01" nType="0">
            <Node pos="l" depth="3" NCoef="0" IVar="-1" Cut="0.0000000000000000e+00" cType="1" res="2.1102817263454199e-03" rms="4.6894240379333496e-01" purity="4.1119721531867981e-01" nType="-99"/>
            <Node pos="r" depth="3" NCoef="0" IVar="-1" Cut="0.0000000000000000e+00" cType="1" res="-1.1760545894503593e-02" rms="4.5805957913398743e-01" purity="6.1077642440795898e-01" nType="-99"/>
          </Node>
        </Node>
      </Node>
    </BinaryTree>
    <BinaryTree type="DecisionTree" boostWeight="1.0000000000000000e+00" itree="237">
      <Node pos="s" depth="0" NCoef="0" IVar="4" Cut="3.2711985111236572e+00" cType="1" res="-8.8757742196321487e-03" rms="4.6205598115921021e-01" purity="4.9605780839920044e-01" nType="0">
        <Node pos="l" depth="1" NCoef="0" IVar="6" Cut="-2.8423314094543457e+00" cType="1" res="-4.0850867517292500e-03" rms="4.6347939968109131e-01" purity="5.0835555791854858e-01" nType="0">
          <Node pos="l" depth="2" NCoef="0" IVar="4" Cut="2.0835580825805664e+00" cType="1" res="-3.1037418171763420e-02" rms="4.6922123432159424e-01" purity="4.7206029295921326e-01" nType="0">
            <Node pos="l" depth="3" NCoef="0" IVar="-1" Cut="0.0000000000000000e+00" cType="1" res="-1.8353769555687904e-02" rms="4.6189230680465698e-01" purity="4.4584023952484131e-01" nType="-99"/>
            <Node pos="r" depth="3" NCoef="0" IVar="-1" Cut="0.0000000000000000e+00" cType="1" res="-5.0616495311260223e-02" rms="4.7637888789176941e-01" purity="5.0013428926467896e-01" nType="-99"/>
          </Node>
          <Node pos="r" depth="2" NCoef="0" IVar="6" Cut="2.2866604328155518e+00" cType="1" res="-1.2345575960353017e-03" rms="4.6277618408203125e-01" purity="5.1219421625137329e-01" nType="0">
            <Node pos="l" depth="3" NCoef="0" IVar="-1" Cut="0.0000000000000000e+00" cType="1" res="3.5859600175172091e-03" rms="4.5892116427421570e-01" purity="5.2756547927856445e-01" nType="-99"/>
            <Node pos="r" depth="3" NCoef="0" IVar="-1" Cut="0.0000000000000000e+00" cType="1" res="-3.7521065678447485e-03" rms="4.7245332598686218e-01" purity="4.7207728028297424e-01" nType="-99"/>
          </Node>
        </Node>
        <Node pos="r" depth="1" NCoef="0" IVar="-1" Cut="0.0000000000000000e+00" cType="1" res="-2.7694511227309704e-03" rms="4.3436977267265320e-01" purity="3.1433129310607910e-01" nType="-99"/>
      </Node>
    </BinaryTree>
    <BinaryTree type="DecisionTree" boostWeight="1.0000000000000000e+00" itree="238">
      <Node pos="s" depth="0" NCoef="0" IVar="9" Cut="4.8522570312500000e+04" cType="1" res="-4.1066473349928856e-03" rms="4.6263697743415833e-01" purity="5.0053948163986206e-01" nType="0">
        <Node pos="l" depth="1" NCoef="0" IVar="4" Cut="1.6157082319259644e+00" cType="1" res="-1.0473506990820169e-03" rms="4.6888872981071472e-01" purity="4.2134785652160645e-01" nType="0">
          <Node pos="l" depth="2" NCoef="0" IVar="4" Cut="7.2924298048019409e-01" cType="1" res="-1.0079300031065941e-02" rms="4.6307191252708435e-01" purity="3.7577804923057556e-01" nType="0">
            <Node pos="l" depth="3" NCoef="0" IVar="-1" Cut="0.0000000000000000e+00" cType="1" res="3.1308721750974655e-02" rms="4.6137085556983948e-01" purity="3.6928996443748474e-01" nType="-99"/>
            <Node pos="r" depth="3" NCoef="0" IVar="-1" Cut="0.0000000000000000e+00" cType="1" res="-2.4156199768185616e-02" rms="4.6317723393440247e-01" purity="3.7760305404663086e-01" nType="-99"/>
          </Node>
          <Node pos="r" depth="2" NCoef="0" IVar="5" Cut="1.6455153226852417e+00" cType="1" res="5.0482554361224174e-03" rms="4.7267645597457886e-01" purity="4.5210263133049011e-01" nType="0">
            <Node pos="l" depth="3" NCoef="0" IVar="-1" Cut="0.0000000000000000e+00" cType="1" res="-2.5790070649236441e-03" rms="4.7181978821754456e-01" purity="4.3380060791969299e-01" nType="-99"/>
            <Node pos="r" depth="3" NCoef="0" IVar="-1" Cut="0.0000000000000000e+00" cType="1" res="2.7061242610216141e-02" rms="4.7380959987640381e-01" purity="4.9254909157752991e-01" nType="-99"/>
          </Node>
        </Node>
        <Node pos="r" depth="1" NCoef="0" IVar="6" Cut="2.2436840534210205e+00" cType="1" res="-9.0129273012280464e-03" rms="4.5238739252090454e-01" purity="6.2754136323928833e-01" nType="0">
          <Node pos="l" depth="2" NCoef="0" IVar="5" Cut="2.2436470985412598e+00" cType="1" res="9.3172248452901840e-03" rms="4.4976863265037537e-01" purity="6.6401261091232300e-01" nType="0">
            <Node pos="l" depth="3" NCoef="0" IVar="-1" Cut="0.0000000000000000e+00" cType="1" res="3.8581355474889278e-03" rms="4.5495730638504028e-01" purity="6.5327376127243042e-01" nType="-99"/>
            <Node pos="r" depth="3" NCoef="0" IVar="-1" Cut="0.0000000000000000e+00" cType="1" res="2.9711565002799034e-02" rms="4.3318077921867371e-01" purity="6.9652575254440308e-01" nType="-99"/>
          </Node>
          <Node pos="r" depth="2" NCoef="0" IVar="-1" Cut="0.0000000000000000e+00" cType="1" res="-3.8872158620506525e-03" rms="4.5564928650856018e-01" purity="4.9828639626502991e-01" nType="-99"/>
        </Node>
      </Node>
    </BinaryTree>
    <BinaryTree type="DecisionTree" boostWeight="1.0000000000000000e+00" itree="239">
      <Node pos="s" depth="0" NCoef="0" IVar="5" Cut="-2.2440147399902344e+00" cType="1" res="-6.8403477780520916e-03" rms="4.6532654762268066e-01" purity="5.0029146671295166e-01" nType="0">
        <Node pos="l" depth="1" NCoef="0" IVar="6" Cut="-4.4828751683235168e-01" cType="1" res="0.0000000000000000e+00" rms="0.0000000000000000e+00" purity="5.0417000055313110e-01" nType="0">
          <Node pos="l" depth="2" NCoef="0" IVar="5" Cut="-2.7994778156280518e+00" cType="1" res="-6.5508950501680374e-04" rms="4.7210663557052612e-01" purity="4.9034592509269714e-01" nType="0">
            <Node pos="l" depth="3" NCoef="0" IVar="-1" Cut="0.0000000000000000e+00" cType="1" res="2.7293717488646507e-02" rms="4.7166386246681213e-01" purity="5.5134338140487671e-01" nType="-99"/>
            <Node pos="r" depth="3" NCoef="0" IVar="-1" Cut="0.0000000000000000e+00" cType="1" res="-1.0255940258502960e-02" rms="4.7184872627258301e-01" purity="4.5939430594444275e-01" nType="-99"/>
          </Node>
          <Node pos="r" depth="2" NCoef="0" IVar="-1" Cut="0.0000000000000000e+00" cType="1" res="-4.9814786761999130e-03" rms="4.4461911916732788e-01" purity="5.2972990274429321e-01" nType="-99"/>
        </Node>
        <Node pos="r" depth="1" NCoef="0" IVar="5" Cut="2.8849935531616211e+00" cType="1" res="-1.9119164207950234e-03" rms="4.6569731831550598e-01" purity="4.9914318323135376e-01" nType="0">
          <Node pos="l" depth="2" NCoef="0" IVar="5" Cut="1.6636840105056763e+00" cType="1" res="-4.4548846781253815e-03" rms="4.6596163511276245e-01" purity="4.9006742238998413e-01" nType="0">
            <Node pos="l" depth="3" NCoef="0" IVar="-1" Cut="0.0000000000000000e+00" cType="1" res="2.8562056832015514e-03" rms="4.6800920367240906e-01" purity="4.7769030928611755e-01" nType="-99"/>
            <Node pos="r" depth="3" NCoef="0" IVar="-1" Cut="0.0000000000000000e+00" cType="1" res="-1.7188291996717453e-02" rms="4.6213507652282715e-01" purity="5.1159554719924927e-01" nType="-99"/>
          </Node>
          <Node pos="r" depth="2" NCoef="0" IVar="-1" Cut="0.0000000000000000e+00" cType="1" res="3.0559206381440163e-02" rms="4.6164742112159729e-01" purity="6.0338634252548218e-01" nType="-99"/>
        </Node>
      </Node>
    </BinaryTree>
    <BinaryTree type="DecisionTree" boostWeight="1.0000000000000000e+00" itree="240">
      <Node pos="s" depth="0" NCoef="0" IVar="4" Cut="3.2250001430511475e+00" cType="1" res="-5.2700089290738106e-03" rms="4.6424216032028198e-01" purity="4.9988034367561340e-01" nType="0">
        <Node pos="l" depth="1" NCoef="0" IVar="4" Cut="2.9238812923431396e+00" cType="1" res="-3.1667812727391720e-03" rms="4.6485468745231628e-01" purity="5.0901395082473755e-01" nType="0">
          <Node pos="l" depth="2" NCoef="0" IVar="6" Cut="2.8422815799713135e+00" cType="1" res="-4.8119700513780117e-03" rms="4.6511006355285645e-01" purity="5.0132125616073608e-01" nType="0">
            <Node pos="l" depth="3" NCoef="0" IVar="-1" Cut="0.0000000000000000e+00" cType="1" res="-2.1476955153048038e-03" rms="4.6402835845947266e-01" purity="5.0590717792510986e-01" nType="-99"/>
            <Node pos="r" depth="3" NCoef="0" IVar="-1" Cut="0.0000000000000000e+00" cType="1" res="-1.5251723118126392e-02" rms="4.7429895401000977e-01" purity="4.5802029967308044e-01" nType="-99"/>
          </Node>
          <Node pos="r" depth="2" NCoef="0" IVar="7" Cut="5.0000000000000000e+00" cType="1" res="9.7423922270536423e-03" rms="4.6264159679412842e-01" purity="5.6936311721801758e-01" nType="0">
            <Node pos="l" depth="3" NCoef="0" IVar="-1" Cut="0.0000000000000000e+00" cType="1" res="3.8785930722951889e-02" rms="4.7828656435012817e-01" purity="4.9857410788536072e-01" nType="-99"/>
            <Node pos="r" depth="3" NCoef="0" IVar="-1" Cut="0.0000000000000000e+00" cType="1" res="-9.4496374949812889e-03" rms="4.5095491409301758e-01" purity="6.1679905652999878e-01" nType="-99"/>
          </Node>
        </Node>
        <Node pos="r" depth="1" NCoef="0" IVar="-1" Cut="0.0000000000000000e+00" cType="1" res="-2.4280580691993237e-03" rms="4.5396319031715393e-01" purity="3.6494690179824829e-01" nType="-99"/>
      </Node>
    </BinaryTree>
    <BinaryTree type="DecisionTree" boostWeight="1.0000000000000000e+00" itree="241">
      <Node pos="s" depth="0" NCoef="0" IVar="2" Cut="4.9617285156250000e+02" cType="1" res="-3.5534084308892488e-03" rms="4.6398741006851196e-01" purity="5.0142902135848999e-01" nType="0">
        <Node pos="l" depth="1" NCoef="0" IVar="4" Cut="1.6578249931335449e+00" cType="1" res="0.0000000000000000e+00" rms="0.0000000000000000e+00" purity="4.9891874194145203e-01" nType="0">
          <Node pos="l" depth="2" NCoef="0" IVar="3" Cut="4.5666761398315430e+00" cType="1" res="5.6131295859813690e-03" rms="4.6424534916877747e-01" purity="4.7430181503295898e-01" nType="0">
            <Node pos="l" depth="3" NCoef="0" IVar="-1" Cut="0.0000000000000000e+00" cType="1" res="-3.8198882248252630e-03" rms="4.7512823343276978e-01" purity="4.7351726889610291e-01" nType="-99"/>
            <Node pos="r" depth="3" NCoef="0" IVar="-1" Cut="0.0000000000000000e+00" cType="1" res="1.9188540056347847e-02" rms="4.5361718535423279e-01" purity="4.7503915429115295e-01" nType="-99"/>
          </Node>
          <Node pos="r" depth="2" NCoef="0" IVar="2" Cut="1.6748722839355469e+02" cType="1" res="-7.5046219862997532e-03" rms="4.6330788731575012e-01" purity="5.1714599132537842e-01" nType="0">
            <Node pos="l" depth="3" NCoef="0" IVar="-1" Cut="0.0000000000000000e+00" cType="1" res="-1.9212657585740089e-02" rms="4.5554837584495544e-01" purity="5.0347316265106201e-01" nType="-99"/>
            <Node pos="r" depth="3" NCoef="0" IVar="-1" Cut="0.0000000000000000e+00" cType="1" res="-5.9970619622617960e-04" rms="4.6651947498321533e-01" purity="5.2315056324005127e-01" nType="-99"/>
          </Node>
        </Node>
        <Node pos="r" depth="1" NCoef="0" IVar="-1" Cut="0.0000000000000000e+00" cType="1" res="-3.9100851863622665e-02" rms="4.6736347675323486e-01" purity="5.4932188987731934e-01" nType="-99"/>
      </Node>
    </BinaryTree>
    <BinaryTree type="DecisionTree" boostWeight="1.0000000000000000e+00" itree="242">
      <Node pos="s" depth="0" NCoef="0" IVar="4" Cut="2.9671986103057861e+00" cType="1" res="-5.9594786725938320e-03" rms="4.6172776818275452e-01" purity="4.9631440639495850e-01" nType="0">
        <Node pos="l" depth="1" NCoef="0" IVar="3" Cut="-1.3962131738662720e+00" cType="1" res="-1.2255958281457424e-03" rms="4.6525916457176208e-01" purity="5.0711393356323242e-01" nType="0">
          <Node pos="l" depth="2" NCoef="0" IVar="-1" Cut="0.0000000000000000e+00" cType="1" res="-2.0808041095733643e-02" rms="4.7755151987075806e-01" purity="4.0922394394874573e-01" nType="-99"/>
          <Node pos="r" depth="2" NCoef="0" IVar="7" Cut="5.0000000000000000e+00" cType="1" res="5.4172321688383818e-04" rms="4.6438047289848328e-01" purity="5.1352441310882568e-01" nType="0">
            <Node pos="l" depth="3" NCoef="0" IVar="-1" Cut="0.0000000000000000e+00" cType="1" res="-8.0396998673677444e-03" rms="4.6587869524955750e-01" purity="4.2371648550033569e-01" nType="-99"/>
            <Node pos="r" depth="3" NCoef="0" IVar="-1" Cut="0.0000000000000000e+00" cType="1" res="7.6180873438715935e-03" rms="4.6314799785614014e-01" purity="5.8247953653335571e-01" nType="-99"/>
          </Node>
        </Node>
        <Node pos="r" depth="1" NCoef="0" IVar="5" Cut="1.9443247318267822e+00" cType="1" res="-3.0077099800109863e-02" rms="4.4251444935798645e-01" purity="4.4129395484924316e-01" nType="0">
          <Node pos="l" depth="2" NCoef="0" IVar="9" Cut="4.3280316406250000e+04" cType="1" res="-4.5954972505569458e-02" rms="4.3670862913131714e-01" purity="4.1148602962493896e-01" nType="0">
            <Node pos="l" depth="3" NCoef="0" IVar="-1" Cut="0.0000000000000000e+00" cType="1" res="-3.3625538926571608e-03" rms="4.2703571915626526e-01" purity="3.0091473460197449e-01" nType="-99"/>
            <Node pos="r" depth="3" NCoef="0" IVar="-1" Cut="0.0000000000000000e+00" cType="1" res="-2.1193798165768385e-03" rms="4.4860145449638367e-01" purity="5.6230801343917847e-01" nType="-99"/>
          </Node>
          <Node pos="r" depth="2" NCoef="0" IVar="-1" Cut="0.0000000000000000e+00" cType="1" res="1.3539818115532398e-02" rms="4.5489668846130371e-01" purity="5.2048242092132568e-01" nType="-99"/>
        </Node>
      </Node>
    </BinaryTree>
    <BinaryTree type="DecisionTree" boostWeight="1.0000000000000000e+00" itree="243">
      <Node pos="s" depth="0" NCoef="0" IVar="6" Cut="2.8422784805297852e+00" cType="1" res="-2.9681383166462183e-03" rms="4.6519568562507629e-01" purity="5.0225901603698730e-01" nType="0">
        <Node pos="l" depth="1" NCoef="0" IVar="7" Cut="6.0000000000000000e+00" cType="1" res="-6.8970443680882454e-04" rms="4.6470227837562561e-01" purity="5.0770604610443115e-01" nType="0">
          <Node pos="l" depth="2" NCoef="0" IVar="6" Cut="1.4174547195434570e+00" cType="1" res="4.1741393506526947e-03" rms="4.6547758579254150e-01" purity="4.7151079773902893e-01" nType="0">
            <Node pos="l" depth="3" NCoef="0" IVar="-1" Cut="0.0000000000000000e+00" cType="1" res="-2.4828442838042974e-03" rms="4.6342971920967102e-01" purity="4.7252634167671204e-01" nType="-99"/>
            <Node pos="r" depth="3" NCoef="0" IVar="-1" Cut="0.0000000000000000e+00" cType="1" res="2.0029565319418907e-02" rms="4.6973925828933716e-01" purity="4.6922045946121216e-01" nType="-99"/>
          </Node>
          <Node pos="r" depth="2" NCoef="0" IVar="4" Cut="2.5434904098510742e+00" cType="1" res="-1.3750097714364529e-02" rms="4.6238899230957031e-01" purity="6.0518586635589600e-01" nType="0">
            <Node pos="l" depth="3" NCoef="0" IVar="-1" Cut="0.0000000000000000e+00" cType="1" res="-2.6977321133017540e-02" rms="4.6684646606445312e-01" purity="5.9450745582580566e-01" nType="-99"/>
            <Node pos="r" depth="3" NCoef="0" IVar="-1" Cut="0.0000000000000000e+00" cType="1" res="5.9104287065565586e-03" rms="4.5210587978363037e-01" purity="6.2818253040313721e-01" nType="-99"/>
          </Node>
        </Node>
        <Node pos="r" depth="1" NCoef="0" IVar="4" Cut="2.4360973834991455e+00" cType="1" res="-2.3155922070145607e-02" rms="4.6896034479141235e-01" purity="4.5421695709228516e-01" nType="0">
          <Node pos="l" depth="2" NCoef="0" IVar="-1" Cut="0.0000000000000000e+00" cType="1" res="-1.2719082878902555e-03" rms="4.7885963320732117e-01" purity="4.6953696012496948e-01" nType="-99"/>
          <Node pos="r" depth="2" NCoef="0" IVar="-1" Cut="0.0000000000000000e+00" cType="1" res="-1.0707152076065540e-02" rms="4.5264756679534912e-01" purity="4.3244126439094543e-01" nType="-99"/>
        </Node>
      </Node>
    </BinaryTree>
    <BinaryTree type="DecisionTree" boostWeight="1.0000000000000000e+00" itree="244">
      <Node pos="s" depth="0" NCoef="0" IVar="6" Cut="1.0471330881118774e+00" cType="1" res="-7.1422932669520378e-03" rms="4.6412149071693420e-01" purity="4.9396872520446777e-01" nType="0">
        <Node pos="l" depth="1" NCoef="0" IVar="5" Cut="1.9446071386337280e+00" cType="1" res="9.8307454027235508e-04" rms="4.6489891409873962e-01" purity="5.1874285936355591e-01" nType="0">
          <Node pos="l" depth="2" NCoef="0" IVar="3" Cut="4.1711997985839844e-01" cType="1" res="7.2802547365427017e-03" rms="4.6731513738632202e-01" purity="5.0557249784469604e-01" nType="0">
            <Node pos="l" depth="3" NCoef="0" IVar="-1" Cut="0.0000000000000000e+00" cType="1" res="3.5063691437244415e-02" rms="4.7545340657234192e-01" purity="4.4087535142898560e-01" nType="-99"/>
            <Node pos="r" depth="3" NCoef="0" IVar="-1" Cut="0.0000000000000000e+00" cType="1" res="3.6839195527136326e-03" rms="4.6589669585227966e-01" purity="5.1552033424377441e-01" nType="-99"/>
          </Node>
          <Node pos="r" depth="2" NCoef="0" IVar="4" Cut="1.4480016231536865e+00" cType="1" res="-2.4734947830438614e-02" rms="4.5399183034896851e-01" purity="5.7253122329711914e-01" nType="0">
            <Node pos="l" depth="3" NCoef="0" IVar="-1" Cut="0.0000000000000000e+00" cType="1" res="4.7496329061686993e-03" rms="4.4955316185951233e-01" purity="5.3687912225723267e-01" nType="-99"/>
            <Node pos="r" depth="3" NCoef="0" IVar="-1" Cut="0.0000000000000000e+00" cType="1" res="-5.3392115980386734e-02" rms="4.5586729049682617e-01" purity="5.9526693820953369e-01" nType="-99"/>
          </Node>
        </Node>
        <Node pos="r" depth="1" NCoef="0" IVar="4" Cut="2.9784133434295654e+00" cType="1" res="-1.8558727577328682e-02" rms="4.6278598904609680e-01" purity="4.5916032791137695e-01" nType="0">
          <Node pos="l" depth="2" NCoef="0" IVar="4" Cut="2.0188319683074951e+00" cType="1" res="-2.4398614186793566e-03" rms="4.7208279371261597e-01" purity="4.8971250653266907e-01" nType="0">
            <Node pos="l" depth="3" NCoef="0" IVar="-1" Cut="0.0000000000000000e+00" cType="1" res="9.3793794512748718e-03" rms="4.7158059477806091e-01" purity="4.7988829016685486e-01" nType="-99"/>
            <Node pos="r" depth="3" NCoef="0" IVar="-1" Cut="0.0000000000000000e+00" cType="1" res="-1.1500993743538857e-02" rms="4.7243571281433105e-01" purity="5.0536835193634033e-01" nType="-99"/>
          </Node>
          <Node pos="r" depth="2" NCoef="0" IVar="-1" Cut="0.0000000000000000e+00" cType="1" res="-4.1343709453940392e-03" rms="4.1445252299308777e-01" purity="3.3023166656494141e-01" nType="-99"/>
        </Node>
      </Node>
    </BinaryTree>
    <BinaryTree type="DecisionTree" boostWeight="1.0000000000000000e+00" itree="245">
      <Node pos="s" depth="0" NCoef="0" IVar="4" Cut="3.2324471473693848e+00" cType="1" res="-4.6708523295819759e-03" rms="4.5962047576904297e-01" purity="4.9265944957733154e-01" nType="0">
        <Node pos="l" depth="1" NCoef="0" IVar="8" Cut="6.4477210937500000e+04" cType="1" res="-1.6169815789908171e-03" rms="4.6332091093063354e-01" purity="5.0764578580856323e-01" nType="0">
          <Node pos="l" depth="2" NCoef="0" IVar="6" Cut="2.5431017875671387e+00" cType="1" res="4.9941428005695343e-03" rms="4.6761509776115417e-01" purity="4.1845801472663879e-01" nType="0">
            <Node pos="l" depth="3" NCoef="0" IVar="-1" Cut="0.0000000000000000e+00" cType="1" res="8.6023006588220596e-03" rms="4.6548876166343689e-01" purity="4.1985234618186951e-01" nType="-99"/>
            <Node pos="r" depth="3" NCoef="0" IVar="-1" Cut="0.0000000000000000e+00" cType="1" res="-5.9939008206129074e-03" rms="4.7496631741523743e-01" purity="4.1337773203849792e-01" nType="-99"/>
          </Node>
          <Node pos="r" depth="2" NCoef="0" IVar="6" Cut="2.5431184768676758e+00" cType="1" res="-9.5289973542094231e-03" rms="4.5800343155860901e-01" purity="6.1438333988189697e-01" nType="0">
            <Node pos="l" depth="3" NCoef="0" IVar="-1" Cut="0.0000000000000000e+00" cType="1" res="-5.7008932344615459e-03" rms="4.5549297332763672e-01" purity="6.2679630517959595e-01" nType="-99"/>
            <Node pos="r" depth="3" NCoef="0" IVar="-1" Cut="0.0000000000000000e+00" cType="1" res="-1.7937351018190384e-02" rms="4.7137382626533508e-01" purity="5.4274505376815796e-01" nType="-99"/>
          </Node>
        </Node>
        <Node pos="r" depth="1" NCoef="0" IVar="-1" Cut="0.0000000000000000e+00" cType="1" res="-2.0194423850625753e-03" rms="4.1358083486557007e-01" purity="3.2202351093292236e-01" nType="-99"/>
      </Node>
    </BinaryTree>
    <BinaryTree type="DecisionTree" boostWeight="1.0000000000000000e+00" itree="246">
      <Node pos="s" depth="0" NCoef="0" IVar="6" Cut="2.5430860519409180e+00" cType="1" res="-2.0475180353969336e-03" rms="4.6347829699516296e-01" purity="4.9872443079948425e-01" nType="0">
        <Node pos="l" depth="1" NCoef="0" IVar="7" Cut="6.0000000000000000e+00" cType="1" res="9.7194703994318843e-04" rms="4.6127355098724365e-01" purity="5.0925409793853760e-01" nType="0">
          <Node pos="l" depth="2" NCoef="0" IVar="6" Cut="3.7743991613388062e-01" cType="1" res="-2.0363156218081713e-03" rms="4.6316465735435486e-01" purity="4.6392321586608887e-01" nType="0">
            <Node pos="l" depth="3" NCoef="0" IVar="-1" Cut="0.0000000000000000e+00" cType="1" res="-7.1538952179253101e-03" rms="4.6676853299140930e-01" purity="4.6456018090248108e-01" nType="-99"/>
            <Node pos="r" depth="3" NCoef="0" IVar="-1" Cut="0.0000000000000000e+00" cType="1" res="4.2806286364793777e-03" rms="4.5604500174522400e-01" purity="4.6270886063575745e-01" nType="-99"/>
          </Node>
          <Node pos="r" depth="2" NCoef="0" IVar="9" Cut="4.6329378906250000e+04" cType="1" res="8.5440473631024361e-03" rms="4.5639157295227051e-01" purity="6.2367844581604004e-01" nType="0">
            <Node pos="l" depth="3" NCoef="0" IVar="-1" Cut="0.0000000000000000e+00" cType="1" res="3.8374070078134537e-02" rms="4.8132416605949402e-01" purity="5.2813774347305298e-01" nType="-99"/>
            <Node pos="r" depth="3" NCoef="0" IVar="-1" Cut="0.0000000000000000e+00" cType="1" res="-1.1857219215016812e-04" rms="4.4687199592590332e-01" purity="6.5765202045440674e-01" nType="-99"/>
          </Node>
        </Node>
        <Node pos="r" depth="1" NCoef="0" IVar="6" Cut="2.8850543498992920e+00" cType="1" res="-1.5467342920601368e-02" rms="4.7292169928550720e-01" purity="4.5183187723159790e-01" nType="0">
          <Node pos="l" depth="2" NCoef="0" IVar="7" Cut="5.0000000000000000e+00" cType="1" res="-2.9715066775679588e-02" rms="4.7080481052398682e-01" purity="4.3014904856681824e-01" nType="0">
            <Node pos="l" depth="3" NCoef="0" IVar="-1" Cut="0.0000000000000000e+00" cType="1" res="-7.4796505272388458e-02" rms="4.6196740865707397e-01" purity="3.8622298836708069e-01" nType="-99"/>
            <Node pos="r" depth="3" NCoef="0" IVar="-1" Cut="0.0000000000000000e+00" cType="1" res="9.0462574735283852e-03" rms="4.7988450527191162e-01" purity="4.8881462216377258e-01" nType="-99"/>
          </Node>
          <Node pos="r" depth="2" NCoef="0" IVar="4" Cut="2.1616294384002686e+00" cType="1" res="9.1550825163722038e-04" rms="4.7475972771644592e-01" purity="4.7663849592208862e-01" nType="0">
            <Node pos="l" depth="3" NCoef="0" IVar="-1" Cut="0.0000000000000000e+00" cType="1" res="-1.1906969361007214e-02" rms="4.7597700357437134e-01" purity="4.3789303302764893e-01" nType="-99"/>
            <Node pos="r" depth="3" NCoef="0" IVar="-1" Cut="0.0000000000000000e+00" cType="1" res="1.9149908795952797e-02" rms="4.7287416458129883e-01" purity="5.1947307586669922e-01" nType="-99"/>
          </Node>
        </Node>
      </Node>
    </BinaryTree>
    <BinaryTree type="DecisionTree" boostWeight="1.0000000000000000e+00" itree="247">
      <Node pos="s" depth="0" NCoef="0" IVar="4" Cut="3.0043828487396240e+00" cType="1" res="-4.1840539779514074e-04" rms="4.6106928586959839e-01" purity="5.0032114982604980e-01" nType="0">
        <Node pos="l" depth="1" NCoef="0" IVar="2" Cut="4.8480722045898438e+02" cType="1" res="3.1053866259753704e-03" rms="4.6242097020149231e-01" purity="5.0766611099243164e-01" nType="0">
          <Node pos="l" depth="2" NCoef="0" IVar="2" Cut="3.4429541015625000e+02" cType="1" res="1.2104363413527608e-03" rms="4.6231815218925476e-01" purity="5.0212395191192627e-01" nType="0">
            <Node pos="l" depth="3" NCoef="0" IVar="-1" Cut="0.0000000000000000e+00" cType="1" res="2.8532263822853565e-03" rms="4.6207946538925171e-01" purity="5.0148934125900269e-01" nType="-99"/>
            <Node pos="r" depth="3" NCoef="0" IVar="-1" Cut="0.0000000000000000e+00" cType="1" res="-2.0096026360988617e-02" rms="4.6463453769683838e-01" purity="5.0964164733886719e-01" nType="-99"/>
          </Node>
          <Node pos="r" depth="2" NCoef="0" IVar="-1" Cut="0.0000000000000000e+00" cType="1" res="3.8180302828550339e-02" rms="4.6299141645431519e-01" purity="5.9987986087799072e-01" nType="-99"/>
        </Node>
        <Node pos="r" depth="1" NCoef="0" IVar="2" Cut="1.8732751464843750e+02" cType="1" res="-2.2262098267674446e-02" rms="4.5198783278465271e-01" purity="4.5479005575180054e-01" nType="0">
          <Node pos="l" depth="2" NCoef="0" IVar="-1" Cut="0.0000000000000000e+00" cType="1" res="6.5073329024016857e-03" rms="4.5615279674530029e-01" purity="4.9896690249443054e-01" nType="-99"/>
          <Node pos="r" depth="2" NCoef="0" IVar="-1" Cut="0.0000000000000000e+00" cType="1" res="-4.6080364845693111e-03" rms="4.4716644287109375e-01" purity="4.1828683018684387e-01" nType="-99"/>
        </Node>
      </Node>
    </BinaryTree>
    <BinaryTree type="DecisionTree" boostWeight="1.0000000000000000e+00" itree="248">
      <Node pos="s" depth="0" NCoef="0" IVar="5" Cut="1.9445987939834595e+00" cType="1" res="3.6014209035784006e-03" rms="4.6367552876472473e-01" purity="5.0710344314575195e-01" nType="0">
        <Node pos="l" depth="1" NCoef="0" IVar="6" Cut="-2.8423552513122559e+00" cType="1" res="-1.2643279042094946e-03" rms="4.6397051215171814e-01" purity="4.9097782373428345e-01" nType="0">
          <Node pos="l" depth="2" NCoef="0" IVar="4" Cut="2.1921012401580811e+00" cType="1" res="2.0474616438150406e-02" rms="4.7451117634773254e-01" purity="4.7719210386276245e-01" nType="0">
            <Node pos="l" depth="3" NCoef="0" IVar="-1" Cut="0.0000000000000000e+00" cType="1" res="3.6627382505685091e-03" rms="4.6741020679473877e-01" purity="4.3105119466781616e-01" nType="-99"/>
            <Node pos="r" depth="3" NCoef="0" IVar="-1" Cut="0.0000000000000000e+00" cType="1" res="4.4162821024656296e-02" rms="4.8100864887237549e-01" purity="5.2449226379394531e-01" nType="-99"/>
          </Node>
          <Node pos="r" depth="2" NCoef="0" IVar="3" Cut="-1.8632753193378448e-01" cType="1" res="-4.0870942175388336e-03" rms="4.6250927448272705e-01" purity="4.9276790022850037e-01" nType="0">
            <Node pos="l" depth="3" NCoef="0" IVar="-1" Cut="0.0000000000000000e+00" cType="1" res="5.9336191043257713e-03" rms="4.6670538187026978e-01" purity="4.2759144306182861e-01" nType="-99"/>
            <Node pos="r" depth="3" NCoef="0" IVar="-1" Cut="0.0000000000000000e+00" cType="1" res="-6.0235117562115192e-03" rms="4.6196535229682922e-01" purity="5.0041127204895020e-01" nType="-99"/>
          </Node>
        </Node>
        <Node pos="r" depth="1" NCoef="0" IVar="7" Cut="5.0000000000000000e+00" cType="1" res="1.6137875616550446e-02" rms="4.6267679333686829e-01" purity="5.4863905906677246e-01" nType="0">
          <Node pos="l" depth="2" NCoef="0" IVar="6" Cut="1.6455265283584595e+00" cType="1" res="3.7142291665077209e-02" rms="4.6933954954147339e-01" purity="4.9036583304405212e-01" nType="0">
            <Node pos="l" depth="3" NCoef="0" IVar="-1" Cut="0.0000000000000000e+00" cType="1" res="3.2245609909296036e-02" rms="4.5187547802925110e-01" purity="4.1020625829696655e-01" nType="-99"/>
            <Node pos="r" depth="3" NCoef="0" IVar="-1" Cut="0.0000000000000000e+00" cType="1" res="4.5674618333578110e-02" rms="4.7945305705070496e-01" purity="5.3917002677917480e-01" nType="-99"/>
          </Node>
          <Node pos="r" depth="2" NCoef="0" IVar="7" Cut="6.0000000000000000e+00" cType="1" res="0.0000000000000000e+00" rms="0.0000000000000000e+00" purity="5.9184443950653076e-01" nType="0">
            <Node pos="l" depth="3" NCoef="0" IVar="-1" Cut="0.0000000000000000e+00" cType="1" res="-1.0444047860801220e-02" rms="4.6214196085929871e-01" purity="5.6105160713195801e-01" nType="-99"/>
            <Node pos="r" depth="3" NCoef="0" IVar="-1" Cut="0.0000000000000000e+00" cType="1" res="1.2805333361029625e-02" rms="4.5081594586372375e-01" purity="6.2743449211120605e-01" nType="-99"/>
          </Node>
        </Node>
      </Node>
    </BinaryTree>
    <BinaryTree type="DecisionTree" boostWeight="1.0000000000000000e+00" itree="249">
      <Node pos="s" depth="0" NCoef="0" IVar="2" Cut="2.1069126892089844e+02" cType="1" res="6.4170360565185547e-04" rms="4.6289277076721191e-01" purity="5.0557321310043335e-01" nType="0">
        <Node pos="l" depth="1" NCoef="0" IVar="3" Cut="1.0842910766601562e+01" cType="1" res="7.3204794898629189e-03" rms="4.6222767233848572e-01" purity="5.1830583810806274e-01" nType="0">
          <Node pos="l" depth="2" NCoef="0" IVar="7" Cut="5.0000000000000000e+00" cType="1" res="1.0322871617972851e-02" rms="4.6457952260971069e-01" purity="5.2284830808639526e-01" nType="0">
            <Node pos="l" depth="3" NCoef="0" IVar="-1" Cut="0.0000000000000000e+00" cType="1" res="-4.5588649809360504e-03" rms="4.7214847803115845e-01" purity="3.9306357502937317e-01" nType="-99"/>
            <Node pos="r" depth="3" NCoef="0" IVar="-1" Cut="0.0000000000000000e+00" cType="1" res="2.0245654508471489e-02" rms="4.6057423949241638e-01" purity="5.9019857645034790e-01" nType="-99"/>
          </Node>
          <Node pos="r" depth="2" NCoef="0" IVar="-1" Cut="0.0000000000000000e+00" cType="1" res="-3.6128323525190353e-02" rms="4.3390721082687378e-01" purity="4.6989780664443970e-01" nType="-99"/>
        </Node>
        <Node pos="r" depth="1" NCoef="0" IVar="5" Cut="-2.5431902408599854e+00" cType="1" res="-1.0127216577529907e-02" rms="4.6376067399978638e-01" purity="4.8504298925399780e-01" nType="0">
          <Node pos="l" depth="2" NCoef="0" IVar="-1" Cut="0.0000000000000000e+00" cType="1" res="-1.1598972603678703e-02" rms="4.5748311281204224e-01" purity="4.7578161954879761e-01" nType="-99"/>
          <Node pos="r" depth="2" NCoef="0" IVar="6" Cut="2.2434000968933105e+00" cType="1" res="-5.1915789954364300e-03" rms="4.6489444375038147e-01" purity="4.8695686459541321e-01" nType="0">
            <Node pos="l" depth="3" NCoef="0" IVar="-1" Cut="0.0000000000000000e+00" cType="1" res="-8.6646955460309982e-03" rms="4.6030554175376892e-01" purity="4.6955364942550659e-01" nType="-99"/>
            <Node pos="r" depth="3" NCoef="0" IVar="-1" Cut="0.0000000000000000e+00" cType="1" res="1.4912203885614872e-02" rms="4.7361671924591064e-01" purity="5.2279382944107056e-01" nType="-99"/>
          </Node>
        </Node>
      </Node>
    </BinaryTree>
    <BinaryTree type="DecisionTree" boostWeight="1.0000000000000000e+00" itree="250">
      <Node pos="s" depth="0" NCoef="0" IVar="4" Cut="2.9678785800933838e+00" cType="1" res="-7.5696171261370182e-03" rms="4.6330583095550537e-01" purity="4.9674573540687561e-01" nType="0">
        <Node pos="l" depth="1" NCoef="0" IVar="4" Cut="9.0334820747375488e-01" cType="1" res="0.0000000000000000e+00" rms="0.0000000000000000e+00" purity="5.0825309753417969e-01" nType="0">
          <Node pos="l" depth="2" NCoef="0" IVar="1" Cut="1.9612043750000000e+05" cType="1" res="-1.8234340474009514e-02" rms="4.6514165401458740e-01" purity="4.5515683293342590e-01" nType="0">
            <Node pos="l" depth="3" NCoef="0" IVar="-1" Cut="0.0000000000000000e+00" cType="1" res="-3.8605935871601105e-02" rms="4.7445422410964966e-01" purity="4.8906567692756653e-01" nType="-99"/>
            <Node pos="r" depth="3" NCoef="0" IVar="-1" Cut="0.0000000000000000e+00" cType="1" res="1.6131537035107613e-02" rms="4.4409582018852234e-01" purity="3.8540109992027283e-01" nType="-99"/>
          </Node>
          <Node pos="r" depth="2" NCoef="0" IVar="6" Cut="2.8422811031341553e+00" cType="1" res="3.2037801574915648e-03" rms="4.6594455838203430e-01" purity="5.2103376388549805e-01" nType="0">
            <Node pos="l" depth="3" NCoef="0" IVar="-1" Cut="0.0000000000000000e+00" cType="1" res="-8.3506392547860742e-04" rms="4.6423196792602539e-01" purity="5.1827782392501831e-01" nType="-99"/>
            <Node pos="r" depth="3" NCoef="0" IVar="-1" Cut="0.0000000000000000e+00" cType="1" res="4.1641760617494583e-02" rms="4.7909030318260193e-01" purity="5.4478943347930908e-01" nType="-99"/>
          </Node>
        </Node>
        <Node pos="r" depth="1" NCoef="0" IVar="6" Cut="7.4796485900878906e-01" cType="1" res="-4.1150826960802078e-02" rms="4.4858074188232422e-01" purity="4.3832170963287354e-01" nType="0">
          <Node pos="l" depth="2" NCoef="0" IVar="6" Cut="-2.2154397964477539e+00" cType="1" res="4.3700091191567481e-04" rms="4.6321237087249756e-01" purity="5.1942473649978638e-01" nType="0">
            <Node pos="l" depth="3" NCoef="0" IVar="-1" Cut="0.0000000000000000e+00" cType="1" res="1.1316922493278980e-02" rms="4.7935205698013306e-01" purity="4.7306567430496216e-01" nType="-99"/>
            <Node pos="r" depth="3" NCoef="0" IVar="-1" Cut="0.0000000000000000e+00" cType="1" res="-9.7368527203798294e-03" rms="4.4691592454910278e-01" purity="5.6418502330780029e-01" nType="-99"/>
          </Node>
          <Node pos="r" depth="2" NCoef="0" IVar="-1" Cut="0.0000000000000000e+00" cType="1" res="-3.7563843652606010e-03" rms="4.2946758866310120e-01" purity="3.5729670524597168e-01" nType="-99"/>
        </Node>
      </Node>
    </BinaryTree>
    <BinaryTree type="DecisionTree" boostWeight="1.0000000000000000e+00" itree="251">
      <Node pos="s" depth="0" NCoef="0" IVar="6" Cut="-7.4803107976913452e-01" cType="1" res="0.0000000000000000e+00" rms="0.0000000000000000e+00" purity="4.9472820758819580e-01" nType="0">
        <Node pos="l" depth="1" NCoef="0" IVar="6" Cut="-1.2042039632797241e+00" cType="1" res="4.2343945242464542e-03" rms="4.6398654580116272e-01" purity="5.0353157520294189e-01" nType="0">
          <Node pos="l" depth="2" NCoef="0" IVar="2" Cut="2.7999160766601562e+02" cType="1" res="1.1536449892446399e-03" rms="4.6810719370841980e-01" purity="4.8856022953987122e-01" nType="0">
            <Node pos="l" depth="3" NCoef="0" IVar="-1" Cut="0.0000000000000000e+00" cType="1" res="6.5842005424201488e-03" rms="4.6789801120758057e-01" purity="4.8291474580764771e-01" nType="-99"/>
            <Node pos="r" depth="3" NCoef="0" IVar="-1" Cut="0.0000000000000000e+00" cType="1" res="-1.7029661685228348e-02" rms="4.6842640638351440e-01" purity="5.0719135999679565e-01" nType="-99"/>
          </Node>
          <Node pos="r" depth="2" NCoef="0" IVar="-1" Cut="0.0000000000000000e+00" cType="1" res="3.4369021654129028e-02" rms="4.2989963293075562e-01" purity="6.1978334188461304e-01" nType="-99"/>
        </Node>
        <Node pos="r" depth="1" NCoef="0" IVar="4" Cut="2.9616189002990723e+00" cType="1" res="-2.1166270598769188e-02" rms="4.5752021670341492e-01" purity="4.8819801211357117e-01" nType="0">
          <Node pos="l" depth="2" NCoef="0" IVar="4" Cut="1.0301487445831299e+00" cType="1" res="-1.4092018827795982e-02" rms="4.6159484982490540e-01" purity="5.0119560956954956e-01" nType="0">
            <Node pos="l" depth="3" NCoef="0" IVar="-1" Cut="0.0000000000000000e+00" cType="1" res="-3.4365516155958176e-02" rms="4.6421608328819275e-01" purity="4.3432897329330444e-01" nType="-99"/>
            <Node pos="r" depth="3" NCoef="0" IVar="-1" Cut="0.0000000000000000e+00" cType="1" res="-7.6444214209914207e-03" rms="4.6060124039649963e-01" purity="5.2430671453475952e-01" nType="-99"/>
          </Node>
          <Node pos="r" depth="2" NCoef="0" IVar="5" Cut="1.6442058086395264e+00" cType="1" res="-5.5324342101812363e-02" rms="4.3569853901863098e-01" purity="4.2543876171112061e-01" nType="0">
            <Node pos="l" depth="3" NCoef="0" IVar="-1" Cut="0.0000000000000000e+00" cType="1" res="-2.3747158702462912e-03" rms="4.2830705642700195e-01" purity="4.1476944088935852e-01" nType="-99"/>
            <Node pos="r" depth="3" NCoef="0" IVar="-1" Cut="0.0000000000000000e+00" cType="1" res="-3.5151299089193344e-02" rms="4.4577226042747498e-01" purity="4.4095280766487122e-01" nType="-99"/>
          </Node>
        </Node>
      </Node>
    </BinaryTree>
    <BinaryTree type="DecisionTree" boostWeight="1.0000000000000000e+00" itree="252">
      <Node pos="s" depth="0" NCoef="0" IVar="4" Cut="3.2655649185180664e+00" cType="1" res="-3.0233985744416714e-03" rms="4.6437773108482361e-01" purity="4.9837008118629456e-01" nType="0">
        <Node pos="l" depth="1" NCoef="0" IVar="4" Cut="1.4362455606460571e+00" cType="1" res="-1.1034102644771338e-03" rms="4.6605628728866577e-01" purity="5.0925379991531372e-01" nType="0">
          <Node pos="l" depth="2" NCoef="0" IVar="5" Cut="-1.6454064846038818e+00" cType="1" res="7.7492762356996536e-03" rms="4.6502795815467834e-01" purity="4.6807691454887390e-01" nType="0">
            <Node pos="l" depth="3" NCoef="0" IVar="-1" Cut="0.0000000000000000e+00" cType="1" res="-5.4025356657803059e-03" rms="4.6206602454185486e-01" purity="4.8935765027999878e-01" nType="-99"/>
            <Node pos="r" depth="3" NCoef="0" IVar="-1" Cut="0.0000000000000000e+00" cType="1" res="1.6315050423145294e-02" rms="4.6636629104614258e-01" purity="4.5753654837608337e-01" nType="-99"/>
          </Node>
          <Node pos="r" depth="2" NCoef="0" IVar="6" Cut="2.8422834873199463e+00" cType="1" res="-6.3815261237323284e-03" rms="4.6658840775489807e-01" purity="5.3380411863327026e-01" nType="0">
            <Node pos="l" depth="3" NCoef="0" IVar="-1" Cut="0.0000000000000000e+00" cType="1" res="-1.7962272977456450e-03" rms="4.6562862396240234e-01" purity="5.4010283946990967e-01" nType="-99"/>
            <Node pos="r" depth="3" NCoef="0" IVar="-1" Cut="0.0000000000000000e+00" cType="1" res="-1.6804523766040802e-02" rms="4.7271540760993958e-01" purity="4.8308983445167542e-01" nType="-99"/>
          </Node>
        </Node>
        <Node pos="r" depth="1" NCoef="0" IVar="-1" Cut="0.0000000000000000e+00" cType="1" res="-1.7845202237367630e-03" rms="4.3788379430770874e-01" purity="3.3775791525840759e-01" nType="-99"/>
      </Node>
    </BinaryTree>
    <BinaryTree type="DecisionTree" boostWeight="1.0000000000000000e+00" itree="253">
      <Node pos="s" depth="0" NCoef="0" IVar="2" Cut="2.1069126892089844e+02" cType="1" res="0.0000000000000000e+00" rms="0.0000000000000000e+00" purity="5.0758379697799683e-01" nType="0">
        <Node pos="l" depth="1" NCoef="0" IVar="6" Cut="2.8422920703887939e+00" cType="1" res="-5.9916535392403603e-03" rms="4.5999300479888916e-01" purity="5.0601500272750854e-01" nType="0">
          <Node pos="l" depth="2" NCoef="0" IVar="6" Cut="-8.6185729503631592e-01" cType="1" res="-3.1575886532664299e-03" rms="4.5935520529747009e-01" purity="5.1430869102478027e-01" nType="0">
            <Node pos="l" depth="3" NCoef="0" IVar="-1" Cut="0.0000000000000000e+00" cType="1" res="-1.9329892471432686e-02" rms="4.6549189090728760e-01" purity="4.7707200050354004e-01" nType="-99"/>
            <Node pos="r" depth="3" NCoef="0" IVar="-1" Cut="0.0000000000000000e+00" cType="1" res="9.0960152447223663e-03" rms="4.5391884446144104e-01" purity="5.4483026266098022e-01" nType="-99"/>
          </Node>
          <Node pos="r" depth="2" NCoef="0" IVar="-1" Cut="0.0000000000000000e+00" cType="1" res="-3.8681518286466599e-02" rms="4.6555176377296448e-01" purity="4.1978293657302856e-01" nType="-99"/>
        </Node>
        <Node pos="r" depth="1" NCoef="0" IVar="7" Cut="5.0000000000000000e+00" cType="1" res="1.2512804940342903e-02" rms="4.6843764185905457e-01" purity="5.1015746593475342e-01" nType="0">
          <Node pos="l" depth="2" NCoef="0" IVar="4" Cut="2.7105808258056641e+00" cType="1" res="2.1049490198493004e-02" rms="4.7018739581108093e-01" purity="4.7526133060455322e-01" nType="0">
            <Node pos="l" depth="3" NCoef="0" IVar="-1" Cut="0.0000000000000000e+00" cType="1" res="1.5898123383522034e-02" rms="4.6886196732521057e-01" purity="4.6615028381347656e-01" nType="-99"/>
            <Node pos="r" depth="3" NCoef="0" IVar="-1" Cut="0.0000000000000000e+00" cType="1" res="4.2337730526924133e-02" rms="4.7355559468269348e-01" purity="5.0253444910049438e-01" nType="-99"/>
          </Node>
          <Node pos="r" depth="2" NCoef="0" IVar="2" Cut="2.6810391235351562e+02" cType="1" res="0.0000000000000000e+00" rms="0.0000000000000000e+00" purity="5.6350588798522949e-01" nType="0">
            <Node pos="l" depth="3" NCoef="0" IVar="-1" Cut="0.0000000000000000e+00" cType="1" res="-1.8669437617063522e-02" rms="4.7130167484283447e-01" purity="5.3160274028778076e-01" nType="-99"/>
            <Node pos="r" depth="3" NCoef="0" IVar="-1" Cut="0.0000000000000000e+00" cType="1" res="2.0781625062227249e-02" rms="4.5778244733810425e-01" purity="6.0121130943298340e-01" nType="-99"/>
          </Node>
        </Node>
      </Node>
    </BinaryTree>
    <BinaryTree type="DecisionTree" boostWeight="1.0000000000000000e+00" itree="254">
      <Node pos="s" depth="0" NCoef="0" IVar="6" Cut="-7.4802213907241821e-01" cType="1" res="-1.0217348113656044e-02" rms="4.6386307477951050e-01" purity="4.9453559517860413e-01" nType="0">
        <Node pos="l" depth="1" NCoef="0" IVar="6" Cut="-1.5460126399993896e+00" cType="1" res="2.5120754726231098e-03" rms="4.6688228845596313e-01" purity="5.0004410743713379e-01" nType="0">
          <Node pos="l" depth="2" NCoef="0" IVar="5" Cut="-1.0468767881393433e+00" cType="1" res="-2.2427032236009836e-03" rms="4.7087433934211731e-01" purity="4.7766244411468506e-01" nType="0">
            <Node pos="l" depth="3" NCoef="0" IVar="-1" Cut="0.0000000000000000e+00" cType="1" res="9.5491418614983559e-03" rms="4.7524681687355042e-01" purity="4.8765310645103455e-01" nType="-99"/>
            <Node pos="r" depth="3" NCoef="0" IVar="-1" Cut="0.0000000000000000e+00" cType="1" res="-1.7273504287004471e-02" rms="4.6322610974311829e-01" purity="4.6148142218589783e-01" nType="-99"/>
          </Node>
          <Node pos="r" depth="2" NCoef="0" IVar="-1" Cut="0.0000000000000000e+00" cType="1" res="2.6950608938932419e-02" rms="4.4968330860137939e-01" purity="5.9148371219635010e-01" nType="-99"/>
        </Node>
        <Node pos="r" depth="1" NCoef="0" IVar="2" Cut="1.8301725769042969e+02" cType="1" res="-1.9759600982069969e-02" rms="4.6135658025741577e-01" purity="4.9040627479553223e-01" nType="0">
          <Node pos="l" depth="2" NCoef="0" IVar="3" Cut="7.3470067977905273e+00" cType="1" res="0.0000000000000000e+00" rms="0.0000000000000000e+00" purity="5.2458459138870239e-01" nType="0">
            <Node pos="l" depth="3" NCoef="0" IVar="-1" Cut="0.0000000000000000e+00" cType="1" res="6.8756435066461563e-03" rms="4.6634212136268616e-01" purity="5.3020977973937988e-01" nType="-99"/>
            <Node pos="r" depth="3" NCoef="0" IVar="-1" Cut="0.0000000000000000e+00" cType="1" res="-3.5719513893127441e-02" rms="4.3688184022903442e-01" purity="5.0500822067260742e-01" nType="-99"/>
          </Node>
          <Node pos="r" depth="2" NCoef="0" IVar="4" Cut="2.9729144573211670e+00" cType="1" res="-3.5768676549196243e-02" rms="4.6176406741142273e-01" purity="4.6129304170608521e-01" nType="0">
            <Node pos="l" depth="3" NCoef="0" IVar="-1" Cut="0.0000000000000000e+00" cType="1" res="-2.3194666951894760e-02" rms="4.6648848056793213e-01" purity="4.8268786072731018e-01" nType="-99"/>
            <Node pos="r" depth="3" NCoef="0" IVar="-1" Cut="0.0000000000000000e+00" cType="1" res="-4.5753233134746552e-03" rms="4.3268111348152161e-01" purity="3.6146906018257141e-01" nType="-99"/>
          </Node>
        </Node>
      </Node>
    </BinaryTree>
    <BinaryTree type="DecisionTree" boostWeight="1.0000000000000000e+00" itree="255">
      <Node pos="s" depth="0" NCoef="0" IVar="4" Cut="2.9526097774505615e+00" cType="1" res="-5.4494114592671394e-03" rms="4.6314382553100586e-01" purity="4.9551761150360107e-01" nType="0">
        <Node pos="l" depth="1" NCoef="0" IVar="7" Cut="6.0000000000000000e+00" cType="1" res="0.0000000000000000e+00" rms="0.0000000000000000e+00" purity="5.0434470176696777e-01" nType="0">
          <Node pos="l" depth="2" NCoef="0" IVar="8" Cut="7.7548421875000000e+04" cType="1" res="4.6959687024354935e-03" rms="4.6681335568428040e-01" purity="4.7059327363967896e-01" nType="0">
            <Node pos="l" depth="3" NCoef="0" IVar="-1" Cut="0.0000000000000000e+00" cType="1" res="8.7395514128729701e-04" rms="4.6810314059257507e-01" purity="4.2218947410583496e-01" nType="-99"/>
            <Node pos="r" depth="3" NCoef="0" IVar="-1" Cut="0.0000000000000000e+00" cType="1" res="1.8177976831793785e-02" rms="4.6236440539360046e-01" purity="6.2813192605972290e-01" nType="-99"/>
          </Node>
          <Node pos="r" depth="2" NCoef="0" IVar="6" Cut="4.4816708564758301e-01" cType="1" res="-1.2635622173547745e-02" rms="4.5846158266067505e-01" purity="5.9882682561874390e-01" nType="0">
            <Node pos="l" depth="3" NCoef="0" IVar="-1" Cut="0.0000000000000000e+00" cType="1" res="-6.8193026818335056e-03" rms="4.5338308811187744e-01" purity="6.1952012777328491e-01" nType="-99"/>
            <Node pos="r" depth="3" NCoef="0" IVar="-1" Cut="0.0000000000000000e+00" cType="1" res="-2.7688298374414444e-02" rms="4.6507853269577026e-01" purity="5.7084578275680542e-01" nType="-99"/>
          </Node>
        </Node>
        <Node pos="r" depth="1" NCoef="0" IVar="6" Cut="2.2437329292297363e+00" cType="1" res="0.0000000000000000e+00" rms="0.0000000000000000e+00" purity="4.5176321268081665e-01" nType="0">
          <Node pos="l" depth="2" NCoef="0" IVar="2" Cut="2.2218199157714844e+02" cType="1" res="-1.7108615487813950e-02" rms="4.5654258131980896e-01" purity="4.9469527602195740e-01" nType="0">
            <Node pos="l" depth="3" NCoef="0" IVar="-1" Cut="0.0000000000000000e+00" cType="1" res="-4.7398502938449383e-03" rms="4.6234408020973206e-01" purity="5.2753275632858276e-01" nType="-99"/>
            <Node pos="r" depth="3" NCoef="0" IVar="-1" Cut="0.0000000000000000e+00" cType="1" res="-8.0744605511426926e-03" rms="4.4528064131736755e-01" purity="4.3748658895492554e-01" nType="-99"/>
          </Node>
          <Node pos="r" depth="2" NCoef="0" IVar="-1" Cut="0.0000000000000000e+00" cType="1" res="-3.0328391585499048e-03" rms="4.4764593243598938e-01" purity="3.5822072625160217e-01" nType="-99"/>
        </Node>
      </Node>
    </BinaryTree>
    <BinaryTree type="DecisionTree" boostWeight="1.0000000000000000e+00" itree="256">
      <Node pos="s" depth="0" NCoef="0" IVar="4" Cut="2.9740247726440430e+00" cType="1" res="-2.1840869449079037e-03" rms="4.6435409784317017e-01" purity="4.9972021579742432e-01" nType="0">
        <Node pos="l" depth="1" NCoef="0" IVar="4" Cut="9.0409684181213379e-01" cType="1" res="1.5168844256550074e-03" rms="4.6486479043960571e-01" purity="5.0572472810745239e-01" nType="0">
          <Node pos="l" depth="2" NCoef="0" IVar="8" Cut="1.0051249218750000e+05" cType="1" res="1.1468033306300640e-02" rms="4.6753737330436707e-01" purity="4.6407097578048706e-01" nType="0">
            <Node pos="l" depth="3" NCoef="0" IVar="-1" Cut="0.0000000000000000e+00" cType="1" res="2.5884339585900307e-02" rms="4.6683719754219055e-01" purity="4.1448146104812622e-01" nType="-99"/>
            <Node pos="r" depth="3" NCoef="0" IVar="-1" Cut="0.0000000000000000e+00" cType="1" res="-1.4315783977508545e-02" rms="4.6869033575057983e-01" purity="6.0347366333007812e-01" nType="-99"/>
          </Node>
          <Node pos="r" depth="2" NCoef="0" IVar="4" Cut="1.1012750864028931e+00" cType="1" res="0.0000000000000000e+00" rms="0.0000000000000000e+00" purity="5.1553827524185181e-01" nType="0">
            <Node pos="l" depth="3" NCoef="0" IVar="-1" Cut="0.0000000000000000e+00" cType="1" res="-2.5615427643060684e-02" rms="4.5845109224319458e-01" purity="4.3525359034538269e-01" nType="-99"/>
            <Node pos="r" depth="3" NCoef="0" IVar="-1" Cut="0.0000000000000000e+00" cType="1" res="1.2033578241243958e-03" rms="4.6479874849319458e-01" purity="5.2461105585098267e-01" nType="-99"/>
          </Node>
        </Node>
        <Node pos="r" depth="1" NCoef="0" IVar="5" Cut="-1.0472476482391357e+00" cType="1" res="-2.2487601265311241e-02" rms="4.6101406216621399e-01" purity="4.6677950024604797e-01" nType="0">
          <Node pos="l" depth="2" NCoef="0" IVar="-1" Cut="0.0000000000000000e+00" cType="1" res="-3.4888877999037504e-03" rms="4.6029067039489746e-01" purity="4.3790787458419800e-01" nType="-99"/>
          <Node pos="r" depth="2" NCoef="0" IVar="-1" Cut="0.0000000000000000e+00" cType="1" res="-1.1001972015947104e-03" rms="4.6051681041717529e-01" purity="4.9040335416793823e-01" nType="-99"/>
        </Node>
      </Node>
    </BinaryTree>
    <BinaryTree type="DecisionTree" boostWeight="1.0000000000000000e+00" itree="257">
      <Node pos="s" depth="0" NCoef="0" IVar="4" Cut="2.9684450626373291e+00" cType="1" res="-2.4049733765423298e-03" rms="4.6290591359138489e-01" purity="4.9923738837242126e-01" nType="0">
        <Node pos="l" depth="1" NCoef="0" IVar="8" Cut="1.4019403125000000e+05" cType="1" res="0.0000000000000000e+00" rms="0.0000000000000000e+00" purity="5.0803774595260620e-01" nType="0">
          <Node pos="l" depth="2" NCoef="0" IVar="4" Cut="2.1387197971343994e+00" cType="1" res="1.5515583800151944e-03" rms="4.6638327836990356e-01" purity="4.9387481808662415e-01" nType="0">
            <Node pos="l" depth="3" NCoef="0" IVar="-1" Cut="0.0000000000000000e+00" cType="1" res="-3.6131308879703283e-03" rms="4.6623101830482483e-01" purity="4.6922025084495544e-01" nType="-99"/>
            <Node pos="r" depth="3" NCoef="0" IVar="-1" Cut="0.0000000000000000e+00" cType="1" res="9.1136861592531204e-03" rms="4.6654313802719116e-01" purity="5.4518961906433105e-01" nType="-99"/>
          </Node>
          <Node pos="r" depth="2" NCoef="0" IVar="-1" Cut="0.0000000000000000e+00" cType="1" res="3.3211573958396912e-02" rms="4.3186688423156738e-01" purity="7.1225064992904663e-01" nType="-99"/>
        </Node>
        <Node pos="r" depth="1" NCoef="0" IVar="2" Cut="1.9141281127929688e+02" cType="1" res="-3.3102761954069138e-02" rms="4.5423907041549683e-01" purity="4.5164284110069275e-01" nType="0">
          <Node pos="l" depth="2" NCoef="0" IVar="-1" Cut="0.0000000000000000e+00" cType="1" res="8.2239005714654922e-03" rms="4.5612430572509766e-01" purity="5.0211668014526367e-01" nType="-99"/>
          <Node pos="r" depth="2" NCoef="0" IVar="-1" Cut="0.0000000000000000e+00" cType="1" res="-5.0798202864825726e-03" rms="4.4941410422325134e-01" purity="4.0532124042510986e-01" nType="-99"/>
        </Node>
      </Node>
    </BinaryTree>
    <BinaryTree type="DecisionTree" boostWeight="1.0000000000000000e+00" itree="258">
      <Node pos="s" depth="0" NCoef="0" IVar="5" Cut="-2.5432066917419434e+00" cType="1" res="0.0000000000000000e+00" rms="0.0000000000000000e+00" purity="5.0082725286483765e-01" nType="0">
        <Node pos="l" depth="1" NCoef="0" IVar="5" Cut="-2.7996602058410645e+00" cType="1" res="-1.7018560320138931e-02" rms="4.6234324574470520e-01" purity="5.1852977275848389e-01" nType="0">
          <Node pos="l" depth="2" NCoef="0" IVar="6" Cut="-7.4830526113510132e-01" cType="1" res="1.3660728931427002e-02" rms="4.6287322044372559e-01" purity="5.7077604532241821e-01" nType="0">
            <Node pos="l" depth="3" NCoef="0" IVar="-1" Cut="0.0000000000000000e+00" cType="1" res="-1.8289135769009590e-02" rms="4.6699085831642151e-01" purity="5.4715257883071899e-01" nType="-99"/>
            <Node pos="r" depth="3" NCoef="0" IVar="-1" Cut="0.0000000000000000e+00" cType="1" res="5.4735708981752396e-02" rms="4.5727428793907166e-01" purity="5.9319961071014404e-01" nType="-99"/>
          </Node>
          <Node pos="r" depth="2" NCoef="0" IVar="-1" Cut="0.0000000000000000e+00" cType="1" res="-3.8489664439111948e-03" rms="4.5886391401290894e-01" purity="4.5398283004760742e-01" nType="-99"/>
        </Node>
        <Node pos="r" depth="1" NCoef="0" IVar="5" Cut="-2.2723791599273682e+00" cType="1" res="1.3755735708400607e-03" rms="4.6328413486480713e-01" purity="4.9751669168472290e-01" nType="0">
          <Node pos="l" depth="2" NCoef="0" IVar="-1" Cut="0.0000000000000000e+00" cType="1" res="2.8607498854398727e-02" rms="4.6135738492012024e-01" purity="5.5452477931976318e-01" nType="-99"/>
          <Node pos="r" depth="2" NCoef="0" IVar="6" Cut="-2.8423650264739990e+00" cType="1" res="-4.5995091204531491e-04" rms="4.6339493989944458e-01" purity="4.9281597137451172e-01" nType="0">
            <Node pos="l" depth="3" NCoef="0" IVar="-1" Cut="0.0000000000000000e+00" cType="1" res="-2.2995341569185257e-02" rms="4.6717166900634766e-01" purity="4.2724931240081787e-01" nType="-99"/>
            <Node pos="r" depth="3" NCoef="0" IVar="-1" Cut="0.0000000000000000e+00" cType="1" res="1.4340557390823960e-03" rms="4.6295824646949768e-01" purity="4.9959596991539001e-01" nType="-99"/>
          </Node>
        </Node>
      </Node>
    </BinaryTree>
    <BinaryTree type="DecisionTree" boostWeight="1.0000000000000000e+00" itree="259">
      <Node pos="s" depth="0" NCoef="0" IVar="3" Cut="6.5906577110290527e+00" cType="1" res="1.2335304927546531e-04" rms="4.6280995011329651e-01" purity="5.0429356098175049e-01" nType="0">
        <Node pos="l" depth="1" NCoef="0" IVar="7" Cut="6.0000000000000000e+00" cType="1" res="-5.4501672275364399e-03" rms="4.6759259700775146e-01" purity="4.9545288085937500e-01" nType="0">
          <Node pos="l" depth="2" NCoef="0" IVar="9" Cut="6.1775261718750000e+04" cType="1" res="1.9832996185868979e-03" rms="4.6979889273643494e-01" purity="4.7190040349960327e-01" nType="0">
            <Node pos="l" depth="3" NCoef="0" IVar="-1" Cut="0.0000000000000000e+00" cType="1" res="-1.8201600760221481e-03" rms="4.7259429097175598e-01" purity="4.4169768691062927e-01" nType="-99"/>
            <Node pos="r" depth="3" NCoef="0" IVar="-1" Cut="0.0000000000000000e+00" cType="1" res="2.7264785021543503e-02" rms="4.4911664724349976e-01" purity="6.7914253473281860e-01" nType="-99"/>
          </Node>
          <Node pos="r" depth="2" NCoef="0" IVar="6" Cut="1.6446230411529541e+00" cType="1" res="0.0000000000000000e+00" rms="0.0000000000000000e+00" purity="5.5722564458847046e-01" nType="0">
            <Node pos="l" depth="3" NCoef="0" IVar="-1" Cut="0.0000000000000000e+00" cType="1" res="-3.5732937976717949e-03" rms="4.6066123247146606e-01" purity="6.1476826667785645e-01" nType="-99"/>
            <Node pos="r" depth="3" NCoef="0" IVar="-1" Cut="0.0000000000000000e+00" cType="1" res="-4.0359282866120338e-03" rms="4.6041250228881836e-01" purity="4.1656932234764099e-01" nType="-99"/>
          </Node>
        </Node>
        <Node pos="r" depth="1" NCoef="0" IVar="1" Cut="2.6666250000000000e+05" cType="1" res="1.2727420777082443e-02" rms="4.5102807879447937e-01" purity="5.2450001239776611e-01" nType="0">
          <Node pos="l" depth="2" NCoef="0" IVar="7" Cut="5.0000000000000000e+00" cType="1" res="0.0000000000000000e+00" rms="0.0000000000000000e+00" purity="5.6102645397186279e-01" nType="0">
            <Node pos="l" depth="3" NCoef="0" IVar="-1" Cut="0.0000000000000000e+00" cType="1" res="-4.7399569302797318e-04" rms="4.6330302953720093e-01" purity="4.4017261266708374e-01" nType="-99"/>
            <Node pos="r" depth="3" NCoef="0" IVar="-1" Cut="0.0000000000000000e+00" cType="1" res="3.5018768161535263e-02" rms="4.4311657547950745e-01" purity="6.5318632125854492e-01" nType="-99"/>
          </Node>
          <Node pos="r" depth="2" NCoef="0" IVar="-1" Cut="0.0000000000000000e+00" cType="1" res="-2.6912601664662361e-02" rms="4.4254812598228455e-01" purity="3.1032276153564453e-01" nType="-99"/>
        </Node>
      </Node>
    </BinaryTree>
    <BinaryTree type="DecisionTree" boostWeight="1.0000000000000000e+00" itree="260">
      <Node pos="s" depth="0" NCoef="0" IVar="2" Cut="3.6409329223632812e+02" cType="1" res="0.0000000000000000e+00" rms="0.0000000000000000e+00" purity="5.0243103504180908e-01" nType="0">
        <Node pos="l" depth="1" NCoef="0" IVar="5" Cut="-2.8423564434051514e+00" cType="1" res="-6.7181194026488811e-05" rms="4.6513757109642029e-01" purity="5.0001567602157593e-01" nType="0">
          <Node pos="l" depth="2" NCoef="0" IVar="-1" Cut="0.0000000000000000e+00" cType="1" res="-3.8510922342538834e-02" rms="4.6461445093154907e-01" purity="5.2508246898651123e-01" nType="-99"/>
          <Node pos="r" depth="2" NCoef="0" IVar="3" Cut="-9.3227618932723999e-01" cType="1" res="2.5728472974151373e-03" rms="4.6507093310356140e-01" purity="4.9811509251594543e-01" nType="0">
            <Node pos="l" depth="3" NCoef="0" IVar="-1" Cut="0.0000000000000000e+00" cType="1" res="-1.4559199102222919e-02" rms="4.6726801991462708e-01" purity="4.0788245201110840e-01" nType="-99"/>
            <Node pos="r" depth="3" NCoef="0" IVar="-1" Cut="0.0000000000000000e+00" cType="1" res="4.7866585664451122e-03" rms="4.6482366323471069e-01" purity="5.0597244501113892e-01" nType="-99"/>
          </Node>
        </Node>
        <Node pos="r" depth="1" NCoef="0" IVar="6" Cut="-1.9448208808898926e+00" cType="1" res="-2.5874499231576920e-02" rms="4.6321985125541687e-01" purity="5.2099990844726562e-01" nType="0">
          <Node pos="l" depth="2" NCoef="0" IVar="-1" Cut="0.0000000000000000e+00" cType="1" res="9.9434601143002510e-03" rms="4.8070573806762695e-01" purity="5.7186144590377808e-01" nType="-99"/>
          <Node pos="r" depth="2" NCoef="0" IVar="-1" Cut="0.0000000000000000e+00" cType="1" res="-1.3043964281678200e-02" rms="4.5219936966896057e-01" purity="4.9284502863883972e-01" nType="-99"/>
        </Node>
      </Node>
    </BinaryTree>
    <BinaryTree type="DecisionTree" boostWeight="1.0000000000000000e+00" itree="261">
      <Node pos="s" depth="0" NCoef="0" IVar="4" Cut="2.9740247726440430e+00" cType="1" res="-7.2739468887448311e-03" rms="4.6128311753273010e-01" purity="4.9536883831024170e-01" nType="0">
        <Node pos="l" depth="1" NCoef="0" IVar="5" Cut="-1.4967253804206848e-01" cType="1" res="-2.1039056591689587e-03" rms="4.6274286508560181e-01" purity="5.0367987155914307e-01" nType="0">
          <Node pos="l" depth="2" NCoef="0" IVar="5" Cut="-2.8566873073577881e+00" cType="1" res="-1.0867873206734657e-02" rms="4.6159815788269043e-01" purity="4.9655875563621521e-01" nType="0">
            <Node pos="l" depth="3" NCoef="0" IVar="-1" Cut="0.0000000000000000e+00" cType="1" res="1.5583369880914688e-02" rms="4.6209058165550232e-01" purity="5.7850509881973267e-01" nType="-99"/>
            <Node pos="r" depth="3" NCoef="0" IVar="-1" Cut="0.0000000000000000e+00" cType="1" res="-9.9742580205202103e-03" rms="4.6140158176422119e-01" purity="4.8350146412849426e-01" nType="-99"/>
          </Node>
          <Node pos="r" depth="2" NCoef="0" IVar="5" Cut="1.4175956249237061e+00" cType="1" res="6.2357182614505291e-03" rms="4.6367573738098145e-01" purity="5.1045620441436768e-01" nType="0">
            <Node pos="l" depth="3" NCoef="0" IVar="-1" Cut="0.0000000000000000e+00" cType="1" res="2.3653132840991020e-02" rms="4.7314536571502686e-01" purity="4.6415480971336365e-01" nType="-99"/>
            <Node pos="r" depth="3" NCoef="0" IVar="-1" Cut="0.0000000000000000e+00" cType="1" res="-3.1889637466520071e-04" rms="4.5933893322944641e-01" purity="5.3060668706893921e-01" nType="-99"/>
          </Node>
        </Node>
        <Node pos="r" depth="1" NCoef="0" IVar="4" Cut="3.0995559692382812e+00" cType="1" res="-3.5566724836826324e-02" rms="4.5216587185859680e-01" purity="4.4988703727722168e-01" nType="0">
          <Node pos="l" depth="2" NCoef="0" IVar="-1" Cut="0.0000000000000000e+00" cType="1" res="-6.7497882992029190e-04" rms="4.7003376483917236e-01" purity="5.6037056446075439e-01" nType="-99"/>
          <Node pos="r" depth="2" NCoef="0" IVar="2" Cut="1.9750820922851562e+02" cType="1" res="-5.0828464329242706e-02" rms="4.4327712059020996e-01" purity="4.0165886282920837e-01" nType="0">
            <Node pos="l" depth="3" NCoef="0" IVar="-1" Cut="0.0000000000000000e+00" cType="1" res="-1.3116962276399136e-02" rms="4.5404052734375000e-01" purity="4.6006458997726440e-01" nType="-99"/>
            <Node pos="r" depth="3" NCoef="0" IVar="-1" Cut="0.0000000000000000e+00" cType="1" res="-4.3844655156135559e-03" rms="4.2876833677291870e-01" purity="3.4231090545654297e-01" nType="-99"/>
          </Node>
        </Node>
      </Node>
    </BinaryTree>
    <BinaryTree type="DecisionTree" boostWeight="1.0000000000000000e+00" itree="262">
      <Node pos="s" depth="0" NCoef="0" IVar="4" Cut="2.9988031387329102e+00" cType="1" res="-6.6469446755945683e-03" rms="4.6466836333274841e-01" purity="4.9568814039230347e-01" nType="0">
        <Node pos="l" depth="1" NCoef="0" IVar="7" Cut="5.0000000000000000e+00" cType="1" res="-4.3701066169887781e-04" rms="4.6663638949394226e-01" purity="5.0635993480682373e-01" nType="0">
          <Node pos="l" depth="2" NCoef="0" IVar="4" Cut="7.7197188138961792e-01" cType="1" res="1.1319819837808609e-02" rms="4.6842378377914429e-01" purity="4.3228769302368164e-01" nType="0">
            <Node pos="l" depth="3" NCoef="0" IVar="-1" Cut="0.0000000000000000e+00" cType="1" res="3.9049878716468811e-02" rms="4.7173678874969482e-01" purity="4.0702635049819946e-01" nType="-99"/>
            <Node pos="r" depth="3" NCoef="0" IVar="-1" Cut="0.0000000000000000e+00" cType="1" res="6.9348146207630634e-03" rms="4.6779179573059082e-01" purity="4.3608877062797546e-01" nType="-99"/>
          </Node>
          <Node pos="r" depth="2" NCoef="0" IVar="6" Cut="-2.2437176704406738e+00" cType="1" res="-9.7704436630010605e-03" rms="4.6501135826110840e-01" purity="5.6514418125152588e-01" nType="0">
            <Node pos="l" depth="3" NCoef="0" IVar="-1" Cut="0.0000000000000000e+00" cType="1" res="1.3719559647142887e-02" rms="4.8094367980957031e-01" purity="5.2391695976257324e-01" nType="-99"/>
            <Node pos="r" depth="3" NCoef="0" IVar="-1" Cut="0.0000000000000000e+00" cType="1" res="-1.7281716689467430e-02" rms="4.6088239550590515e-01" purity="5.7518482208251953e-01" nType="-99"/>
          </Node>
        </Node>
        <Node pos="r" depth="1" NCoef="0" IVar="5" Cut="1.0457928180694580e+00" cType="1" res="-4.1159756481647491e-02" rms="4.5198851823806763e-01" purity="4.3636107444763184e-01" nType="0">
          <Node pos="l" depth="2" NCoef="0" IVar="6" Cut="-1.3448460102081299e+00" cType="1" res="-6.5877676010131836e-02" rms="4.4941487908363342e-01" purity="4.1134279966354370e-01" nType="0">
            <Node pos="l" depth="3" NCoef="0" IVar="-1" Cut="0.0000000000000000e+00" cType="1" res="-9.3597266823053360e-03" rms="4.7251179814338684e-01" purity="4.4788962602615356e-01" nType="-99"/>
            <Node pos="r" depth="3" NCoef="0" IVar="-1" Cut="0.0000000000000000e+00" cType="1" res="-2.9904935508966446e-03" rms="4.2566809058189392e-01" purity="3.8340160250663757e-01" nType="-99"/>
          </Node>
          <Node pos="r" depth="2" NCoef="0" IVar="-1" Cut="0.0000000000000000e+00" cType="1" res="1.3271500356495380e-03" rms="4.5324009656906128e-01" purity="4.7931918501853943e-01" nType="-99"/>
        </Node>
      </Node>
    </BinaryTree>
    <BinaryTree type="DecisionTree" boostWeight="1.0000000000000000e+00" itree="263">
      <Node pos="s" depth="0" NCoef="0" IVar="4" Cut="2.9616189002990723e+00" cType="1" res="-7.8662903979420662e-03" rms="4.6352216601371765e-01" purity="4.9581760168075562e-01" nType="0">
        <Node pos="l" depth="1" NCoef="0" IVar="4" Cut="7.5422745943069458e-01" cType="1" res="-7.1790476795285940e-04" rms="4.6554076671600342e-01" purity="5.0812745094299316e-01" nType="0">
          <Node pos="l" depth="2" NCoef="0" IVar="5" Cut="-1.3461661338806152e+00" cType="1" res="-2.8241451829671860e-02" rms="4.6576645970344543e-01" purity="4.3971204757690430e-01" nType="0">
            <Node pos="l" depth="3" NCoef="0" IVar="-1" Cut="0.0000000000000000e+00" cType="1" res="-2.6102660223841667e-02" rms="4.6899217367172241e-01" purity="4.7221973538398743e-01" nType="-99"/>
            <Node pos="r" depth="3" NCoef="0" IVar="-1" Cut="0.0000000000000000e+00" cType="1" res="-4.5039128512144089e-02" rms="4.6367993950843811e-01" purity="4.1980230808258057e-01" nType="-99"/>
          </Node>
          <Node pos="r" depth="2" NCoef="0" IVar="2" Cut="2.0856552124023438e+02" cType="1" res="3.3025618176907301e-03" rms="4.6537154912948608e-01" purity="5.1812112331390381e-01" nType="0">
            <Node pos="l" depth="3" NCoef="0" IVar="-1" Cut="0.0000000000000000e+00" cType="1" res="1.0614301078021526e-02" rms="4.6110913157463074e-01" purity="5.2630102634429932e-01" nType="-99"/>
            <Node pos="r" depth="3" NCoef="0" IVar="-1" Cut="0.0000000000000000e+00" cType="1" res="-5.3550582379102707e-03" rms="4.7227188944816589e-01" purity="5.0442266464233398e-01" nType="-99"/>
          </Node>
        </Node>
        <Node pos="r" depth="1" NCoef="0" IVar="6" Cut="7.4796485900878906e-01" cType="1" res="-4.4062130153179169e-02" rms="4.5142862200737000e-01" purity="4.3348678946495056e-01" nType="0">
          <Node pos="l" depth="2" NCoef="0" IVar="6" Cut="-2.2154397964477539e+00" cType="1" res="-3.6923517473042011e-03" rms="4.6311235427856445e-01" purity="5.1177299022674561e-01" nType="0">
            <Node pos="l" depth="3" NCoef="0" IVar="-1" Cut="0.0000000000000000e+00" cType="1" res="-1.6219491139054298e-02" rms="4.7650271654129028e-01" purity="4.5501410961151123e-01" nType="-99"/>
            <Node pos="r" depth="3" NCoef="0" IVar="-1" Cut="0.0000000000000000e+00" cType="1" res="8.5187144577503204e-03" rms="4.4932720065116882e-01" purity="5.6729710102081299e-01" nType="-99"/>
          </Node>
          <Node pos="r" depth="2" NCoef="0" IVar="-1" Cut="0.0000000000000000e+00" cType="1" res="-3.2421324867755175e-03" rms="4.3457791209220886e-01" purity="3.5028105974197388e-01" nType="-99"/>
        </Node>
      </Node>
    </BinaryTree>
    <BinaryTree type="DecisionTree" boostWeight="1.0000000000000000e+00" itree="264">
      <Node pos="s" depth="0" NCoef="0" IVar="4" Cut="2.9616189002990723e+00" cType="1" res="-6.5211334731429815e-04" rms="4.6342146396636963e-01" purity="5.0064963102340698e-01" nType="0">
        <Node pos="l" depth="1" NCoef="0" IVar="4" Cut="1.1681094169616699e+00" cType="1" res="2.5781565345823765e-03" rms="4.6544018387794495e-01" purity="5.0825303792953491e-01" nType="0">
          <Node pos="l" depth="2" NCoef="0" IVar="8" Cut="9.8974375000000000e+04" cType="1" res="1.3284333050251007e-02" rms="4.6537411212921143e-01" purity="4.7037234902381897e-01" nType="0">
            <Node pos="l" depth="3" NCoef="0" IVar="-1" Cut="0.0000000000000000e+00" cType="1" res="2.3591527715325356e-02" rms="4.6633198857307434e-01" purity="4.2740461230278015e-01" nType="-99"/>
            <Node pos="r" depth="3" NCoef="0" IVar="-1" Cut="0.0000000000000000e+00" cType="1" res="-7.9204719513654709e-03" rms="4.6149322390556335e-01" purity="6.1995673179626465e-01" nType="-99"/>
          </Node>
          <Node pos="r" depth="2" NCoef="0" IVar="2" Cut="4.1128851318359375e+02" cType="1" res="-2.0097221713513136e-03" rms="4.6539309620857239e-01" purity="5.2448594570159912e-01" nType="0">
            <Node pos="l" depth="3" NCoef="0" IVar="-1" Cut="0.0000000000000000e+00" cType="1" res="4.1741132736206055e-04" rms="4.6470436453819275e-01" purity="5.2143305540084839e-01" nType="-99"/>
            <Node pos="r" depth="3" NCoef="0" IVar="-1" Cut="0.0000000000000000e+00" cType="1" res="-2.7171878144145012e-02" rms="4.7259244322776794e-01" purity="5.6172698736190796e-01" nType="-99"/>
          </Node>
        </Node>
        <Node pos="r" depth="1" NCoef="0" IVar="6" Cut="1.3462014198303223e+00" cType="1" res="-1.7471678555011749e-02" rms="4.5239239931106567e-01" purity="4.6105974912643433e-01" nType="0">
          <Node pos="l" depth="2" NCoef="0" IVar="5" Cut="-1.0472476482391357e+00" cType="1" res="1.8500542268157005e-02" rms="4.5867389440536499e-01" purity="5.3682035207748413e-01" nType="0">
            <Node pos="l" depth="3" NCoef="0" IVar="-1" Cut="0.0000000000000000e+00" cType="1" res="3.0257353559136391e-02" rms="4.6418866515159607e-01" purity="5.1971024274826050e-01" nType="-99"/>
            <Node pos="r" depth="3" NCoef="0" IVar="-1" Cut="0.0000000000000000e+00" cType="1" res="1.1361781507730484e-02" rms="4.5163416862487793e-01" purity="5.5785614252090454e-01" nType="-99"/>
          </Node>
          <Node pos="r" depth="2" NCoef="0" IVar="-1" Cut="0.0000000000000000e+00" cType="1" res="-3.4399530850350857e-03" rms="4.3891635537147522e-01" purity="3.5748627781867981e-01" nType="-99"/>
        </Node>
      </Node>
    </BinaryTree>
    <BinaryTree type="DecisionTree" boostWeight="1.0000000000000000e+00" itree="265">
      <Node pos="s" depth="0" NCoef="0" IVar="7" Cut="6.0000000000000000e+00" cType="1" res="-1.1746664531528950e-03" rms="4.6417060494422913e-01" purity="5.0462746620178223e-01" nType="0">
        <Node pos="l" depth="1" NCoef="0" IVar="8" Cut="6.4477210937500000e+04" cType="1" res="0.0000000000000000e+00" rms="0.0000000000000000e+00" purity="4.6352031826972961e-01" nType="0">
          <Node pos="l" depth="2" NCoef="0" IVar="5" Cut="2.5431921482086182e+00" cType="1" res="3.0287702102214098e-03" rms="4.6643117070198059e-01" purity="4.0173995494842529e-01" nType="0">
            <Node pos="l" depth="3" NCoef="0" IVar="-1" Cut="0.0000000000000000e+00" cType="1" res="5.8658495545387268e-03" rms="4.6763077378273010e-01" purity="4.0346452593803406e-01" nType="-99"/>
            <Node pos="r" depth="3" NCoef="0" IVar="-1" Cut="0.0000000000000000e+00" cType="1" res="-2.2964211180806160e-02" rms="4.5523652434349060e-01" purity="3.8762933015823364e-01" nType="-99"/>
          </Node>
          <Node pos="r" depth="2" NCoef="0" IVar="4" Cut="2.7320413589477539e+00" cType="1" res="-2.2007415071129799e-02" rms="4.6690595149993896e-01" purity="5.6962966918945312e-01" nType="0">
            <Node pos="l" depth="3" NCoef="0" IVar="-1" Cut="0.0000000000000000e+00" cType="1" res="-1.4680587686598301e-02" rms="4.6685975790023804e-01" purity="5.7813262939453125e-01" nType="-99"/>
            <Node pos="r" depth="3" NCoef="0" IVar="-1" Cut="0.0000000000000000e+00" cType="1" res="-2.0999932661652565e-02" rms="4.6635201573371887e-01" purity="5.4441899061203003e-01" nType="-99"/>
          </Node>
        </Node>
        <Node pos="r" depth="1" NCoef="0" IVar="9" Cut="4.9040367187500000e+04" cType="1" res="1.2549757957458496e-02" rms="4.5671406388282776e-01" purity="6.1733651161193848e-01" nType="0">
          <Node pos="l" depth="2" NCoef="0" IVar="9" Cut="4.0084179687500000e+04" cType="1" res="-1.3424425385892391e-02" rms="4.7743850946426392e-01" purity="4.9688559770584106e-01" nType="0">
            <Node pos="l" depth="3" NCoef="0" IVar="-1" Cut="0.0000000000000000e+00" cType="1" res="-4.9401175230741501e-02" rms="4.7299340367317200e-01" purity="4.2348402738571167e-01" nType="-99"/>
            <Node pos="r" depth="3" NCoef="0" IVar="-1" Cut="0.0000000000000000e+00" cType="1" res="1.9233658909797668e-02" rms="4.7975316643714905e-01" purity="5.6943958997726440e-01" nType="-99"/>
          </Node>
          <Node pos="r" depth="2" NCoef="0" IVar="3" Cut="6.5555734634399414e+00" cType="1" res="2.4593792855739594e-02" rms="4.4626545906066895e-01" purity="6.7318874597549438e-01" nType="0">
            <Node pos="l" depth="3" NCoef="0" IVar="-1" Cut="0.0000000000000000e+00" cType="1" res="3.9714526385068893e-02" rms="4.5205479860305786e-01" purity="6.6079264879226685e-01" nType="-99"/>
            <Node pos="r" depth="3" NCoef="0" IVar="-1" Cut="0.0000000000000000e+00" cType="1" res="-5.5136168375611305e-03" rms="4.3121907114982605e-01" purity="7.0191681385040283e-01" nType="-99"/>
          </Node>
        </Node>
      </Node>
    </BinaryTree>
    <BinaryTree type="DecisionTree" boostWeight="1.0000000000000000e+00" itree="266">
      <Node pos="s" depth="0" NCoef="0" IVar="4" Cut="1.4025067090988159e+00" cType="1" res="0.0000000000000000e+00" rms="0.0000000000000000e+00" purity="5.0204390287399292e-01" nType="0">
        <Node pos="l" depth="1" NCoef="0" IVar="8" Cut="9.8987976562500000e+04" cType="1" res="6.3000838272273540e-03" rms="4.6327161788940430e-01" purity="4.7402432560920715e-01" nType="0">
          <Node pos="l" depth="2" NCoef="0" IVar="5" Cut="-1.0472481250762939e+00" cType="1" res="-4.8815767513588071e-05" rms="4.6599522233009338e-01" purity="4.2574045062065125e-01" nType="0">
            <Node pos="l" depth="3" NCoef="0" IVar="-1" Cut="0.0000000000000000e+00" cType="1" res="-2.9714638367295265e-02" rms="4.6921104192733765e-01" purity="4.3192893266677856e-01" nType="-99"/>
            <Node pos="r" depth="3" NCoef="0" IVar="-1" Cut="0.0000000000000000e+00" cType="1" res="1.9047433510422707e-02" rms="4.6327126026153564e-01" purity="4.2170554399490356e-01" nType="-99"/>
          </Node>
          <Node pos="r" depth="2" NCoef="0" IVar="-1" Cut="0.0000000000000000e+00" cType="1" res="3.7946417927742004e-02" rms="4.5209762454032898e-01" purity="6.5541273355484009e-01" nType="-99"/>
        </Node>
        <Node pos="r" depth="1" NCoef="0" IVar="6" Cut="2.5430927276611328e+00" cType="1" res="-9.3584125861525536e-03" rms="4.6508848667144775e-01" purity="5.1636785268783569e-01" nType="0">
          <Node pos="l" depth="2" NCoef="0" IVar="6" Cut="2.0016641616821289e+00" cType="1" res="-1.3498803600668907e-02" rms="4.6277007460594177e-01" purity="5.2240401506423950e-01" nType="0">
            <Node pos="l" depth="3" NCoef="0" IVar="-1" Cut="0.0000000000000000e+00" cType="1" res="-6.1403107829391956e-03" rms="4.6299916505813599e-01" purity="5.4095858335494995e-01" nType="-99"/>
            <Node pos="r" depth="3" NCoef="0" IVar="-1" Cut="0.0000000000000000e+00" cType="1" res="-6.7603834904730320e-03" rms="4.5921403169631958e-01" purity="4.1491681337356567e-01" nType="-99"/>
          </Node>
          <Node pos="r" depth="2" NCoef="0" IVar="8" Cut="5.9642945312500000e+04" cType="1" res="6.8637412041425705e-03" rms="4.7371432185173035e-01" purity="4.9271818995475769e-01" nType="0">
            <Node pos="l" depth="3" NCoef="0" IVar="-1" Cut="0.0000000000000000e+00" cType="1" res="-6.1041275039315224e-03" rms="4.7529071569442749e-01" purity="4.1312682628631592e-01" nType="-99"/>
            <Node pos="r" depth="3" NCoef="0" IVar="-1" Cut="0.0000000000000000e+00" cType="1" res="3.9673138409852982e-02" rms="4.7011005878448486e-01" purity="6.0163682699203491e-01" nType="-99"/>
          </Node>
        </Node>
      </Node>
    </BinaryTree>
    <BinaryTree type="DecisionTree" boostWeight="1.0000000000000000e+00" itree="267">
      <Node pos="s" depth="0" NCoef="0" IVar="2" Cut="3.6472512817382812e+02" cType="1" res="-5.8765299618244171e-03" rms="4.6492415666580200e-01" purity="5.0263935327529907e-01" nType="0">
        <Node pos="l" depth="1" NCoef="0" IVar="5" Cut="2.5430681705474854e+00" cType="1" res="-9.5312874764204025e-03" rms="4.6455064415931702e-01" purity="4.9399727582931519e-01" nType="0">
          <Node pos="l" depth="2" NCoef="0" IVar="2" Cut="1.6673901367187500e+02" cType="1" res="-1.3086342252790928e-02" rms="4.6534013748168945e-01" purity="4.8213326930999756e-01" nType="0">
            <Node pos="l" depth="3" NCoef="0" IVar="-1" Cut="0.0000000000000000e+00" cType="1" res="-2.3721484467387199e-03" rms="4.6156534552574158e-01" purity="4.9726819992065430e-01" nType="-99"/>
            <Node pos="r" depth="3" NCoef="0" IVar="-1" Cut="0.0000000000000000e+00" cType="1" res="-6.9924625568091869e-03" rms="4.6695008873939514e-01" purity="4.7529822587966919e-01" nType="-99"/>
          </Node>
          <Node pos="r" depth="2" NCoef="0" IVar="2" Cut="1.7879373168945312e+02" cType="1" res="1.1178345419466496e-02" rms="4.5937794446945190e-01" purity="5.6311023235321045e-01" nType="0">
            <Node pos="l" depth="3" NCoef="0" IVar="-1" Cut="0.0000000000000000e+00" cType="1" res="2.2007061168551445e-02" rms="4.4723418354988098e-01" purity="6.0037720203399658e-01" nType="-99"/>
            <Node pos="r" depth="3" NCoef="0" IVar="-1" Cut="0.0000000000000000e+00" cType="1" res="-1.2172466376796365e-03" rms="4.7000551223754883e-01" purity="5.2857267856597900e-01" nType="-99"/>
          </Node>
        </Node>
        <Node pos="r" depth="1" NCoef="0" IVar="2" Cut="5.0058181762695312e+02" cType="1" res="2.2840866819024086e-02" rms="4.6685412526130676e-01" purity="5.7054466009140015e-01" nType="0">
          <Node pos="l" depth="2" NCoef="0" IVar="-1" Cut="0.0000000000000000e+00" cType="1" res="3.9305586367845535e-02" rms="4.6731445193290710e-01" purity="5.6261259317398071e-01" nType="-99"/>
          <Node pos="r" depth="2" NCoef="0" IVar="-1" Cut="0.0000000000000000e+00" cType="1" res="5.5899880826473236e-03" rms="4.6570366621017456e-01" purity="5.8016741275787354e-01" nType="-99"/>
        </Node>
      </Node>
    </BinaryTree>
    <BinaryTree type="DecisionTree" boostWeight="1.0000000000000000e+00" itree="268">
      <Node pos="s" depth="0" NCoef="0" IVar="5" Cut="1.0470360517501831e+00" cType="1" res="-2.6778127066791058e-03" rms="4.6264436841011047e-01" purity="5.0698977708816528e-01" nType="0">
        <Node pos="l" depth="1" NCoef="0" IVar="5" Cut="-1.9449218511581421e+00" cType="1" res="6.1305044218897820e-03" rms="4.6429720520973206e-01" purity="5.0633245706558228e-01" nType="0">
          <Node pos="l" depth="2" NCoef="0" IVar="7" Cut="5.0000000000000000e+00" cType="1" res="0.0000000000000000e+00" rms="0.0000000000000000e+00" purity="5.3317552804946899e-01" nType="0">
            <Node pos="l" depth="3" NCoef="0" IVar="-1" Cut="0.0000000000000000e+00" cType="1" res="1.4716895297169685e-02" rms="4.7655573487281799e-01" purity="4.7148415446281433e-01" nType="-99"/>
            <Node pos="r" depth="3" NCoef="0" IVar="-1" Cut="0.0000000000000000e+00" cType="1" res="-1.2187371030449867e-02" rms="4.5512965321540833e-01" purity="5.7700771093368530e-01" nType="-99"/>
          </Node>
          <Node pos="r" depth="2" NCoef="0" IVar="6" Cut="-4.4882395863533020e-01" cType="1" res="1.5249551273882389e-02" rms="4.6404308080673218e-01" purity="4.8233386874198914e-01" nType="0">
            <Node pos="l" depth="3" NCoef="0" IVar="-1" Cut="0.0000000000000000e+00" cType="1" res="6.1371736228466034e-03" rms="4.6829313039779663e-01" purity="4.4901654124259949e-01" nType="-99"/>
            <Node pos="r" depth="3" NCoef="0" IVar="-1" Cut="0.0000000000000000e+00" cType="1" res="3.6034662276506424e-02" rms="4.5773303508758545e-01" purity="5.2883541584014893e-01" nType="-99"/>
          </Node>
        </Node>
        <Node pos="r" depth="1" NCoef="0" IVar="6" Cut="1.9441759586334229e+00" cType="1" res="-1.5918100252747536e-02" rms="4.5983138680458069e-01" purity="5.0797778367996216e-01" nType="0">
          <Node pos="l" depth="2" NCoef="0" IVar="3" Cut="4.6214976310729980e+00" cType="1" res="-6.0696005821228027e-03" rms="4.4971936941146851e-01" purity="5.4668390750885010e-01" nType="0">
            <Node pos="l" depth="3" NCoef="0" IVar="-1" Cut="0.0000000000000000e+00" cType="1" res="-1.9465487450361252e-02" rms="4.6004223823547363e-01" purity="5.0658017396926880e-01" nType="-99"/>
            <Node pos="r" depth="3" NCoef="0" IVar="-1" Cut="0.0000000000000000e+00" cType="1" res="1.6405541449785233e-02" rms="4.3460789322853088e-01" purity="6.0119503736495972e-01" nType="-99"/>
          </Node>
          <Node pos="r" depth="2" NCoef="0" IVar="9" Cut="3.7181007812500000e+04" cType="1" res="-2.8155311942100525e-02" rms="4.7180804610252380e-01" purity="4.5988368988037109e-01" nType="0">
            <Node pos="l" depth="3" NCoef="0" IVar="-1" Cut="0.0000000000000000e+00" cType="1" res="-2.8177859261631966e-02" rms="4.6129497885704041e-01" purity="3.5477021336555481e-01" nType="-99"/>
            <Node pos="r" depth="3" NCoef="0" IVar="-1" Cut="0.0000000000000000e+00" cType="1" res="-2.1100612357258797e-02" rms="4.8134568333625793e-01" purity="5.5921548604965210e-01" nType="-99"/>
          </Node>
        </Node>
      </Node>
    </BinaryTree>
    <BinaryTree type="DecisionTree" boostWeight="1.0000000000000000e+00" itree="269">
      <Node pos="s" depth="0" NCoef="0" IVar="6" Cut="2.8422803878784180e+00" cType="1" res="-8.6832214146852493e-03" rms="4.6419629454612732e-01" purity="4.9675014615058899e-01" nType="0">
        <Node pos="l" depth="1" NCoef="0" IVar="4" Cut="3.1872029304504395e+00" cType="1" res="-5.4872175678610802e-03" rms="4.6401476860046387e-01" purity="5.0200736522674561e-01" nType="0">
          <Node pos="l" depth="2" NCoef="0" IVar="5" Cut="7.4799096584320068e-01" cType="1" res="-6.9661391898989677e-03" rms="4.6535283327102661e-01" purity="5.0719696283340454e-01" nType="0">
            <Node pos="l" depth="3" NCoef="0" IVar="-1" Cut="0.0000000000000000e+00" cType="1" res="-1.0961169376969337e-02" rms="4.6626189351081848e-01" purity="4.9561882019042969e-01" nType="-99"/>
            <Node pos="r" depth="3" NCoef="0" IVar="-1" Cut="0.0000000000000000e+00" cType="1" res="1.1417296263971366e-05" rms="4.6405744552612305e-01" purity="5.2248650789260864e-01" nType="-99"/>
          </Node>
          <Node pos="r" depth="2" NCoef="0" IVar="-1" Cut="0.0000000000000000e+00" cType="1" res="3.9584897458553314e-03" rms="4.4581207633018494e-01" purity="4.3455457687377930e-01" nType="-99"/>
        </Node>
        <Node pos="r" depth="1" NCoef="0" IVar="5" Cut="7.4729657173156738e-01" cType="1" res="-3.7122562527656555e-02" rms="4.6484190225601196e-01" purity="4.4996908307075500e-01" nType="0">
          <Node pos="l" depth="2" NCoef="0" IVar="-1" Cut="0.0000000000000000e+00" cType="1" res="-1.5283449552953243e-02" rms="4.5192977786064148e-01" purity="3.7707722187042236e-01" nType="-99"/>
          <Node pos="r" depth="2" NCoef="0" IVar="-1" Cut="0.0000000000000000e+00" cType="1" res="-7.7047562226653099e-03" rms="4.7690659761428833e-01" purity="5.3092122077941895e-01" nType="-99"/>
        </Node>
      </Node>
    </BinaryTree>
    <BinaryTree type="DecisionTree" boostWeight="1.0000000000000000e+00" itree="270">
      <Node pos="s" depth="0" NCoef="0" IVar="6" Cut="2.8423016071319580e+00" cType="1" res="-4.1758964653126895e-04" rms="4.6102407574653625e-01" purity="5.0290143489837646e-01" nType="0">
        <Node pos="l" depth="1" NCoef="0" IVar="9" Cut="8.7433414062500000e+04" cType="1" res="1.8199472688138485e-03" rms="4.5991829037666321e-01" purity="5.0743359327316284e-01" nType="0">
          <Node pos="l" depth="2" NCoef="0" IVar="9" Cut="2.7973039062500000e+04" cType="1" res="0.0000000000000000e+00" rms="0.0000000000000000e+00" purity="4.8437288403511047e-01" nType="0">
            <Node pos="l" depth="3" NCoef="0" IVar="-1" Cut="0.0000000000000000e+00" cType="1" res="-5.4833628237247467e-03" rms="4.2687577009201050e-01" purity="2.8105750679969788e-01" nType="-99"/>
            <Node pos="r" depth="3" NCoef="0" IVar="-1" Cut="0.0000000000000000e+00" cType="1" res="3.7126138340681791e-03" rms="4.7006562352180481e-01" purity="5.1978605985641479e-01" nType="-99"/>
          </Node>
          <Node pos="r" depth="2" NCoef="0" IVar="-1" Cut="0.0000000000000000e+00" cType="1" res="2.0832464098930359e-02" rms="4.1595789790153503e-01" purity="7.4325907230377197e-01" nType="-99"/>
        </Node>
        <Node pos="r" depth="1" NCoef="0" IVar="8" Cut="5.9828722656250000e+04" cType="1" res="-2.0619072020053864e-02" rms="4.7040849924087524e-01" purity="4.6198302507400513e-01" nType="0">
          <Node pos="l" depth="2" NCoef="0" IVar="-1" Cut="0.0000000000000000e+00" cType="1" res="6.9229346700012684e-03" rms="4.7319638729095459e-01" purity="4.2871537804603577e-01" nType="-99"/>
          <Node pos="r" depth="2" NCoef="0" IVar="-1" Cut="0.0000000000000000e+00" cType="1" res="-1.2498497031629086e-02" rms="4.6486359834671021e-01" purity="5.0375002622604370e-01" nType="-99"/>
        </Node>
      </Node>
    </BinaryTree>
    <BinaryTree type="DecisionTree" boostWeight="1.0000000000000000e+00" itree="271">
      <Node pos="s" depth="0" NCoef="0" IVar="9" Cut="7.2044289062500000e+04" cType="1" res="0.0000000000000000e+00" rms="0.0000000000000000e+00" purity="5.0258135795593262e-01" nType="0">
        <Node pos="l" depth="1" NCoef="0" IVar="7" Cut="6.0000000000000000e+00" cType="1" res="0.0000000000000000e+00" rms="0.0000000000000000e+00" purity="4.7203043103218079e-01" nType="0">
          <Node pos="l" depth="2" NCoef="0" IVar="6" Cut="2.5430879592895508e+00" cType="1" res="-6.1977063305675983e-03" rms="4.6575739979743958e-01" purity="4.4370847940444946e-01" nType="0">
            <Node pos="l" depth="3" NCoef="0" IVar="-1" Cut="0.0000000000000000e+00" cType="1" res="-1.5359800308942795e-03" rms="4.6516594290733337e-01" purity="4.4981959462165833e-01" nType="-99"/>
            <Node pos="r" depth="3" NCoef="0" IVar="-1" Cut="0.0000000000000000e+00" cType="1" res="-8.8418647646903992e-03" rms="4.6747797727584839e-01" purity="4.2156383395195007e-01" nType="-99"/>
          </Node>
          <Node pos="r" depth="2" NCoef="0" IVar="6" Cut="1.9441030025482178e+00" cType="1" res="1.7852727323770523e-02" rms="4.6725118160247803e-01" purity="5.8138161897659302e-01" nType="0">
            <Node pos="l" depth="3" NCoef="0" IVar="-1" Cut="0.0000000000000000e+00" cType="1" res="9.3574021011590958e-03" rms="4.6388155221939087e-01" purity="5.9409219026565552e-01" nType="-99"/>
            <Node pos="r" depth="3" NCoef="0" IVar="-1" Cut="0.0000000000000000e+00" cType="1" res="4.5650318264961243e-02" rms="4.7688925266265869e-01" purity="5.4017299413681030e-01" nType="-99"/>
          </Node>
        </Node>
        <Node pos="r" depth="1" NCoef="0" IVar="5" Cut="-1.9448525905609131e+00" cType="1" res="-2.0955024287104607e-02" rms="4.3909671902656555e-01" purity="6.7689931392669678e-01" nType="0">
          <Node pos="l" depth="2" NCoef="0" IVar="-1" Cut="0.0000000000000000e+00" cType="1" res="4.0192203596234322e-03" rms="4.3151390552520752e-01" purity="7.0681238174438477e-01" nType="-99"/>
          <Node pos="r" depth="2" NCoef="0" IVar="5" Cut="1.4471403360366821e+00" cType="1" res="-3.2864142209291458e-02" rms="4.4229921698570251e-01" purity="6.6216230392456055e-01" nType="0">
            <Node pos="l" depth="3" NCoef="0" IVar="-1" Cut="0.0000000000000000e+00" cType="1" res="-6.9410346448421478e-02" rms="4.4742387533187866e-01" purity="6.1066240072250366e-01" nType="-99"/>
            <Node pos="r" depth="3" NCoef="0" IVar="-1" Cut="0.0000000000000000e+00" cType="1" res="-3.0206278897821903e-03" rms="4.3606394529342651e-01" purity="6.9933629035949707e-01" nType="-99"/>
          </Node>
        </Node>
      </Node>
    </BinaryTree>
    <BinaryTree type="DecisionTree" boostWeight="1.0000000000000000e+00" itree="272">
      <Node pos="s" depth="0" NCoef="0" IVar="4" Cut="3.1815693378448486e+00" cType="1" res="0.0000000000000000e+00" rms="0.0000000000000000e+00" purity="4.9157422780990601e-01" nType="0">
        <Node pos="l" depth="1" NCoef="0" IVar="4" Cut="3.0330483913421631e+00" cType="1" res="-6.2513998709619045e-03" rms="4.6345505118370056e-01" purity="5.0362241268157959e-01" nType="0">
          <Node pos="l" depth="2" NCoef="0" IVar="5" Cut="-7.4784469604492188e-01" cType="1" res="-3.5077971406280994e-03" rms="4.6339872479438782e-01" purity="5.0425487756729126e-01" nType="0">
            <Node pos="l" depth="3" NCoef="0" IVar="-1" Cut="0.0000000000000000e+00" cType="1" res="3.6035585217177868e-03" rms="4.6493130922317505e-01" purity="5.1899987459182739e-01" nType="-99"/>
            <Node pos="r" depth="3" NCoef="0" IVar="-1" Cut="0.0000000000000000e+00" cType="1" res="-6.7296293564140797e-03" rms="4.6217072010040283e-01" purity="4.9310445785522461e-01" nType="-99"/>
          </Node>
          <Node pos="r" depth="2" NCoef="0" IVar="-1" Cut="0.0000000000000000e+00" cType="1" res="-4.6860883012413979e-03" rms="4.6235460042953491e-01" purity="4.9415171146392822e-01" nType="-99"/>
        </Node>
        <Node pos="r" depth="1" NCoef="0" IVar="-1" Cut="0.0000000000000000e+00" cType="1" res="-2.3038364015519619e-03" rms="4.4406905770301819e-01" purity="3.5887211561203003e-01" nType="-99"/>
      </Node>
    </BinaryTree>
    <BinaryTree type="DecisionTree" boostWeight="1.0000000000000000e+00" itree="273">
      <Node pos="s" depth="0" NCoef="0" IVar="4" Cut="3.2250001430511475e+00" cType="1" res="3.4837822895497084e-03" rms="4.6320599317550659e-01" purity="5.0693392753601074e-01" nType="0">
        <Node pos="l" depth="1" NCoef="0" IVar="4" Cut="8.1691288948059082e-01" cType="1" res="4.8054466024041176e-03" rms="4.6494010090827942e-01" purity="5.1694798469543457e-01" nType="0">
          <Node pos="l" depth="2" NCoef="0" IVar="5" Cut="-7.4790185689926147e-01" cType="1" res="-1.0805852711200714e-02" rms="4.6610772609710693e-01" purity="4.5247080922126770e-01" nType="0">
            <Node pos="l" depth="3" NCoef="0" IVar="-1" Cut="0.0000000000000000e+00" cType="1" res="-3.4913744777441025e-02" rms="4.6623072028160095e-01" purity="4.4279229640960693e-01" nType="-99"/>
            <Node pos="r" depth="3" NCoef="0" IVar="-1" Cut="0.0000000000000000e+00" cType="1" res="1.7299477476626635e-03" rms="4.6564385294914246e-01" purity="4.5992624759674072e-01" nType="-99"/>
          </Node>
          <Node pos="r" depth="2" NCoef="0" IVar="6" Cut="-2.5431859493255615e+00" cType="1" res="7.3418649844825268e-03" rms="4.6470057964324951e-01" purity="5.2742379903793335e-01" nType="0">
            <Node pos="l" depth="3" NCoef="0" IVar="-1" Cut="0.0000000000000000e+00" cType="1" res="-9.1065606102347374e-03" rms="4.7941341996192932e-01" purity="4.8195487260818481e-01" nType="-99"/>
            <Node pos="r" depth="3" NCoef="0" IVar="-1" Cut="0.0000000000000000e+00" cType="1" res="1.0062783025205135e-02" rms="4.6127057075500488e-01" purity="5.3761267662048340e-01" nType="-99"/>
          </Node>
        </Node>
        <Node pos="r" depth="1" NCoef="0" IVar="-1" Cut="0.0000000000000000e+00" cType="1" res="-2.5745511520653963e-03" rms="4.3825459480285645e-01" purity="3.6919167637825012e-01" nType="-99"/>
      </Node>
    </BinaryTree>
    <BinaryTree type="DecisionTree" boostWeight="1.0000000000000000e+00" itree="274">
      <Node pos="s" depth="0" NCoef="0" IVar="2" Cut="3.6151910400390625e+02" cType="1" res="-4.8768976703286171e-03" rms="4.6361556649208069e-01" purity="5.0037908554077148e-01" nType="0">
        <Node pos="l" depth="1" NCoef="0" IVar="2" Cut="2.4807275390625000e+02" cType="1" res="-1.7885129200294614e-03" rms="4.6394407749176025e-01" purity="4.9680611491203308e-01" nType="0">
          <Node pos="l" depth="2" NCoef="0" IVar="7" Cut="6.0000000000000000e+00" cType="1" res="2.1552923135459423e-03" rms="4.6499645709991455e-01" purity="5.0822037458419800e-01" nType="0">
            <Node pos="l" depth="3" NCoef="0" IVar="-1" Cut="0.0000000000000000e+00" cType="1" res="7.5161461718380451e-03" rms="4.6765342354774475e-01" purity="4.5979240536689758e-01" nType="-99"/>
            <Node pos="r" depth="3" NCoef="0" IVar="-1" Cut="0.0000000000000000e+00" cType="1" res="-7.9219257459044456e-03" rms="4.5943650603294373e-01" purity="6.0671871900558472e-01" nType="-99"/>
          </Node>
          <Node pos="r" depth="2" NCoef="0" IVar="5" Cut="-1.0471603870391846e+00" cType="1" res="-2.0572941750288010e-02" rms="4.5840948820114136e-01" purity="4.4251453876495361e-01" nType="0">
            <Node pos="l" depth="3" NCoef="0" IVar="-1" Cut="0.0000000000000000e+00" cType="1" res="-8.9879976585507393e-03" rms="4.4796076416969299e-01" purity="4.2356330156326294e-01" nType="-99"/>
            <Node pos="r" depth="3" NCoef="0" IVar="-1" Cut="0.0000000000000000e+00" cType="1" res="-6.9513693451881409e-03" rms="4.6568530797958374e-01" purity="4.5692765712738037e-01" nType="-99"/>
          </Node>
        </Node>
        <Node pos="r" depth="1" NCoef="0" IVar="5" Cut="1.9435123205184937e+00" cType="1" res="-2.6817012578248978e-02" rms="4.6067947149276733e-01" purity="5.2576148509979248e-01" nType="0">
          <Node pos="l" depth="2" NCoef="0" IVar="2" Cut="4.6592846679687500e+02" cType="1" res="-3.8007512688636780e-02" rms="4.6370279788970947e-01" purity="4.9335667490959167e-01" nType="0">
            <Node pos="l" depth="3" NCoef="0" IVar="-1" Cut="0.0000000000000000e+00" cType="1" res="-4.8287468962371349e-03" rms="4.5225080847740173e-01" purity="4.7417411208152771e-01" nType="-99"/>
            <Node pos="r" depth="3" NCoef="0" IVar="-1" Cut="0.0000000000000000e+00" cType="1" res="-4.1156567633152008e-02" rms="4.7496527433395386e-01" purity="5.1356148719787598e-01" nType="-99"/>
          </Node>
          <Node pos="r" depth="2" NCoef="0" IVar="-1" Cut="0.0000000000000000e+00" cType="1" res="-4.0921606123447418e-03" rms="4.5365726947784424e-01" purity="5.9132748842239380e-01" nType="-99"/>
        </Node>
      </Node>
    </BinaryTree>
    <BinaryTree type="DecisionTree" boostWeight="1.0000000000000000e+00" itree="275">
      <Node pos="s" depth="0" NCoef="0" IVar="6" Cut="2.8422815799713135e+00" cType="1" res="-7.9162018373608589e-03" rms="4.6247816085815430e-01" purity="4.9574056267738342e-01" nType="0">
        <Node pos="l" depth="1" NCoef="0" IVar="5" Cut="7.4791955947875977e-01" cType="1" res="-6.0634445399045944e-03" rms="4.6219450235366821e-01" purity="4.9989232420921326e-01" nType="0">
          <Node pos="l" depth="2" NCoef="0" IVar="5" Cut="-1.1042646169662476e+00" cType="1" res="-5.1530916243791580e-04" rms="4.6526014804840088e-01" purity="5.0260740518569946e-01" nType="0">
            <Node pos="l" depth="3" NCoef="0" IVar="-1" Cut="0.0000000000000000e+00" cType="1" res="-7.8832646831870079e-03" rms="4.6477144956588745e-01" purity="5.1204085350036621e-01" nType="-99"/>
            <Node pos="r" depth="3" NCoef="0" IVar="-1" Cut="0.0000000000000000e+00" cType="1" res="1.7989037558436394e-02" rms="4.6618163585662842e-01" purity="4.7738775610923767e-01" nType="-99"/>
          </Node>
          <Node pos="r" depth="2" NCoef="0" IVar="2" Cut="3.3401165771484375e+02" cType="1" res="-1.3398190960288048e-02" rms="4.5800706744194031e-01" purity="4.9630293250083923e-01" nType="0">
            <Node pos="l" depth="3" NCoef="0" IVar="-1" Cut="0.0000000000000000e+00" cType="1" res="-1.0732913389801979e-02" rms="4.5858058333396912e-01" purity="5.0082743167877197e-01" nType="-99"/>
            <Node pos="r" depth="3" NCoef="0" IVar="-1" Cut="0.0000000000000000e+00" cType="1" res="-9.0739438310265541e-03" rms="4.5381218194961548e-01" purity="4.6785628795623779e-01" nType="-99"/>
          </Node>
        </Node>
        <Node pos="r" depth="1" NCoef="0" IVar="5" Cut="1.0466743707656860e+00" cType="1" res="-2.4815304204821587e-02" rms="4.6471643447875977e-01" purity="4.5787230134010315e-01" nType="0">
          <Node pos="l" depth="2" NCoef="0" IVar="-1" Cut="0.0000000000000000e+00" cType="1" res="-1.8333621323108673e-02" rms="4.5420947670936584e-01" purity="3.9981412887573242e-01" nType="-99"/>
          <Node pos="r" depth="2" NCoef="0" IVar="-1" Cut="0.0000000000000000e+00" cType="1" res="-5.0122863613069057e-03" rms="4.7758558392524719e-01" purity="5.3541111946105957e-01" nType="-99"/>
        </Node>
      </Node>
    </BinaryTree>
    <BinaryTree type="DecisionTree" boostWeight="1.0000000000000000e+00" itree="276">
      <Node pos="s" depth="0" NCoef="0" IVar="5" Cut="-2.2440273761749268e+00" cType="1" res="0.0000000000000000e+00" rms="0.0000000000000000e+00" purity="5.0344985723495483e-01" nType="0">
        <Node pos="l" depth="1" NCoef="0" IVar="6" Cut="-1.3465604782104492e+00" cType="1" res="0.0000000000000000e+00" rms="0.0000000000000000e+00" purity="5.2095097303390503e-01" nType="0">
          <Node pos="l" depth="2" NCoef="0" IVar="9" Cut="4.0063351562500000e+04" cType="1" res="8.9466189965605736e-03" rms="4.8121485114097595e-01" purity="5.0887811183929443e-01" nType="0">
            <Node pos="l" depth="3" NCoef="0" IVar="-1" Cut="0.0000000000000000e+00" cType="1" res="4.7804489731788635e-02" rms="4.8221901059150696e-01" purity="4.4959264993667603e-01" nType="-99"/>
            <Node pos="r" depth="3" NCoef="0" IVar="-1" Cut="0.0000000000000000e+00" cType="1" res="-1.8445160239934921e-02" rms="4.7889244556427002e-01" purity="5.5794209241867065e-01" nType="-99"/>
          </Node>
          <Node pos="r" depth="2" NCoef="0" IVar="5" Cut="-2.7141971588134766e+00" cType="1" res="-1.7812488600611687e-02" rms="4.5007041096687317e-01" purity="5.3241646289825439e-01" nType="0">
            <Node pos="l" depth="3" NCoef="0" IVar="-1" Cut="0.0000000000000000e+00" cType="1" res="-1.4026509597897530e-03" rms="4.5753672719001770e-01" purity="5.4234939813613892e-01" nType="-99"/>
            <Node pos="r" depth="3" NCoef="0" IVar="-1" Cut="0.0000000000000000e+00" cType="1" res="-1.0280812159180641e-02" rms="4.4078484177589417e-01" purity="5.2125787734985352e-01" nType="-99"/>
          </Node>
        </Node>
        <Node pos="r" depth="1" NCoef="0" IVar="8" Cut="5.6172871093750000e+04" cType="1" res="6.2709893099963665e-03" rms="4.5982316136360168e-01" purity="4.9853134155273438e-01" nType="0">
          <Node pos="l" depth="2" NCoef="0" IVar="8" Cut="3.1088853515625000e+04" cType="1" res="0.0000000000000000e+00" rms="0.0000000000000000e+00" purity="3.7889742851257324e-01" nType="0">
            <Node pos="l" depth="3" NCoef="0" IVar="-1" Cut="0.0000000000000000e+00" cType="1" res="-5.9031089767813683e-03" rms="3.7109270691871643e-01" purity="1.7749151587486267e-01" nType="-99"/>
            <Node pos="r" depth="3" NCoef="0" IVar="-1" Cut="0.0000000000000000e+00" cType="1" res="4.2051658965647221e-03" rms="4.7109097242355347e-01" purity="4.1161185503005981e-01" nType="-99"/>
          </Node>
          <Node pos="r" depth="2" NCoef="0" IVar="5" Cut="1.0896868705749512e+00" cType="1" res="1.3688534498214722e-02" rms="4.6062186360359192e-01" purity="6.0319948196411133e-01" nType="0">
            <Node pos="l" depth="3" NCoef="0" IVar="-1" Cut="0.0000000000000000e+00" cType="1" res="3.0978025868535042e-02" rms="4.5837610960006714e-01" purity="6.1018812656402588e-01" nType="-99"/>
            <Node pos="r" depth="3" NCoef="0" IVar="-1" Cut="0.0000000000000000e+00" cType="1" res="1.9227626034989953e-03" rms="4.6198308467864990e-01" purity="5.9782701730728149e-01" nType="-99"/>
          </Node>
        </Node>
      </Node>
    </BinaryTree>
    <BinaryTree type="DecisionTree" boostWeight="1.0000000000000000e+00" itree="277">
      <Node pos="s" depth="0" NCoef="0" IVar="6" Cut="2.2438974380493164e+00" cType="1" res="0.0000000000000000e+00" rms="0.0000000000000000e+00" purity="5.0579118728637695e-01" nType="0">
        <Node pos="l" depth="1" NCoef="0" IVar="4" Cut="3.2655649185180664e+00" cType="1" res="-6.0793869197368622e-03" rms="4.5755425095558167e-01" purity="5.1039755344390869e-01" nType="0">
          <Node pos="l" depth="2" NCoef="0" IVar="3" Cut="1.2783885955810547e+01" cType="1" res="-3.2437629997730255e-03" rms="4.5921680331230164e-01" purity="5.2165961265563965e-01" nType="0">
            <Node pos="l" depth="3" NCoef="0" IVar="-1" Cut="0.0000000000000000e+00" cType="1" res="-5.7215872220695019e-03" rms="4.5940408110618591e-01" purity="5.2403557300567627e-01" nType="-99"/>
            <Node pos="r" depth="3" NCoef="0" IVar="-1" Cut="0.0000000000000000e+00" cType="1" res="5.0715211778879166e-02" rms="4.5486399531364441e-01" purity="4.8341846466064453e-01" nType="-99"/>
          </Node>
          <Node pos="r" depth="2" NCoef="0" IVar="-1" Cut="0.0000000000000000e+00" cType="1" res="-2.1024825982749462e-03" rms="4.3099445104598999e-01" purity="3.4906589984893799e-01" nType="-99"/>
        </Node>
        <Node pos="r" depth="1" NCoef="0" IVar="2" Cut="1.8625393676757812e+02" cType="1" res="1.9011879339814186e-02" rms="4.7931820154190063e-01" purity="4.9178010225296021e-01" nType="0">
          <Node pos="l" depth="2" NCoef="0" IVar="4" Cut="2.0095915794372559e+00" cType="1" res="-2.0594787783920765e-03" rms="4.7812440991401672e-01" purity="4.5363423228263855e-01" nType="0">
            <Node pos="l" depth="3" NCoef="0" IVar="-1" Cut="0.0000000000000000e+00" cType="1" res="2.7738865464925766e-02" rms="4.8198544979095459e-01" purity="4.7624725103378296e-01" nType="-99"/>
            <Node pos="r" depth="3" NCoef="0" IVar="-1" Cut="0.0000000000000000e+00" cType="1" res="-3.2823730260133743e-02" rms="4.7257921099662781e-01" purity="4.2959824204444885e-01" nType="-99"/>
          </Node>
          <Node pos="r" depth="2" NCoef="0" IVar="5" Cut="1.3457019329071045e+00" cType="1" res="3.4987550228834152e-02" rms="4.7960472106933594e-01" purity="5.2070111036300659e-01" nType="0">
            <Node pos="l" depth="3" NCoef="0" IVar="-1" Cut="0.0000000000000000e+00" cType="1" res="6.0985009185969830e-03" rms="4.6845531463623047e-01" purity="4.6358615159988403e-01" nType="-99"/>
            <Node pos="r" depth="3" NCoef="0" IVar="-1" Cut="0.0000000000000000e+00" cType="1" res="6.5134339034557343e-02" rms="4.8711177706718445e-01" purity="5.6711840629577637e-01" nType="-99"/>
          </Node>
        </Node>
      </Node>
    </BinaryTree>
    <BinaryTree type="DecisionTree" boostWeight="1.0000000000000000e+00" itree="278">
      <Node pos="s" depth="0" NCoef="0" IVar="6" Cut="7.4789702892303467e-01" cType="1" res="-5.4092765785753727e-03" rms="4.6217152476310730e-01" purity="4.9921506643295288e-01" nType="0">
        <Node pos="l" depth="1" NCoef="0" IVar="4" Cut="2.4652798175811768e+00" cType="1" res="1.1151274666190147e-03" rms="4.6153238415718079e-01" purity="5.2012699842453003e-01" nType="0">
          <Node pos="l" depth="2" NCoef="0" IVar="3" Cut="8.3405895233154297e+00" cType="1" res="-5.1040961407124996e-03" rms="4.6083325147628784e-01" purity="4.9916628003120422e-01" nType="0">
            <Node pos="l" depth="3" NCoef="0" IVar="-1" Cut="0.0000000000000000e+00" cType="1" res="8.2067906623706222e-04" rms="4.6370023488998413e-01" purity="5.0708067417144775e-01" nType="-99"/>
            <Node pos="r" depth="3" NCoef="0" IVar="-1" Cut="0.0000000000000000e+00" cType="1" res="-4.4159159064292908e-02" rms="4.4811114668846130e-01" purity="4.6679279208183289e-01" nType="-99"/>
          </Node>
          <Node pos="r" depth="2" NCoef="0" IVar="6" Cut="-2.0302836894989014e+00" cType="1" res="0.0000000000000000e+00" rms="0.0000000000000000e+00" purity="5.6341224908828735e-01" nType="0">
            <Node pos="l" depth="3" NCoef="0" IVar="-1" Cut="0.0000000000000000e+00" cType="1" res="3.9252876304090023e-03" rms="4.7837466001510620e-01" purity="5.0297027826309204e-01" nType="-99"/>
            <Node pos="r" depth="3" NCoef="0" IVar="-1" Cut="0.0000000000000000e+00" cType="1" res="3.0523002147674561e-02" rms="4.4288927316665649e-01" purity="6.3591122627258301e-01" nType="-99"/>
          </Node>
        </Node>
        <Node pos="r" depth="1" NCoef="0" IVar="6" Cut="1.4317572116851807e+00" cType="1" res="-1.3792272657155991e-02" rms="4.6285647153854370e-01" purity="4.7234591841697693e-01" nType="0">
          <Node pos="l" depth="2" NCoef="0" IVar="-1" Cut="0.0000000000000000e+00" cType="1" res="-2.9827861580997705e-03" rms="4.2008540034294128e-01" purity="4.5023027062416077e-01" nType="-99"/>
          <Node pos="r" depth="2" NCoef="0" IVar="4" Cut="2.1497745513916016e+00" cType="1" res="-6.3937944360077381e-03" rms="4.7172564268112183e-01" purity="4.7737315297126770e-01" nType="0">
            <Node pos="l" depth="3" NCoef="0" IVar="-1" Cut="0.0000000000000000e+00" cType="1" res="-1.8506197258830070e-02" rms="4.7228047251701355e-01" purity="4.6002504229545593e-01" nType="-99"/>
            <Node pos="r" depth="3" NCoef="0" IVar="-1" Cut="0.0000000000000000e+00" cType="1" res="6.6000819206237793e-03" rms="4.7071397304534912e-01" purity="4.9952897429466248e-01" nType="-99"/>
          </Node>
        </Node>
      </Node>
    </BinaryTree>
    <BinaryTree type="DecisionTree" boostWeight="1.0000000000000000e+00" itree="279">
      <Node pos="s" depth="0" NCoef="0" IVar="6" Cut="2.2438936233520508e+00" cType="1" res="-7.3625948280096054e-03" rms="4.6115931868553162e-01" purity="4.9905392527580261e-01" nType="0">
        <Node pos="l" depth="1" NCoef="0" IVar="5" Cut="1.6452038288116455e+00" cType="1" res="0.0000000000000000e+00" rms="0.0000000000000000e+00" purity="5.1317542791366577e-01" nType="0">
          <Node pos="l" depth="2" NCoef="0" IVar="4" Cut="8.7597668170928955e-01" cType="1" res="-8.9566875249147415e-03" rms="4.6187454462051392e-01" purity="4.9976041913032532e-01" nType="0">
            <Node pos="l" depth="3" NCoef="0" IVar="-1" Cut="0.0000000000000000e+00" cType="1" res="1.7488228157162666e-02" rms="4.6655571460723877e-01" purity="4.6041378378868103e-01" nType="-99"/>
            <Node pos="r" depth="3" NCoef="0" IVar="-1" Cut="0.0000000000000000e+00" cType="1" res="-1.0652169585227966e-02" rms="4.6087130904197693e-01" purity="5.0703227519989014e-01" nType="-99"/>
          </Node>
          <Node pos="r" depth="2" NCoef="0" IVar="6" Cut="1.4737925529479980e+00" cType="1" res="9.6088396385312080e-03" rms="4.5096442103385925e-01" purity="5.4619330167770386e-01" nType="0">
            <Node pos="l" depth="3" NCoef="0" IVar="-1" Cut="0.0000000000000000e+00" cType="1" res="2.6935574132949114e-03" rms="4.4239103794097900e-01" purity="5.7359981536865234e-01" nType="-99"/>
            <Node pos="r" depth="3" NCoef="0" IVar="-1" Cut="0.0000000000000000e+00" cType="1" res="3.5805512219667435e-02" rms="4.7107690572738647e-01" purity="4.7809335589408875e-01" nType="-99"/>
          </Node>
        </Node>
        <Node pos="r" depth="1" NCoef="0" IVar="3" Cut="5.0471272468566895e+00" cType="1" res="-1.8249589949846268e-02" rms="4.6766123175621033e-01" purity="4.5827060937881470e-01" nType="0">
          <Node pos="l" depth="2" NCoef="0" IVar="1" Cut="1.4602029687500000e+05" cType="1" res="-3.6034073680639267e-02" rms="4.6931895613670349e-01" purity="4.2047071456909180e-01" nType="0">
            <Node pos="l" depth="3" NCoef="0" IVar="-1" Cut="0.0000000000000000e+00" cType="1" res="-1.7199983820319176e-02" rms="4.6340554952621460e-01" purity="3.9110234379768372e-01" nType="-99"/>
            <Node pos="r" depth="3" NCoef="0" IVar="-1" Cut="0.0000000000000000e+00" cType="1" res="-1.1434092884883285e-03" rms="4.7563636302947998e-01" purity="4.6296730637550354e-01" nType="-99"/>
          </Node>
          <Node pos="r" depth="2" NCoef="0" IVar="6" Cut="2.6714746952056885e+00" cType="1" res="4.7605019062757492e-04" rms="4.6517515182495117e-01" purity="4.9807086586952209e-01" nType="0">
            <Node pos="l" depth="3" NCoef="0" IVar="-1" Cut="0.0000000000000000e+00" cType="1" res="-2.9535310342907906e-02" rms="4.6232181787490845e-01" purity="4.8645207285881042e-01" nType="-99"/>
            <Node pos="r" depth="3" NCoef="0" IVar="-1" Cut="0.0000000000000000e+00" cType="1" res="7.2958436794579029e-03" rms="4.6617269515991211e-01" purity="5.0388932228088379e-01" nType="-99"/>
          </Node>
        </Node>
      </Node>
    </BinaryTree>
    <BinaryTree type="DecisionTree" boostWeight="1.0000000000000000e+00" itree="280">
      <Node pos="s" depth="0" NCoef="0" IVar="4" Cut="3.0050628185272217e+00" cType="1" res="0.0000000000000000e+00" rms="0.0000000000000000e+00" purity="5.0208067893981934e-01" nType="0">
        <Node pos="l" depth="1" NCoef="0" IVar="5" Cut="1.4951923489570618e-01" cType="1" res="4.2777898488566279e-04" rms="4.6509602665901184e-01" purity="5.1103901863098145e-01" nType="0">
          <Node pos="l" depth="2" NCoef="0" IVar="6" Cut="1.4955864846706390e-01" cType="1" res="7.3065822944045067e-03" rms="4.6581223607063293e-01" purity="5.1112049818038940e-01" nType="0">
            <Node pos="l" depth="3" NCoef="0" IVar="-1" Cut="0.0000000000000000e+00" cType="1" res="2.7662105858325958e-03" rms="4.7003492712974548e-01" purity="4.7239345312118530e-01" nType="-99"/>
            <Node pos="r" depth="3" NCoef="0" IVar="-1" Cut="0.0000000000000000e+00" cType="1" res="2.7198001742362976e-02" rms="4.5229074358940125e-01" purity="6.3031131029129028e-01" nType="-99"/>
          </Node>
          <Node pos="r" depth="2" NCoef="0" IVar="5" Cut="1.1472283601760864e+00" cType="1" res="-6.7902551963925362e-03" rms="4.6423369646072388e-01" purity="5.1095342636108398e-01" nType="0">
            <Node pos="l" depth="3" NCoef="0" IVar="-1" Cut="0.0000000000000000e+00" cType="1" res="-3.2650895416736603e-02" rms="4.6361997723579407e-01" purity="4.4650211930274963e-01" nType="-99"/>
            <Node pos="r" depth="3" NCoef="0" IVar="-1" Cut="0.0000000000000000e+00" cType="1" res="-2.0334317814558744e-03" rms="4.6426075696945190e-01" purity="5.2746087312698364e-01" nType="-99"/>
          </Node>
        </Node>
        <Node pos="r" depth="1" NCoef="0" IVar="5" Cut="1.9446071386337280e+00" cType="1" res="-2.6864945888519287e-02" rms="4.5842531323432922e-01" purity="4.4900894165039062e-01" nType="0">
          <Node pos="l" depth="2" NCoef="0" IVar="9" Cut="4.3270535156250000e+04" cType="1" res="-4.1814394295215607e-02" rms="4.5620721578598022e-01" purity="4.2399325966835022e-01" nType="0">
            <Node pos="l" depth="3" NCoef="0" IVar="-1" Cut="0.0000000000000000e+00" cType="1" res="-3.7201633676886559e-03" rms="4.4940811395645142e-01" purity="3.5363060235977173e-01" nType="-99"/>
            <Node pos="r" depth="3" NCoef="0" IVar="-1" Cut="0.0000000000000000e+00" cType="1" res="-5.9612323530018330e-03" rms="4.6191790699958801e-01" purity="5.0600653886795044e-01" nType="-99"/>
          </Node>
          <Node pos="r" depth="2" NCoef="0" IVar="-1" Cut="0.0000000000000000e+00" cType="1" res="1.0124106891453266e-02" rms="4.6178919076919556e-01" purity="5.1079708337783813e-01" nType="-99"/>
        </Node>
      </Node>
    </BinaryTree>
    <BinaryTree type="DecisionTree" boostWeight="1.0000000000000000e+00" itree="281">
      <Node pos="s" depth="0" NCoef="0" IVar="6" Cut="7.4794220924377441e-01" cType="1" res="0.0000000000000000e+00" rms="0.0000000000000000e+00" purity="4.9322310090065002e-01" nType="0">
        <Node pos="l" depth="1" NCoef="0" IVar="8" Cut="1.1525073437500000e+05" cType="1" res="3.1219429802149534e-03" rms="4.6257612109184265e-01" purity="5.1880007982254028e-01" nType="0">
          <Node pos="l" depth="2" NCoef="0" IVar="5" Cut="-2.5430648326873779e+00" cType="1" res="5.8414326049387455e-03" rms="4.6624064445495605e-01" purity="4.9459886550903320e-01" nType="0">
            <Node pos="l" depth="3" NCoef="0" IVar="-1" Cut="0.0000000000000000e+00" cType="1" res="3.7724010646343231e-02" rms="4.7426018118858337e-01" purity="5.0790148973464966e-01" nType="-99"/>
            <Node pos="r" depth="3" NCoef="0" IVar="-1" Cut="0.0000000000000000e+00" cType="1" res="-6.2190415337681770e-04" rms="4.6394312381744385e-01" purity="4.9118551611900330e-01" nType="-99"/>
          </Node>
          <Node pos="r" depth="2" NCoef="0" IVar="-1" Cut="0.0000000000000000e+00" cType="1" res="-1.8882229924201965e-02" rms="4.3715783953666687e-01" purity="6.7876529693603516e-01" nType="-99"/>
        </Node>
        <Node pos="r" depth="1" NCoef="0" IVar="4" Cut="2.9344499111175537e+00" cType="1" res="-2.4961858987808228e-02" rms="4.5879426598548889e-01" purity="4.6169012784957886e-01" nType="0">
          <Node pos="l" depth="2" NCoef="0" IVar="4" Cut="2.5278339385986328e+00" cType="1" res="-5.8703068643808365e-03" rms="4.6461483836174011e-01" purity="4.8936066031455994e-01" nType="0">
            <Node pos="l" depth="3" NCoef="0" IVar="-1" Cut="0.0000000000000000e+00" cType="1" res="9.8722625989466906e-04" rms="4.6581345796585083e-01" purity="4.8647522926330566e-01" nType="-99"/>
            <Node pos="r" depth="3" NCoef="0" IVar="-1" Cut="0.0000000000000000e+00" cType="1" res="-1.5949588268995285e-02" rms="4.5743474364280701e-01" purity="5.0320088863372803e-01" nType="-99"/>
          </Node>
          <Node pos="r" depth="2" NCoef="0" IVar="-1" Cut="0.0000000000000000e+00" cType="1" res="-3.5427969414740801e-03" rms="4.2646703124046326e-01" purity="3.5155433416366577e-01" nType="-99"/>
        </Node>
      </Node>
    </BinaryTree>
    <BinaryTree type="DecisionTree" boostWeight="1.0000000000000000e+00" itree="282">
      <Node pos="s" depth="0" NCoef="0" IVar="5" Cut="-1.3463526964187622e+00" cType="1" res="-2.7016119565814734e-03" rms="4.6162259578704834e-01" purity="5.0245571136474609e-01" nType="0">
        <Node pos="l" depth="1" NCoef="0" IVar="4" Cut="2.4543168544769287e+00" cType="1" res="8.8506666943430901e-03" rms="4.6523633599281311e-01" purity="5.3251397609710693e-01" nType="0">
          <Node pos="l" depth="2" NCoef="0" IVar="5" Cut="-2.0303065776824951e+00" cType="1" res="1.8498422577977180e-02" rms="4.6777433156967163e-01" purity="5.3473812341690063e-01" nType="0">
            <Node pos="l" depth="3" NCoef="0" IVar="-1" Cut="0.0000000000000000e+00" cType="1" res="1.1662828736007214e-02" rms="4.6877744793891907e-01" purity="5.3494173288345337e-01" nType="-99"/>
            <Node pos="r" depth="3" NCoef="0" IVar="-1" Cut="0.0000000000000000e+00" cType="1" res="4.8363912850618362e-02" rms="4.6487635374069214e-01" purity="5.3425979614257812e-01" nType="-99"/>
          </Node>
          <Node pos="r" depth="2" NCoef="0" IVar="6" Cut="-7.4796831607818604e-01" cType="1" res="-9.5276711508631706e-03" rms="4.5980316400527954e-01" purity="5.2827703952789307e-01" nType="0">
            <Node pos="l" depth="3" NCoef="0" IVar="-1" Cut="0.0000000000000000e+00" cType="1" res="-8.6710359901189804e-03" rms="4.6464282274246216e-01" purity="4.7024986147880554e-01" nType="-99"/>
            <Node pos="r" depth="3" NCoef="0" IVar="-1" Cut="0.0000000000000000e+00" cType="1" res="2.3844327777624130e-02" rms="4.4872549176216125e-01" purity="6.4450138807296753e-01" nType="-99"/>
          </Node>
        </Node>
        <Node pos="r" depth="1" NCoef="0" IVar="5" Cut="1.0043911933898926e+00" cType="1" res="-9.3732364475727081e-03" rms="4.5939034223556519e-01" purity="4.8509654402732849e-01" nType="0">
          <Node pos="l" depth="2" NCoef="0" IVar="6" Cut="2.2438969612121582e+00" cType="1" res="-2.6184380054473877e-02" rms="4.5881843566894531e-01" purity="4.2547178268432617e-01" nType="0">
            <Node pos="l" depth="3" NCoef="0" IVar="-1" Cut="0.0000000000000000e+00" cType="1" res="-1.0260767303407192e-02" rms="4.6085715293884277e-01" purity="4.6550622582435608e-01" nType="-99"/>
            <Node pos="r" depth="3" NCoef="0" IVar="-1" Cut="0.0000000000000000e+00" cType="1" res="-5.9227342717349529e-03" rms="4.5355579257011414e-01" purity="3.4697669744491577e-01" nType="-99"/>
          </Node>
          <Node pos="r" depth="2" NCoef="0" IVar="7" Cut="6.0000000000000000e+00" cType="1" res="2.5112528237514198e-04" rms="4.5943918824195862e-01" purity="5.1922380924224854e-01" nType="0">
            <Node pos="l" depth="3" NCoef="0" IVar="-1" Cut="0.0000000000000000e+00" cType="1" res="-3.2787714153528214e-03" rms="4.6149009466171265e-01" purity="4.7670584917068481e-01" nType="-99"/>
            <Node pos="r" depth="3" NCoef="0" IVar="-1" Cut="0.0000000000000000e+00" cType="1" res="1.6791744157671928e-02" rms="4.5350050926208496e-01" purity="6.3535815477371216e-01" nType="-99"/>
          </Node>
        </Node>
      </Node>
    </BinaryTree>
    <BinaryTree type="DecisionTree" boostWeight="1.0000000000000000e+00" itree="283">
      <Node pos="s" depth="0" NCoef="0" IVar="4" Cut="2.9740247726440430e+00" cType="1" res="-9.6376333385705948e-03" rms="4.6257960796356201e-01" purity="4.9358215928077698e-01" nType="0">
        <Node pos="l" depth="1" NCoef="0" IVar="4" Cut="1.5940597057342529e+00" cType="1" res="-3.3704207744449377e-03" rms="4.6411910653114319e-01" purity="5.0325149297714233e-01" nType="0">
          <Node pos="l" depth="2" NCoef="0" IVar="6" Cut="1.6452823877334595e+00" cType="1" res="-1.2652721256017685e-02" rms="4.6259313821792603e-01" purity="4.5910567045211792e-01" nType="0">
            <Node pos="l" depth="3" NCoef="0" IVar="-1" Cut="0.0000000000000000e+00" cType="1" res="-6.9600325077772141e-03" rms="4.5800751447677612e-01" purity="4.7348666191101074e-01" nType="-99"/>
            <Node pos="r" depth="3" NCoef="0" IVar="-1" Cut="0.0000000000000000e+00" cType="1" res="-2.9279075562953949e-02" rms="4.7189465165138245e-01" purity="4.2823335528373718e-01" nType="-99"/>
          </Node>
          <Node pos="r" depth="2" NCoef="0" IVar="5" Cut="-2.5430648326873779e+00" cType="1" res="5.0451140850782394e-03" rms="4.6533823013305664e-01" purity="5.4327511787414551e-01" nType="0">
            <Node pos="l" depth="3" NCoef="0" IVar="-1" Cut="0.0000000000000000e+00" cType="1" res="3.3205520361661911e-02" rms="4.6488666534423828e-01" purity="6.3431793451309204e-01" nType="-99"/>
            <Node pos="r" depth="3" NCoef="0" IVar="-1" Cut="0.0000000000000000e+00" cType="1" res="3.9872198249213398e-04" rms="4.6526271104812622e-01" purity="5.2737903594970703e-01" nType="-99"/>
          </Node>
        </Node>
        <Node pos="r" depth="1" NCoef="0" IVar="2" Cut="2.3951251220703125e+02" cType="1" res="0.0000000000000000e+00" rms="0.0000000000000000e+00" purity="4.4317895174026489e-01" nType="0">
          <Node pos="l" depth="2" NCoef="0" IVar="2" Cut="1.7825569152832031e+02" cType="1" res="-5.6234989315271378e-02" rms="4.5545837283134460e-01" purity="4.3318027257919312e-01" nType="0">
            <Node pos="l" depth="3" NCoef="0" IVar="-1" Cut="0.0000000000000000e+00" cType="1" res="1.3188710436224937e-02" rms="4.6109572052955627e-01" purity="5.2775758504867554e-01" nType="-99"/>
            <Node pos="r" depth="3" NCoef="0" IVar="-1" Cut="0.0000000000000000e+00" cType="1" res="-4.2286380194127560e-03" rms="4.3944481015205383e-01" purity="3.3876630663871765e-01" nType="-99"/>
          </Node>
          <Node pos="r" depth="2" NCoef="0" IVar="-1" Cut="0.0000000000000000e+00" cType="1" res="-2.2834797855466604e-03" rms="4.4573867321014404e-01" purity="4.6655032038688660e-01" nType="-99"/>
        </Node>
      </Node>
    </BinaryTree>
    <BinaryTree type="DecisionTree" boostWeight="1.0000000000000000e+00" itree="284">
      <Node pos="s" depth="0" NCoef="0" IVar="5" Cut="-2.2440490722656250e+00" cType="1" res="0.0000000000000000e+00" rms="0.0000000000000000e+00" purity="4.9957445263862610e-01" nType="0">
        <Node pos="l" depth="1" NCoef="0" IVar="4" Cut="1.3974640369415283e+00" cType="1" res="0.0000000000000000e+00" rms="0.0000000000000000e+00" purity="5.1608812808990479e-01" nType="0">
          <Node pos="l" depth="2" NCoef="0" IVar="-1" Cut="0.0000000000000000e+00" cType="1" res="-3.8572089397348464e-04" rms="4.6972140669822693e-01" purity="4.8909023404121399e-01" nType="-99"/>
          <Node pos="r" depth="2" NCoef="0" IVar="6" Cut="-4.4832590222358704e-01" cType="1" res="-3.7865899503231049e-02" rms="4.6716386079788208e-01" purity="5.3019398450851440e-01" nType="0">
            <Node pos="l" depth="3" NCoef="0" IVar="-1" Cut="0.0000000000000000e+00" cType="1" res="-1.9786819815635681e-02" rms="4.7742521762847900e-01" purity="5.1384574174880981e-01" nType="-99"/>
            <Node pos="r" depth="3" NCoef="0" IVar="-1" Cut="0.0000000000000000e+00" cType="1" res="-1.8577741459012032e-02" rms="4.4536319375038147e-01" purity="5.6005829572677612e-01" nType="-99"/>
          </Node>
        </Node>
        <Node pos="r" depth="1" NCoef="0" IVar="3" Cut="-6.7365801334381104e-01" cType="1" res="1.1010596062988043e-03" rms="4.6225562691688538e-01" purity="4.9487370252609253e-01" nType="0">
          <Node pos="l" depth="2" NCoef="0" IVar="-1" Cut="0.0000000000000000e+00" cType="1" res="2.1502774208784103e-02" rms="4.6787521243095398e-01" purity="4.6060255169868469e-01" nType="-99"/>
          <Node pos="r" depth="2" NCoef="0" IVar="6" Cut="-2.5430593490600586e+00" cType="1" res="-1.1141017312183976e-03" rms="4.6171164512634277e-01" purity="4.9775418639183044e-01" nType="0">
            <Node pos="l" depth="3" NCoef="0" IVar="-1" Cut="0.0000000000000000e+00" cType="1" res="2.0541267469525337e-02" rms="4.6964615583419800e-01" purity="4.6380576491355896e-01" nType="-99"/>
            <Node pos="r" depth="3" NCoef="0" IVar="-1" Cut="0.0000000000000000e+00" cType="1" res="-2.7195173315703869e-03" rms="4.5989412069320679e-01" purity="5.0506222248077393e-01" nType="-99"/>
          </Node>
        </Node>
      </Node>
    </BinaryTree>
    <BinaryTree type="DecisionTree" boostWeight="1.0000000000000000e+00" itree="285">
      <Node pos="s" depth="0" NCoef="0" IVar="9" Cut="5.9038429687500000e+04" cType="1" res="-5.7152430526912212e-03" rms="4.6285796165466309e-01" purity="5.0032657384872437e-01" nType="0">
        <Node pos="l" depth="1" NCoef="0" IVar="9" Cut="3.6346718750000000e+04" cType="1" res="-1.2556581059470773e-03" rms="4.6701109409332275e-01" purity="4.5112779736518860e-01" nType="0">
          <Node pos="l" depth="2" NCoef="0" IVar="4" Cut="1.1129579544067383e+00" cType="1" res="8.3331214264035225e-03" rms="4.5888802409172058e-01" purity="3.7636032700538635e-01" nType="0">
            <Node pos="l" depth="3" NCoef="0" IVar="-1" Cut="0.0000000000000000e+00" cType="1" res="-2.3850897327065468e-02" rms="4.4383585453033447e-01" purity="2.9933205246925354e-01" nType="-99"/>
            <Node pos="r" depth="3" NCoef="0" IVar="-1" Cut="0.0000000000000000e+00" cType="1" res="1.0192004032433033e-02" rms="4.6284487843513489e-01" purity="3.9822366833686829e-01" nType="-99"/>
          </Node>
          <Node pos="r" depth="2" NCoef="0" IVar="3" Cut="7.4318189620971680e+00" cType="1" res="-1.1915106326341629e-02" rms="4.7565165162086487e-01" purity="5.3424376249313354e-01" nType="0">
            <Node pos="l" depth="3" NCoef="0" IVar="-1" Cut="0.0000000000000000e+00" cType="1" res="-3.9728293195366859e-03" rms="4.7801461815834045e-01" purity="5.4135990142822266e-01" nType="-99"/>
            <Node pos="r" depth="3" NCoef="0" IVar="-1" Cut="0.0000000000000000e+00" cType="1" res="-4.8717640340328217e-02" rms="4.6677449345588684e-01" purity="5.1085460186004639e-01" nType="-99"/>
          </Node>
        </Node>
        <Node pos="r" depth="1" NCoef="0" IVar="5" Cut="1.3461091518402100e+00" cType="1" res="-1.8889945000410080e-02" rms="4.5010691881179810e-01" purity="6.4567154645919800e-01" nType="0">
          <Node pos="l" depth="2" NCoef="0" IVar="5" Cut="-1.6458157300949097e+00" cType="1" res="-3.3551882952451706e-02" rms="4.5611810684204102e-01" purity="6.1967724561691284e-01" nType="0">
            <Node pos="l" depth="3" NCoef="0" IVar="-1" Cut="0.0000000000000000e+00" cType="1" res="-5.8082542382180691e-03" rms="4.4981443881988525e-01" purity="6.6742724180221558e-01" nType="-99"/>
            <Node pos="r" depth="3" NCoef="0" IVar="-1" Cut="0.0000000000000000e+00" cType="1" res="-7.7513749711215496e-03" rms="4.6213138103485107e-01" purity="5.4861891269683838e-01" nType="-99"/>
          </Node>
          <Node pos="r" depth="2" NCoef="0" IVar="5" Cut="2.5436174869537354e+00" cType="1" res="3.0970410443842411e-03" rms="4.4002437591552734e-01" purity="6.8465262651443481e-01" nType="0">
            <Node pos="l" depth="3" NCoef="0" IVar="-1" Cut="0.0000000000000000e+00" cType="1" res="2.4403767660260201e-02" rms="4.3575066328048706e-01" purity="6.9853758811950684e-01" nType="-99"/>
            <Node pos="r" depth="3" NCoef="0" IVar="-1" Cut="0.0000000000000000e+00" cType="1" res="-2.3847531527280807e-02" rms="4.4333100318908691e-01" purity="6.7036712169647217e-01" nType="-99"/>
          </Node>
        </Node>
      </Node>
    </BinaryTree>
    <BinaryTree type="DecisionTree" boostWeight="1.0000000000000000e+00" itree="286">
      <Node pos="s" depth="0" NCoef="0" IVar="4" Cut="2.4652798175811768e+00" cType="1" res="-2.2052060812711716e-03" rms="4.6316924691200256e-01" purity="5.0098609924316406e-01" nType="0">
        <Node pos="l" depth="1" NCoef="0" IVar="6" Cut="1.4955864846706390e-01" cType="1" res="6.2646465376019478e-03" rms="4.6517553925514221e-01" purity="5.0004911422729492e-01" nType="0">
          <Node pos="l" depth="2" NCoef="0" IVar="4" Cut="7.5971657037734985e-01" cType="1" res="-7.2878720238804817e-03" rms="4.6436053514480591e-01" purity="4.9257516860961914e-01" nType="0">
            <Node pos="l" depth="3" NCoef="0" IVar="-1" Cut="0.0000000000000000e+00" cType="1" res="1.8064817413687706e-02" rms="4.6599858999252319e-01" purity="4.6726396679878235e-01" nType="-99"/>
            <Node pos="r" depth="3" NCoef="0" IVar="-1" Cut="0.0000000000000000e+00" cType="1" res="-1.3328487984836102e-02" rms="4.6389082074165344e-01" purity="4.9785473942756653e-01" nType="-99"/>
          </Node>
          <Node pos="r" depth="2" NCoef="0" IVar="9" Cut="4.6565867187500000e+04" cType="1" res="2.0289896056056023e-02" rms="4.6560230851173401e-01" purity="5.0778371095657349e-01" nType="0">
            <Node pos="l" depth="3" NCoef="0" IVar="-1" Cut="0.0000000000000000e+00" cType="1" res="3.0299928039312363e-02" rms="4.6962326765060425e-01" purity="4.2922496795654297e-01" nType="-99"/>
            <Node pos="r" depth="3" NCoef="0" IVar="-1" Cut="0.0000000000000000e+00" cType="1" res="9.0581085532903671e-03" rms="4.5904430747032166e-01" purity="6.2930518388748169e-01" nType="-99"/>
          </Node>
        </Node>
        <Node pos="r" depth="1" NCoef="0" IVar="6" Cut="2.2439100742340088e+00" cType="1" res="-1.9100405275821686e-02" rms="4.5867407321929932e-01" purity="5.0285530090332031e-01" nType="0">
          <Node pos="l" depth="2" NCoef="0" IVar="3" Cut="6.4942903518676758e+00" cType="1" res="-6.9498727098107338e-03" rms="4.5869034528732300e-01" purity="5.3648591041564941e-01" nType="0">
            <Node pos="l" depth="3" NCoef="0" IVar="-1" Cut="0.0000000000000000e+00" cType="1" res="-8.9975567534565926e-03" rms="4.6516984701156616e-01" purity="5.0774294137954712e-01" nType="-99"/>
            <Node pos="r" depth="3" NCoef="0" IVar="-1" Cut="0.0000000000000000e+00" cType="1" res="1.6135644167661667e-02" rms="4.4136980175971985e-01" purity="6.0830599069595337e-01" nType="-99"/>
          </Node>
          <Node pos="r" depth="2" NCoef="0" IVar="5" Cut="1.3452743291854858e+00" cType="1" res="-5.0199169665575027e-02" rms="4.5716378092765808e-01" purity="4.1677930951118469e-01" nType="0">
            <Node pos="l" depth="3" NCoef="0" IVar="-1" Cut="0.0000000000000000e+00" cType="1" res="-4.7612944617867470e-03" rms="4.4361293315887451e-01" purity="3.6334195733070374e-01" nType="-99"/>
            <Node pos="r" depth="3" NCoef="0" IVar="-1" Cut="0.0000000000000000e+00" cType="1" res="-1.8027238547801971e-02" rms="4.6779379248619080e-01" purity="4.6894299983978271e-01" nType="-99"/>
          </Node>
        </Node>
      </Node>
    </BinaryTree>
    <BinaryTree type="DecisionTree" boostWeight="1.0000000000000000e+00" itree="287">
      <Node pos="s" depth="0" NCoef="0" IVar="3" Cut="1.3827627182006836e+01" cType="1" res="-1.2716915225610137e-03" rms="4.6314990520477295e-01" purity="5.0460994243621826e-01" nType="0">
        <Node pos="l" depth="1" NCoef="0" IVar="4" Cut="3.2201938629150391e+00" cType="1" res="-2.9892663005739450e-03" rms="4.6359661221504211e-01" purity="5.0606960058212280e-01" nType="0">
          <Node pos="l" depth="2" NCoef="0" IVar="4" Cut="2.6211769580841064e+00" cType="1" res="-4.7544902190566063e-03" rms="4.6382915973663330e-01" purity="5.1155555248260498e-01" nType="0">
            <Node pos="l" depth="3" NCoef="0" IVar="-1" Cut="0.0000000000000000e+00" cType="1" res="9.9533109460026026e-04" rms="4.6496558189392090e-01" purity="5.0357872247695923e-01" nType="-99"/>
            <Node pos="r" depth="3" NCoef="0" IVar="-1" Cut="0.0000000000000000e+00" cType="1" res="-1.8539743497967720e-02" rms="4.5963704586029053e-01" purity="5.3750610351562500e-01" nType="-99"/>
          </Node>
          <Node pos="r" depth="2" NCoef="0" IVar="-1" Cut="0.0000000000000000e+00" cType="1" res="1.8744172528386116e-02" rms="4.5950618386268616e-01" purity="4.2743983864784241e-01" nType="-99"/>
        </Node>
        <Node pos="r" depth="1" NCoef="0" IVar="-1" Cut="0.0000000000000000e+00" cType="1" res="3.8940299302339554e-02" rms="4.5218667387962341e-01" purity="4.7401633858680725e-01" nType="-99"/>
      </Node>
    </BinaryTree>
    <BinaryTree type="DecisionTree" boostWeight="1.0000000000000000e+00" itree="288">
      <Node pos="s" depth="0" NCoef="0" IVar="2" Cut="4.8189349365234375e+02" cType="1" res="-5.1506147719919682e-03" rms="4.6349188685417175e-01" purity="4.9564889073371887e-01" nType="0">
        <Node pos="l" depth="1" NCoef="0" IVar="4" Cut="3.2655649185180664e+00" cType="1" res="-7.1173966862261295e-03" rms="4.6318477392196655e-01" purity="4.8978000879287720e-01" nType="0">
          <Node pos="l" depth="2" NCoef="0" IVar="4" Cut="2.1984920501708984e+00" cType="1" res="0.0000000000000000e+00" rms="0.0000000000000000e+00" purity="4.9820235371589661e-01" nType="0">
            <Node pos="l" depth="3" NCoef="0" IVar="-1" Cut="0.0000000000000000e+00" cType="1" res="-1.6756417462602258e-03" rms="4.6390292048454285e-01" purity="4.8177716135978699e-01" nType="-99"/>
            <Node pos="r" depth="3" NCoef="0" IVar="-1" Cut="0.0000000000000000e+00" cType="1" res="-7.7571026049554348e-03" rms="4.6654063463211060e-01" purity="5.2584630250930786e-01" nType="-99"/>
          </Node>
          <Node pos="r" depth="2" NCoef="0" IVar="-1" Cut="0.0000000000000000e+00" cType="1" res="-1.0163217782974243e-02" rms="4.3276622891426086e-01" purity="3.5281929373741150e-01" nType="-99"/>
        </Node>
        <Node pos="r" depth="1" NCoef="0" IVar="-1" Cut="0.0000000000000000e+00" cType="1" res="3.5504858940839767e-02" rms="4.6746349334716797e-01" purity="5.9711933135986328e-01" nType="-99"/>
      </Node>
    </BinaryTree>
    <BinaryTree type="DecisionTree" boostWeight="1.0000000000000000e+00" itree="289">
      <Node pos="s" depth="0" NCoef="0" IVar="4" Cut="2.1928749084472656e+00" cType="1" res="0.0000000000000000e+00" rms="0.0000000000000000e+00" purity="5.0034648180007935e-01" nType="0">
        <Node pos="l" depth="1" NCoef="0" IVar="6" Cut="1.9447027444839478e+00" cType="1" res="-7.6278871856629848e-03" rms="4.6444904804229736e-01" purity="4.7895398736000061e-01" nType="0">
          <Node pos="l" depth="2" NCoef="0" IVar="9" Cut="5.9038429687500000e+04" cType="1" res="0.0000000000000000e+00" rms="0.0000000000000000e+00" purity="4.9333286285400391e-01" nType="0">
            <Node pos="l" depth="3" NCoef="0" IVar="-1" Cut="0.0000000000000000e+00" cType="1" res="-7.3671713471412659e-03" rms="4.6576842665672302e-01" purity="4.2829060554504395e-01" nType="-99"/>
            <Node pos="r" depth="3" NCoef="0" IVar="-1" Cut="0.0000000000000000e+00" cType="1" res="8.0470684915781021e-03" rms="4.5019191503524780e-01" purity="6.6563934087753296e-01" nType="-99"/>
          </Node>
          <Node pos="r" depth="2" NCoef="0" IVar="3" Cut="5.6223096847534180e+00" cType="1" res="-2.0741306245326996e-02" rms="4.7088515758514404e-01" purity="4.4494879245758057e-01" nType="0">
            <Node pos="l" depth="3" NCoef="0" IVar="-1" Cut="0.0000000000000000e+00" cType="1" res="-3.6074776202440262e-02" rms="4.7713875770568848e-01" purity="4.3509566783905029e-01" nType="-99"/>
            <Node pos="r" depth="3" NCoef="0" IVar="-1" Cut="0.0000000000000000e+00" cType="1" res="5.6878784671425819e-03" rms="4.6190834045410156e-01" purity="4.5689687132835388e-01" nType="-99"/>
          </Node>
        </Node>
        <Node pos="r" depth="1" NCoef="0" IVar="7" Cut="6.0000000000000000e+00" cType="1" res="3.3953236415982246e-03" rms="4.6161201596260071e-01" purity="5.3055626153945923e-01" nType="0">
          <Node pos="l" depth="2" NCoef="0" IVar="6" Cut="-2.2437460422515869e+00" cType="1" res="1.3144344091415405e-02" rms="4.6786794066429138e-01" purity="5.0489681959152222e-01" nType="0">
            <Node pos="l" depth="3" NCoef="0" IVar="-1" Cut="0.0000000000000000e+00" cType="1" res="-8.3056697621941566e-03" rms="4.8067480325698853e-01" purity="4.7493493556976318e-01" nType="-99"/>
            <Node pos="r" depth="3" NCoef="0" IVar="-1" Cut="0.0000000000000000e+00" cType="1" res="2.4774841964244843e-02" rms="4.6167394518852234e-01" purity="5.1841205358505249e-01" nType="-99"/>
          </Node>
          <Node pos="r" depth="2" NCoef="0" IVar="3" Cut="4.1329879760742188e+00" cType="1" res="-2.0870871841907501e-02" rms="4.4471836090087891e-01" purity="5.9458911418914795e-01" nType="0">
            <Node pos="l" depth="3" NCoef="0" IVar="-1" Cut="0.0000000000000000e+00" cType="1" res="-5.0910823047161102e-03" rms="4.5281788706779480e-01" purity="5.0391787290573120e-01" nType="-99"/>
            <Node pos="r" depth="3" NCoef="0" IVar="-1" Cut="0.0000000000000000e+00" cType="1" res="1.3690399006009102e-02" rms="4.3358927965164185e-01" purity="6.9314247369766235e-01" nType="-99"/>
          </Node>
        </Node>
      </Node>
    </BinaryTree>
    <BinaryTree type="DecisionTree" boostWeight="1.0000000000000000e+00" itree="290">
      <Node pos="s" depth="0" NCoef="0" IVar="1" Cut="2.6666246875000000e+05" cType="1" res="2.0892678294330835e-03" rms="4.6241074800491333e-01" purity="5.0768828392028809e-01" nType="0">
        <Node pos="l" depth="1" NCoef="0" IVar="1" Cut="2.1776496875000000e+05" cType="1" res="0.0000000000000000e+00" rms="0.0000000000000000e+00" purity="5.2285552024841309e-01" nType="0">
          <Node pos="l" depth="2" NCoef="0" IVar="0" Cut="2.2367334375000000e+05" cType="1" res="6.0118758119642735e-03" rms="4.6612417697906494e-01" purity="5.3527152538299561e-01" nType="0">
            <Node pos="l" depth="3" NCoef="0" IVar="-1" Cut="0.0000000000000000e+00" cType="1" res="2.1773616317659616e-03" rms="4.7060066461563110e-01" purity="5.1423984766006470e-01" nType="-99"/>
            <Node pos="r" depth="3" NCoef="0" IVar="-1" Cut="0.0000000000000000e+00" cType="1" res="4.4152285903692245e-02" rms="4.2437773942947388e-01" purity="7.1814668178558350e-01" nType="-99"/>
          </Node>
          <Node pos="r" depth="2" NCoef="0" IVar="-1" Cut="0.0000000000000000e+00" cType="1" res="-2.5599898770451546e-02" rms="4.4516772031784058e-01" purity="3.8714134693145752e-01" nType="-99"/>
        </Node>
        <Node pos="r" depth="1" NCoef="0" IVar="-1" Cut="0.0000000000000000e+00" cType="1" res="-3.2460331916809082e-02" rms="4.3413862586021423e-01" purity="3.0991944670677185e-01" nType="-99"/>
      </Node>
    </BinaryTree>
    <BinaryTree type="DecisionTree" boostWeight="1.0000000000000000e+00" itree="291">
      <Node pos="s" depth="0" NCoef="0" IVar="4" Cut="2.2149534225463867e+00" cType="1" res="-2.5499742478132248e-03" rms="4.6161997318267822e-01" purity="4.9800574779510498e-01" nType="0">
        <Node pos="l" depth="1" NCoef="0" IVar="1" Cut="1.9843575000000000e+05" cType="1" res="5.3990366868674755e-03" rms="4.6446341276168823e-01" purity="4.9250316619873047e-01" nType="0">
          <Node pos="l" depth="2" NCoef="0" IVar="5" Cut="-1.4969509840011597e-01" cType="1" res="7.4586679693311453e-04" rms="4.7074049711227417e-01" purity="5.2600228786468506e-01" nType="0">
            <Node pos="l" depth="3" NCoef="0" IVar="-1" Cut="0.0000000000000000e+00" cType="1" res="-9.7054922953248024e-03" rms="4.7160285711288452e-01" purity="5.1841950416564941e-01" nType="-99"/>
            <Node pos="r" depth="3" NCoef="0" IVar="-1" Cut="0.0000000000000000e+00" cType="1" res="8.8412277400493622e-03" rms="4.6977275609970093e-01" purity="5.3305208683013916e-01" nType="-99"/>
          </Node>
          <Node pos="r" depth="2" NCoef="0" IVar="5" Cut="-1.6445887088775635e+00" cType="1" res="2.2046925500035286e-02" rms="4.4087293744087219e-01" purity="3.7265181541442871e-01" nType="0">
            <Node pos="l" depth="3" NCoef="0" IVar="-1" Cut="0.0000000000000000e+00" cType="1" res="7.2273947298526764e-02" rms="4.5991519093513489e-01" purity="4.3853232264518738e-01" nType="-99"/>
            <Node pos="r" depth="3" NCoef="0" IVar="-1" Cut="0.0000000000000000e+00" cType="1" res="2.9941326938569546e-03" rms="4.2969220876693726e-01" purity="3.4002315998077393e-01" nType="-99"/>
          </Node>
        </Node>
        <Node pos="r" depth="1" NCoef="0" IVar="4" Cut="3.3655815124511719e+00" cType="1" res="-1.4076702296733856e-02" rms="4.5721992850303650e-01" purity="5.0598484277725220e-01" nType="0">
          <Node pos="l" depth="2" NCoef="0" IVar="5" Cut="-2.2440147399902344e+00" cType="1" res="-9.7613250836730003e-03" rms="4.6236738562583923e-01" purity="5.3193092346191406e-01" nType="0">
            <Node pos="l" depth="3" NCoef="0" IVar="-1" Cut="0.0000000000000000e+00" cType="1" res="5.2962149493396282e-03" rms="4.6398654580116272e-01" purity="5.7057082653045654e-01" nType="-99"/>
            <Node pos="r" depth="3" NCoef="0" IVar="-1" Cut="0.0000000000000000e+00" cType="1" res="-8.6488099768757820e-03" rms="4.6181398630142212e-01" purity="5.2070540189743042e-01" nType="-99"/>
          </Node>
          <Node pos="r" depth="2" NCoef="0" IVar="-1" Cut="0.0000000000000000e+00" cType="1" res="-6.0287080705165863e-03" rms="4.1399738192558289e-01" purity="3.0640327930450439e-01" nType="-99"/>
        </Node>
      </Node>
    </BinaryTree>
    <BinaryTree type="DecisionTree" boostWeight="1.0000000000000000e+00" itree="292">
      <Node pos="s" depth="0" NCoef="0" IVar="1" Cut="2.6483275000000000e+05" cType="1" res="-2.3795166634954512e-04" rms="4.6330761909484863e-01" purity="5.0353771448135376e-01" nType="0">
        <Node pos="l" depth="1" NCoef="0" IVar="3" Cut="1.8800203800201416e+00" cType="1" res="-2.1692819427698851e-03" rms="4.6429827809333801e-01" purity="5.1513504981994629e-01" nType="0">
          <Node pos="l" depth="2" NCoef="0" IVar="1" Cut="1.4758359375000000e+05" cType="1" res="7.1765384636819363e-03" rms="4.7589007019996643e-01" purity="4.5925205945968628e-01" nType="0">
            <Node pos="l" depth="3" NCoef="0" IVar="-1" Cut="0.0000000000000000e+00" cType="1" res="-7.8616626560688019e-03" rms="4.8241269588470459e-01" purity="4.4460567831993103e-01" nType="-99"/>
            <Node pos="r" depth="3" NCoef="0" IVar="-1" Cut="0.0000000000000000e+00" cType="1" res="2.5826968252658844e-02" rms="4.6722993254661560e-01" purity="4.7719472646713257e-01" nType="-99"/>
          </Node>
          <Node pos="r" depth="2" NCoef="0" IVar="1" Cut="1.5448381250000000e+05" cType="1" res="-4.9513420090079308e-03" rms="4.6075469255447388e-01" purity="5.3177028894424438e-01" nType="0">
            <Node pos="l" depth="3" NCoef="0" IVar="-1" Cut="0.0000000000000000e+00" cType="1" res="5.1776124164462090e-03" rms="4.6827873587608337e-01" purity="5.7038635015487671e-01" nType="-99"/>
            <Node pos="r" depth="3" NCoef="0" IVar="-1" Cut="0.0000000000000000e+00" cType="1" res="-7.3019554838538170e-03" rms="4.5119437575340271e-01" purity="4.8535233736038208e-01" nType="-99"/>
          </Node>
        </Node>
        <Node pos="r" depth="1" NCoef="0" IVar="-1" Cut="0.0000000000000000e+00" cType="1" res="3.6710284650325775e-02" rms="4.4993409514427185e-01" purity="3.5746052861213684e-01" nType="-99"/>
      </Node>
    </BinaryTree>
    <BinaryTree type="DecisionTree" boostWeight="1.0000000000000000e+00" itree="293">
      <Node pos="s" depth="0" NCoef="0" IVar="4" Cut="2.9526097774505615e+00" cType="1" res="-1.1891721747815609e-02" rms="4.6199056506156921e-01" purity="4.9409267306327820e-01" nType="0">
        <Node pos="l" depth="1" NCoef="0" IVar="5" Cut="1.3462164402008057e+00" cType="1" res="-5.6479005143046379e-03" rms="4.6393999457359314e-01" purity="5.0446659326553345e-01" nType="0">
          <Node pos="l" depth="2" NCoef="0" IVar="5" Cut="2.7728819847106934e-01" cType="1" res="-1.0384161025285721e-02" rms="4.6420165896415710e-01" purity="4.8481947183609009e-01" nType="0">
            <Node pos="l" depth="3" NCoef="0" IVar="-1" Cut="0.0000000000000000e+00" cType="1" res="-4.7239586710929871e-03" rms="4.6555918455123901e-01" purity="5.0174230337142944e-01" nType="-99"/>
            <Node pos="r" depth="3" NCoef="0" IVar="-1" Cut="0.0000000000000000e+00" cType="1" res="-3.2839696854352951e-02" rms="4.5697152614593506e-01" purity="4.0528127551078796e-01" nType="-99"/>
          </Node>
          <Node pos="r" depth="2" NCoef="0" IVar="4" Cut="1.5772333145141602e+00" cType="1" res="2.5660167448222637e-03" rms="4.6337106823921204e-01" purity="5.3854000568389893e-01" nType="0">
            <Node pos="l" depth="3" NCoef="0" IVar="-1" Cut="0.0000000000000000e+00" cType="1" res="-9.4968564808368683e-03" rms="4.6415966749191284e-01" purity="5.0194674730300903e-01" nType="-99"/>
            <Node pos="r" depth="3" NCoef="0" IVar="-1" Cut="0.0000000000000000e+00" cType="1" res="1.3509187847375870e-02" rms="4.6242615580558777e-01" purity="5.7159930467605591e-01" nType="-99"/>
          </Node>
        </Node>
        <Node pos="r" depth="1" NCoef="0" IVar="6" Cut="7.4748325347900391e-01" cType="1" res="-4.1549075394868851e-02" rms="4.5143869519233704e-01" purity="4.4481763243675232e-01" nType="0">
          <Node pos="l" depth="2" NCoef="0" IVar="5" Cut="-1.6453403234481812e+00" cType="1" res="1.1469637975096703e-02" rms="4.5948264002799988e-01" purity="5.3653037548065186e-01" nType="0">
            <Node pos="l" depth="3" NCoef="0" IVar="-1" Cut="0.0000000000000000e+00" cType="1" res="4.7197408974170685e-02" rms="4.6031987667083740e-01" purity="5.3645449876785278e-01" nType="-99"/>
            <Node pos="r" depth="3" NCoef="0" IVar="-1" Cut="0.0000000000000000e+00" cType="1" res="-2.6530658826231956e-02" rms="4.5638462901115417e-01" purity="5.3660565614700317e-01" nType="-99"/>
          </Node>
          <Node pos="r" depth="2" NCoef="0" IVar="-1" Cut="0.0000000000000000e+00" cType="1" res="-3.1791571527719498e-03" rms="4.3821626901626587e-01" purity="3.6010161042213440e-01" nType="-99"/>
        </Node>
      </Node>
    </BinaryTree>
    <BinaryTree type="DecisionTree" boostWeight="1.0000000000000000e+00" itree="294">
      <Node pos="s" depth="0" NCoef="0" IVar="0" Cut="2.2667903125000000e+05" cType="1" res="-5.6710965000092983e-03" rms="4.6146491169929504e-01" purity="4.9739643931388855e-01" nType="0">
        <Node pos="l" depth="1" NCoef="0" IVar="0" Cut="1.3016021093750000e+05" cType="1" res="-3.2178401015698910e-03" rms="4.6469438076019287e-01" purity="4.8401418328285217e-01" nType="0">
          <Node pos="l" depth="2" NCoef="0" IVar="7" Cut="5.0000000000000000e+00" cType="1" res="-1.6092875972390175e-02" rms="3.3185771107673645e-01" purity="4.2986050248146057e-01" nType="0">
            <Node pos="l" depth="3" NCoef="0" IVar="-1" Cut="0.0000000000000000e+00" cType="1" res="-1.3454814907163382e-03" rms="4.6693840622901917e-01" purity="4.0162536501884460e-01" nType="-99"/>
            <Node pos="r" depth="3" NCoef="0" IVar="-1" Cut="0.0000000000000000e+00" cType="1" res="-1.4989805407822132e-02" rms="4.7106939554214478e-01" purity="4.5538407564163208e-01" nType="-99"/>
          </Node>
          <Node pos="r" depth="2" NCoef="0" IVar="6" Cut="-1.6455652713775635e+00" cType="1" res="2.2130403667688370e-03" rms="4.6313276886940002e-01" purity="4.9989628791809082e-01" nType="0">
            <Node pos="l" depth="3" NCoef="0" IVar="-1" Cut="0.0000000000000000e+00" cType="1" res="1.4857642352581024e-02" rms="4.7207093238830566e-01" purity="4.8009994626045227e-01" nType="-99"/>
            <Node pos="r" depth="3" NCoef="0" IVar="-1" Cut="0.0000000000000000e+00" cType="1" res="-3.4901679027825594e-03" rms="4.5842155814170837e-01" purity="5.0998228788375854e-01" nType="-99"/>
          </Node>
        </Node>
        <Node pos="r" depth="1" NCoef="0" IVar="7" Cut="6.0000000000000000e+00" cType="1" res="-2.3861644789576530e-02" rms="4.3634977936744690e-01" purity="5.9643733501434326e-01" nType="0">
          <Node pos="l" depth="2" NCoef="0" IVar="-1" Cut="0.0000000000000000e+00" cType="1" res="-5.8782886713743210e-02" rms="4.4913485646247864e-01" purity="5.2460330724716187e-01" nType="-99"/>
          <Node pos="r" depth="2" NCoef="0" IVar="-1" Cut="0.0000000000000000e+00" cType="1" res="-9.0657817199826241e-03" rms="4.1431629657745361e-01" purity="7.1272885799407959e-01" nType="-99"/>
        </Node>
      </Node>
    </BinaryTree>
    <BinaryTree type="DecisionTree" boostWeight="1.0000000000000000e+00" itree="295">
      <Node pos="s" depth="0" NCoef="0" IVar="4" Cut="2.9616189002990723e+00" cType="1" res="-2.8457040898501873e-03" rms="4.6108630299568176e-01" purity="4.9841406941413879e-01" nType="0">
        <Node pos="l" depth="1" NCoef="0" IVar="5" Cut="-2.8423984050750732e+00" cType="1" res="2.4592767003923655e-03" rms="4.6401411294937134e-01" purity="5.0750571489334106e-01" nType="0">
          <Node pos="l" depth="2" NCoef="0" IVar="-1" Cut="0.0000000000000000e+00" cType="1" res="-2.7450876310467720e-02" rms="4.5938050746917725e-01" purity="5.4552286863327026e-01" nType="-99"/>
          <Node pos="r" depth="2" NCoef="0" IVar="9" Cut="5.9037789062500000e+04" cType="1" res="4.5789713039994240e-03" rms="4.6431806683540344e-01" purity="5.0446021556854248e-01" nType="0">
            <Node pos="l" depth="3" NCoef="0" IVar="-1" Cut="0.0000000000000000e+00" cType="1" res="9.1889705508947372e-03" rms="4.6971789002418518e-01" purity="4.5471203327178955e-01" nType="-99"/>
            <Node pos="r" depth="3" NCoef="0" IVar="-1" Cut="0.0000000000000000e+00" cType="1" res="-8.2290684804320335e-03" rms="4.4634807109832764e-01" purity="6.6426336765289307e-01" nType="-99"/>
          </Node>
        </Node>
        <Node pos="r" depth="1" NCoef="0" IVar="7" Cut="5.0000000000000000e+00" cType="1" res="-3.0264053493738174e-02" rms="4.4463968276977539e-01" purity="4.5142427086830139e-01" nType="0">
          <Node pos="l" depth="2" NCoef="0" IVar="-1" Cut="0.0000000000000000e+00" cType="1" res="-7.4803545139729977e-03" rms="4.4016191363334656e-01" purity="3.5564738512039185e-01" nType="-99"/>
          <Node pos="r" depth="2" NCoef="0" IVar="6" Cut="4.4825747609138489e-01" cType="1" res="-2.2910386323928833e-02" rms="4.4791477918624878e-01" purity="5.2509492635726929e-01" nType="0">
            <Node pos="l" depth="3" NCoef="0" IVar="-1" Cut="0.0000000000000000e+00" cType="1" res="6.9585717283189297e-03" rms="4.4668591022491455e-01" purity="5.9131568670272827e-01" nType="-99"/>
            <Node pos="r" depth="3" NCoef="0" IVar="-1" Cut="0.0000000000000000e+00" cType="1" res="-4.2355135083198547e-03" rms="4.4694471359252930e-01" purity="4.5201241970062256e-01" nType="-99"/>
          </Node>
        </Node>
      </Node>
    </BinaryTree>
    <BinaryTree type="DecisionTree" boostWeight="1.0000000000000000e+00" itree="296">
      <Node pos="s" depth="0" NCoef="0" IVar="4" Cut="3.2151722908020020e+00" cType="1" res="-5.6599378585815430e-03" rms="4.6283277869224548e-01" purity="4.9746683239936829e-01" nType="0">
        <Node pos="l" depth="1" NCoef="0" IVar="3" Cut="-1.3962131738662720e+00" cType="1" res="-8.9656322961673141e-04" rms="4.6435871720314026e-01" purity="5.0913375616073608e-01" nType="0">
          <Node pos="l" depth="2" NCoef="0" IVar="-1" Cut="0.0000000000000000e+00" cType="1" res="-2.5853052735328674e-02" rms="4.6855688095092773e-01" purity="4.1260993480682373e-01" nType="-99"/>
          <Node pos="r" depth="2" NCoef="0" IVar="2" Cut="3.6101770019531250e+02" cType="1" res="1.6679082764312625e-03" rms="4.6395581960678101e-01" purity="5.1586478948593140e-01" nType="0">
            <Node pos="l" depth="3" NCoef="0" IVar="-1" Cut="0.0000000000000000e+00" cType="1" res="-5.6138366926461458e-04" rms="4.6343904733657837e-01" purity="5.0604903697967529e-01" nType="-99"/>
            <Node pos="r" depth="3" NCoef="0" IVar="-1" Cut="0.0000000000000000e+00" cType="1" res="2.1956901997327805e-02" rms="4.6750831604003906e-01" purity="5.9015578031539917e-01" nType="-99"/>
          </Node>
        </Node>
        <Node pos="r" depth="1" NCoef="0" IVar="-1" Cut="0.0000000000000000e+00" cType="1" res="-2.6580474805086851e-03" rms="4.3726375699043274e-01" purity="3.4297141432762146e-01" nType="-99"/>
      </Node>
    </BinaryTree>
    <BinaryTree type="DecisionTree" boostWeight="1.0000000000000000e+00" itree="297">
      <Node pos="s" depth="0" NCoef="0" IVar="4" Cut="3.2380807399749756e+00" cType="1" res="3.1944669317454100e-03" rms="4.6271279454231262e-01" purity="5.0585585832595825e-01" nType="0">
        <Node pos="l" depth="1" NCoef="0" IVar="4" Cut="1.7329878807067871e+00" cType="1" res="6.1679240316152573e-03" rms="4.6324393153190613e-01" purity="5.1540243625640869e-01" nType="0">
          <Node pos="l" depth="2" NCoef="0" IVar="4" Cut="1.5752563476562500e+00" cType="1" res="1.6755750402808189e-02" rms="4.6431213617324829e-01" purity="4.8886409401893616e-01" nType="0">
            <Node pos="l" depth="3" NCoef="0" IVar="-1" Cut="0.0000000000000000e+00" cType="1" res="1.6322812065482140e-02" rms="4.6412754058837891e-01" purity="4.7705635428428650e-01" nType="-99"/>
            <Node pos="r" depth="3" NCoef="0" IVar="-1" Cut="0.0000000000000000e+00" cType="1" res="4.3783444911241531e-02" rms="4.6483632922172546e-01" purity="5.7531237602233887e-01" nType="-99"/>
          </Node>
          <Node pos="r" depth="2" NCoef="0" IVar="4" Cut="1.9480016231536865e+00" cType="1" res="0.0000000000000000e+00" rms="0.0000000000000000e+00" purity="5.3953909873962402e-01" nType="0">
            <Node pos="l" depth="3" NCoef="0" IVar="-1" Cut="0.0000000000000000e+00" cType="1" res="-2.4732707068324089e-02" rms="4.5762333273887634e-01" purity="5.0324976444244385e-01" nType="-99"/>
            <Node pos="r" depth="3" NCoef="0" IVar="-1" Cut="0.0000000000000000e+00" cType="1" res="-5.6206219596788287e-04" rms="4.6263518929481506e-01" purity="5.4486536979675293e-01" nType="-99"/>
          </Node>
        </Node>
        <Node pos="r" depth="1" NCoef="0" IVar="-1" Cut="0.0000000000000000e+00" cType="1" res="-2.6995346415787935e-03" rms="4.5249053835868835e-01" purity="3.6445245146751404e-01" nType="-99"/>
      </Node>
    </BinaryTree>
    <BinaryTree type="DecisionTree" boostWeight="1.0000000000000000e+00" itree="298">
      <Node pos="s" depth="0" NCoef="0" IVar="4" Cut="3.0043828487396240e+00" cType="1" res="-1.0268147103488445e-02" rms="4.6168601512908936e-01" purity="4.9545717239379883e-01" nType="0">
        <Node pos="l" depth="1" NCoef="0" IVar="0" Cut="2.2677339062500000e+05" cType="1" res="-2.9901501256972551e-03" rms="4.6393099427223206e-01" purity="5.0837230682373047e-01" nType="0">
          <Node pos="l" depth="2" NCoef="0" IVar="0" Cut="1.6575673437500000e+05" cType="1" res="-5.5743022821843624e-03" rms="4.6768522262573242e-01" purity="4.9164029955863953e-01" nType="0">
            <Node pos="l" depth="3" NCoef="0" IVar="-1" Cut="0.0000000000000000e+00" cType="1" res="-1.0515728034079075e-02" rms="4.7239410877227783e-01" purity="4.6955892443656921e-01" nType="-99"/>
            <Node pos="r" depth="3" NCoef="0" IVar="-1" Cut="0.0000000000000000e+00" cType="1" res="8.0011673271656036e-03" rms="4.5603847503662109e-01" purity="5.4424148797988892e-01" nType="-99"/>
          </Node>
          <Node pos="r" depth="2" NCoef="0" IVar="9" Cut="4.3436078125000000e+04" cType="1" res="1.5151595696806908e-02" rms="4.3623638153076172e-01" purity="6.2583738565444946e-01" nType="0">
            <Node pos="l" depth="3" NCoef="0" IVar="-1" Cut="0.0000000000000000e+00" cType="1" res="7.9633854329586029e-02" rms="4.6146920323371887e-01" purity="4.8098725080490112e-01" nType="-99"/>
            <Node pos="r" depth="3" NCoef="0" IVar="-1" Cut="0.0000000000000000e+00" cType="1" res="-1.2919805943965912e-02" rms="4.1731882095336914e-01" purity="7.2013509273529053e-01" nType="-99"/>
          </Node>
        </Node>
        <Node pos="r" depth="1" NCoef="0" IVar="8" Cut="7.0599625000000000e+04" cType="1" res="-5.1591530442237854e-02" rms="4.4648313522338867e-01" purity="4.2212691903114319e-01" nType="0">
          <Node pos="l" depth="2" NCoef="0" IVar="8" Cut="4.9114871093750000e+04" cType="1" res="-7.8762639313936234e-03" rms="4.4987085461616516e-01" purity="3.9717796444892883e-01" nType="0">
            <Node pos="l" depth="3" NCoef="0" IVar="-1" Cut="0.0000000000000000e+00" cType="1" res="-6.0769445262849331e-03" rms="4.2456892132759094e-01" purity="2.9512909054756165e-01" nType="-99"/>
            <Node pos="r" depth="3" NCoef="0" IVar="-1" Cut="0.0000000000000000e+00" cType="1" res="1.3052724301815033e-02" rms="4.7306948900222778e-01" purity="4.9921840429306030e-01" nType="-99"/>
          </Node>
          <Node pos="r" depth="2" NCoef="0" IVar="-1" Cut="0.0000000000000000e+00" cType="1" res="-4.1946270503103733e-03" rms="4.3682080507278442e-01" purity="4.5166075229644775e-01" nType="-99"/>
        </Node>
      </Node>
    </BinaryTree>
    <BinaryTree type="DecisionTree" boostWeight="1.0000000000000000e+00" itree="299">
      <Node pos="s" depth="0" NCoef="0" IVar="4" Cut="3.2151722908020020e+00" cType="1" res="-3.4295218065381050e-03" rms="4.6196115016937256e-01" purity="5.0410956144332886e-01" nType="0">
        <Node pos="l" depth="1" NCoef="0" IVar="3" Cut="1.1215814590454102e+01" cType="1" res="-2.1297506464179605e-04" rms="4.6268630027770996e-01" purity="5.1369225978851318e-01" nType="0">
          <Node pos="l" depth="2" NCoef="0" IVar="4" Cut="1.2719339132308960e+00" cType="1" res="2.5939312763512135e-03" rms="4.6438857913017273e-01" purity="5.1859176158905029e-01" nType="0">
            <Node pos="l" depth="3" NCoef="0" IVar="-1" Cut="0.0000000000000000e+00" cType="1" res="-1.3483481481671333e-02" rms="4.6436753869056702e-01" purity="4.6360018849372864e-01" nType="-99"/>
            <Node pos="r" depth="3" NCoef="0" IVar="-1" Cut="0.0000000000000000e+00" cType="1" res="4.5634484849870205e-03" rms="4.6428313851356506e-01" purity="5.4219561815261841e-01" nType="-99"/>
          </Node>
          <Node pos="r" depth="2" NCoef="0" IVar="6" Cut="-1.4961445331573486e-01" cType="1" res="-2.7939856052398682e-02" rms="4.4457051157951355e-01" purity="4.6529468894004822e-01" nType="0">
            <Node pos="l" depth="3" NCoef="0" IVar="-1" Cut="0.0000000000000000e+00" cType="1" res="-3.0045094899833202e-03" rms="4.4995057582855225e-01" purity="4.8852336406707764e-01" nType="-99"/>
            <Node pos="r" depth="3" NCoef="0" IVar="-1" Cut="0.0000000000000000e+00" cType="1" res="-5.3835123777389526e-02" rms="4.3782606720924377e-01" purity="4.4267889857292175e-01" nType="-99"/>
          </Node>
        </Node>
        <Node pos="r" depth="1" NCoef="0" IVar="-1" Cut="0.0000000000000000e+00" cType="1" res="-3.3801177050918341e-03" rms="4.4989341497421265e-01" purity="3.7547045946121216e-01" nType="-99"/>
      </Node>
    </BinaryTree>
    <BinaryTree type="DecisionTree" boostWeight="1.0000000000000000e+00" itree="300">
      <Node pos="s" depth="0" NCoef="0" IVar="4" Cut="3.2300219535827637e+00" cType="1" res="-6.9467158755287528e-04" rms="4.6055099368095398e-01" purity="5.0184053182601929e-01" nType="0">
        <Node pos="l" depth="1" NCoef="0" IVar="4" Cut="2.6292500495910645e+00" cType="1" res="3.9077862165868282e-03" rms="4.6245566010475159e-01" purity="5.1566284894943237e-01" nType="0">
          <Node pos="l" depth="2" NCoef="0" IVar="8" Cut="1.4290815625000000e+05" cType="1" res="8.8377745123580098e-04" rms="4.6360483765602112e-01" purity="5.0113987922668457e-01" nType="0">
            <Node pos="l" depth="3" NCoef="0" IVar="-1" Cut="0.0000000000000000e+00" cType="1" res="2.3991737980395555e-03" rms="4.6443811058998108e-01" purity="4.9171131849288940e-01" nType="-99"/>
            <Node pos="r" depth="3" NCoef="0" IVar="-1" Cut="0.0000000000000000e+00" cType="1" res="-4.1818361729383469e-02" rms="4.4826593995094299e-01" purity="6.5836179256439209e-01" nType="-99"/>
          </Node>
          <Node pos="r" depth="2" NCoef="0" IVar="4" Cut="3.0869655609130859e+00" cType="1" res="1.4276881702244282e-02" rms="4.5834186673164368e-01" purity="5.6546103954315186e-01" nType="0">
            <Node pos="l" depth="3" NCoef="0" IVar="-1" Cut="0.0000000000000000e+00" cType="1" res="1.5518117696046829e-02" rms="4.5846974849700928e-01" purity="5.7309198379516602e-01" nType="-99"/>
            <Node pos="r" depth="3" NCoef="0" IVar="-1" Cut="0.0000000000000000e+00" cType="1" res="-1.6218429431319237e-02" rms="4.5656555891036987e-01" purity="5.3436195850372314e-01" nType="-99"/>
          </Node>
        </Node>
        <Node pos="r" depth="1" NCoef="0" IVar="-1" Cut="0.0000000000000000e+00" cType="1" res="-2.2217659279704094e-03" rms="4.3265932798385620e-01" purity="3.3288341760635376e-01" nType="-99"/>
      </Node>
    </BinaryTree>
    <BinaryTree type="DecisionTree" boostWeight="1.0000000000000000e+00" itree="301">
      <Node pos="s" depth="0" NCoef="0" IVar="6" Cut="2.2438936233520508e+00" cType="1" res="-2.4371081963181496e-03" rms="4.6296083927154541e-01" purity="5.0339889526367188e-01" nType="0">
        <Node pos="l" depth="1" NCoef="0" IVar="9" Cut="9.4873382812500000e+04" cType="1" res="-8.7972357869148254e-03" rms="4.5940536260604858e-01" purity="5.0893843173980713e-01" nType="0">
          <Node pos="l" depth="2" NCoef="0" IVar="9" Cut="6.4924277343750000e+04" cType="1" res="-1.1823765002191067e-02" rms="4.6223580837249756e-01" purity="4.9103310704231262e-01" nType="0">
            <Node pos="l" depth="3" NCoef="0" IVar="-1" Cut="0.0000000000000000e+00" cType="1" res="-1.4124486595392227e-02" rms="4.6525335311889648e-01" purity="4.5438706874847412e-01" nType="-99"/>
            <Node pos="r" depth="3" NCoef="0" IVar="-1" Cut="0.0000000000000000e+00" cType="1" res="7.6133352704346180e-03" rms="4.4590577483177185e-01" purity="6.7921602725982666e-01" nType="-99"/>
          </Node>
          <Node pos="r" depth="2" NCoef="0" IVar="-1" Cut="0.0000000000000000e+00" cType="1" res="4.3939299881458282e-02" rms="4.1845083236694336e-01" purity="7.4404430389404297e-01" nType="-99"/>
        </Node>
        <Node pos="r" depth="1" NCoef="0" IVar="4" Cut="1.3465577363967896e+00" cType="1" res="0.0000000000000000e+00" rms="0.0000000000000000e+00" purity="4.8727682232856750e-01" nType="0">
          <Node pos="l" depth="2" NCoef="0" IVar="-1" Cut="0.0000000000000000e+00" cType="1" res="4.4122572988271713e-02" rms="4.7112593054771423e-01" purity="4.6495425701141357e-01" nType="-99"/>
          <Node pos="r" depth="2" NCoef="0" IVar="6" Cut="2.7996048927307129e+00" cType="1" res="4.0389019995927811e-03" rms="4.7272473573684692e-01" purity="4.9598059058189392e-01" nType="0">
            <Node pos="l" depth="3" NCoef="0" IVar="-1" Cut="0.0000000000000000e+00" cType="1" res="3.0204081907868385e-02" rms="4.7619432210922241e-01" purity="5.0874221324920654e-01" nType="-99"/>
            <Node pos="r" depth="3" NCoef="0" IVar="-1" Cut="0.0000000000000000e+00" cType="1" res="-1.1045476421713829e-02" rms="4.6745860576629639e-01" purity="4.8169431090354919e-01" nType="-99"/>
          </Node>
        </Node>
      </Node>
    </BinaryTree>
    <BinaryTree type="DecisionTree" boostWeight="1.0000000000000000e+00" itree="302">
      <Node pos="s" depth="0" NCoef="0" IVar="8" Cut="6.2496757812500000e+04" cType="1" res="7.8816810855641961e-04" rms="4.6302193403244019e-01" purity="5.0592589378356934e-01" nType="0">
        <Node pos="l" depth="1" NCoef="0" IVar="9" Cut="4.4401277343750000e+04" cType="1" res="5.7129729539155960e-03" rms="4.6493732929229736e-01" purity="4.1481736302375793e-01" nType="0">
          <Node pos="l" depth="2" NCoef="0" IVar="6" Cut="-2.8423697948455811e+00" cType="1" res="0.0000000000000000e+00" rms="0.0000000000000000e+00" purity="3.8725233078002930e-01" nType="0">
            <Node pos="l" depth="3" NCoef="0" IVar="-1" Cut="0.0000000000000000e+00" cType="1" res="3.2157696783542633e-02" rms="4.6272876858711243e-01" purity="4.1420599818229675e-01" nType="-99"/>
            <Node pos="r" depth="3" NCoef="0" IVar="-1" Cut="0.0000000000000000e+00" cType="1" res="-2.2005490027368069e-03" rms="4.6098875999450684e-01" purity="3.8357099890708923e-01" nType="-99"/>
          </Node>
          <Node pos="r" depth="2" NCoef="0" IVar="-1" Cut="0.0000000000000000e+00" cType="1" res="3.5190418362617493e-02" rms="4.8316740989685059e-01" purity="5.6315338611602783e-01" nType="-99"/>
        </Node>
        <Node pos="r" depth="1" NCoef="0" IVar="6" Cut="2.8422625064849854e+00" cType="1" res="-4.5263292267918587e-03" rms="4.6088701486587524e-01" purity="6.0424363613128662e-01" nType="0">
          <Node pos="l" depth="2" NCoef="0" IVar="6" Cut="-2.2867403030395508e+00" cType="1" res="-2.0415389444679022e-03" rms="4.6102386713027954e-01" purity="6.1069887876510620e-01" nType="0">
            <Node pos="l" depth="3" NCoef="0" IVar="-1" Cut="0.0000000000000000e+00" cType="1" res="-2.0763991400599480e-02" rms="4.7732266783714294e-01" purity="5.5914568901062012e-01" nType="-99"/>
            <Node pos="r" depth="3" NCoef="0" IVar="-1" Cut="0.0000000000000000e+00" cType="1" res="2.2815121337771416e-03" rms="4.5647773146629333e-01" purity="6.2450081110000610e-01" nType="-99"/>
          </Node>
          <Node pos="r" depth="2" NCoef="0" IVar="-1" Cut="0.0000000000000000e+00" cType="1" res="-1.0725778527557850e-02" rms="4.5852577686309814e-01" purity="5.3400516510009766e-01" nType="-99"/>
        </Node>
      </Node>
    </BinaryTree>
    <BinaryTree type="DecisionTree" boostWeight="1.0000000000000000e+00" itree="303">
      <Node pos="s" depth="0" NCoef="0" IVar="6" Cut="2.2438974380493164e+00" cType="1" res="-5.4951021447777748e-03" rms="4.6118459105491638e-01" purity="5.0277817249298096e-01" nType="0">
        <Node pos="l" depth="1" NCoef="0" IVar="5" Cut="-1.0470869541168213e+00" cType="1" res="0.0000000000000000e+00" rms="0.0000000000000000e+00" purity="5.1989036798477173e-01" nType="0">
          <Node pos="l" depth="2" NCoef="0" IVar="4" Cut="1.9309246540069580e+00" cType="1" res="-8.4801781922578812e-03" rms="4.6230170130729675e-01" purity="5.1312601566314697e-01" nType="0">
            <Node pos="l" depth="3" NCoef="0" IVar="-1" Cut="0.0000000000000000e+00" cType="1" res="6.8827192299067974e-03" rms="4.6479639410972595e-01" purity="5.0605523586273193e-01" nType="-99"/>
            <Node pos="r" depth="3" NCoef="0" IVar="-1" Cut="0.0000000000000000e+00" cType="1" res="-2.5058805942535400e-02" rms="4.5910608768463135e-01" purity="5.2069556713104248e-01" nType="-99"/>
          </Node>
          <Node pos="r" depth="2" NCoef="0" IVar="5" Cut="1.3467640876770020e+00" cType="1" res="8.8601419702172279e-03" rms="4.5531821250915527e-01" purity="5.2644616365432739e-01" nType="0">
            <Node pos="l" depth="3" NCoef="0" IVar="-1" Cut="0.0000000000000000e+00" cType="1" res="3.0541252344846725e-02" rms="4.6283888816833496e-01" purity="5.1298522949218750e-01" nType="-99"/>
            <Node pos="r" depth="3" NCoef="0" IVar="-1" Cut="0.0000000000000000e+00" cType="1" res="-1.2786329025402665e-03" rms="4.5065349340438843e-01" purity="5.3414875268936157e-01" nType="-99"/>
          </Node>
        </Node>
        <Node pos="r" depth="1" NCoef="0" IVar="6" Cut="2.5858957767486572e+00" cType="1" res="-2.2741066291928291e-02" rms="4.6760663390159607e-01" purity="4.5207768678665161e-01" nType="0">
          <Node pos="l" depth="2" NCoef="0" IVar="-1" Cut="0.0000000000000000e+00" cType="1" res="-6.3053453341126442e-03" rms="4.5716851949691772e-01" purity="4.2747956514358521e-01" nType="-99"/>
          <Node pos="r" depth="2" NCoef="0" IVar="3" Cut="7.6649303436279297e+00" cType="1" res="-1.0546662844717503e-02" rms="4.7182673215866089e-01" purity="4.6338376402854919e-01" nType="0">
            <Node pos="l" depth="3" NCoef="0" IVar="-1" Cut="0.0000000000000000e+00" cType="1" res="-8.1822858192026615e-04" rms="4.7675094008445740e-01" purity="4.6880182623863220e-01" nType="-99"/>
            <Node pos="r" depth="3" NCoef="0" IVar="-1" Cut="0.0000000000000000e+00" cType="1" res="-4.2350146919488907e-02" rms="4.5890843868255615e-01" purity="4.5025870203971863e-01" nType="-99"/>
          </Node>
        </Node>
      </Node>
    </BinaryTree>
    <BinaryTree type="DecisionTree" boostWeight="1.0000000000000000e+00" itree="304">
      <Node pos="s" depth="0" NCoef="0" IVar="5" Cut="2.5429193973541260e+00" cType="1" res="-1.1103661963716149e-03" rms="4.6149528026580811e-01" purity="5.0327157974243164e-01" nType="0">
        <Node pos="l" depth="1" NCoef="0" IVar="4" Cut="1.1421123743057251e+00" cType="1" res="-3.9689624682068825e-03" rms="4.6253716945648193e-01" purity="4.9124315381050110e-01" nType="0">
          <Node pos="l" depth="2" NCoef="0" IVar="4" Cut="8.8854587078094482e-01" cType="1" res="3.6250425036996603e-03" rms="4.6410998702049255e-01" purity="4.5247644186019897e-01" nType="0">
            <Node pos="l" depth="3" NCoef="0" IVar="-1" Cut="0.0000000000000000e+00" cType="1" res="-7.2880992665886879e-03" rms="4.6340245008468628e-01" purity="4.4837030768394470e-01" nType="-99"/>
            <Node pos="r" depth="3" NCoef="0" IVar="-1" Cut="0.0000000000000000e+00" cType="1" res="2.3433659225702286e-02" rms="4.6482652425765991e-01" purity="4.5885455608367920e-01" nType="-99"/>
          </Node>
          <Node pos="r" depth="2" NCoef="0" IVar="2" Cut="1.8044113159179688e+02" cType="1" res="0.0000000000000000e+00" rms="0.0000000000000000e+00" purity="5.0338369607925415e-01" nType="0">
            <Node pos="l" depth="3" NCoef="0" IVar="-1" Cut="0.0000000000000000e+00" cType="1" res="-1.2426702305674553e-02" rms="4.5945283770561218e-01" purity="5.0481528043746948e-01" nType="-99"/>
            <Node pos="r" depth="3" NCoef="0" IVar="-1" Cut="0.0000000000000000e+00" cType="1" res="2.7049658820033073e-04" rms="4.6396392583847046e-01" purity="5.0223016738891602e-01" nType="-99"/>
          </Node>
        </Node>
        <Node pos="r" depth="1" NCoef="0" IVar="6" Cut="1.9438339471817017e+00" cType="1" res="1.4510742388665676e-02" rms="4.5544290542602539e-01" purity="5.6900173425674438e-01" nType="0">
          <Node pos="l" depth="2" NCoef="0" IVar="6" Cut="2.4774654209613800e-01" cType="1" res="3.0456405133008957e-02" rms="4.5024847984313965e-01" purity="5.8163678646087646e-01" nType="0">
            <Node pos="l" depth="3" NCoef="0" IVar="-1" Cut="0.0000000000000000e+00" cType="1" res="1.7411313951015472e-02" rms="4.3909329175949097e-01" purity="6.5427988767623901e-01" nType="-99"/>
            <Node pos="r" depth="3" NCoef="0" IVar="-1" Cut="0.0000000000000000e+00" cType="1" res="5.4952930659055710e-02" rms="4.6153900027275085e-01" purity="5.0330150127410889e-01" nType="-99"/>
          </Node>
          <Node pos="r" depth="2" NCoef="0" IVar="-1" Cut="0.0000000000000000e+00" cType="1" res="-1.1953967623412609e-02" rms="4.6283969283103943e-01" purity="5.4765695333480835e-01" nType="-99"/>
        </Node>
      </Node>
    </BinaryTree>
    <BinaryTree type="DecisionTree" boostWeight="1.0000000000000000e+00" itree="305">
      <Node pos="s" depth="0" NCoef="0" IVar="5" Cut="-2.5428361892700195e+00" cType="1" res="-6.6149393096566200e-03" rms="4.6354204416275024e-01" purity="5.0054013729095459e-01" nType="0">
        <Node pos="l" depth="1" NCoef="0" IVar="5" Cut="-2.8278617858886719e+00" cType="1" res="-3.0212931334972382e-02" rms="4.5997676253318787e-01" purity="5.0034105777740479e-01" nType="0">
          <Node pos="l" depth="2" NCoef="0" IVar="-1" Cut="0.0000000000000000e+00" cType="1" res="4.5747647527605295e-04" rms="4.6351453661918640e-01" purity="5.4744285345077515e-01" nType="-99"/>
          <Node pos="r" depth="2" NCoef="0" IVar="-1" Cut="0.0000000000000000e+00" cType="1" res="-4.7775697894394398e-03" rms="4.5451995730400085e-01" purity="4.5439773797988892e-01" nType="-99"/>
        </Node>
        <Node pos="r" depth="1" NCoef="0" IVar="5" Cut="2.8707616329193115e+00" cType="1" res="-2.1421408746391535e-03" rms="4.6407946944236755e-01" purity="5.0057792663574219e-01" nType="0">
          <Node pos="l" depth="2" NCoef="0" IVar="5" Cut="-1.5116031169891357e+00" cType="1" res="8.4036542102694511e-04" rms="4.6412304043769836e-01" purity="4.9611371755599976e-01" nType="0">
            <Node pos="l" depth="3" NCoef="0" IVar="-1" Cut="0.0000000000000000e+00" cType="1" res="1.3745809905230999e-02" rms="4.6566626429557800e-01" purity="5.2895355224609375e-01" nType="-99"/>
            <Node pos="r" depth="3" NCoef="0" IVar="-1" Cut="0.0000000000000000e+00" cType="1" res="-1.9405361963436007e-03" rms="4.6353560686111450e-01" purity="4.8524039983749390e-01" nType="-99"/>
          </Node>
          <Node pos="r" depth="2" NCoef="0" IVar="-1" Cut="0.0000000000000000e+00" cType="1" res="-3.5269077867269516e-02" rms="4.6222442388534546e-01" purity="5.5146872997283936e-01" nType="-99"/>
        </Node>
      </Node>
    </BinaryTree>
    <BinaryTree type="DecisionTree" boostWeight="1.0000000000000000e+00" itree="306">
      <Node pos="s" depth="0" NCoef="0" IVar="5" Cut="-2.2440147399902344e+00" cType="1" res="-1.7798654735088348e-03" rms="4.6220830082893372e-01" purity="5.0218182802200317e-01" nType="0">
        <Node pos="l" depth="1" NCoef="0" IVar="3" Cut="5.1865725517272949e+00" cType="1" res="1.3275978155434132e-02" rms="4.6508270502090454e-01" purity="5.4469043016433716e-01" nType="0">
          <Node pos="l" depth="2" NCoef="0" IVar="0" Cut="1.3462062500000000e+05" cType="1" res="4.8891911283135414e-03" rms="4.7162795066833496e-01" purity="5.0564205646514893e-01" nType="0">
            <Node pos="l" depth="3" NCoef="0" IVar="-1" Cut="0.0000000000000000e+00" cType="1" res="-1.6267538070678711e-02" rms="4.7192335128784180e-01" purity="4.4945728778839111e-01" nType="-99"/>
            <Node pos="r" depth="3" NCoef="0" IVar="-1" Cut="0.0000000000000000e+00" cType="1" res="2.1307330578565598e-02" rms="4.7092187404632568e-01" purity="5.4463553428649902e-01" nType="-99"/>
          </Node>
          <Node pos="r" depth="2" NCoef="0" IVar="-1" Cut="0.0000000000000000e+00" cType="1" res="3.5588871687650681e-02" rms="4.5255470275878906e-01" purity="6.1561816930770874e-01" nType="-99"/>
        </Node>
        <Node pos="r" depth="1" NCoef="0" IVar="5" Cut="-1.4745343923568726e+00" cType="1" res="-5.8947624638676643e-03" rms="4.6133410930633545e-01" purity="4.9056383967399597e-01" nType="0">
          <Node pos="l" depth="2" NCoef="0" IVar="6" Cut="-1.9448066949844360e+00" cType="1" res="0.0000000000000000e+00" rms="0.0000000000000000e+00" purity="4.8953440785408020e-01" nType="0">
            <Node pos="l" depth="3" NCoef="0" IVar="-1" Cut="0.0000000000000000e+00" cType="1" res="-1.3215570710599422e-02" rms="4.7201782464981079e-01" purity="4.5699021220207214e-01" nType="-99"/>
            <Node pos="r" depth="3" NCoef="0" IVar="-1" Cut="0.0000000000000000e+00" cType="1" res="-6.5077319741249084e-02" rms="4.4456323981285095e-01" purity="5.2682465314865112e-01" nType="-99"/>
          </Node>
          <Node pos="r" depth="2" NCoef="0" IVar="4" Cut="2.7381789684295654e+00" cType="1" res="-1.4370090793818235e-03" rms="4.6150678396224976e-01" purity="4.9075958132743835e-01" nType="0">
            <Node pos="l" depth="3" NCoef="0" IVar="-1" Cut="0.0000000000000000e+00" cType="1" res="3.1826635822653770e-03" rms="4.6550434827804565e-01" purity="4.9319249391555786e-01" nType="-99"/>
            <Node pos="r" depth="3" NCoef="0" IVar="-1" Cut="0.0000000000000000e+00" cType="1" res="-2.8068765532225370e-03" rms="4.4808825850486755e-01" purity="4.8293238878250122e-01" nType="-99"/>
          </Node>
        </Node>
      </Node>
    </BinaryTree>
    <BinaryTree type="DecisionTree" boostWeight="1.0000000000000000e+00" itree="307">
      <Node pos="s" depth="0" NCoef="0" IVar="2" Cut="2.0327375793457031e+02" cType="1" res="-4.5848884619772434e-03" rms="4.6302720904350281e-01" purity="5.0003379583358765e-01" nType="0">
        <Node pos="l" depth="1" NCoef="0" IVar="5" Cut="7.4788141250610352e-01" cType="1" res="7.0911913644522429e-04" rms="4.6139046549797058e-01" purity="5.1193088293075562e-01" nType="0">
          <Node pos="l" depth="2" NCoef="0" IVar="6" Cut="1.3463176488876343e+00" cType="1" res="1.0732497088611126e-02" rms="4.6345978975296021e-01" purity="5.1551437377929688e-01" nType="0">
            <Node pos="l" depth="3" NCoef="0" IVar="-1" Cut="0.0000000000000000e+00" cType="1" res="3.0624840874224901e-03" rms="4.6364900469779968e-01" purity="5.0651937723159790e-01" nType="-99"/>
            <Node pos="r" depth="3" NCoef="0" IVar="-1" Cut="0.0000000000000000e+00" cType="1" res="4.0672652423381805e-02" rms="4.6166980266571045e-01" purity="5.4650837182998657e-01" nType="-99"/>
          </Node>
          <Node pos="r" depth="2" NCoef="0" IVar="5" Cut="1.4317518472671509e+00" cType="1" res="-1.2446367181837559e-02" rms="4.5832780003547668e-01" purity="5.0722765922546387e-01" nType="0">
            <Node pos="l" depth="3" NCoef="0" IVar="-1" Cut="0.0000000000000000e+00" cType="1" res="-4.2086439207196236e-03" rms="4.4337758421897888e-01" purity="3.9822477102279663e-01" nType="-99"/>
            <Node pos="r" depth="3" NCoef="0" IVar="-1" Cut="0.0000000000000000e+00" cType="1" res="-4.1208495385944843e-03" rms="4.6164411306381226e-01" purity="5.3487879037857056e-01" nType="-99"/>
          </Node>
        </Node>
        <Node pos="r" depth="1" NCoef="0" IVar="6" Cut="-2.2439477443695068e+00" cType="1" res="-1.2351371347904205e-02" rms="4.6530896425247192e-01" purity="4.8258036375045776e-01" nType="0">
          <Node pos="l" depth="2" NCoef="0" IVar="4" Cut="2.2496306896209717e+00" cType="1" res="3.5292936954647303e-03" rms="4.7025048732757568e-01" purity="5.0986158847808838e-01" nType="0">
            <Node pos="l" depth="3" NCoef="0" IVar="-1" Cut="0.0000000000000000e+00" cType="1" res="-2.4610159918665886e-02" rms="4.6504652500152588e-01" purity="4.7471803426742554e-01" nType="-99"/>
            <Node pos="r" depth="3" NCoef="0" IVar="-1" Cut="0.0000000000000000e+00" cType="1" res="3.6590822041034698e-02" rms="4.7490966320037842e-01" purity="5.5218088626861572e-01" nType="-99"/>
          </Node>
          <Node pos="r" depth="2" NCoef="0" IVar="6" Cut="3.2075113058090210e-01" cType="1" res="0.0000000000000000e+00" rms="0.0000000000000000e+00" purity="4.7211369872093201e-01" nType="0">
            <Node pos="l" depth="3" NCoef="0" IVar="-1" Cut="0.0000000000000000e+00" cType="1" res="-2.9364619404077530e-02" rms="4.5940461754798889e-01" purity="4.3672034144401550e-01" nType="-99"/>
            <Node pos="r" depth="3" NCoef="0" IVar="-1" Cut="0.0000000000000000e+00" cType="1" res="-5.9959786012768745e-03" rms="4.6468552947044373e-01" purity="4.8905235528945923e-01" nType="-99"/>
          </Node>
        </Node>
      </Node>
    </BinaryTree>
    <BinaryTree type="DecisionTree" boostWeight="1.0000000000000000e+00" itree="308">
      <Node pos="s" depth="0" NCoef="0" IVar="5" Cut="-2.5431749820709229e+00" cType="1" res="-2.4377948138862848e-03" rms="4.6363830566406250e-01" purity="5.0282013416290283e-01" nType="0">
        <Node pos="l" depth="1" NCoef="0" IVar="6" Cut="-7.4802213907241821e-01" cType="1" res="-1.6740886494517326e-02" rms="4.6517607569694519e-01" purity="5.3020948171615601e-01" nType="0">
          <Node pos="l" depth="2" NCoef="0" IVar="7" Cut="5.0000000000000000e+00" cType="1" res="0.0000000000000000e+00" rms="0.0000000000000000e+00" purity="5.2104842662811279e-01" nType="0">
            <Node pos="l" depth="3" NCoef="0" IVar="-1" Cut="0.0000000000000000e+00" cType="1" res="-5.4208724759519100e-03" rms="4.7156706452369690e-01" purity="5.0086897611618042e-01" nType="-99"/>
            <Node pos="r" depth="3" NCoef="0" IVar="-1" Cut="0.0000000000000000e+00" cType="1" res="-2.2002381738275290e-03" rms="4.7607734799385071e-01" purity="5.4243004322052002e-01" nType="-99"/>
          </Node>
          <Node pos="r" depth="2" NCoef="0" IVar="-1" Cut="0.0000000000000000e+00" cType="1" res="-1.7853848636150360e-02" rms="4.5371925830841064e-01" purity="5.4162305593490601e-01" nType="-99"/>
        </Node>
        <Node pos="r" depth="1" NCoef="0" IVar="5" Cut="1.5172293186187744e+00" cType="1" res="1.2623841757886112e-04" rms="4.6331542730331421e-01" purity="4.9791020154953003e-01" nType="0">
          <Node pos="l" depth="2" NCoef="0" IVar="6" Cut="-4.4882217049598694e-01" cType="1" res="6.8035717122256756e-03" rms="4.6433135867118835e-01" purity="4.8589122295379639e-01" nType="0">
            <Node pos="l" depth="3" NCoef="0" IVar="-1" Cut="0.0000000000000000e+00" cType="1" res="-8.3887350047007203e-04" rms="4.6790751814842224e-01" purity="4.5604246854782104e-01" nType="-99"/>
            <Node pos="r" depth="3" NCoef="0" IVar="-1" Cut="0.0000000000000000e+00" cType="1" res="1.8651841208338737e-02" rms="4.5934388041496277e-01" purity="5.2554804086685181e-01" nType="-99"/>
          </Node>
          <Node pos="r" depth="2" NCoef="0" IVar="4" Cut="1.3376302719116211e+00" cType="1" res="-9.6423216164112091e-03" rms="4.6165120601654053e-01" purity="5.1549321413040161e-01" nType="0">
            <Node pos="l" depth="3" NCoef="0" IVar="-1" Cut="0.0000000000000000e+00" cType="1" res="1.2148966081440449e-02" rms="4.5719698071479797e-01" purity="5.1189529895782471e-01" nType="-99"/>
            <Node pos="r" depth="3" NCoef="0" IVar="-1" Cut="0.0000000000000000e+00" cType="1" res="-1.2850161641836166e-02" rms="4.6347776055335999e-01" purity="5.1723051071166992e-01" nType="-99"/>
          </Node>
        </Node>
      </Node>
    </BinaryTree>
    <BinaryTree type="DecisionTree" boostWeight="1.0000000000000000e+00" itree="309">
      <Node pos="s" depth="0" NCoef="0" IVar="2" Cut="3.6151910400390625e+02" cType="1" res="-1.2395278317853808e-03" rms="4.6204975247383118e-01" purity="5.0479632616043091e-01" nType="0">
        <Node pos="l" depth="1" NCoef="0" IVar="8" Cut="1.4003106250000000e+05" cType="1" res="1.2112612603232265e-03" rms="4.6220690011978149e-01" purity="5.0004619359970093e-01" nType="0">
          <Node pos="l" depth="2" NCoef="0" IVar="3" Cut="6.4454283714294434e+00" cType="1" res="2.6355164591223001e-03" rms="4.6334713697433472e-01" purity="4.9001583456993103e-01" nType="0">
            <Node pos="l" depth="3" NCoef="0" IVar="-1" Cut="0.0000000000000000e+00" cType="1" res="6.6636623814702034e-03" rms="4.6866208314895630e-01" purity="4.9162665009498596e-01" nType="-99"/>
            <Node pos="r" depth="3" NCoef="0" IVar="-1" Cut="0.0000000000000000e+00" cType="1" res="-9.8542449995875359e-03" rms="4.5071306824684143e-01" purity="4.8631358146667480e-01" nType="-99"/>
          </Node>
          <Node pos="r" depth="2" NCoef="0" IVar="-1" Cut="0.0000000000000000e+00" cType="1" res="-2.4701194837689400e-02" rms="4.4116312265396118e-01" purity="6.7455446720123291e-01" nType="-99"/>
        </Node>
        <Node pos="r" depth="1" NCoef="0" IVar="6" Cut="-1.0472595691680908e+00" cType="1" res="-1.9574977457523346e-02" rms="4.6045860648155212e-01" purity="5.4033398628234863e-01" nType="0">
          <Node pos="l" depth="2" NCoef="0" IVar="-1" Cut="0.0000000000000000e+00" cType="1" res="1.5754980267956853e-03" rms="4.6940168738365173e-01" purity="5.7379865646362305e-01" nType="-99"/>
          <Node pos="r" depth="2" NCoef="0" IVar="-1" Cut="0.0000000000000000e+00" cType="1" res="-1.1826859787106514e-02" rms="4.5224943757057190e-01" purity="5.1280659437179565e-01" nType="-99"/>
        </Node>
      </Node>
    </BinaryTree>
    <BinaryTree type="DecisionTree" boostWeight="1.0000000000000000e+00" itree="310">
      <Node pos="s" depth="0" NCoef="0" IVar="4" Cut="3.0114457607269287e+00" cType="1" res="-4.5216376893222332e-03" rms="4.6207401156425476e-01" purity="4.9680802226066589e-01" nType="0">
        <Node pos="l" depth="1" NCoef="0" IVar="3" Cut="-8.7863969802856445e-01" cType="1" res="4.3862790334969759e-04" rms="4.6488627791404724e-01" purity="5.0923162698745728e-01" nType="0">
          <Node pos="l" depth="2" NCoef="0" IVar="-1" Cut="0.0000000000000000e+00" cType="1" res="4.3087042868137360e-02" rms="4.7696083784103394e-01" purity="4.7673147916793823e-01" nType="-99"/>
          <Node pos="r" depth="2" NCoef="0" IVar="4" Cut="1.6206991672515869e+00" cType="1" res="-2.9568495228886604e-03" rms="4.6369260549545288e-01" purity="5.1197618246078491e-01" nType="0">
            <Node pos="l" depth="3" NCoef="0" IVar="-1" Cut="0.0000000000000000e+00" cType="1" res="-1.3861310668289661e-02" rms="4.6229344606399536e-01" purity="4.6366220712661743e-01" nType="-99"/>
            <Node pos="r" depth="3" NCoef="0" IVar="-1" Cut="0.0000000000000000e+00" cType="1" res="6.4693437889218330e-03" rms="4.6485191583633423e-01" purity="5.5754005908966064e-01" nType="-99"/>
          </Node>
        </Node>
        <Node pos="r" depth="1" NCoef="0" IVar="4" Cut="3.3909037113189697e+00" cType="1" res="-3.3089999109506607e-02" rms="4.4445523619651794e-01" purity="4.2525497078895569e-01" nType="0">
          <Node pos="l" depth="2" NCoef="0" IVar="4" Cut="3.1379106044769287e+00" cType="1" res="-1.0328761301934719e-02" rms="4.6157425642013550e-01" purity="5.0060069561004639e-01" nType="0">
            <Node pos="l" depth="3" NCoef="0" IVar="-1" Cut="0.0000000000000000e+00" cType="1" res="-2.4392877239733934e-03" rms="4.5753014087677002e-01" purity="4.8669758439064026e-01" nType="-99"/>
            <Node pos="r" depth="3" NCoef="0" IVar="-1" Cut="0.0000000000000000e+00" cType="1" res="1.4821298420429230e-02" rms="4.6522867679595947e-01" purity="5.1676225662231445e-01" nType="-99"/>
          </Node>
          <Node pos="r" depth="2" NCoef="0" IVar="-1" Cut="0.0000000000000000e+00" cType="1" res="-3.6978987045586109e-03" rms="4.0155220031738281e-01" purity="2.6557308435440063e-01" nType="-99"/>
        </Node>
      </Node>
    </BinaryTree>
    <BinaryTree type="DecisionTree" boostWeight="1.0000000000000000e+00" itree="311">
      <Node pos="s" depth="0" NCoef="0" IVar="4" Cut="2.9581894874572754e+00" cType="1" res="0.0000000000000000e+00" rms="0.0000000000000000e+00" purity="4.9111837148666382e-01" nType="0">
        <Node pos="l" depth="1" NCoef="0" IVar="8" Cut="6.2866753906250000e+04" cType="1" res="-4.3122805655002594e-03" rms="4.6154180169105530e-01" purity="5.0154751539230347e-01" nType="0">
          <Node pos="l" depth="2" NCoef="0" IVar="6" Cut="4.4861724972724915e-01" cType="1" res="-1.0124400258064270e-02" rms="4.6215713024139404e-01" purity="4.0219545364379883e-01" nType="0">
            <Node pos="l" depth="3" NCoef="0" IVar="-1" Cut="0.0000000000000000e+00" cType="1" res="-3.5543055855669081e-04" rms="4.6268144249916077e-01" purity="4.1226017475128174e-01" nType="-99"/>
            <Node pos="r" depth="3" NCoef="0" IVar="-1" Cut="0.0000000000000000e+00" cType="1" res="-1.4708814211189747e-02" rms="4.6136984229087830e-01" purity="3.9143151044845581e-01" nType="-99"/>
          </Node>
          <Node pos="r" depth="2" NCoef="0" IVar="8" Cut="9.8736140625000000e+04" cType="1" res="0.0000000000000000e+00" rms="0.0000000000000000e+00" purity="6.1487978696823120e-01" nType="0">
            <Node pos="l" depth="3" NCoef="0" IVar="-1" Cut="0.0000000000000000e+00" cType="1" res="5.9700156562030315e-03" rms="4.6815770864486694e-01" purity="5.8333253860473633e-01" nType="-99"/>
            <Node pos="r" depth="3" NCoef="0" IVar="-1" Cut="0.0000000000000000e+00" cType="1" res="-2.9676908161491156e-03" rms="4.4805034995079041e-01" purity="6.6760808229446411e-01" nType="-99"/>
          </Node>
        </Node>
        <Node pos="r" depth="1" NCoef="0" IVar="2" Cut="1.8732751464843750e+02" cType="1" res="0.0000000000000000e+00" rms="0.0000000000000000e+00" purity="4.3723389506340027e-01" nType="0">
          <Node pos="l" depth="2" NCoef="0" IVar="-1" Cut="0.0000000000000000e+00" cType="1" res="3.2272720709443092e-03" rms="4.5931729674339294e-01" purity="4.9906259775161743e-01" nType="-99"/>
          <Node pos="r" depth="2" NCoef="0" IVar="6" Cut="4.4867008924484253e-01" cType="1" res="0.0000000000000000e+00" rms="0.0000000000000000e+00" purity="3.8950598239898682e-01" nType="0">
            <Node pos="l" depth="3" NCoef="0" IVar="-1" Cut="0.0000000000000000e+00" cType="1" res="-3.0878610908985138e-02" rms="4.6117922663688660e-01" purity="4.7626546025276184e-01" nType="-99"/>
            <Node pos="r" depth="3" NCoef="0" IVar="-1" Cut="0.0000000000000000e+00" cType="1" res="-2.6470068842172623e-03" rms="4.1908225417137146e-01" purity="3.1900057196617126e-01" nType="-99"/>
          </Node>
        </Node>
      </Node>
    </BinaryTree>
    <BinaryTree type="DecisionTree" boostWeight="1.0000000000000000e+00" itree="312">
      <Node pos="s" depth="0" NCoef="0" IVar="6" Cut="-1.0472134351730347e+00" cType="1" res="2.6727565564215183e-03" rms="4.6441075205802917e-01" purity="5.0865554809570312e-01" nType="0">
        <Node pos="l" depth="1" NCoef="0" IVar="5" Cut="1.6454685926437378e+00" cType="1" res="1.2665932998061180e-02" rms="4.6912431716918945e-01" purity="5.0188046693801880e-01" nType="0">
          <Node pos="l" depth="2" NCoef="0" IVar="5" Cut="-1.7822761833667755e-01" cType="1" res="7.3273195885121822e-03" rms="4.7366219758987427e-01" purity="4.7068929672241211e-01" nType="0">
            <Node pos="l" depth="3" NCoef="0" IVar="-1" Cut="0.0000000000000000e+00" cType="1" res="1.2027409859001637e-02" rms="4.7384858131408691e-01" purity="4.7234579920768738e-01" nType="-99"/>
            <Node pos="r" depth="3" NCoef="0" IVar="-1" Cut="0.0000000000000000e+00" cType="1" res="-2.0221624523401260e-02" rms="4.7166869044303894e-01" purity="4.5929694175720215e-01" nType="-99"/>
          </Node>
          <Node pos="r" depth="2" NCoef="0" IVar="-1" Cut="0.0000000000000000e+00" cType="1" res="4.1889149695634842e-02" rms="4.3967193365097046e-01" purity="6.8835371732711792e-01" nType="-99"/>
        </Node>
        <Node pos="r" depth="1" NCoef="0" IVar="8" Cut="9.2367750000000000e+04" cType="1" res="-3.9373338222503662e-03" rms="4.6114748716354370e-01" purity="5.1313704252243042e-01" nType="0">
          <Node pos="l" depth="2" NCoef="0" IVar="8" Cut="6.3582925781250000e+04" cType="1" res="2.2506532259285450e-03" rms="4.6576678752899170e-01" purity="4.7265884280204773e-01" nType="0">
            <Node pos="l" depth="3" NCoef="0" IVar="-1" Cut="0.0000000000000000e+00" cType="1" res="8.5830418393015862e-03" rms="4.6461716294288635e-01" purity="4.2586892843246460e-01" nType="-99"/>
            <Node pos="r" depth="3" NCoef="0" IVar="-1" Cut="0.0000000000000000e+00" cType="1" res="-1.1511259712278843e-02" rms="4.6761620044708252e-01" purity="5.6641244888305664e-01" nType="-99"/>
          </Node>
          <Node pos="r" depth="2" NCoef="0" IVar="4" Cut="2.4423677921295166e+00" cType="1" res="-2.4679886177182198e-02" rms="4.4468623399734497e-01" purity="6.4882248640060425e-01" nType="0">
            <Node pos="l" depth="3" NCoef="0" IVar="-1" Cut="0.0000000000000000e+00" cType="1" res="-1.4591583982110023e-02" rms="4.4688603281974792e-01" purity="6.4651381969451904e-01" nType="-99"/>
            <Node pos="r" depth="3" NCoef="0" IVar="-1" Cut="0.0000000000000000e+00" cType="1" res="-5.6082315742969513e-02" rms="4.3904373049736023e-01" purity="6.5361738204956055e-01" nType="-99"/>
          </Node>
        </Node>
      </Node>
    </BinaryTree>
    <BinaryTree type="DecisionTree" boostWeight="1.0000000000000000e+00" itree="313">
      <Node pos="s" depth="0" NCoef="0" IVar="4" Cut="1.6649944782257080e+00" cType="1" res="-6.6336444579064846e-03" rms="4.6230992674827576e-01" purity="4.9691486358642578e-01" nType="0">
        <Node pos="l" depth="1" NCoef="0" IVar="5" Cut="-2.2437620162963867e+00" cType="1" res="4.2452034540474415e-03" rms="4.6396237611770630e-01" purity="4.7885403037071228e-01" nType="0">
          <Node pos="l" depth="2" NCoef="0" IVar="5" Cut="-2.6713552474975586e+00" cType="1" res="-1.0022519156336784e-02" rms="4.6742233633995056e-01" purity="4.9001380801200867e-01" nType="0">
            <Node pos="l" depth="3" NCoef="0" IVar="-1" Cut="0.0000000000000000e+00" cType="1" res="-2.0970916375517845e-02" rms="4.6386864781379700e-01" purity="4.9473750591278076e-01" nType="-99"/>
            <Node pos="r" depth="3" NCoef="0" IVar="-1" Cut="0.0000000000000000e+00" cType="1" res="-3.4723228309303522e-03" rms="4.7113347053527832e-01" purity="4.8489493131637573e-01" nType="-99"/>
          </Node>
          <Node pos="r" depth="2" NCoef="0" IVar="5" Cut="2.6281299591064453e+00" cType="1" res="8.2876645028591156e-03" rms="4.6289741992950439e-01" purity="4.7569212317466736e-01" nType="0">
            <Node pos="l" depth="3" NCoef="0" IVar="-1" Cut="0.0000000000000000e+00" cType="1" res="5.6054098531603813e-03" rms="4.6521899104118347e-01" purity="4.5480871200561523e-01" nType="-99"/>
            <Node pos="r" depth="3" NCoef="0" IVar="-1" Cut="0.0000000000000000e+00" cType="1" res="2.7334801852703094e-02" rms="4.5109635591506958e-01" purity="5.7660925388336182e-01" nType="-99"/>
          </Node>
        </Node>
        <Node pos="r" depth="1" NCoef="0" IVar="5" Cut="1.9446781873703003e+00" cType="1" res="-1.4571690931916237e-02" rms="4.6093845367431641e-01" purity="5.1009339094161987e-01" nType="0">
          <Node pos="l" depth="2" NCoef="0" IVar="5" Cut="-1.2041413784027100e+00" cType="1" res="-2.2181630134582520e-02" rms="4.5917952060699463e-01" purity="4.9028658866882324e-01" nType="0">
            <Node pos="l" depth="3" NCoef="0" IVar="-1" Cut="0.0000000000000000e+00" cType="1" res="-3.2355540897697210e-03" rms="4.6627458930015564e-01" purity="5.4342812299728394e-01" nType="-99"/>
            <Node pos="r" depth="3" NCoef="0" IVar="-1" Cut="0.0000000000000000e+00" cType="1" res="-8.4104733541607857e-03" rms="4.5038053393363953e-01" purity="4.3230614066123962e-01" nType="-99"/>
          </Node>
          <Node pos="r" depth="2" NCoef="0" IVar="4" Cut="2.4195871353149414e+00" cType="1" res="5.6330673396587372e-03" rms="4.6497228741645813e-01" purity="5.6268155574798584e-01" nType="0">
            <Node pos="l" depth="3" NCoef="0" IVar="-1" Cut="0.0000000000000000e+00" cType="1" res="-1.8949214369058609e-02" rms="4.6480426192283630e-01" purity="5.6812125444412231e-01" nType="-99"/>
            <Node pos="r" depth="3" NCoef="0" IVar="-1" Cut="0.0000000000000000e+00" cType="1" res="2.0477565005421638e-02" rms="4.6459987759590149e-01" purity="5.5941408872604370e-01" nType="-99"/>
          </Node>
        </Node>
      </Node>
    </BinaryTree>
    <BinaryTree type="DecisionTree" boostWeight="1.0000000000000000e+00" itree="314">
      <Node pos="s" depth="0" NCoef="0" IVar="8" Cut="1.0361052343750000e+05" cType="1" res="-3.3939881250262260e-03" rms="4.6243822574615479e-01" purity="5.0117343664169312e-01" nType="0">
        <Node pos="l" depth="1" NCoef="0" IVar="2" Cut="3.9481188964843750e+02" cType="1" res="-6.5101464278995991e-03" rms="4.6643006801605225e-01" purity="4.6864920854568481e-01" nType="0">
          <Node pos="l" depth="2" NCoef="0" IVar="9" Cut="5.8411597656250000e+04" cType="1" res="0.0000000000000000e+00" rms="0.0000000000000000e+00" purity="4.6908369660377502e-01" nType="0">
            <Node pos="l" depth="3" NCoef="0" IVar="-1" Cut="0.0000000000000000e+00" cType="1" res="-3.5638664849102497e-04" rms="4.6890887618064880e-01" purity="4.4229531288146973e-01" nType="-99"/>
            <Node pos="r" depth="3" NCoef="0" IVar="-1" Cut="0.0000000000000000e+00" cType="1" res="-4.6487739309668541e-03" rms="4.6017563343048096e-01" purity="6.0769921541213989e-01" nType="-99"/>
          </Node>
          <Node pos="r" depth="2" NCoef="0" IVar="-1" Cut="0.0000000000000000e+00" cType="1" res="-1.1470274068415165e-02" rms="4.5168665051460266e-01" purity="4.6354883909225464e-01" nType="-99"/>
        </Node>
        <Node pos="r" depth="1" NCoef="0" IVar="5" Cut="4.4862255454063416e-01" cType="1" res="1.3065429404377937e-02" rms="4.4038838148117065e-01" purity="6.7296493053436279e-01" nType="0">
          <Node pos="l" depth="2" NCoef="0" IVar="5" Cut="-2.2880499362945557e+00" cType="1" res="2.0221143495291471e-03" rms="4.3815213441848755e-01" purity="6.5667289495468140e-01" nType="0">
            <Node pos="l" depth="3" NCoef="0" IVar="-1" Cut="0.0000000000000000e+00" cType="1" res="1.5620545484125614e-02" rms="4.3977442383766174e-01" purity="6.7454725503921509e-01" nType="-99"/>
            <Node pos="r" depth="3" NCoef="0" IVar="-1" Cut="0.0000000000000000e+00" cType="1" res="-1.2214455753564835e-02" rms="4.3587443232536316e-01" purity="6.3693732023239136e-01" nType="-99"/>
          </Node>
          <Node pos="r" depth="2" NCoef="0" IVar="-1" Cut="0.0000000000000000e+00" cType="1" res="2.5970093905925751e-02" rms="4.4256067276000977e-01" purity="6.9128656387329102e-01" nType="-99"/>
        </Node>
      </Node>
    </BinaryTree>
    <BinaryTree type="DecisionTree" boostWeight="1.0000000000000000e+00" itree="315">
      <Node pos="s" depth="0" NCoef="0" IVar="3" Cut="1.1012974739074707e+01" cType="1" res="-8.6971395649015903e-04" rms="4.6391230821609497e-01" purity="5.0320965051651001e-01" nType="0">
        <Node pos="l" depth="1" NCoef="0" IVar="0" Cut="1.5311460937500000e+05" cType="1" res="-2.7542579919099808e-03" rms="4.6500077843666077e-01" purity="5.0505238771438599e-01" nType="0">
          <Node pos="l" depth="2" NCoef="0" IVar="3" Cut="-3.5606369376182556e-01" cType="1" res="5.1889428868889809e-03" rms="4.7217410802841187e-01" purity="4.6990144252777100e-01" nType="0">
            <Node pos="l" depth="3" NCoef="0" IVar="-1" Cut="0.0000000000000000e+00" cType="1" res="-9.3920566141605377e-03" rms="4.5966541767120361e-01" purity="3.8158148527145386e-01" nType="-99"/>
            <Node pos="r" depth="3" NCoef="0" IVar="-1" Cut="0.0000000000000000e+00" cType="1" res="5.5565955117344856e-03" rms="4.7416111826896667e-01" purity="4.8637717962265015e-01" nType="-99"/>
          </Node>
          <Node pos="r" depth="2" NCoef="0" IVar="6" Cut="-1.9448299407958984e+00" cType="1" res="-1.2923284433782101e-02" rms="4.5545035600662231e-01" purity="5.5005317926406860e-01" nType="0">
            <Node pos="l" depth="3" NCoef="0" IVar="-1" Cut="0.0000000000000000e+00" cType="1" res="-3.7512890994548798e-02" rms="4.6661606431007385e-01" purity="4.9744355678558350e-01" nType="-99"/>
            <Node pos="r" depth="3" NCoef="0" IVar="-1" Cut="0.0000000000000000e+00" cType="1" res="-6.9593922235071659e-03" rms="4.5069763064384460e-01" purity="5.7122462987899780e-01" nType="-99"/>
          </Node>
        </Node>
        <Node pos="r" depth="1" NCoef="0" IVar="9" Cut="4.1520960937500000e+04" cType="1" res="1.6670251265168190e-02" rms="4.5328071713447571e-01" purity="4.8605889081954956e-01" nType="0">
          <Node pos="l" depth="2" NCoef="0" IVar="-1" Cut="0.0000000000000000e+00" cType="1" res="5.4551996290683746e-02" rms="4.5205113291740417e-01" purity="3.7997004389762878e-01" nType="-99"/>
          <Node pos="r" depth="2" NCoef="0" IVar="-1" Cut="0.0000000000000000e+00" cType="1" res="-3.7629872094839811e-03" rms="4.5359295606613159e-01" purity="5.9312832355499268e-01" nType="-99"/>
        </Node>
      </Node>
    </BinaryTree>
    <BinaryTree type="DecisionTree" boostWeight="1.0000000000000000e+00" itree="316">
      <Node pos="s" depth="0" NCoef="0" IVar="6" Cut="-1.9447474479675293e+00" cType="1" res="-3.8520505768246949e-04" rms="4.6273425221443176e-01" purity="5.0301033258438110e-01" nType="0">
        <Node pos="l" depth="1" NCoef="0" IVar="9" Cut="4.5812167968750000e+04" cType="1" res="-1.1291567236185074e-02" rms="4.7431954741477966e-01" purity="4.6285930275917053e-01" nType="0">
          <Node pos="l" depth="2" NCoef="0" IVar="2" Cut="1.6310325622558594e+02" cType="1" res="-2.7692951261997223e-03" rms="4.7241640090942383e-01" purity="4.1272607445716858e-01" nType="0">
            <Node pos="l" depth="3" NCoef="0" IVar="-1" Cut="0.0000000000000000e+00" cType="1" res="-2.9819054529070854e-02" rms="4.6944811940193176e-01" purity="3.6975932121276855e-01" nType="-99"/>
            <Node pos="r" depth="3" NCoef="0" IVar="-1" Cut="0.0000000000000000e+00" cType="1" res="6.2027592211961746e-03" rms="4.7314646840095520e-01" purity="4.2693772912025452e-01" nType="-99"/>
          </Node>
          <Node pos="r" depth="2" NCoef="0" IVar="6" Cut="-2.6857404708862305e+00" cType="1" res="0.0000000000000000e+00" rms="0.0000000000000000e+00" purity="5.6181555986404419e-01" nType="0">
            <Node pos="l" depth="3" NCoef="0" IVar="-1" Cut="0.0000000000000000e+00" cType="1" res="-1.9504532217979431e-02" rms="4.7745826840400696e-01" purity="5.8025640249252319e-01" nType="-99"/>
            <Node pos="r" depth="3" NCoef="0" IVar="-1" Cut="0.0000000000000000e+00" cType="1" res="-3.7857901304960251e-02" rms="4.7746339440345764e-01" purity="5.4690730571746826e-01" nType="-99"/>
          </Node>
        </Node>
        <Node pos="r" depth="1" NCoef="0" IVar="5" Cut="1.3462252616882324e+00" cType="1" res="4.2710648849606514e-03" rms="4.5761966705322266e-01" purity="5.2015215158462524e-01" nType="0">
          <Node pos="l" depth="2" NCoef="0" IVar="5" Cut="-1.4998912811279297e-01" cType="1" res="1.1064289137721062e-02" rms="4.5362621545791626e-01" purity="5.2785468101501465e-01" nType="0">
            <Node pos="l" depth="3" NCoef="0" IVar="-1" Cut="0.0000000000000000e+00" cType="1" res="3.2084726262837648e-03" rms="4.5267838239669800e-01" purity="5.4624444246292114e-01" nType="-99"/>
            <Node pos="r" depth="3" NCoef="0" IVar="-1" Cut="0.0000000000000000e+00" cType="1" res="2.8684003278613091e-02" rms="4.5533084869384766e-01" purity="4.8691016435623169e-01" nType="-99"/>
          </Node>
          <Node pos="r" depth="2" NCoef="0" IVar="6" Cut="1.9302145242691040e+00" cType="1" res="-3.3346326090395451e-03" rms="4.6193122863769531e-01" purity="5.1152831315994263e-01" nType="0">
            <Node pos="l" depth="3" NCoef="0" IVar="-1" Cut="0.0000000000000000e+00" cType="1" res="-7.5013842433691025e-03" rms="4.4503700733184814e-01" purity="5.2475756406784058e-01" nType="-99"/>
            <Node pos="r" depth="3" NCoef="0" IVar="-1" Cut="0.0000000000000000e+00" cType="1" res="6.0057560913264751e-03" rms="4.7908711433410645e-01" purity="4.9746054410934448e-01" nType="-99"/>
          </Node>
        </Node>
      </Node>
    </BinaryTree>
    <BinaryTree type="DecisionTree" boostWeight="1.0000000000000000e+00" itree="317">
      <Node pos="s" depth="0" NCoef="0" IVar="9" Cut="4.8522316406250000e+04" cType="1" res="-6.4743817783892155e-03" rms="4.6172022819519043e-01" purity="4.9555772542953491e-01" nType="0">
        <Node pos="l" depth="1" NCoef="0" IVar="5" Cut="-2.5428235530853271e+00" cType="1" res="-1.5284358523786068e-02" rms="4.6556729078292847e-01" purity="4.0989878773689270e-01" nType="0">
          <Node pos="l" depth="2" NCoef="0" IVar="-1" Cut="0.0000000000000000e+00" cType="1" res="-2.8660646639764309e-03" rms="4.4894626736640930e-01" purity="3.6300876736640930e-01" nType="-99"/>
          <Node pos="r" depth="2" NCoef="0" IVar="4" Cut="8.2834786176681519e-01" cType="1" res="-7.5235790573060513e-03" rms="4.6788802742958069e-01" purity="4.1786134243011475e-01" nType="0">
            <Node pos="l" depth="3" NCoef="0" IVar="-1" Cut="0.0000000000000000e+00" cType="1" res="1.0793503373861313e-02" rms="4.5970365405082703e-01" purity="3.7601545453071594e-01" nType="-99"/>
            <Node pos="r" depth="3" NCoef="0" IVar="-1" Cut="0.0000000000000000e+00" cType="1" res="-8.9460685849189758e-03" rms="4.6891063451766968e-01" purity="4.2345428466796875e-01" nType="-99"/>
          </Node>
        </Node>
        <Node pos="r" depth="1" NCoef="0" IVar="3" Cut="2.1207928657531738e+00" cType="1" res="8.4378244355320930e-03" rms="4.5474556088447571e-01" purity="6.4054846763610840e-01" nType="0">
          <Node pos="l" depth="2" NCoef="0" IVar="-1" Cut="0.0000000000000000e+00" cType="1" res="3.5311158746480942e-02" rms="4.6988722681999207e-01" purity="5.9108549356460571e-01" nType="-99"/>
          <Node pos="r" depth="2" NCoef="0" IVar="6" Cut="1.0470746755599976e+00" cType="1" res="8.9008099166676402e-04" rms="4.4996219873428345e-01" purity="6.5494465827941895e-01" nType="0">
            <Node pos="l" depth="3" NCoef="0" IVar="-1" Cut="0.0000000000000000e+00" cType="1" res="1.5247597359120846e-02" rms="4.4462907314300537e-01" purity="6.8255019187927246e-01" nType="-99"/>
            <Node pos="r" depth="3" NCoef="0" IVar="-1" Cut="0.0000000000000000e+00" cType="1" res="-3.3726985566318035e-03" rms="4.5839551091194153e-01" purity="6.0665613412857056e-01" nType="-99"/>
          </Node>
        </Node>
      </Node>
    </BinaryTree>
    <BinaryTree type="DecisionTree" boostWeight="1.0000000000000000e+00" itree="318">
      <Node pos="s" depth="0" NCoef="0" IVar="4" Cut="3.2374687194824219e+00" cType="1" res="0.0000000000000000e+00" rms="0.0000000000000000e+00" purity="4.9562406539916992e-01" nType="0">
        <Node pos="l" depth="1" NCoef="0" IVar="4" Cut="3.0869057178497314e+00" cType="1" res="-1.6780231380835176e-03" rms="4.6221813559532166e-01" purity="5.1031917333602905e-01" nType="0">
          <Node pos="l" depth="2" NCoef="0" IVar="8" Cut="1.2233320312500000e+05" cType="1" res="-2.9620798304677010e-03" rms="4.6239349246025085e-01" purity="5.0720310211181641e-01" nType="0">
            <Node pos="l" depth="3" NCoef="0" IVar="-1" Cut="0.0000000000000000e+00" cType="1" res="-4.8968750052154064e-03" rms="4.6512371301651001e-01" purity="4.8597726225852966e-01" nType="-99"/>
            <Node pos="r" depth="3" NCoef="0" IVar="-1" Cut="0.0000000000000000e+00" cType="1" res="1.5359371900558472e-02" rms="4.3659007549285889e-01" purity="6.9908773899078369e-01" nType="-99"/>
          </Node>
          <Node pos="r" depth="2" NCoef="0" IVar="-1" Cut="0.0000000000000000e+00" cType="1" res="2.5675091892480850e-02" rms="4.5800796151161194e-01" purity="5.7180982828140259e-01" nType="-99"/>
        </Node>
        <Node pos="r" depth="1" NCoef="0" IVar="-1" Cut="0.0000000000000000e+00" cType="1" res="-2.1377722732722759e-03" rms="4.2581701278686523e-01" purity="3.1415843963623047e-01" nType="-99"/>
      </Node>
    </BinaryTree>
    <BinaryTree type="DecisionTree" boostWeight="1.0000000000000000e+00" itree="319">
      <Node pos="s" depth="0" NCoef="0" IVar="3" Cut="5.7983851432800293e+00" cType="1" res="-5.8979033492505550e-03" rms="4.6419751644134521e-01" purity="4.9625191092491150e-01" nType="0">
        <Node pos="l" depth="1" NCoef="0" IVar="3" Cut="2.7845995426177979e+00" cType="1" res="-1.3017837889492512e-02" rms="4.6940603852272034e-01" purity="4.8428437113761902e-01" nType="0">
          <Node pos="l" depth="2" NCoef="0" IVar="0" Cut="1.4920889062500000e+05" cType="1" res="-2.0024902187287807e-03" rms="4.7070720791816711e-01" purity="4.6620482206344604e-01" nType="0">
            <Node pos="l" depth="3" NCoef="0" IVar="-1" Cut="0.0000000000000000e+00" cType="1" res="-1.1151637881994247e-02" rms="4.7184672951698303e-01" purity="4.4555804133415222e-01" nType="-99"/>
            <Node pos="r" depth="3" NCoef="0" IVar="-1" Cut="0.0000000000000000e+00" cType="1" res="2.7139410376548767e-02" rms="4.6555891633033752e-01" purity="5.3427219390869141e-01" nType="-99"/>
          </Node>
          <Node pos="r" depth="2" NCoef="0" IVar="0" Cut="1.4068012500000000e+05" cType="1" res="-2.4573639035224915e-02" rms="4.6775838732719421e-01" purity="5.0325089693069458e-01" nType="0">
            <Node pos="l" depth="3" NCoef="0" IVar="-1" Cut="0.0000000000000000e+00" cType="1" res="1.8062606686726213e-03" rms="4.7713747620582581e-01" purity="4.7702187299728394e-01" nType="-99"/>
            <Node pos="r" depth="3" NCoef="0" IVar="-1" Cut="0.0000000000000000e+00" cType="1" res="-1.1111949570477009e-02" rms="4.6152257919311523e-01" purity="5.1852554082870483e-01" nType="-99"/>
          </Node>
        </Node>
        <Node pos="r" depth="1" NCoef="0" IVar="3" Cut="1.1825862884521484e+01" cType="1" res="6.5087750554084778e-03" rms="4.5471277832984924e-01" purity="5.1710581779479980e-01" nType="0">
          <Node pos="l" depth="2" NCoef="0" IVar="3" Cut="7.2337622642517090e+00" cType="1" res="1.1521244421601295e-02" rms="4.5590710639953613e-01" purity="5.3159129619598389e-01" nType="0">
            <Node pos="l" depth="3" NCoef="0" IVar="-1" Cut="0.0000000000000000e+00" cType="1" res="-9.9129984155297279e-03" rms="4.5694607496261597e-01" purity="5.3222531080245972e-01" nType="-99"/>
            <Node pos="r" depth="3" NCoef="0" IVar="-1" Cut="0.0000000000000000e+00" cType="1" res="2.6258159428834915e-02" rms="4.5487937331199646e-01" purity="5.3121107816696167e-01" nType="-99"/>
          </Node>
          <Node pos="r" depth="2" NCoef="0" IVar="-1" Cut="0.0000000000000000e+00" cType="1" res="-1.9150603562593460e-02" rms="4.4954082369804382e-01" purity="4.6111083030700684e-01" nType="-99"/>
        </Node>
      </Node>
    </BinaryTree>
    <BinaryTree type="DecisionTree" boostWeight="1.0000000000000000e+00" itree="320">
      <Node pos="s" depth="0" NCoef="0" IVar="7" Cut="6.0000000000000000e+00" cType="1" res="-6.6987336613237858e-03" rms="4.6005237102508545e-01" purity="4.9624392390251160e-01" nType="0">
        <Node pos="l" depth="1" NCoef="0" IVar="5" Cut="-2.5431902408599854e+00" cType="1" res="7.8529102029278874e-04" rms="4.6200415492057800e-01" purity="4.6473702788352966e-01" nType="0">
          <Node pos="l" depth="2" NCoef="0" IVar="4" Cut="2.2570991516113281e+00" cType="1" res="1.8183566629886627e-02" rms="4.7116714715957642e-01" purity="5.1968902349472046e-01" nType="0">
            <Node pos="l" depth="3" NCoef="0" IVar="-1" Cut="0.0000000000000000e+00" cType="1" res="3.6620277911424637e-02" rms="4.7265774011611938e-01" purity="5.1341432332992554e-01" nType="-99"/>
            <Node pos="r" depth="3" NCoef="0" IVar="-1" Cut="0.0000000000000000e+00" cType="1" res="-5.8095547137781978e-04" rms="4.6842437982559204e-01" purity="5.2847903966903687e-01" nType="-99"/>
          </Node>
          <Node pos="r" depth="2" NCoef="0" IVar="5" Cut="9.7575688362121582e-01" cType="1" res="-2.2041453048586845e-03" rms="4.6034517884254456e-01" purity="4.5529496669769287e-01" nType="0">
            <Node pos="l" depth="3" NCoef="0" IVar="-1" Cut="0.0000000000000000e+00" cType="1" res="-8.4998803213238716e-03" rms="4.6112641692161560e-01" purity="4.2894494533538818e-01" nType="-99"/>
            <Node pos="r" depth="3" NCoef="0" IVar="-1" Cut="0.0000000000000000e+00" cType="1" res="6.3955807127058506e-03" rms="4.5935490727424622e-01" purity="4.8294758796691895e-01" nType="-99"/>
          </Node>
        </Node>
        <Node pos="r" depth="1" NCoef="0" IVar="6" Cut="2.2437551021575928e+00" cType="1" res="-2.6536053046584129e-02" rms="4.5426440238952637e-01" purity="5.7964903116226196e-01" nType="0">
          <Node pos="l" depth="2" NCoef="0" IVar="5" Cut="1.9445052146911621e+00" cType="1" res="-1.1451100930571556e-02" rms="4.5376902818679810e-01" purity="6.1601871252059937e-01" nType="0">
            <Node pos="l" depth="3" NCoef="0" IVar="-1" Cut="0.0000000000000000e+00" cType="1" res="-3.9552766829729080e-03" rms="4.5575252175331116e-01" purity="6.1761218309402466e-01" nType="-99"/>
            <Node pos="r" depth="3" NCoef="0" IVar="-1" Cut="0.0000000000000000e+00" cType="1" res="-2.7396457269787788e-02" rms="4.4778996706008911e-01" purity="6.1181926727294922e-01" nType="-99"/>
          </Node>
          <Node pos="r" depth="2" NCoef="0" IVar="-1" Cut="0.0000000000000000e+00" cType="1" res="-4.2956848628818989e-03" rms="4.5080208778381348e-01" purity="4.2575770616531372e-01" nType="-99"/>
        </Node>
      </Node>
    </BinaryTree>
    <BinaryTree type="DecisionTree" boostWeight="1.0000000000000000e+00" itree="321">
      <Node pos="s" depth="0" NCoef="0" IVar="5" Cut="-2.2440273761749268e+00" cType="1" res="-5.1883128471672535e-03" rms="4.6308824419975281e-01" purity="4.9966710805892944e-01" nType="0">
        <Node pos="l" depth="1" NCoef="0" IVar="8" Cut="1.0379907031250000e+05" cType="1" res="-1.8697861582040787e-02" rms="4.6538960933685303e-01" purity="5.1194185018539429e-01" nType="0">
          <Node pos="l" depth="2" NCoef="0" IVar="6" Cut="-1.9448392391204834e+00" cType="1" res="-2.8152432292699814e-02" rms="4.6897232532501221e-01" purity="4.6827524900436401e-01" nType="0">
            <Node pos="l" depth="3" NCoef="0" IVar="-1" Cut="0.0000000000000000e+00" cType="1" res="-4.5174272963777184e-04" rms="4.7708895802497864e-01" purity="4.9655663967132568e-01" nType="-99"/>
            <Node pos="r" depth="3" NCoef="0" IVar="-1" Cut="0.0000000000000000e+00" cType="1" res="-5.2568208426237106e-02" rms="4.6248659491539001e-01" purity="4.4922071695327759e-01" nType="-99"/>
          </Node>
          <Node pos="r" depth="2" NCoef="0" IVar="-1" Cut="0.0000000000000000e+00" cType="1" res="2.2468330338597298e-02" rms="4.4923537969589233e-01" purity="6.8236196041107178e-01" nType="-99"/>
        </Node>
        <Node pos="r" depth="1" NCoef="0" IVar="5" Cut="-9.6176511049270630e-01" cType="1" res="-1.4007340651005507e-03" rms="4.6237012743949890e-01" purity="4.9622574448585510e-01" nType="0">
          <Node pos="l" depth="2" NCoef="0" IVar="6" Cut="-2.5430321693420410e+00" cType="1" res="1.9310003146529198e-02" rms="4.6636503934860229e-01" purity="5.0536501407623291e-01" nType="0">
            <Node pos="l" depth="3" NCoef="0" IVar="-1" Cut="0.0000000000000000e+00" cType="1" res="4.5808032155036926e-02" rms="4.8173213005065918e-01" purity="5.0260293483734131e-01" nType="-99"/>
            <Node pos="r" depth="3" NCoef="0" IVar="-1" Cut="0.0000000000000000e+00" cType="1" res="1.4463684521615505e-02" rms="4.6017703413963318e-01" purity="5.0641798973083496e-01" nType="-99"/>
          </Node>
          <Node pos="r" depth="2" NCoef="0" IVar="5" Cut="9.9220389127731323e-01" cType="1" res="-7.9622343182563782e-03" rms="4.6090316772460938e-01" purity="4.9333027005195618e-01" nType="0">
            <Node pos="l" depth="3" NCoef="0" IVar="-1" Cut="0.0000000000000000e+00" cType="1" res="-6.9251698441803455e-03" rms="4.5736497640609741e-01" purity="4.2947247624397278e-01" nType="-99"/>
            <Node pos="r" depth="3" NCoef="0" IVar="-1" Cut="0.0000000000000000e+00" cType="1" res="4.7901234938763082e-04" rms="4.6222734451293945e-01" purity="5.2182954549789429e-01" nType="-99"/>
          </Node>
        </Node>
      </Node>
    </BinaryTree>
    <BinaryTree type="DecisionTree" boostWeight="1.0000000000000000e+00" itree="322">
      <Node pos="s" depth="0" NCoef="0" IVar="5" Cut="-7.4806219339370728e-01" cType="1" res="6.2443627975881100e-03" rms="4.6213379502296448e-01" purity="5.1116764545440674e-01" nType="0">
        <Node pos="l" depth="1" NCoef="0" IVar="6" Cut="-2.2438604831695557e+00" cType="1" res="1.2924679554998875e-02" rms="4.6492123603820801e-01" purity="5.2340263128280640e-01" nType="0">
          <Node pos="l" depth="2" NCoef="0" IVar="4" Cut="2.4599018096923828e+00" cType="1" res="0.0000000000000000e+00" rms="0.0000000000000000e+00" purity="4.8677256703376770e-01" nType="0">
            <Node pos="l" depth="3" NCoef="0" IVar="-1" Cut="0.0000000000000000e+00" cType="1" res="1.8664490431547165e-02" rms="4.7990849614143372e-01" purity="4.9866074323654175e-01" nType="-99"/>
            <Node pos="r" depth="3" NCoef="0" IVar="-1" Cut="0.0000000000000000e+00" cType="1" res="-4.3014127761125565e-02" rms="4.7531476616859436e-01" purity="4.6574884653091431e-01" nType="-99"/>
          </Node>
          <Node pos="r" depth="2" NCoef="0" IVar="5" Cut="-2.6856634616851807e+00" cType="1" res="2.1436344832181931e-02" rms="4.5638135075569153e-01" purity="5.4493319988250732e-01" nType="0">
            <Node pos="l" depth="3" NCoef="0" IVar="-1" Cut="0.0000000000000000e+00" cType="1" res="2.3511480540037155e-02" rms="4.5360442996025085e-01" purity="5.7155752182006836e-01" nType="-99"/>
            <Node pos="r" depth="3" NCoef="0" IVar="-1" Cut="0.0000000000000000e+00" cType="1" res="1.1636033654212952e-02" rms="4.5738917589187622e-01" purity="5.3328257799148560e-01" nType="-99"/>
          </Node>
        </Node>
        <Node pos="r" depth="1" NCoef="0" IVar="5" Cut="5.4847615957260132e-01" cType="1" res="1.2076207203790545e-03" rms="4.5995685458183289e-01" purity="5.0194287300109863e-01" nType="0">
          <Node pos="l" depth="2" NCoef="0" IVar="8" Cut="5.5710136718750000e+04" cType="1" res="-2.4959860369563103e-02" rms="4.5667919516563416e-01" purity="4.2052173614501953e-01" nType="0">
            <Node pos="l" depth="3" NCoef="0" IVar="-1" Cut="0.0000000000000000e+00" cType="1" res="-1.7266027629375458e-02" rms="4.4558504223823547e-01" purity="3.1260982155799866e-01" nType="-99"/>
            <Node pos="r" depth="3" NCoef="0" IVar="-1" Cut="0.0000000000000000e+00" cType="1" res="-3.6484044976532459e-03" rms="4.7084927558898926e-01" purity="5.7115298509597778e-01" nType="-99"/>
          </Node>
          <Node pos="r" depth="2" NCoef="0" IVar="5" Cut="2.0303847789764404e+00" cType="1" res="7.9612052068114281e-03" rms="4.6055766940116882e-01" purity="5.2295690774917603e-01" nType="0">
            <Node pos="l" depth="3" NCoef="0" IVar="-1" Cut="0.0000000000000000e+00" cType="1" res="1.8685713410377502e-02" rms="4.5987042784690857e-01" purity="4.9960458278656006e-01" nType="-99"/>
            <Node pos="r" depth="3" NCoef="0" IVar="-1" Cut="0.0000000000000000e+00" cType="1" res="7.6394516509026289e-04" rms="4.6092024445533752e-01" purity="5.3995245695114136e-01" nType="-99"/>
          </Node>
        </Node>
      </Node>
    </BinaryTree>
    <BinaryTree type="DecisionTree" boostWeight="1.0000000000000000e+00" itree="323">
      <Node pos="s" depth="0" NCoef="0" IVar="4" Cut="2.9684450626373291e+00" cType="1" res="-9.0757692232728004e-03" rms="4.6027585864067078e-01" purity="4.9437606334686279e-01" nType="0">
        <Node pos="l" depth="1" NCoef="0" IVar="3" Cut="1.2899753570556641e+01" cType="1" res="-4.5798220671713352e-03" rms="4.6255826950073242e-01" purity="5.0501865148544312e-01" nType="0">
          <Node pos="l" depth="2" NCoef="0" IVar="4" Cut="1.8711682558059692e+00" cType="1" res="0.0000000000000000e+00" rms="0.0000000000000000e+00" purity="5.1046937704086304e-01" nType="0">
            <Node pos="l" depth="3" NCoef="0" IVar="-1" Cut="0.0000000000000000e+00" cType="1" res="-8.1895366311073303e-03" rms="4.6741122007369995e-01" purity="4.8178482055664062e-01" nType="-99"/>
            <Node pos="r" depth="3" NCoef="0" IVar="-1" Cut="0.0000000000000000e+00" cType="1" res="2.9992531053721905e-03" rms="4.5918115973472595e-01" purity="5.4969525337219238e-01" nType="-99"/>
          </Node>
          <Node pos="r" depth="2" NCoef="0" IVar="-1" Cut="0.0000000000000000e+00" cType="1" res="-4.5144330710172653e-02" rms="4.3726196885108948e-01" purity="4.1498774290084839e-01" nType="-99"/>
        </Node>
        <Node pos="r" depth="1" NCoef="0" IVar="6" Cut="7.4790197610855103e-01" cType="1" res="-3.2765921205282211e-02" rms="4.4731160998344421e-01" purity="4.3829780817031860e-01" nType="0">
          <Node pos="l" depth="2" NCoef="0" IVar="-1" Cut="0.0000000000000000e+00" cType="1" res="7.2829280979931355e-03" rms="4.6003556251525879e-01" purity="5.1924610137939453e-01" nType="-99"/>
          <Node pos="r" depth="2" NCoef="0" IVar="-1" Cut="0.0000000000000000e+00" cType="1" res="-3.3832951448857784e-03" rms="4.3002811074256897e-01" purity="3.5456666350364685e-01" nType="-99"/>
        </Node>
      </Node>
    </BinaryTree>
    <BinaryTree type="DecisionTree" boostWeight="1.0000000000000000e+00" itree="324">
      <Node pos="s" depth="0" NCoef="0" IVar="3" Cut="-1.9931678771972656e+00" cType="1" res="0.0000000000000000e+00" rms="0.0000000000000000e+00" purity="5.0103801488876343e-01" nType="0">
        <Node pos="l" depth="1" NCoef="0" IVar="-1" Cut="0.0000000000000000e+00" cType="1" res="-3.6830764263868332e-02" rms="4.5757618546485901e-01" purity="3.7873557209968567e-01" nType="-99"/>
        <Node pos="r" depth="1" NCoef="0" IVar="3" Cut="9.4098005294799805e+00" cType="1" res="6.4827583264559507e-04" rms="4.6114557981491089e-01" purity="5.0830519199371338e-01" nType="0">
          <Node pos="l" depth="2" NCoef="0" IVar="6" Cut="1.3462549448013306e+00" cType="1" res="-2.6127849705517292e-03" rms="4.6321716904640198e-01" purity="5.0896483659744263e-01" nType="0">
            <Node pos="l" depth="3" NCoef="0" IVar="-1" Cut="0.0000000000000000e+00" cType="1" res="7.0608309470117092e-03" rms="4.6117898821830750e-01" purity="5.3492516279220581e-01" nType="-99"/>
            <Node pos="r" depth="3" NCoef="0" IVar="-1" Cut="0.0000000000000000e+00" cType="1" res="-5.0032357685267925e-03" rms="4.6615046262741089e-01" purity="4.6710795164108276e-01" nType="-99"/>
          </Node>
          <Node pos="r" depth="2" NCoef="0" IVar="7" Cut="5.0000000000000000e+00" cType="1" res="1.8392071127891541e-02" rms="4.4929412007331848e-01" purity="5.0471836328506470e-01" nType="0">
            <Node pos="l" depth="3" NCoef="0" IVar="-1" Cut="0.0000000000000000e+00" cType="1" res="4.9816779792308807e-02" rms="4.5476070046424866e-01" purity="4.2820617556571960e-01" nType="-99"/>
            <Node pos="r" depth="3" NCoef="0" IVar="-1" Cut="0.0000000000000000e+00" cType="1" res="2.5019433815032244e-03" rms="4.4361674785614014e-01" purity="5.7431530952453613e-01" nType="-99"/>
          </Node>
        </Node>
      </Node>
    </BinaryTree>
    <BinaryTree type="DecisionTree" boostWeight="1.0000000000000000e+00" itree="325">
      <Node pos="s" depth="0" NCoef="0" IVar="5" Cut="1.4947326481342316e-01" cType="1" res="-6.0937982052564621e-03" rms="4.6340849995613098e-01" purity="4.9990186095237732e-01" nType="0">
        <Node pos="l" depth="1" NCoef="0" IVar="6" Cut="2.5431120395660400e+00" cType="1" res="-1.3119640760123730e-02" rms="4.6466141939163208e-01" purity="4.9080786108970642e-01" nType="0">
          <Node pos="l" depth="2" NCoef="0" IVar="3" Cut="6.3399171829223633e+00" cType="1" res="-8.1673813983798027e-03" rms="4.6546122431755066e-01" purity="5.0039327144622803e-01" nType="0">
            <Node pos="l" depth="3" NCoef="0" IVar="-1" Cut="0.0000000000000000e+00" cType="1" res="-1.6840962925925851e-03" rms="4.7182211279869080e-01" purity="5.0045454502105713e-01" nType="-99"/>
            <Node pos="r" depth="3" NCoef="0" IVar="-1" Cut="0.0000000000000000e+00" cType="1" res="-3.1120385974645615e-02" rms="4.5101168751716614e-01" purity="5.0026035308837891e-01" nType="-99"/>
          </Node>
          <Node pos="r" depth="2" NCoef="0" IVar="-1" Cut="0.0000000000000000e+00" cType="1" res="-1.3282692991197109e-02" rms="4.5525401830673218e-01" purity="4.0651583671569824e-01" nType="-99"/>
        </Node>
        <Node pos="r" depth="1" NCoef="0" IVar="9" Cut="6.6622312500000000e+04" cType="1" res="1.1883876286447048e-03" rms="4.6199354529380798e-01" purity="5.0932765007019043e-01" nType="0">
          <Node pos="l" depth="2" NCoef="0" IVar="8" Cut="4.5180960937500000e+04" cType="1" res="-2.4850140325725079e-03" rms="4.6771219372749329e-01" purity="4.6430650353431702e-01" nType="0">
            <Node pos="l" depth="3" NCoef="0" IVar="-1" Cut="0.0000000000000000e+00" cType="1" res="1.0722122155129910e-02" rms="4.5646327733993530e-01" purity="3.4241926670074463e-01" nType="-99"/>
            <Node pos="r" depth="3" NCoef="0" IVar="-1" Cut="0.0000000000000000e+00" cType="1" res="-9.4055226072669029e-03" rms="4.7272878885269165e-01" purity="5.2100974321365356e-01" nType="-99"/>
          </Node>
          <Node pos="r" depth="2" NCoef="0" IVar="6" Cut="4.4839861989021301e-01" cType="1" res="1.7238058149814606e-02" rms="4.3576624989509583e-01" purity="7.0603221654891968e-01" nType="0">
            <Node pos="l" depth="3" NCoef="0" IVar="-1" Cut="0.0000000000000000e+00" cType="1" res="1.3174674473702908e-02" rms="4.0881982445716858e-01" purity="7.5397813320159912e-01" nType="-99"/>
            <Node pos="r" depth="3" NCoef="0" IVar="-1" Cut="0.0000000000000000e+00" cType="1" res="3.3469196408987045e-02" rms="4.6606487035751343e-01" purity="6.4815592765808105e-01" nType="-99"/>
          </Node>
        </Node>
      </Node>
    </BinaryTree>
    <BinaryTree type="DecisionTree" boostWeight="1.0000000000000000e+00" itree="326">
      <Node pos="s" depth="0" NCoef="0" IVar="6" Cut="-1.9447964429855347e+00" cType="1" res="-1.0865650838240981e-03" rms="4.6130648255348206e-01" purity="5.0021630525588989e-01" nType="0">
        <Node pos="l" depth="1" NCoef="0" IVar="6" Cut="-2.7426464557647705e+00" cType="1" res="9.1926064342260361e-03" rms="4.7228562831878662e-01" purity="4.7552722692489624e-01" nType="0">
          <Node pos="l" depth="2" NCoef="0" IVar="7" Cut="5.0000000000000000e+00" cType="1" res="-5.8345776051282883e-03" rms="4.6862956881523132e-01" purity="4.6654421091079712e-01" nType="0">
            <Node pos="l" depth="3" NCoef="0" IVar="-1" Cut="0.0000000000000000e+00" cType="1" res="-2.3692376911640167e-02" rms="4.6405208110809326e-01" purity="4.3805629014968872e-01" nType="-99"/>
            <Node pos="r" depth="3" NCoef="0" IVar="-1" Cut="0.0000000000000000e+00" cType="1" res="9.2824846506118774e-03" rms="4.7424867749214172e-01" purity="5.0453150272369385e-01" nType="-99"/>
          </Node>
          <Node pos="r" depth="2" NCoef="0" IVar="4" Cut="1.9354761838912964e+00" cType="1" res="2.0089011639356613e-02" rms="4.7461932897567749e-01" purity="4.8203834891319275e-01" nType="0">
            <Node pos="l" depth="3" NCoef="0" IVar="-1" Cut="0.0000000000000000e+00" cType="1" res="2.6868262793868780e-03" rms="4.7710660099983215e-01" purity="4.5496082305908203e-01" nType="-99"/>
            <Node pos="r" depth="3" NCoef="0" IVar="-1" Cut="0.0000000000000000e+00" cType="1" res="3.7415850907564163e-02" rms="4.7149381041526794e-01" purity="5.0876390933990479e-01" nType="-99"/>
          </Node>
        </Node>
        <Node pos="r" depth="1" NCoef="0" IVar="3" Cut="5.7983851432800293e+00" cType="1" res="-5.4941563867032528e-03" rms="4.5644697546958923e-01" purity="5.1080268621444702e-01" nType="0">
          <Node pos="l" depth="2" NCoef="0" IVar="1" Cut="2.0929907812500000e+05" cType="1" res="3.2512401230633259e-03" rms="4.6277838945388794e-01" purity="5.1243174076080322e-01" nType="0">
            <Node pos="l" depth="3" NCoef="0" IVar="-1" Cut="0.0000000000000000e+00" cType="1" res="4.8818076029419899e-03" rms="4.6562558412551880e-01" purity="5.3038585186004639e-01" nType="-99"/>
            <Node pos="r" depth="3" NCoef="0" IVar="-1" Cut="0.0000000000000000e+00" cType="1" res="-2.5295022875070572e-02" rms="4.4248369336128235e-01" purity="3.9156922698020935e-01" nType="-99"/>
          </Node>
          <Node pos="r" depth="2" NCoef="0" IVar="5" Cut="1.4951626956462860e-01" cType="1" res="-2.1313535049557686e-02" rms="4.4432821869850159e-01" purity="5.0785595178604126e-01" nType="0">
            <Node pos="l" depth="3" NCoef="0" IVar="-1" Cut="0.0000000000000000e+00" cType="1" res="-3.0050517525523901e-03" rms="4.3216779828071594e-01" purity="5.4519098997116089e-01" nType="-99"/>
            <Node pos="r" depth="3" NCoef="0" IVar="-1" Cut="0.0000000000000000e+00" cType="1" res="-3.9056807756423950e-02" rms="4.5149922370910645e-01" purity="4.8456797003746033e-01" nType="-99"/>
          </Node>
        </Node>
      </Node>
    </BinaryTree>
    <BinaryTree type="DecisionTree" boostWeight="1.0000000000000000e+00" itree="327">
      <Node pos="s" depth="0" NCoef="0" IVar="2" Cut="3.6151910400390625e+02" cType="1" res="3.6344765685498714e-03" rms="4.6405547857284546e-01" purity="5.0303441286087036e-01" nType="0">
        <Node pos="l" depth="1" NCoef="0" IVar="6" Cut="-2.8423650264739990e+00" cType="1" res="5.7729664258658886e-03" rms="4.6355131268501282e-01" purity="4.9732139706611633e-01" nType="0">
          <Node pos="l" depth="2" NCoef="0" IVar="5" Cut="-7.4780631065368652e-01" cType="1" res="-1.8410783261060715e-02" rms="4.6902325749397278e-01" purity="4.3226051330566406e-01" nType="0">
            <Node pos="l" depth="3" NCoef="0" IVar="-1" Cut="0.0000000000000000e+00" cType="1" res="-3.3077605068683624e-02" rms="4.6985641121864319e-01" purity="4.4637355208396912e-01" nType="-99"/>
            <Node pos="r" depth="3" NCoef="0" IVar="-1" Cut="0.0000000000000000e+00" cType="1" res="4.4416794553399086e-03" rms="4.6717482805252075e-01" purity="4.1804155707359314e-01" nType="-99"/>
          </Node>
          <Node pos="r" depth="2" NCoef="0" IVar="2" Cut="1.9136242675781250e+02" cType="1" res="8.2241054624319077e-03" rms="4.6292260289192200e-01" purity="5.0391560792922974e-01" nType="0">
            <Node pos="l" depth="3" NCoef="0" IVar="-1" Cut="0.0000000000000000e+00" cType="1" res="1.9227690063416958e-04" rms="4.5858082175254822e-01" purity="5.1765143871307373e-01" nType="-99"/>
            <Node pos="r" depth="3" NCoef="0" IVar="-1" Cut="0.0000000000000000e+00" cType="1" res="1.6934519633650780e-02" rms="4.6904569864273071e-01" purity="4.8352056741714478e-01" nType="-99"/>
          </Node>
        </Node>
        <Node pos="r" depth="1" NCoef="0" IVar="6" Cut="1.3461825847625732e+00" cType="1" res="0.0000000000000000e+00" rms="0.0000000000000000e+00" purity="5.4689323902130127e-01" nType="0">
          <Node pos="l" depth="2" NCoef="0" IVar="-1" Cut="0.0000000000000000e+00" cType="1" res="-4.0421716868877411e-02" rms="4.6778556704521179e-01" purity="5.2145421504974365e-01" nType="-99"/>
          <Node pos="r" depth="2" NCoef="0" IVar="-1" Cut="0.0000000000000000e+00" cType="1" res="1.3722786679863930e-02" rms="4.6597725152969360e-01" purity="5.8370053768157959e-01" nType="-99"/>
        </Node>
      </Node>
    </BinaryTree>
    <BinaryTree type="DecisionTree" boostWeight="1.0000000000000000e+00" itree="328">
      <Node pos="s" depth="0" NCoef="0" IVar="8" Cut="6.1907343750000000e+04" cType="1" res="-1.0258066467940807e-03" rms="4.5716610550880432e-01" purity="4.9524733424186707e-01" nType="0">
        <Node pos="l" depth="1" NCoef="0" IVar="4" Cut="2.9356329441070557e+00" cType="1" res="-1.0799083858728409e-02" rms="4.5544132590293884e-01" purity="3.8618266582489014e-01" nType="0">
          <Node pos="l" depth="2" NCoef="0" IVar="4" Cut="1.9878513813018799e+00" cType="1" res="-7.7011971734464169e-04" rms="4.6249154210090637e-01" purity="4.0400719642639160e-01" nType="0">
            <Node pos="l" depth="3" NCoef="0" IVar="-1" Cut="0.0000000000000000e+00" cType="1" res="9.0447645634412766e-03" rms="4.6218490600585938e-01" purity="3.8924565911293030e-01" nType="-99"/>
            <Node pos="r" depth="3" NCoef="0" IVar="-1" Cut="0.0000000000000000e+00" cType="1" res="-6.3936952501535416e-03" rms="4.6271112561225891e-01" purity="4.2762097716331482e-01" nType="-99"/>
          </Node>
          <Node pos="r" depth="2" NCoef="0" IVar="-1" Cut="0.0000000000000000e+00" cType="1" res="-2.4695869069546461e-03" rms="4.1944518685340881e-01" purity="3.0625617504119873e-01" nType="-99"/>
        </Node>
        <Node pos="r" depth="1" NCoef="0" IVar="9" Cut="6.1536160156250000e+04" cType="1" res="9.7255930304527283e-03" rms="4.5881560444831848e-01" purity="6.1522734165191650e-01" nType="0">
          <Node pos="l" depth="2" NCoef="0" IVar="9" Cut="4.9354320312500000e+04" cType="1" res="0.0000000000000000e+00" rms="0.0000000000000000e+00" purity="5.7097852230072021e-01" nType="0">
            <Node pos="l" depth="3" NCoef="0" IVar="-1" Cut="0.0000000000000000e+00" cType="1" res="2.4615719914436340e-02" rms="4.7890296578407288e-01" purity="5.2561897039413452e-01" nType="-99"/>
            <Node pos="r" depth="3" NCoef="0" IVar="-1" Cut="0.0000000000000000e+00" cType="1" res="4.5166611671447754e-02" rms="4.5882242918014526e-01" purity="6.4664447307586670e-01" nType="-99"/>
          </Node>
          <Node pos="r" depth="2" NCoef="0" IVar="6" Cut="-1.9449095726013184e+00" cType="1" res="-1.0735329240560532e-02" rms="4.4272366166114807e-01" purity="6.6653090715408325e-01" nType="0">
            <Node pos="l" depth="3" NCoef="0" IVar="-1" Cut="0.0000000000000000e+00" cType="1" res="-3.5850711166858673e-02" rms="4.6471202373504639e-01" purity="5.9564745426177979e-01" nType="-99"/>
            <Node pos="r" depth="3" NCoef="0" IVar="-1" Cut="0.0000000000000000e+00" cType="1" res="-4.9453228712081909e-03" rms="4.3603777885437012e-01" purity="6.8670159578323364e-01" nType="-99"/>
          </Node>
        </Node>
      </Node>
    </BinaryTree>
    <BinaryTree type="DecisionTree" boostWeight="1.0000000000000000e+00" itree="329">
      <Node pos="s" depth="0" NCoef="0" IVar="6" Cut="2.8422784805297852e+00" cType="1" res="-4.6785762533545494e-03" rms="4.6203416585922241e-01" purity="5.0282204151153564e-01" nType="0">
        <Node pos="l" depth="1" NCoef="0" IVar="6" Cut="2.7775841951370239e-01" cType="1" res="-7.6332725584506989e-03" rms="4.6091288328170776e-01" purity="5.0287163257598877e-01" nType="0">
          <Node pos="l" depth="2" NCoef="0" IVar="9" Cut="4.3970437500000000e+04" cType="1" res="2.3214134853333235e-03" rms="4.6217888593673706e-01" purity="5.1371973752975464e-01" nType="0">
            <Node pos="l" depth="3" NCoef="0" IVar="-1" Cut="0.0000000000000000e+00" cType="1" res="-4.9281921237707138e-03" rms="4.6694377064704895e-01" purity="4.0632188320159912e-01" nType="-99"/>
            <Node pos="r" depth="3" NCoef="0" IVar="-1" Cut="0.0000000000000000e+00" cType="1" res="1.1248637922108173e-02" rms="4.5634806156158447e-01" purity="6.4063888788223267e-01" nType="-99"/>
          </Node>
          <Node pos="r" depth="2" NCoef="0" IVar="3" Cut="2.4624843597412109e+00" cType="1" res="-2.1210955455899239e-02" rms="4.5883241295814514e-01" purity="4.8807531595230103e-01" nType="0">
            <Node pos="l" depth="3" NCoef="0" IVar="-1" Cut="0.0000000000000000e+00" cType="1" res="-5.2580153569579124e-03" rms="4.6851074695587158e-01" purity="4.2624378204345703e-01" nType="-99"/>
            <Node pos="r" depth="3" NCoef="0" IVar="-1" Cut="0.0000000000000000e+00" cType="1" res="-1.4150069095194340e-02" rms="4.5417213439941406e-01" purity="5.1534801721572876e-01" nType="-99"/>
          </Node>
        </Node>
        <Node pos="r" depth="1" NCoef="0" IVar="5" Cut="7.4760448932647705e-01" cType="1" res="2.2945463657379150e-02" rms="4.7149360179901123e-01" purity="5.0235819816589355e-01" nType="0">
          <Node pos="l" depth="2" NCoef="0" IVar="-1" Cut="0.0000000000000000e+00" cType="1" res="2.6454387698322535e-03" rms="4.7260963916778564e-01" purity="4.3326616287231445e-01" nType="-99"/>
          <Node pos="r" depth="2" NCoef="0" IVar="-1" Cut="0.0000000000000000e+00" cType="1" res="5.2371267229318619e-02" rms="4.6950501203536987e-01" purity="5.7038486003875732e-01" nType="-99"/>
        </Node>
      </Node>
    </BinaryTree>
    <BinaryTree type="DecisionTree" boostWeight="1.0000000000000000e+00" itree="330">
      <Node pos="s" depth="0" NCoef="0" IVar="4" Cut="3.1856021881103516e+00" cType="1" res="-1.3230585493147373e-02" rms="4.5811673998832703e-01" purity="4.8978123068809509e-01" nType="0">
        <Node pos="l" depth="1" NCoef="0" IVar="3" Cut="5.8608446121215820e+00" cType="1" res="0.0000000000000000e+00" rms="0.0000000000000000e+00" purity="5.0513851642608643e-01" nType="0">
          <Node pos="l" depth="2" NCoef="0" IVar="6" Cut="1.0471236705780029e+00" cType="1" res="-1.6759423539042473e-02" rms="4.6772480010986328e-01" purity="4.9503070116043091e-01" nType="0">
            <Node pos="l" depth="3" NCoef="0" IVar="-1" Cut="0.0000000000000000e+00" cType="1" res="-7.7072302810847759e-03" rms="4.6419134736061096e-01" purity="5.1648759841918945e-01" nType="-99"/>
            <Node pos="r" depth="3" NCoef="0" IVar="-1" Cut="0.0000000000000000e+00" cType="1" res="-9.0152183547616005e-03" rms="4.7288009524345398e-01" purity="4.6160992980003357e-01" nType="-99"/>
          </Node>
          <Node pos="r" depth="2" NCoef="0" IVar="4" Cut="1.7105432748794556e+00" cType="1" res="7.9237343743443489e-03" rms="4.4734895229339600e-01" purity="5.2280032634735107e-01" nType="0">
            <Node pos="l" depth="3" NCoef="0" IVar="-1" Cut="0.0000000000000000e+00" cType="1" res="-1.7189914360642433e-03" rms="4.4779959321022034e-01" purity="4.6206301450729370e-01" nType="-99"/>
            <Node pos="r" depth="3" NCoef="0" IVar="-1" Cut="0.0000000000000000e+00" cType="1" res="1.8507225438952446e-02" rms="4.4667544960975647e-01" purity="5.8635842800140381e-01" nType="-99"/>
          </Node>
        </Node>
        <Node pos="r" depth="1" NCoef="0" IVar="-1" Cut="0.0000000000000000e+00" cType="1" res="-2.3658880963921547e-03" rms="4.2701137065887451e-01" purity="3.2686921954154968e-01" nType="-99"/>
      </Node>
    </BinaryTree>
    <BinaryTree type="DecisionTree" boostWeight="1.0000000000000000e+00" itree="331">
      <Node pos="s" depth="0" NCoef="0" IVar="4" Cut="2.9988031387329102e+00" cType="1" res="-6.0078855603933334e-03" rms="4.6061128377914429e-01" purity="4.9449679255485535e-01" nType="0">
        <Node pos="l" depth="1" NCoef="0" IVar="4" Cut="1.6014447212219238e+00" cType="1" res="1.3733569066971540e-03" rms="4.6394303441047668e-01" purity="5.0870591402053833e-01" nType="0">
          <Node pos="l" depth="2" NCoef="0" IVar="4" Cut="1.4549256563186646e+00" cType="1" res="7.7385860495269299e-03" rms="4.6385046839714050e-01" purity="4.7616046667098999e-01" nType="0">
            <Node pos="l" depth="3" NCoef="0" IVar="-1" Cut="0.0000000000000000e+00" cType="1" res="4.6429387293756008e-03" rms="4.6262460947036743e-01" purity="4.6803590655326843e-01" nType="-99"/>
            <Node pos="r" depth="3" NCoef="0" IVar="-1" Cut="0.0000000000000000e+00" cType="1" res="4.8420693725347519e-02" rms="4.7195509076118469e-01" purity="5.3718626499176025e-01" nType="-99"/>
          </Node>
          <Node pos="r" depth="2" NCoef="0" IVar="6" Cut="2.8422834873199463e+00" cType="1" res="-4.3597933836281300e-03" rms="4.6395164728164673e-01" purity="5.3801941871643066e-01" nType="0">
            <Node pos="l" depth="3" NCoef="0" IVar="-1" Cut="0.0000000000000000e+00" cType="1" res="-1.8395696533843875e-03" rms="4.6265953779220581e-01" purity="5.4107004404067993e-01" nType="-99"/>
            <Node pos="r" depth="3" NCoef="0" IVar="-1" Cut="0.0000000000000000e+00" cType="1" res="-3.2654210925102234e-02" rms="4.7397840023040771e-01" purity="5.1271837949752808e-01" nType="-99"/>
          </Node>
        </Node>
        <Node pos="r" depth="1" NCoef="0" IVar="6" Cut="7.4759781360626221e-01" cType="1" res="-4.5531477779150009e-02" rms="4.4024387001991272e-01" purity="4.1841289401054382e-01" nType="0">
          <Node pos="l" depth="2" NCoef="0" IVar="-1" Cut="0.0000000000000000e+00" cType="1" res="8.8997846469283104e-03" rms="4.5273619890213013e-01" purity="5.1842397451400757e-01" nType="-99"/>
          <Node pos="r" depth="2" NCoef="0" IVar="-1" Cut="0.0000000000000000e+00" cType="1" res="-2.9803612269461155e-03" rms="4.2192983627319336e-01" purity="3.2389211654663086e-01" nType="-99"/>
        </Node>
      </Node>
    </BinaryTree>
    <BinaryTree type="DecisionTree" boostWeight="1.0000000000000000e+00" itree="332">
      <Node pos="s" depth="0" NCoef="0" IVar="6" Cut="-2.2439899444580078e+00" cType="1" res="-4.6615866012871265e-03" rms="4.6036747097969055e-01" purity="4.9884986877441406e-01" nType="0">
        <Node pos="l" depth="1" NCoef="0" IVar="4" Cut="2.4623444080352783e+00" cType="1" res="7.2348057292401791e-03" rms="4.7269505262374878e-01" purity="4.7530400753021240e-01" nType="0">
          <Node pos="l" depth="2" NCoef="0" IVar="6" Cut="-2.5432305335998535e+00" cType="1" res="1.5486934222280979e-02" rms="4.7335585951805115e-01" purity="4.7623819112777710e-01" nType="0">
            <Node pos="l" depth="3" NCoef="0" IVar="-1" Cut="0.0000000000000000e+00" cType="1" res="1.2896794825792313e-02" rms="4.7286292910575867e-01" purity="4.7166526317596436e-01" nType="-99"/>
            <Node pos="r" depth="3" NCoef="0" IVar="-1" Cut="0.0000000000000000e+00" cType="1" res="3.7530463188886642e-02" rms="4.7436451911926270e-01" purity="4.8835295438766479e-01" nType="-99"/>
          </Node>
          <Node pos="r" depth="2" NCoef="0" IVar="6" Cut="-2.7998023033142090e+00" cType="1" res="-7.4843517504632473e-03" rms="4.7115534543991089e-01" purity="4.7363767027854919e-01" nType="0">
            <Node pos="l" depth="3" NCoef="0" IVar="-1" Cut="0.0000000000000000e+00" cType="1" res="1.2455685995519161e-02" rms="4.7478243708610535e-01" purity="5.0242030620574951e-01" nType="-99"/>
            <Node pos="r" depth="3" NCoef="0" IVar="-1" Cut="0.0000000000000000e+00" cType="1" res="-1.7629038542509079e-02" rms="4.6687662601470947e-01" purity="4.4661909341812134e-01" nType="-99"/>
          </Node>
        </Node>
        <Node pos="r" depth="1" NCoef="0" IVar="8" Cut="1.4290815625000000e+05" cType="1" res="-8.6305029690265656e-03" rms="4.5611160993576050e-01" purity="5.0670528411865234e-01" nType="0">
          <Node pos="l" depth="2" NCoef="0" IVar="5" Cut="-2.2436640262603760e+00" cType="1" res="-1.0845695622265339e-02" rms="4.5740082859992981e-01" purity="4.9165409803390503e-01" nType="0">
            <Node pos="l" depth="3" NCoef="0" IVar="-1" Cut="0.0000000000000000e+00" cType="1" res="-3.9517697878181934e-03" rms="4.5007297396659851e-01" purity="4.6723234653472900e-01" nType="-99"/>
            <Node pos="r" depth="3" NCoef="0" IVar="-1" Cut="0.0000000000000000e+00" cType="1" res="-5.6371623650193214e-03" rms="4.5918339490890503e-01" purity="4.9810078740119934e-01" nType="-99"/>
          </Node>
          <Node pos="r" depth="2" NCoef="0" IVar="-1" Cut="0.0000000000000000e+00" cType="1" res="2.8248863294720650e-02" rms="4.3618115782737732e-01" purity="7.2044330835342407e-01" nType="-99"/>
        </Node>
      </Node>
    </BinaryTree>
    <BinaryTree type="DecisionTree" boostWeight="1.0000000000000000e+00" itree="333">
      <Node pos="s" depth="0" NCoef="0" IVar="5" Cut="2.2437345981597900e+00" cType="1" res="-4.1412934660911560e-03" rms="4.6093368530273438e-01" purity="5.0111669301986694e-01" nType="0">
        <Node pos="l" depth="1" NCoef="0" IVar="6" Cut="7.4794584512710571e-01" cType="1" res="0.0000000000000000e+00" rms="0.0000000000000000e+00" purity="4.9436131119728088e-01" nType="0">
          <Node pos="l" depth="2" NCoef="0" IVar="5" Cut="-8.3347421884536743e-01" cType="1" res="-4.1847289539873600e-03" rms="4.6268942952156067e-01" purity="4.9692267179489136e-01" nType="0">
            <Node pos="l" depth="3" NCoef="0" IVar="-1" Cut="0.0000000000000000e+00" cType="1" res="-9.2482659965753555e-03" rms="4.6597811579704285e-01" purity="4.8053300380706787e-01" nType="-99"/>
            <Node pos="r" depth="3" NCoef="0" IVar="-1" Cut="0.0000000000000000e+00" cType="1" res="1.2191553600132465e-02" rms="4.5377665758132935e-01" purity="5.3932231664657593e-01" nType="-99"/>
          </Node>
          <Node pos="r" depth="2" NCoef="0" IVar="2" Cut="1.6798278808593750e+02" cType="1" res="8.1946607679128647e-03" rms="4.5773428678512573e-01" purity="4.9031624197959900e-01" nType="0">
            <Node pos="l" depth="3" NCoef="0" IVar="-1" Cut="0.0000000000000000e+00" cType="1" res="-5.4765269160270691e-03" rms="4.4880074262619019e-01" purity="4.4945687055587769e-01" nType="-99"/>
            <Node pos="r" depth="3" NCoef="0" IVar="-1" Cut="0.0000000000000000e+00" cType="1" res="1.4139620587229729e-02" rms="4.6147027611732483e-01" purity="5.0894725322723389e-01" nType="-99"/>
          </Node>
        </Node>
        <Node pos="r" depth="1" NCoef="0" IVar="4" Cut="1.6415793895721436e+00" cType="1" res="-2.1013675257563591e-02" rms="4.6096199750900269e-01" purity="5.2508157491683960e-01" nType="0">
          <Node pos="l" depth="2" NCoef="0" IVar="5" Cut="2.6713392734527588e+00" cType="1" res="-4.1719105094671249e-02" rms="4.5702835917472839e-01" purity="4.9040564894676208e-01" nType="0">
            <Node pos="l" depth="3" NCoef="0" IVar="-1" Cut="0.0000000000000000e+00" cType="1" res="-6.0789898037910461e-02" rms="4.6180894970893860e-01" purity="4.5267146825790405e-01" nType="-99"/>
            <Node pos="r" depth="3" NCoef="0" IVar="-1" Cut="0.0000000000000000e+00" cType="1" res="-3.5704340785741806e-02" rms="4.5200434327125549e-01" purity="5.2601134777069092e-01" nType="-99"/>
          </Node>
          <Node pos="r" depth="2" NCoef="0" IVar="2" Cut="1.7437167358398438e+02" cType="1" res="-5.5539836175739765e-03" rms="4.6327424049377441e-01" purity="5.5097234249114990e-01" nType="0">
            <Node pos="l" depth="3" NCoef="0" IVar="-1" Cut="0.0000000000000000e+00" cType="1" res="2.2335773333907127e-02" rms="4.6521732211112976e-01" purity="5.7351332902908325e-01" nType="-99"/>
            <Node pos="r" depth="3" NCoef="0" IVar="-1" Cut="0.0000000000000000e+00" cType="1" res="-2.0700171589851379e-02" rms="4.6169465780258179e-01" purity="5.3863894939422607e-01" nType="-99"/>
          </Node>
        </Node>
      </Node>
    </BinaryTree>
    <BinaryTree type="DecisionTree" boostWeight="1.0000000000000000e+00" itree="334">
      <Node pos="s" depth="0" NCoef="0" IVar="6" Cut="1.6455135345458984e+00" cType="1" res="-9.6070906147360802e-03" rms="4.6187585592269897e-01" purity="4.9399322271347046e-01" nType="0">
        <Node pos="l" depth="1" NCoef="0" IVar="4" Cut="1.7877651453018188e+00" cType="1" res="-5.0502386875450611e-03" rms="4.5922777056694031e-01" purity="5.1407283544540405e-01" nType="0">
          <Node pos="l" depth="2" NCoef="0" IVar="4" Cut="1.5414675474166870e+00" cType="1" res="-1.2217906303703785e-02" rms="4.5981028676033020e-01" purity="4.7305765748023987e-01" nType="0">
            <Node pos="l" depth="3" NCoef="0" IVar="-1" Cut="0.0000000000000000e+00" cType="1" res="-9.0056117624044418e-03" rms="4.5875623822212219e-01" purity="4.6810930967330933e-01" nType="-99"/>
            <Node pos="r" depth="3" NCoef="0" IVar="-1" Cut="0.0000000000000000e+00" cType="1" res="-3.8288857787847519e-02" rms="4.6405619382858276e-01" purity="4.9805825948715210e-01" nType="-99"/>
          </Node>
          <Node pos="r" depth="2" NCoef="0" IVar="6" Cut="-1.7836318910121918e-01" cType="1" res="1.5240903012454510e-03" rms="4.5859432220458984e-01" purity="5.5169272422790527e-01" nType="0">
            <Node pos="l" depth="3" NCoef="0" IVar="-1" Cut="0.0000000000000000e+00" cType="1" res="-3.4359719138592482e-03" rms="4.6559539437294006e-01" purity="5.2704662084579468e-01" nType="-99"/>
            <Node pos="r" depth="3" NCoef="0" IVar="-1" Cut="0.0000000000000000e+00" cType="1" res="1.6999317333102226e-02" rms="4.3545743823051453e-01" purity="6.2923592329025269e-01" nType="-99"/>
          </Node>
        </Node>
        <Node pos="r" depth="1" NCoef="0" IVar="4" Cut="2.6681828498840332e+00" cType="1" res="-1.8467022106051445e-02" rms="4.6685427427291870e-01" purity="4.5495218038558960e-01" nType="0">
          <Node pos="l" depth="2" NCoef="0" IVar="2" Cut="2.0087438964843750e+02" cType="1" res="-7.5407465919852257e-03" rms="4.7285950183868408e-01" purity="4.7240489721298218e-01" nType="0">
            <Node pos="l" depth="3" NCoef="0" IVar="-1" Cut="0.0000000000000000e+00" cType="1" res="9.9810957908630371e-03" rms="4.7410339117050171e-01" purity="4.6939092874526978e-01" nType="-99"/>
            <Node pos="r" depth="3" NCoef="0" IVar="-1" Cut="0.0000000000000000e+00" cType="1" res="-3.2621953636407852e-02" rms="4.7044950723648071e-01" purity="4.7627505660057068e-01" nType="-99"/>
          </Node>
          <Node pos="r" depth="2" NCoef="0" IVar="5" Cut="1.6457072496414185e+00" cType="1" res="-4.6570129692554474e-02" rms="4.4982376694679260e-01" purity="4.1006261110305786e-01" nType="0">
            <Node pos="l" depth="3" NCoef="0" IVar="-1" Cut="0.0000000000000000e+00" cType="1" res="-4.7563887201249599e-03" rms="4.3460294604301453e-01" purity="3.6086550354957581e-01" nType="-99"/>
            <Node pos="r" depth="3" NCoef="0" IVar="-1" Cut="0.0000000000000000e+00" cType="1" res="-1.2944240123033524e-02" rms="4.6514987945556641e-01" purity="4.6953758597373962e-01" nType="-99"/>
          </Node>
        </Node>
      </Node>
    </BinaryTree>
    <BinaryTree type="DecisionTree" boostWeight="1.0000000000000000e+00" itree="335">
      <Node pos="s" depth="0" NCoef="0" IVar="3" Cut="1.2921047210693359e+01" cType="1" res="2.1331573370844126e-03" rms="4.6145683526992798e-01" purity="5.0256329774856567e-01" nType="0">
        <Node pos="l" depth="1" NCoef="0" IVar="3" Cut="8.9054698944091797e+00" cType="1" res="8.5489748744294047e-04" rms="4.6221917867660522e-01" purity="5.0378668308258057e-01" nType="0">
          <Node pos="l" depth="2" NCoef="0" IVar="3" Cut="-1.4190695285797119e+00" cType="1" res="0.0000000000000000e+00" rms="0.0000000000000000e+00" purity="5.0006288290023804e-01" nType="0">
            <Node pos="l" depth="3" NCoef="0" IVar="-1" Cut="0.0000000000000000e+00" cType="1" res="2.5422746315598488e-02" rms="4.6503517031669617e-01" purity="4.4613882899284363e-01" nType="-99"/>
            <Node pos="r" depth="3" NCoef="0" IVar="-1" Cut="0.0000000000000000e+00" cType="1" res="-2.4312522727996111e-03" rms="4.6414858102798462e-01" purity="5.0466543436050415e-01" nType="-99"/>
          </Node>
          <Node pos="r" depth="2" NCoef="0" IVar="8" Cut="6.3613863281250000e+04" cType="1" res="1.5716489404439926e-02" rms="4.4648832082748413e-01" purity="5.3116315603256226e-01" nType="0">
            <Node pos="l" depth="3" NCoef="0" IVar="-1" Cut="0.0000000000000000e+00" cType="1" res="-2.0984895527362823e-03" rms="4.5400804281234741e-01" purity="3.9031657576560974e-01" nType="-99"/>
            <Node pos="r" depth="3" NCoef="0" IVar="-1" Cut="0.0000000000000000e+00" cType="1" res="3.7025243043899536e-02" rms="4.3828251957893372e-01" purity="6.7000782489776611e-01" nType="-99"/>
          </Node>
        </Node>
        <Node pos="r" depth="1" NCoef="0" IVar="-1" Cut="0.0000000000000000e+00" cType="1" res="3.2612290233373642e-02" rms="4.4802451133728027e-01" purity="4.8217377066612244e-01" nType="-99"/>
      </Node>
    </BinaryTree>
    <BinaryTree type="DecisionTree" boostWeight="1.0000000000000000e+00" itree="336">
      <Node pos="s" depth="0" NCoef="0" IVar="6" Cut="2.5430879592895508e+00" cType="1" res="4.7051431611180305e-03" rms="4.6339046955108643e-01" purity="5.0828725099563599e-01" nType="0">
        <Node pos="l" depth="1" NCoef="0" IVar="3" Cut="1.1106762886047363e+01" cType="1" res="8.0992318689823151e-03" rms="4.6116366982460022e-01" purity="5.1909852027893066e-01" nType="0">
          <Node pos="l" depth="2" NCoef="0" IVar="5" Cut="-2.2440114021301270e+00" cType="1" res="1.0564967989921570e-02" rms="4.6256375312805176e-01" purity="5.2306532859802246e-01" nType="0">
            <Node pos="l" depth="3" NCoef="0" IVar="-1" Cut="0.0000000000000000e+00" cType="1" res="2.7137365192174911e-02" rms="4.6560859680175781e-01" purity="5.4989188909530640e-01" nType="-99"/>
            <Node pos="r" depth="3" NCoef="0" IVar="-1" Cut="0.0000000000000000e+00" cType="1" res="6.4729959703981876e-03" rms="4.6138373017311096e-01" purity="5.1348525285720825e-01" nType="-99"/>
          </Node>
          <Node pos="r" depth="2" NCoef="0" IVar="-1" Cut="0.0000000000000000e+00" cType="1" res="-2.7601523324847221e-02" rms="4.4529974460601807e-01" purity="4.7726234793663025e-01" nType="-99"/>
        </Node>
        <Node pos="r" depth="1" NCoef="0" IVar="6" Cut="2.9705281257629395e+00" cType="1" res="-1.0227850638329983e-02" rms="4.7277384996414185e-01" purity="4.6072089672088623e-01" nType="0">
          <Node pos="l" depth="2" NCoef="0" IVar="9" Cut="3.5961382812500000e+04" cType="1" res="7.2955139912664890e-03" rms="4.7556135058403015e-01" purity="4.7586899995803833e-01" nType="0">
            <Node pos="l" depth="3" NCoef="0" IVar="-1" Cut="0.0000000000000000e+00" cType="1" res="-9.6337953582406044e-03" rms="4.7668188810348511e-01" purity="3.6806428432464600e-01" nType="-99"/>
            <Node pos="r" depth="3" NCoef="0" IVar="-1" Cut="0.0000000000000000e+00" cType="1" res="2.5178847834467888e-02" rms="4.7411137819290161e-01" purity="5.6745195388793945e-01" nType="-99"/>
          </Node>
          <Node pos="r" depth="2" NCoef="0" IVar="-1" Cut="0.0000000000000000e+00" cType="1" res="-2.4480666965246201e-02" rms="4.6365618705749512e-01" purity="4.2543873190879822e-01" nType="-99"/>
        </Node>
      </Node>
    </BinaryTree>
    <BinaryTree type="DecisionTree" boostWeight="1.0000000000000000e+00" itree="337">
      <Node pos="s" depth="0" NCoef="0" IVar="4" Cut="3.2705864906311035e+00" cType="1" res="0.0000000000000000e+00" rms="0.0000000000000000e+00" purity="4.9510383605957031e-01" nType="0">
        <Node pos="l" depth="1" NCoef="0" IVar="9" Cut="8.7433703125000000e+04" cType="1" res="-1.7612647498026490e-03" rms="4.6454018354415894e-01" purity="5.1100903749465942e-01" nType="0">
          <Node pos="l" depth="2" NCoef="0" IVar="7" Cut="7.0000000000000000e+00" cType="1" res="5.6347995996475220e-04" rms="4.6726939082145691e-01" purity="4.9466341733932495e-01" nType="0">
            <Node pos="l" depth="3" NCoef="0" IVar="-1" Cut="0.0000000000000000e+00" cType="1" res="2.6802369393408298e-03" rms="4.6753686666488647e-01" purity="4.8713520169258118e-01" nType="-99"/>
            <Node pos="r" depth="3" NCoef="0" IVar="-1" Cut="0.0000000000000000e+00" cType="1" res="-2.7297532185912132e-02" rms="4.6377351880073547e-01" purity="5.7940447330474854e-01" nType="-99"/>
          </Node>
          <Node pos="r" depth="2" NCoef="0" IVar="-1" Cut="0.0000000000000000e+00" cType="1" res="-3.7625804543495178e-02" rms="4.3204623460769653e-01" purity="6.9334918260574341e-01" nType="-99"/>
        </Node>
        <Node pos="r" depth="1" NCoef="0" IVar="-1" Cut="0.0000000000000000e+00" cType="1" res="-2.6345383375883102e-03" rms="4.1527110338211060e-01" purity="2.7623674273490906e-01" nType="-99"/>
      </Node>
    </BinaryTree>
    <BinaryTree type="DecisionTree" boostWeight="1.0000000000000000e+00" itree="338">
      <Node pos="s" depth="0" NCoef="0" IVar="8" Cut="1.2231728125000000e+05" cType="1" res="1.3553755125030875e-03" rms="4.5972606539726257e-01" purity="5.0212973356246948e-01" nType="0">
        <Node pos="l" depth="1" NCoef="0" IVar="8" Cut="4.3687449218750000e+04" cType="1" res="-4.9673777539283037e-04" rms="4.6267843246459961e-01" purity="4.7896683216094971e-01" nType="0">
          <Node pos="l" depth="2" NCoef="0" IVar="5" Cut="-1.3457764387130737e+00" cType="1" res="-1.2414276599884033e-02" rms="4.4162198901176453e-01" purity="3.0576148629188538e-01" nType="0">
            <Node pos="l" depth="3" NCoef="0" IVar="-1" Cut="0.0000000000000000e+00" cType="1" res="-3.8908723741769791e-02" rms="4.4985759258270264e-01" purity="3.2097184658050537e-01" nType="-99"/>
            <Node pos="r" depth="3" NCoef="0" IVar="-1" Cut="0.0000000000000000e+00" cType="1" res="-1.6767259221524000e-03" rms="4.3801239132881165e-01" purity="2.9967442154884338e-01" nType="-99"/>
          </Node>
          <Node pos="r" depth="2" NCoef="0" IVar="3" Cut="1.1695456504821777e+01" cType="1" res="4.0481956675648689e-03" rms="4.7038093209266663e-01" purity="5.4502135515213013e-01" nType="0">
            <Node pos="l" depth="3" NCoef="0" IVar="-1" Cut="0.0000000000000000e+00" cType="1" res="6.6844499669969082e-03" rms="4.7110182046890259e-01" purity="5.5096840858459473e-01" nType="-99"/>
            <Node pos="r" depth="3" NCoef="0" IVar="-1" Cut="0.0000000000000000e+00" cType="1" res="-2.4881290271878242e-02" rms="4.6046957373619080e-01" purity="4.7012808918952942e-01" nType="-99"/>
          </Node>
        </Node>
        <Node pos="r" depth="1" NCoef="0" IVar="4" Cut="1.3902583122253418e+00" cType="1" res="1.7762346193194389e-02" rms="4.3234744668006897e-01" purity="7.0731788873672485e-01" nType="0">
          <Node pos="l" depth="2" NCoef="0" IVar="-1" Cut="0.0000000000000000e+00" cType="1" res="3.7401571869850159e-02" rms="4.4381919503211975e-01" purity="6.8295526504516602e-01" nType="-99"/>
          <Node pos="r" depth="2" NCoef="0" IVar="-1" Cut="0.0000000000000000e+00" cType="1" res="9.7751859575510025e-03" rms="4.2382276058197021e-01" purity="7.2446751594543457e-01" nType="-99"/>
        </Node>
      </Node>
    </BinaryTree>
    <BinaryTree type="DecisionTree" boostWeight="1.0000000000000000e+00" itree="339">
      <Node pos="s" depth="0" NCoef="0" IVar="5" Cut="-2.5431666374206543e+00" cType="1" res="-7.9134320840239525e-03" rms="4.6086907386779785e-01" purity="4.9550765752792358e-01" nType="0">
        <Node pos="l" depth="1" NCoef="0" IVar="5" Cut="-2.8281440734863281e+00" cType="1" res="-3.0865509063005447e-02" rms="4.6072611212730408e-01" purity="5.0587069988250732e-01" nType="0">
          <Node pos="l" depth="2" NCoef="0" IVar="-1" Cut="0.0000000000000000e+00" cType="1" res="-4.9344366416335106e-03" rms="4.6508398652076721e-01" purity="5.4652857780456543e-01" nType="-99"/>
          <Node pos="r" depth="2" NCoef="0" IVar="-1" Cut="0.0000000000000000e+00" cType="1" res="-4.6654911711812019e-03" rms="4.5508721470832825e-01" purity="4.6727788448333740e-01" nType="-99"/>
        </Node>
        <Node pos="r" depth="1" NCoef="0" IVar="5" Cut="2.0586600303649902e+00" cType="1" res="-3.8218295667320490e-03" rms="4.6077448129653931e-01" purity="4.9366033077239990e-01" nType="0">
          <Node pos="l" depth="2" NCoef="0" IVar="8" Cut="5.6172871093750000e+04" cType="1" res="0.0000000000000000e+00" rms="0.0000000000000000e+00" purity="4.7294455766677856e-01" nType="0">
            <Node pos="l" depth="3" NCoef="0" IVar="-1" Cut="0.0000000000000000e+00" cType="1" res="1.4182945014908910e-03" rms="4.5866385102272034e-01" purity="3.7999689579010010e-01" nType="-99"/>
            <Node pos="r" depth="3" NCoef="0" IVar="-1" Cut="0.0000000000000000e+00" cType="1" res="-7.9723056405782700e-03" rms="4.6316280961036682e-01" purity="5.7116889953613281e-01" nType="-99"/>
          </Node>
          <Node pos="r" depth="2" NCoef="0" IVar="2" Cut="2.0856552124023438e+02" cType="1" res="8.8246148079633713e-03" rms="4.5997923612594604e-01" purity="5.4136008024215698e-01" nType="0">
            <Node pos="l" depth="3" NCoef="0" IVar="-1" Cut="0.0000000000000000e+00" cType="1" res="-3.6201863549649715e-03" rms="4.5849654078483582e-01" purity="5.4195374250411987e-01" nType="-99"/>
            <Node pos="r" depth="3" NCoef="0" IVar="-1" Cut="0.0000000000000000e+00" cType="1" res="3.3415511250495911e-02" rms="4.6153229475021362e-01" purity="5.4049694538116455e-01" nType="-99"/>
          </Node>
        </Node>
      </Node>
    </BinaryTree>
    <BinaryTree type="DecisionTree" boostWeight="1.0000000000000000e+00" itree="340">
      <Node pos="s" depth="0" NCoef="0" IVar="5" Cut="-1.4967253804206848e-01" cType="1" res="-2.5058060418814421e-03" rms="4.6114629507064819e-01" purity="4.9991789460182190e-01" nType="0">
        <Node pos="l" depth="1" NCoef="0" IVar="9" Cut="4.8523156250000000e+04" cType="1" res="7.6167187653481960e-03" rms="4.6555885672569275e-01" purity="5.1212126016616821e-01" nType="0">
          <Node pos="l" depth="2" NCoef="0" IVar="9" Cut="3.1721666015625000e+04" cType="1" res="1.5863031148910522e-02" rms="4.7277739644050598e-01" purity="4.3648055195808411e-01" nType="0">
            <Node pos="l" depth="3" NCoef="0" IVar="-1" Cut="0.0000000000000000e+00" cType="1" res="2.6146518066525459e-02" rms="4.5967108011245728e-01" purity="3.6579400300979614e-01" nType="-99"/>
            <Node pos="r" depth="3" NCoef="0" IVar="-1" Cut="0.0000000000000000e+00" cType="1" res="1.0000399313867092e-02" rms="4.8244264721870422e-01" purity="4.9072983860969543e-01" nType="-99"/>
          </Node>
          <Node pos="r" depth="2" NCoef="0" IVar="4" Cut="1.6587620973587036e+00" cType="1" res="-5.8194985613226891e-03" rms="4.5322996377944946e-01" purity="6.3536733388900757e-01" nType="0">
            <Node pos="l" depth="3" NCoef="0" IVar="-1" Cut="0.0000000000000000e+00" cType="1" res="-2.3474914953112602e-02" rms="4.5932653546333313e-01" purity="5.9000056982040405e-01" nType="-99"/>
            <Node pos="r" depth="3" NCoef="0" IVar="-1" Cut="0.0000000000000000e+00" cType="1" res="1.1171932332217693e-02" rms="4.4782593846321106e-01" purity="6.7073047161102295e-01" nType="-99"/>
          </Node>
        </Node>
        <Node pos="r" depth="1" NCoef="0" IVar="4" Cut="2.9218072891235352e+00" cType="1" res="-1.1982028372585773e-02" rms="4.5677357912063599e-01" purity="4.8849368095397949e-01" nType="0">
          <Node pos="l" depth="2" NCoef="0" IVar="9" Cut="6.3586230468750000e+04" cType="1" res="-2.7898564003407955e-03" rms="4.6031084656715393e-01" purity="5.0374585390090942e-01" nType="0">
            <Node pos="l" depth="3" NCoef="0" IVar="-1" Cut="0.0000000000000000e+00" cType="1" res="-8.3682797849178314e-03" rms="4.6645626425743103e-01" purity="4.5253515243530273e-01" nType="-99"/>
            <Node pos="r" depth="3" NCoef="0" IVar="-1" Cut="0.0000000000000000e+00" cType="1" res="1.7879063263535500e-02" rms="4.3557715415954590e-01" purity="6.9958412647247314e-01" nType="-99"/>
          </Node>
          <Node pos="r" depth="2" NCoef="0" IVar="4" Cut="3.1693463325500488e+00" cType="1" res="-5.1898460835218430e-02" rms="4.3885660171508789e-01" purity="4.2226219177246094e-01" nType="0">
            <Node pos="l" depth="3" NCoef="0" IVar="-1" Cut="0.0000000000000000e+00" cType="1" res="-3.5454651806503534e-03" rms="4.4679468870162964e-01" purity="4.6521821618080139e-01" nType="-99"/>
            <Node pos="r" depth="3" NCoef="0" IVar="-1" Cut="0.0000000000000000e+00" cType="1" res="-6.0698622837662697e-03" rms="4.2727303504943848e-01" purity="3.6839637160301208e-01" nType="-99"/>
          </Node>
        </Node>
      </Node>
    </BinaryTree>
    <BinaryTree type="DecisionTree" boostWeight="1.0000000000000000e+00" itree="341">
      <Node pos="s" depth="0" NCoef="0" IVar="5" Cut="2.2439200878143311e+00" cType="1" res="-5.1895612850785255e-03" rms="4.6108105778694153e-01" purity="5.0053721666336060e-01" nType="0">
        <Node pos="l" depth="1" NCoef="0" IVar="4" Cut="3.0100986957550049e+00" cType="1" res="-9.1423466801643372e-03" rms="4.6245062351226807e-01" purity="4.8573872447013855e-01" nType="0">
          <Node pos="l" depth="2" NCoef="0" IVar="9" Cut="5.9037789062500000e+04" cType="1" res="0.0000000000000000e+00" rms="0.0000000000000000e+00" purity="4.8453158140182495e-01" nType="0">
            <Node pos="l" depth="3" NCoef="0" IVar="-1" Cut="0.0000000000000000e+00" cType="1" res="-2.0459217950701714e-02" rms="4.6642839908599854e-01" purity="4.2931374907493591e-01" nType="-99"/>
            <Node pos="r" depth="3" NCoef="0" IVar="-1" Cut="0.0000000000000000e+00" cType="1" res="8.3883618935942650e-03" rms="4.4738456606864929e-01" purity="6.6530877351760864e-01" nType="-99"/>
          </Node>
          <Node pos="r" depth="2" NCoef="0" IVar="6" Cut="-1.6455453634262085e+00" cType="1" res="1.7283489927649498e-02" rms="4.6338281035423279e-01" purity="4.9393406510353088e-01" nType="0">
            <Node pos="l" depth="3" NCoef="0" IVar="-1" Cut="0.0000000000000000e+00" cType="1" res="4.5714564621448517e-02" rms="4.6933504939079285e-01" purity="4.9072486162185669e-01" nType="-99"/>
            <Node pos="r" depth="3" NCoef="0" IVar="-1" Cut="0.0000000000000000e+00" cType="1" res="1.2948213843628764e-03" rms="4.5831793546676636e-01" purity="4.9627029895782471e-01" nType="-99"/>
          </Node>
        </Node>
        <Node pos="r" depth="1" NCoef="0" IVar="5" Cut="2.5858986377716064e+00" cType="1" res="8.6656082421541214e-03" rms="4.5597761869430542e-01" purity="5.5240827798843384e-01" nType="0">
          <Node pos="l" depth="2" NCoef="0" IVar="-1" Cut="0.0000000000000000e+00" cType="1" res="3.4653928130865097e-02" rms="4.5236536860466003e-01" purity="5.5675423145294189e-01" nType="-99"/>
          <Node pos="r" depth="2" NCoef="0" IVar="9" Cut="3.9241183593750000e+04" cType="1" res="0.0000000000000000e+00" rms="0.0000000000000000e+00" purity="5.4965561628341675e-01" nType="0">
            <Node pos="l" depth="3" NCoef="0" IVar="-1" Cut="0.0000000000000000e+00" cType="1" res="-2.2295920178294182e-02" rms="4.5752435922622681e-01" purity="3.8662192225456238e-01" nType="-99"/>
            <Node pos="r" depth="3" NCoef="0" IVar="-1" Cut="0.0000000000000000e+00" cType="1" res="5.6212102063000202e-03" rms="4.5738583803176880e-01" purity="6.4013427495956421e-01" nType="-99"/>
          </Node>
        </Node>
      </Node>
    </BinaryTree>
    <BinaryTree type="DecisionTree" boostWeight="1.0000000000000000e+00" itree="342">
      <Node pos="s" depth="0" NCoef="0" IVar="9" Cut="4.8522316406250000e+04" cType="1" res="0.0000000000000000e+00" rms="0.0000000000000000e+00" purity="5.0645858049392700e-01" nType="0">
        <Node pos="l" depth="1" NCoef="0" IVar="7" Cut="6.0000000000000000e+00" cType="1" res="5.2402317523956299e-03" rms="4.6940517425537109e-01" purity="4.2509260773658752e-01" nType="0">
          <Node pos="l" depth="2" NCoef="0" IVar="9" Cut="3.8441125000000000e+04" cType="1" res="1.1094973888248205e-03" rms="4.6823301911354065e-01" purity="4.0977865457534790e-01" nType="0">
            <Node pos="l" depth="3" NCoef="0" IVar="-1" Cut="0.0000000000000000e+00" cType="1" res="9.4468435272574425e-03" rms="4.6408009529113770e-01" purity="3.8473105430603027e-01" nType="-99"/>
            <Node pos="r" depth="3" NCoef="0" IVar="-1" Cut="0.0000000000000000e+00" cType="1" res="-2.8282580897212029e-02" rms="4.7992873191833496e-01" purity="4.8623853921890259e-01" nType="-99"/>
          </Node>
          <Node pos="r" depth="2" NCoef="0" IVar="5" Cut="-1.4970481395721436e-01" cType="1" res="3.2413259148597717e-02" rms="4.7616136074066162e-01" purity="5.2588313817977905e-01" nType="0">
            <Node pos="l" depth="3" NCoef="0" IVar="-1" Cut="0.0000000000000000e+00" cType="1" res="5.1216516643762589e-02" rms="4.7671338915824890e-01" purity="5.4614317417144775e-01" nType="-99"/>
            <Node pos="r" depth="3" NCoef="0" IVar="-1" Cut="0.0000000000000000e+00" cType="1" res="2.0813472568988800e-02" rms="4.7528168559074402e-01" purity="5.0622522830963135e-01" nType="-99"/>
          </Node>
        </Node>
        <Node pos="r" depth="1" NCoef="0" IVar="4" Cut="2.4423677921295166e+00" cType="1" res="-7.2566685266792774e-03" rms="4.5455434918403625e-01" purity="6.4165890216827393e-01" nType="0">
          <Node pos="l" depth="2" NCoef="0" IVar="5" Cut="2.5426516532897949e+00" cType="1" res="1.6938430489972234e-03" rms="4.5750278234481812e-01" purity="6.3800203800201416e-01" nType="0">
            <Node pos="l" depth="3" NCoef="0" IVar="-1" Cut="0.0000000000000000e+00" cType="1" res="-5.5105593055486679e-03" rms="4.6016421914100647e-01" purity="6.2378603219985962e-01" nType="-99"/>
            <Node pos="r" depth="3" NCoef="0" IVar="-1" Cut="0.0000000000000000e+00" cType="1" res="2.9040208086371422e-02" rms="4.4520416855812073e-01" purity="6.9677478075027466e-01" nType="-99"/>
          </Node>
          <Node pos="r" depth="2" NCoef="0" IVar="8" Cut="7.8548007812500000e+04" cType="1" res="-2.5155188515782356e-02" rms="4.4806429743766785e-01" purity="6.4897149801254272e-01" nType="0">
            <Node pos="l" depth="3" NCoef="0" IVar="-1" Cut="0.0000000000000000e+00" cType="1" res="-5.6141298264265060e-02" rms="4.6421268582344055e-01" purity="5.8073240518569946e-01" nType="-99"/>
            <Node pos="r" depth="3" NCoef="0" IVar="-1" Cut="0.0000000000000000e+00" cType="1" res="-1.4878612011671066e-02" rms="4.3783301115036011e-01" purity="6.8943268060684204e-01" nType="-99"/>
          </Node>
        </Node>
      </Node>
    </BinaryTree>
    <BinaryTree type="DecisionTree" boostWeight="1.0000000000000000e+00" itree="343">
      <Node pos="s" depth="0" NCoef="0" IVar="7" Cut="6.0000000000000000e+00" cType="1" res="-6.7116161808371544e-03" rms="4.6136355400085449e-01" purity="4.9432381987571716e-01" nType="0">
        <Node pos="l" depth="1" NCoef="0" IVar="4" Cut="2.1596875190734863e+00" cType="1" res="6.2805565539747477e-04" rms="4.6331664919853210e-01" purity="4.6199107170104980e-01" nType="0">
          <Node pos="l" depth="2" NCoef="0" IVar="8" Cut="1.0381500781250000e+05" cType="1" res="9.8330806940793991e-03" rms="4.6479877829551697e-01" purity="4.5821842551231384e-01" nType="0">
            <Node pos="l" depth="3" NCoef="0" IVar="-1" Cut="0.0000000000000000e+00" cType="1" res="1.5826115384697914e-02" rms="4.6540078520774841e-01" purity="4.4030284881591797e-01" nType="-99"/>
            <Node pos="r" depth="3" NCoef="0" IVar="-1" Cut="0.0000000000000000e+00" cType="1" res="-2.0221315324306488e-02" rms="4.5834064483642578e-01" purity="6.1475831270217896e-01" nType="-99"/>
          </Node>
          <Node pos="r" depth="2" NCoef="0" IVar="6" Cut="1.6452569961547852e+00" cType="1" res="-1.2037761509418488e-02" rms="4.6096909046173096e-01" purity="4.6718204021453857e-01" nType="0">
            <Node pos="l" depth="3" NCoef="0" IVar="-1" Cut="0.0000000000000000e+00" cType="1" res="-1.0595310479402542e-02" rms="4.5913285017013550e-01" purity="4.6571785211563110e-01" nType="-99"/>
            <Node pos="r" depth="3" NCoef="0" IVar="-1" Cut="0.0000000000000000e+00" cType="1" res="5.9136315248906612e-03" rms="4.6328407526016235e-01" purity="4.6950912475585938e-01" nType="-99"/>
          </Node>
        </Node>
        <Node pos="r" depth="1" NCoef="0" IVar="6" Cut="2.2437663078308105e+00" cType="1" res="-2.6057161390781403e-02" rms="4.5563951134681702e-01" purity="5.7939106225967407e-01" nType="0">
          <Node pos="l" depth="2" NCoef="0" IVar="0" Cut="2.0464118750000000e+05" cType="1" res="-1.0643034242093563e-02" rms="4.5465725660324097e-01" purity="6.2124007940292358e-01" nType="0">
            <Node pos="l" depth="3" NCoef="0" IVar="-1" Cut="0.0000000000000000e+00" cType="1" res="-1.6755655407905579e-02" rms="4.6734690666198730e-01" purity="5.9183001518249512e-01" nType="-99"/>
            <Node pos="r" depth="3" NCoef="0" IVar="-1" Cut="0.0000000000000000e+00" cType="1" res="6.3551329076290131e-03" rms="4.0916082262992859e-01" purity="7.1932440996170044e-01" nType="-99"/>
          </Node>
          <Node pos="r" depth="2" NCoef="0" IVar="-1" Cut="0.0000000000000000e+00" cType="1" res="-4.4209603220224380e-03" rms="4.5442447066307068e-01" purity="4.1436150670051575e-01" nType="-99"/>
        </Node>
      </Node>
    </BinaryTree>
    <BinaryTree type="DecisionTree" boostWeight="1.0000000000000000e+00" itree="344">
      <Node pos="s" depth="0" NCoef="0" IVar="4" Cut="8.6337846517562866e-01" cType="1" res="0.0000000000000000e+00" rms="0.0000000000000000e+00" purity="5.0326579809188843e-01" nType="0">
        <Node pos="l" depth="1" NCoef="0" IVar="5" Cut="1.4949308335781097e-01" cType="1" res="1.8834156915545464e-02" rms="4.6254637837409973e-01" purity="4.8038554191589355e-01" nType="0">
          <Node pos="l" depth="2" NCoef="0" IVar="-1" Cut="0.0000000000000000e+00" cType="1" res="1.3031797483563423e-02" rms="4.6784123778343201e-01" purity="4.5840039849281311e-01" nType="-99"/>
          <Node pos="r" depth="2" NCoef="0" IVar="-1" Cut="0.0000000000000000e+00" cType="1" res="3.1690847128629684e-02" rms="4.5682016015052795e-01" purity="5.0316530466079712e-01" nType="-99"/>
        </Node>
        <Node pos="r" depth="1" NCoef="0" IVar="8" Cut="6.3534789062500000e+04" cType="1" res="-3.6358349025249481e-03" rms="4.6234086155891418e-01" purity="5.0723248720169067e-01" nType="0">
          <Node pos="l" depth="2" NCoef="0" IVar="6" Cut="-1.4963881671428680e-01" cType="1" res="5.5694519542157650e-03" rms="4.6481665968894958e-01" purity="4.2487618327140808e-01" nType="0">
            <Node pos="l" depth="3" NCoef="0" IVar="-1" Cut="0.0000000000000000e+00" cType="1" res="1.4529904350638390e-02" rms="4.6478673815727234e-01" purity="4.3900957703590393e-01" nType="-99"/>
            <Node pos="r" depth="3" NCoef="0" IVar="-1" Cut="0.0000000000000000e+00" cType="1" res="-2.6511743199080229e-03" rms="4.6465921401977539e-01" purity="4.1172266006469727e-01" nType="-99"/>
          </Node>
          <Node pos="r" depth="2" NCoef="0" IVar="7" Cut="5.0000000000000000e+00" cType="1" res="0.0000000000000000e+00" rms="0.0000000000000000e+00" purity="6.0844981670379639e-01" nType="0">
            <Node pos="l" depth="3" NCoef="0" IVar="-1" Cut="0.0000000000000000e+00" cType="1" res="-3.6844659596681595e-02" rms="4.7790420055389404e-01" purity="5.1766800880432129e-01" nType="-99"/>
            <Node pos="r" depth="3" NCoef="0" IVar="-1" Cut="0.0000000000000000e+00" cType="1" res="-7.9797292128205299e-03" rms="4.5154777169227600e-01" purity="6.4218091964721680e-01" nType="-99"/>
          </Node>
        </Node>
      </Node>
    </BinaryTree>
    <BinaryTree type="DecisionTree" boostWeight="1.0000000000000000e+00" itree="345">
      <Node pos="s" depth="0" NCoef="0" IVar="6" Cut="2.2439157962799072e+00" cType="1" res="2.1739518269896507e-03" rms="4.6163132786750793e-01" purity="5.0431096553802490e-01" nType="0">
        <Node pos="l" depth="1" NCoef="0" IVar="5" Cut="-2.5430731773376465e+00" cType="1" res="-2.8822182212024927e-03" rms="4.5871749520301819e-01" purity="5.0978583097457886e-01" nType="0">
          <Node pos="l" depth="2" NCoef="0" IVar="8" Cut="7.3786695312500000e+04" cType="1" res="-2.3173846304416656e-02" rms="4.5866993069648743e-01" purity="5.0013679265975952e-01" nType="0">
            <Node pos="l" depth="3" NCoef="0" IVar="-1" Cut="0.0000000000000000e+00" cType="1" res="-3.8216961547732353e-03" rms="4.5508369803428650e-01" purity="3.9748203754425049e-01" nType="-99"/>
            <Node pos="r" depth="3" NCoef="0" IVar="-1" Cut="0.0000000000000000e+00" cType="1" res="5.6360880844295025e-03" rms="4.6157306432723999e-01" purity="6.2828159332275391e-01" nType="-99"/>
          </Node>
          <Node pos="r" depth="2" NCoef="0" IVar="6" Cut="1.2180972099304199e+00" cType="1" res="2.0467208232730627e-03" rms="4.5859351754188538e-01" purity="5.1212966442108154e-01" nType="0">
            <Node pos="l" depth="3" NCoef="0" IVar="-1" Cut="0.0000000000000000e+00" cType="1" res="6.7900046706199646e-03" rms="4.5963230729103088e-01" purity="5.2720910310745239e-01" nType="-99"/>
            <Node pos="r" depth="3" NCoef="0" IVar="-1" Cut="0.0000000000000000e+00" cType="1" res="-5.2430382929742336e-03" rms="4.5449650287628174e-01" purity="4.5658683776855469e-01" nType="-99"/>
          </Node>
        </Node>
        <Node pos="r" depth="1" NCoef="0" IVar="5" Cut="4.4857317209243774e-01" cType="1" res="1.7155790701508522e-02" rms="4.6983993053436279e-01" purity="4.8808854818344116e-01" nType="0">
          <Node pos="l" depth="2" NCoef="0" IVar="-1" Cut="0.0000000000000000e+00" cType="1" res="3.9157614111900330e-02" rms="4.7373163700103760e-01" purity="5.1062870025634766e-01" nType="-99"/>
          <Node pos="r" depth="2" NCoef="0" IVar="3" Cut="4.3399500846862793e+00" cType="1" res="8.3494791761040688e-03" rms="4.6798130869865417e-01" purity="4.7905293107032776e-01" nType="0">
            <Node pos="l" depth="3" NCoef="0" IVar="-1" Cut="0.0000000000000000e+00" cType="1" res="-7.4848299846053123e-03" rms="4.6807652711868286e-01" purity="4.4247892498970032e-01" nType="-99"/>
            <Node pos="r" depth="3" NCoef="0" IVar="-1" Cut="0.0000000000000000e+00" cType="1" res="2.2489337250590324e-02" rms="4.6751403808593750e-01" purity="5.0781947374343872e-01" nType="-99"/>
          </Node>
        </Node>
      </Node>
    </BinaryTree>
    <BinaryTree type="DecisionTree" boostWeight="1.0000000000000000e+00" itree="346">
      <Node pos="s" depth="0" NCoef="0" IVar="4" Cut="2.9273869991302490e+00" cType="1" res="-4.3338048271834850e-03" rms="4.6014997363090515e-01" purity="5.0434589385986328e-01" nType="0">
        <Node pos="l" depth="1" NCoef="0" IVar="9" Cut="4.5811582031250000e+04" cType="1" res="1.0615358041832224e-04" rms="4.6152856945991516e-01" purity="5.1122158765792847e-01" nType="0">
          <Node pos="l" depth="2" NCoef="0" IVar="3" Cut="6.3831639289855957e-01" cType="1" res="-6.0705179348587990e-03" rms="4.6531030535697937e-01" purity="4.1430190205574036e-01" nType="0">
            <Node pos="l" depth="3" NCoef="0" IVar="-1" Cut="0.0000000000000000e+00" cType="1" res="2.3110309615731239e-02" rms="4.7820577025413513e-01" purity="4.2255115509033203e-01" nType="-99"/>
            <Node pos="r" depth="3" NCoef="0" IVar="-1" Cut="0.0000000000000000e+00" cType="1" res="-1.2425241991877556e-02" rms="4.6272462606430054e-01" purity="4.1280364990234375e-01" nType="-99"/>
          </Node>
          <Node pos="r" depth="2" NCoef="0" IVar="8" Cut="1.1266452343750000e+05" cType="1" res="8.9508490636944771e-03" rms="4.5591306686401367e-01" purity="6.5000587701797485e-01" nType="0">
            <Node pos="l" depth="3" NCoef="0" IVar="-1" Cut="0.0000000000000000e+00" cType="1" res="1.8589658662676811e-02" rms="4.6245455741882324e-01" purity="6.3422667980194092e-01" nType="-99"/>
            <Node pos="r" depth="3" NCoef="0" IVar="-1" Cut="0.0000000000000000e+00" cType="1" res="-1.3179323635995388e-02" rms="4.3610107898712158e-01" purity="6.9506424665451050e-01" nType="-99"/>
          </Node>
        </Node>
        <Node pos="r" depth="1" NCoef="0" IVar="6" Cut="1.6455233097076416e+00" cType="1" res="-2.5981144979596138e-02" rms="4.5274522900581360e-01" purity="4.7082290053367615e-01" nType="0">
          <Node pos="l" depth="2" NCoef="0" IVar="6" Cut="-2.0018303394317627e+00" cType="1" res="-2.8038269374519587e-03" rms="4.5665907859802246e-01" purity="5.3836208581924438e-01" nType="0">
            <Node pos="l" depth="3" NCoef="0" IVar="-1" Cut="0.0000000000000000e+00" cType="1" res="-1.8902285024523735e-02" rms="4.6821612119674683e-01" purity="4.6004641056060791e-01" nType="-99"/>
            <Node pos="r" depth="3" NCoef="0" IVar="-1" Cut="0.0000000000000000e+00" cType="1" res="1.3127187266945839e-02" rms="4.4494751095771790e-01" purity="6.1312848329544067e-01" nType="-99"/>
          </Node>
          <Node pos="r" depth="2" NCoef="0" IVar="-1" Cut="0.0000000000000000e+00" cType="1" res="-3.7287245504558086e-03" rms="4.4343802332878113e-01" purity="3.5801312327384949e-01" nType="-99"/>
        </Node>
      </Node>
    </BinaryTree>
    <BinaryTree type="DecisionTree" boostWeight="1.0000000000000000e+00" itree="347">
      <Node pos="s" depth="0" NCoef="0" IVar="4" Cut="8.5642987489700317e-01" cType="1" res="-2.6547410525381565e-03" rms="4.6143049001693726e-01" purity="5.0194776058197021e-01" nType="0">
        <Node pos="l" depth="1" NCoef="0" IVar="5" Cut="-1.6454114913940430e+00" cType="1" res="-1.5039952471852303e-02" rms="4.6235510706901550e-01" purity="4.6377161145210266e-01" nType="0">
          <Node pos="l" depth="2" NCoef="0" IVar="-1" Cut="0.0000000000000000e+00" cType="1" res="2.5287115946412086e-02" rms="4.6178433299064636e-01" purity="5.0604009628295898e-01" nType="-99"/>
          <Node pos="r" depth="2" NCoef="0" IVar="6" Cut="7.4798917770385742e-01" cType="1" res="0.0000000000000000e+00" rms="0.0000000000000000e+00" purity="4.4157868623733521e-01" nType="0">
            <Node pos="l" depth="3" NCoef="0" IVar="-1" Cut="0.0000000000000000e+00" cType="1" res="-7.4437856674194336e-02" rms="4.5156884193420410e-01" purity="4.4476616382598877e-01" nType="-99"/>
            <Node pos="r" depth="3" NCoef="0" IVar="-1" Cut="0.0000000000000000e+00" cType="1" res="-1.5060155652463436e-02" rms="4.6914339065551758e-01" purity="4.3878936767578125e-01" nType="-99"/>
          </Node>
        </Node>
        <Node pos="r" depth="1" NCoef="0" IVar="4" Cut="3.3455951213836670e+00" cType="1" res="-5.5814237566664815e-04" rms="4.6124085783958435e-01" purity="5.0841033458709717e-01" nType="0">
          <Node pos="l" depth="2" NCoef="0" IVar="7" Cut="5.0000000000000000e+00" cType="1" res="1.0632264893501997e-03" rms="4.6406725049018860e-01" purity="5.2029061317443848e-01" nType="0">
            <Node pos="l" depth="3" NCoef="0" IVar="-1" Cut="0.0000000000000000e+00" cType="1" res="8.1506380811333656e-03" rms="4.7009459137916565e-01" purity="4.4406619668006897e-01" nType="-99"/>
            <Node pos="r" depth="3" NCoef="0" IVar="-1" Cut="0.0000000000000000e+00" cType="1" res="-4.8287203535437584e-03" rms="4.5928564667701721e-01" purity="5.7917618751525879e-01" nType="-99"/>
          </Node>
          <Node pos="r" depth="2" NCoef="0" IVar="-1" Cut="0.0000000000000000e+00" cType="1" res="-4.1178823448717594e-03" rms="4.0983891487121582e-01" purity="3.0863398313522339e-01" nType="-99"/>
        </Node>
      </Node>
    </BinaryTree>
    <BinaryTree type="DecisionTree" boostWeight="1.0000000000000000e+00" itree="348">
      <Node pos="s" depth="0" NCoef="0" IVar="4" Cut="3.0100986957550049e+00" cType="1" res="-6.2635708600282669e-03" rms="4.6187925338745117e-01" purity="4.9714908003807068e-01" nType="0">
        <Node pos="l" depth="1" NCoef="0" IVar="6" Cut="-2.8423790931701660e+00" cType="1" res="7.3070004873443395e-05" rms="4.6435600519180298e-01" purity="5.1040124893188477e-01" nType="0">
          <Node pos="l" depth="2" NCoef="0" IVar="-1" Cut="0.0000000000000000e+00" cType="1" res="2.1271159872412682e-02" rms="4.7219794988632202e-01" purity="4.9547451734542847e-01" nType="-99"/>
          <Node pos="r" depth="2" NCoef="0" IVar="5" Cut="-4.4896718859672546e-01" cType="1" res="-1.7734938301146030e-03" rms="4.6350449323654175e-01" purity="5.1193249225616455e-01" nType="0">
            <Node pos="l" depth="3" NCoef="0" IVar="-1" Cut="0.0000000000000000e+00" cType="1" res="-8.5406778380274773e-03" rms="4.6258014440536499e-01" purity="5.0698333978652954e-01" nType="-99"/>
            <Node pos="r" depth="3" NCoef="0" IVar="-1" Cut="0.0000000000000000e+00" cType="1" res="4.6109063550829887e-03" rms="4.6415621042251587e-01" purity="5.1591372489929199e-01" nType="-99"/>
          </Node>
        </Node>
        <Node pos="r" depth="1" NCoef="0" IVar="6" Cut="-1.0473183393478394e+00" cType="1" res="-4.2421922087669373e-02" rms="4.4576403498649597e-01" purity="4.2152914404869080e-01" nType="0">
          <Node pos="l" depth="2" NCoef="0" IVar="-1" Cut="0.0000000000000000e+00" cType="1" res="1.3069219887256622e-02" rms="4.7372892498970032e-01" purity="4.9400615692138672e-01" nType="-99"/>
          <Node pos="r" depth="2" NCoef="0" IVar="-1" Cut="0.0000000000000000e+00" cType="1" res="-3.3209852408617735e-03" rms="4.2592525482177734e-01" purity="3.8001203536987305e-01" nType="-99"/>
        </Node>
      </Node>
    </BinaryTree>
    <BinaryTree type="DecisionTree" boostWeight="1.0000000000000000e+00" itree="349">
      <Node pos="s" depth="0" NCoef="0" IVar="3" Cut="1.2783885955810547e+01" cType="1" res="-5.5938828736543655e-03" rms="4.6195766329765320e-01" purity="4.9753066897392273e-01" nType="0">
        <Node pos="l" depth="1" NCoef="0" IVar="3" Cut="7.2464382648468018e-01" cType="1" res="-7.1122795343399048e-03" rms="4.6331989765167236e-01" purity="5.0019389390945435e-01" nType="0">
          <Node pos="l" depth="2" NCoef="0" IVar="1" Cut="1.5160482812500000e+05" cType="1" res="-3.1016683205962181e-02" rms="4.6883386373519897e-01" purity="4.0462431311607361e-01" nType="0">
            <Node pos="l" depth="3" NCoef="0" IVar="-1" Cut="0.0000000000000000e+00" cType="1" res="-1.7904050648212433e-02" rms="4.6801334619522095e-01" purity="3.7747845053672791e-01" nType="-99"/>
            <Node pos="r" depth="3" NCoef="0" IVar="-1" Cut="0.0000000000000000e+00" cType="1" res="-2.8564028907567263e-03" rms="4.6871343255043030e-01" purity="4.4644942879676819e-01" nType="-99"/>
          </Node>
          <Node pos="r" depth="2" NCoef="0" IVar="0" Cut="2.0714100000000000e+05" cType="1" res="-2.6058182120323181e-03" rms="4.6213451027870178e-01" purity="5.1821070909500122e-01" nType="0">
            <Node pos="l" depth="3" NCoef="0" IVar="-1" Cut="0.0000000000000000e+00" cType="1" res="1.1331392452120781e-03" rms="4.6559721231460571e-01" purity="5.0168603658676147e-01" nType="-99"/>
            <Node pos="r" depth="3" NCoef="0" IVar="-1" Cut="0.0000000000000000e+00" cType="1" res="-3.8670711219310760e-02" rms="4.4013538956642151e-01" purity="6.1725777387619019e-01" nType="-99"/>
          </Node>
        </Node>
        <Node pos="r" depth="1" NCoef="0" IVar="-1" Cut="0.0000000000000000e+00" cType="1" res="1.8615080043673515e-02" rms="4.4035860896110535e-01" purity="4.5752245187759399e-01" nType="-99"/>
      </Node>
    </BinaryTree>
    <BinaryTree type="DecisionTree" boostWeight="1.0000000000000000e+00" itree="350">
      <Node pos="s" depth="0" NCoef="0" IVar="6" Cut="2.2438952922821045e+00" cType="1" res="-4.2370641604065895e-03" rms="4.5976325869560242e-01" purity="4.9904760718345642e-01" nType="0">
        <Node pos="l" depth="1" NCoef="0" IVar="7" Cut="6.0000000000000000e+00" cType="1" res="1.0189113672822714e-03" rms="4.5744323730468750e-01" purity="5.1419073343276978e-01" nType="0">
          <Node pos="l" depth="2" NCoef="0" IVar="2" Cut="2.0370143127441406e+02" cType="1" res="-4.3145874515175819e-03" rms="4.5907607674598694e-01" purity="4.6322989463806152e-01" nType="0">
            <Node pos="l" depth="3" NCoef="0" IVar="-1" Cut="0.0000000000000000e+00" cType="1" res="6.3200104050338268e-03" rms="4.5819151401519775e-01" purity="4.7589561343193054e-01" nType="-99"/>
            <Node pos="r" depth="3" NCoef="0" IVar="-1" Cut="0.0000000000000000e+00" cType="1" res="-1.1788673698902130e-02" rms="4.5984277129173279e-01" purity="4.4854831695556641e-01" nType="-99"/>
          </Node>
          <Node pos="r" depth="2" NCoef="0" IVar="6" Cut="1.9228993356227875e-01" cType="1" res="1.3770235702395439e-02" rms="4.5326176285743713e-01" purity="6.3607972860336304e-01" nType="0">
            <Node pos="l" depth="3" NCoef="0" IVar="-1" Cut="0.0000000000000000e+00" cType="1" res="2.5398664176464081e-02" rms="4.5028546452522278e-01" purity="6.4246892929077148e-01" nType="-99"/>
            <Node pos="r" depth="3" NCoef="0" IVar="-1" Cut="0.0000000000000000e+00" cType="1" res="-1.6837524017319083e-03" rms="4.5827272534370422e-01" purity="6.2438440322875977e-01" nType="-99"/>
          </Node>
        </Node>
        <Node pos="r" depth="1" NCoef="0" IVar="1" Cut="1.6580878125000000e+05" cType="1" res="-1.9772654399275780e-02" rms="4.6620723605155945e-01" purity="4.5427396893501282e-01" nType="0">
          <Node pos="l" depth="2" NCoef="0" IVar="4" Cut="1.5559225082397461e+00" cType="1" res="-2.9120123013854027e-02" rms="4.6802207827568054e-01" purity="4.7578033804893494e-01" nType="0">
            <Node pos="l" depth="3" NCoef="0" IVar="-1" Cut="0.0000000000000000e+00" cType="1" res="-6.9456785917282104e-02" rms="4.7428584098815918e-01" purity="4.3834546208381653e-01" nType="-99"/>
            <Node pos="r" depth="3" NCoef="0" IVar="-1" Cut="0.0000000000000000e+00" cType="1" res="-5.6417975574731827e-03" rms="4.6438190340995789e-01" purity="4.9165201187133789e-01" nType="-99"/>
          </Node>
          <Node pos="r" depth="2" NCoef="0" IVar="6" Cut="2.7567567825317383e+00" cType="1" res="-1.1790363350883126e-04" rms="4.6175113320350647e-01" purity="4.0905296802520752e-01" nType="0">
            <Node pos="l" depth="3" NCoef="0" IVar="-1" Cut="0.0000000000000000e+00" cType="1" res="-2.0733689889311790e-03" rms="4.6187660098075867e-01" purity="4.1156062483787537e-01" nType="-99"/>
            <Node pos="r" depth="3" NCoef="0" IVar="-1" Cut="0.0000000000000000e+00" cType="1" res="2.2602637764066458e-03" rms="4.6161890029907227e-01" purity="4.0655019879341125e-01" nType="-99"/>
          </Node>
        </Node>
      </Node>
    </BinaryTree>
    <BinaryTree type="DecisionTree" boostWeight="1.0000000000000000e+00" itree="351">
      <Node pos="s" depth="0" NCoef="0" IVar="3" Cut="6.6786086559295654e-01" cType="1" res="0.0000000000000000e+00" rms="0.0000000000000000e+00" purity="5.0399935245513916e-01" nType="0">
        <Node pos="l" depth="1" NCoef="0" IVar="7" Cut="5.0000000000000000e+00" cType="1" res="-1.4488887973129749e-02" rms="4.6436992287635803e-01" purity="4.1312563419342041e-01" nType="0">
          <Node pos="l" depth="2" NCoef="0" IVar="-1" Cut="0.0000000000000000e+00" cType="1" res="5.5099725723266602e-03" rms="4.5815247297286987e-01" purity="4.0602082014083862e-01" nType="-99"/>
          <Node pos="r" depth="2" NCoef="0" IVar="-1" Cut="0.0000000000000000e+00" cType="1" res="-4.2528513818979263e-02" rms="4.7120100259780884e-01" purity="4.2021533846855164e-01" nType="-99"/>
        </Node>
        <Node pos="r" depth="1" NCoef="0" IVar="4" Cut="8.6215448379516602e-01" cType="1" res="5.4746605455875397e-03" rms="4.6084517240524292e-01" purity="5.1930499076843262e-01" nType="0">
          <Node pos="l" depth="2" NCoef="0" IVar="2" Cut="1.9918293762207031e+02" cType="1" res="2.8185216709971428e-02" rms="4.6197998523712158e-01" purity="4.9142631888389587e-01" nType="0">
            <Node pos="l" depth="3" NCoef="0" IVar="-1" Cut="0.0000000000000000e+00" cType="1" res="2.0554047077894211e-02" rms="4.6258732676506042e-01" purity="5.0455093383789062e-01" nType="-99"/>
            <Node pos="r" depth="3" NCoef="0" IVar="-1" Cut="0.0000000000000000e+00" cType="1" res="5.1225338131189346e-02" rms="4.6109589934349060e-01" purity="4.7646379470825195e-01" nType="-99"/>
          </Node>
          <Node pos="r" depth="2" NCoef="0" IVar="7" Cut="7.0000000000000000e+00" cType="1" res="1.2313020415604115e-03" rms="4.6050122380256653e-01" purity="5.2450346946716309e-01" nType="0">
            <Node pos="l" depth="3" NCoef="0" IVar="-1" Cut="0.0000000000000000e+00" cType="1" res="-1.9912654533982277e-03" rms="4.6244642138481140e-01" purity="5.0738596916198730e-01" nType="-99"/>
            <Node pos="r" depth="3" NCoef="0" IVar="-1" Cut="0.0000000000000000e+00" cType="1" res="2.9825678095221519e-02" rms="4.4373160600662231e-01" purity="6.6326147317886353e-01" nType="-99"/>
          </Node>
        </Node>
      </Node>
    </BinaryTree>
    <BinaryTree type="DecisionTree" boostWeight="1.0000000000000000e+00" itree="352">
      <Node pos="s" depth="0" NCoef="0" IVar="9" Cut="5.9037843750000000e+04" cType="1" res="-5.2112918347120285e-03" rms="4.6035945415496826e-01" purity="5.0128757953643799e-01" nType="0">
        <Node pos="l" depth="1" NCoef="0" IVar="5" Cut="1.3463472127914429e+00" cType="1" res="-1.0695136152207851e-02" rms="4.6497154235839844e-01" purity="4.4067433476448059e-01" nType="0">
          <Node pos="l" depth="2" NCoef="0" IVar="2" Cut="1.7992323303222656e+02" cType="1" res="-1.9142208620905876e-02" rms="4.6525800228118896e-01" purity="4.2339828610420227e-01" nType="0">
            <Node pos="l" depth="3" NCoef="0" IVar="-1" Cut="0.0000000000000000e+00" cType="1" res="1.7524674767628312e-03" rms="4.6864709258079529e-01" purity="4.6015390753746033e-01" nType="-99"/>
            <Node pos="r" depth="3" NCoef="0" IVar="-1" Cut="0.0000000000000000e+00" cType="1" res="-8.0301761627197266e-03" rms="4.6163815259933472e-01" purity="3.9225834608078003e-01" nType="-99"/>
          </Node>
          <Node pos="r" depth="2" NCoef="0" IVar="2" Cut="2.1529974365234375e+02" cType="1" res="4.4901305809617043e-03" rms="4.6406969428062439e-01" purity="4.7173136472702026e-01" nType="0">
            <Node pos="l" depth="3" NCoef="0" IVar="-1" Cut="0.0000000000000000e+00" cType="1" res="1.4444217085838318e-02" rms="4.6164029836654663e-01" purity="4.8883810639381409e-01" nType="-99"/>
            <Node pos="r" depth="3" NCoef="0" IVar="-1" Cut="0.0000000000000000e+00" cType="1" res="-1.3426029123365879e-02" rms="4.6798646450042725e-01" purity="4.4063860177993774e-01" nType="-99"/>
          </Node>
        </Node>
        <Node pos="r" depth="1" NCoef="0" IVar="5" Cut="-4.4871601462364197e-01" cType="1" res="1.1193149723112583e-02" rms="4.4587582349777222e-01" purity="6.8260687589645386e-01" nType="0">
          <Node pos="l" depth="2" NCoef="0" IVar="3" Cut="4.1620593070983887e+00" cType="1" res="2.0580969750881195e-02" rms="4.4760122895240784e-01" purity="6.8158185482025146e-01" nType="0">
            <Node pos="l" depth="3" NCoef="0" IVar="-1" Cut="0.0000000000000000e+00" cType="1" res="3.9595477283000946e-02" rms="4.5443773269653320e-01" purity="6.6025203466415405e-01" nType="-99"/>
            <Node pos="r" depth="3" NCoef="0" IVar="-1" Cut="0.0000000000000000e+00" cType="1" res="7.7007925137877464e-03" rms="4.4145569205284119e-01" purity="6.9888859987258911e-01" nType="-99"/>
          </Node>
          <Node pos="r" depth="2" NCoef="0" IVar="6" Cut="1.0472217798233032e+00" cType="1" res="2.6420296635478735e-03" rms="4.4412571191787720e-01" purity="6.8354058265686035e-01" nType="0">
            <Node pos="l" depth="3" NCoef="0" IVar="-1" Cut="0.0000000000000000e+00" cType="1" res="-1.5115760266780853e-02" rms="4.2589998245239258e-01" purity="7.1500188112258911e-01" nType="-99"/>
            <Node pos="r" depth="3" NCoef="0" IVar="-1" Cut="0.0000000000000000e+00" cType="1" res="2.5568688288331032e-02" rms="4.6971350908279419e-01" purity="6.3554841279983521e-01" nType="-99"/>
          </Node>
        </Node>
      </Node>
    </BinaryTree>
    <BinaryTree type="DecisionTree" boostWeight="1.0000000000000000e+00" itree="353">
      <Node pos="s" depth="0" NCoef="0" IVar="5" Cut="-2.2440578937530518e+00" cType="1" res="-1.2904269620776176e-02" rms="4.5986157655715942e-01" purity="4.8830243945121765e-01" nType="0">
        <Node pos="l" depth="1" NCoef="0" IVar="3" Cut="4.5082683563232422e+00" cType="1" res="-3.3291678875684738e-02" rms="4.6087801456451416e-01" purity="4.9185007810592651e-01" nType="0">
          <Node pos="l" depth="2" NCoef="0" IVar="5" Cut="-2.7569224834442139e+00" cType="1" res="-4.8360832035541534e-02" rms="4.6397468447685242e-01" purity="4.3615224957466125e-01" nType="0">
            <Node pos="l" depth="3" NCoef="0" IVar="-1" Cut="0.0000000000000000e+00" cType="1" res="-4.6398872509598732e-03" rms="4.5006743073463440e-01" purity="4.1284048557281494e-01" nType="-99"/>
            <Node pos="r" depth="3" NCoef="0" IVar="-1" Cut="0.0000000000000000e+00" cType="1" res="-2.8433494269847870e-02" rms="4.7495260834693909e-01" purity="4.5620587468147278e-01" nType="-99"/>
          </Node>
          <Node pos="r" depth="2" NCoef="0" IVar="8" Cut="7.2578375000000000e+04" cType="1" res="-1.1946718208491802e-02" rms="4.5560353994369507e-01" purity="5.7074415683746338e-01" nType="0">
            <Node pos="l" depth="3" NCoef="0" IVar="-1" Cut="0.0000000000000000e+00" cType="1" res="2.8703216463327408e-02" rms="4.6609243750572205e-01" purity="5.1889014244079590e-01" nType="-99"/>
            <Node pos="r" depth="3" NCoef="0" IVar="-1" Cut="0.0000000000000000e+00" cType="1" res="-1.7894402146339417e-02" rms="4.4477781653404236e-01" purity="6.1395996809005737e-01" nType="-99"/>
          </Node>
        </Node>
        <Node pos="r" depth="1" NCoef="0" IVar="2" Cut="2.0461003112792969e+02" cType="1" res="-6.9770719856023788e-03" rms="4.5939588546752930e-01" purity="4.8727104067802429e-01" nType="0">
          <Node pos="l" depth="2" NCoef="0" IVar="6" Cut="2.2438685894012451e+00" cType="1" res="-1.3268895447254181e-02" rms="4.5624127984046936e-01" purity="4.8798650503158569e-01" nType="0">
            <Node pos="l" depth="3" NCoef="0" IVar="-1" Cut="0.0000000000000000e+00" cType="1" res="-4.9780518747866154e-03" rms="4.5613974332809448e-01" purity="5.2837282419204712e-01" nType="-99"/>
            <Node pos="r" depth="3" NCoef="0" IVar="-1" Cut="0.0000000000000000e+00" cType="1" res="-5.8164917863905430e-03" rms="4.5573693513870239e-01" purity="3.8670766353607178e-01" nType="-99"/>
          </Node>
          <Node pos="r" depth="2" NCoef="0" IVar="4" Cut="1.6733639240264893e+00" cType="1" res="2.8634082991629839e-03" rms="4.6411582827568054e-01" purity="4.8615190386772156e-01" nType="0">
            <Node pos="l" depth="3" NCoef="0" IVar="-1" Cut="0.0000000000000000e+00" cType="1" res="1.9205944612622261e-02" rms="4.6754711866378784e-01" purity="4.6797457337379456e-01" nType="-99"/>
            <Node pos="r" depth="3" NCoef="0" IVar="-1" Cut="0.0000000000000000e+00" cType="1" res="-3.2552371267229319e-03" rms="4.6128034591674805e-01" purity="4.9999758601188660e-01" nType="-99"/>
          </Node>
        </Node>
      </Node>
    </BinaryTree>
    <BinaryTree type="DecisionTree" boostWeight="1.0000000000000000e+00" itree="354">
      <Node pos="s" depth="0" NCoef="0" IVar="7" Cut="6.0000000000000000e+00" cType="1" res="-1.6886692028492689e-03" rms="4.6103343367576599e-01" purity="5.0203311443328857e-01" nType="0">
        <Node pos="l" depth="1" NCoef="0" IVar="8" Cut="1.0376662500000000e+05" cType="1" res="4.5989342033863068e-03" rms="4.6428063511848450e-01" purity="4.6854630112648010e-01" nType="0">
          <Node pos="l" depth="2" NCoef="0" IVar="6" Cut="2.8423008918762207e+00" cType="1" res="0.0000000000000000e+00" rms="0.0000000000000000e+00" purity="4.4508704543113708e-01" nType="0">
            <Node pos="l" depth="3" NCoef="0" IVar="-1" Cut="0.0000000000000000e+00" cType="1" res="3.7517480086535215e-03" rms="4.6616569161415100e-01" purity="4.4669488072395325e-01" nType="-99"/>
            <Node pos="r" depth="3" NCoef="0" IVar="-1" Cut="0.0000000000000000e+00" cType="1" res="-8.5580172017216682e-03" rms="4.6454727649688721e-01" purity="4.3255838751792908e-01" nType="-99"/>
          </Node>
          <Node pos="r" depth="2" NCoef="0" IVar="-1" Cut="0.0000000000000000e+00" cType="1" res="3.2110143452882767e-02" rms="4.4833719730377197e-01" purity="6.6912531852722168e-01" nType="-99"/>
        </Node>
        <Node pos="r" depth="1" NCoef="0" IVar="6" Cut="2.2429845333099365e+00" cType="1" res="-1.8315382301807404e-02" rms="4.5191675424575806e-01" purity="5.9056276082992554e-01" nType="0">
          <Node pos="l" depth="2" NCoef="0" IVar="2" Cut="1.8127946472167969e+02" cType="1" res="-3.7349534686654806e-03" rms="4.5056307315826416e-01" purity="6.3127702474594116e-01" nType="0">
            <Node pos="l" depth="3" NCoef="0" IVar="-1" Cut="0.0000000000000000e+00" cType="1" res="-1.5574875287711620e-02" rms="4.4590499997138977e-01" purity="6.3965970277786255e-01" nType="-99"/>
            <Node pos="r" depth="3" NCoef="0" IVar="-1" Cut="0.0000000000000000e+00" cType="1" res="1.2159810401499271e-02" rms="4.5728623867034912e-01" purity="6.1836177110671997e-01" nType="-99"/>
          </Node>
          <Node pos="r" depth="2" NCoef="0" IVar="-1" Cut="0.0000000000000000e+00" cType="1" res="-3.8932571187615395e-03" rms="4.5263618230819702e-01" purity="4.2864894866943359e-01" nType="-99"/>
        </Node>
      </Node>
    </BinaryTree>
    <BinaryTree type="DecisionTree" boostWeight="1.0000000000000000e+00" itree="355">
      <Node pos="s" depth="0" NCoef="0" IVar="4" Cut="3.2774496078491211e+00" cType="1" res="-2.3642310407012701e-03" rms="4.6113950014114380e-01" purity="5.0222730636596680e-01" nType="0">
        <Node pos="l" depth="1" NCoef="0" IVar="2" Cut="1.7911466979980469e+02" cType="1" res="-6.7770852183457464e-05" rms="4.6198558807373047e-01" purity="5.1248002052307129e-01" nType="0">
          <Node pos="l" depth="2" NCoef="0" IVar="5" Cut="1.9445445537567139e+00" cType="1" res="7.1711251512169838e-03" rms="4.6040192246437073e-01" purity="5.3508073091506958e-01" nType="0">
            <Node pos="l" depth="3" NCoef="0" IVar="-1" Cut="0.0000000000000000e+00" cType="1" res="3.5410178825259209e-03" rms="4.6310374140739441e-01" purity="5.1677381992340088e-01" nType="-99"/>
            <Node pos="r" depth="3" NCoef="0" IVar="-1" Cut="0.0000000000000000e+00" cType="1" res="2.2846585139632225e-02" rms="4.5270103216171265e-01" purity="5.8530598878860474e-01" nType="-99"/>
          </Node>
          <Node pos="r" depth="2" NCoef="0" IVar="4" Cut="8.5054737329483032e-01" cType="1" res="-5.3314361721277237e-03" rms="4.6306267380714417e-01" purity="4.9604621529579163e-01" nType="0">
            <Node pos="l" depth="3" NCoef="0" IVar="-1" Cut="0.0000000000000000e+00" cType="1" res="-3.5736877471208572e-02" rms="4.6204340457916260e-01" purity="4.3286469578742981e-01" nType="-99"/>
            <Node pos="r" depth="3" NCoef="0" IVar="-1" Cut="0.0000000000000000e+00" cType="1" res="-1.0422716150060296e-03" rms="4.6314975619316101e-01" purity="5.0785195827484131e-01" nType="-99"/>
          </Node>
        </Node>
        <Node pos="r" depth="1" NCoef="0" IVar="-1" Cut="0.0000000000000000e+00" cType="1" res="-1.3125868281349540e-03" rms="4.4642427563667297e-01" purity="3.4439301490783691e-01" nType="-99"/>
      </Node>
    </BinaryTree>
    <BinaryTree type="DecisionTree" boostWeight="1.0000000000000000e+00" itree="356">
      <Node pos="s" depth="0" NCoef="0" IVar="6" Cut="2.8423023223876953e+00" cType="1" res="-4.6675521880388260e-03" rms="4.6104136109352112e-01" purity="4.9912583827972412e-01" nType="0">
        <Node pos="l" depth="1" NCoef="0" IVar="4" Cut="3.0120081901550293e+00" cType="1" res="-7.0202094502747059e-03" rms="4.5931008458137512e-01" purity="5.0010561943054199e-01" nType="0">
          <Node pos="l" depth="2" NCoef="0" IVar="5" Cut="2.8421182632446289e+00" cType="1" res="-4.0649152360856533e-03" rms="4.6147409081459045e-01" purity="5.0842857360839844e-01" nType="0">
            <Node pos="l" depth="3" NCoef="0" IVar="-1" Cut="0.0000000000000000e+00" cType="1" res="-2.4389021564275026e-03" rms="4.6129578351974487e-01" purity="5.0546574592590332e-01" nType="-99"/>
            <Node pos="r" depth="3" NCoef="0" IVar="-1" Cut="0.0000000000000000e+00" cType="1" res="-2.6031218469142914e-02" rms="4.6315053105354309e-01" purity="5.4697591066360474e-01" nType="-99"/>
          </Node>
          <Node pos="r" depth="2" NCoef="0" IVar="5" Cut="-7.4806219339370728e-01" cType="1" res="-2.5171363726258278e-02" rms="4.4535869359970093e-01" purity="4.4898685812950134e-01" nType="0">
            <Node pos="l" depth="3" NCoef="0" IVar="-1" Cut="0.0000000000000000e+00" cType="1" res="-5.8911060914397240e-03" rms="4.6609807014465332e-01" purity="4.8796385526657104e-01" nType="-99"/>
            <Node pos="r" depth="3" NCoef="0" IVar="-1" Cut="0.0000000000000000e+00" cType="1" res="-4.0478929877281189e-03" rms="4.2769232392311096e-01" purity="4.1830793023109436e-01" nType="-99"/>
          </Node>
        </Node>
        <Node pos="r" depth="1" NCoef="0" IVar="5" Cut="7.4778419733047485e-01" cType="1" res="1.6907591372728348e-02" rms="4.7608295083045959e-01" purity="4.9014100432395935e-01" nType="0">
          <Node pos="l" depth="2" NCoef="0" IVar="-1" Cut="0.0000000000000000e+00" cType="1" res="3.2392125576734543e-02" rms="4.7166165709495544e-01" purity="4.5468616485595703e-01" nType="-99"/>
          <Node pos="r" depth="2" NCoef="0" IVar="-1" Cut="0.0000000000000000e+00" cType="1" res="5.2668442949652672e-03" rms="4.8058816790580750e-01" purity="5.2912557125091553e-01" nType="-99"/>
        </Node>
      </Node>
    </BinaryTree>
    <BinaryTree type="DecisionTree" boostWeight="1.0000000000000000e+00" itree="357">
      <Node pos="s" depth="0" NCoef="0" IVar="2" Cut="3.5844351196289062e+02" cType="1" res="-4.5180432498455048e-03" rms="4.6158707141876221e-01" purity="5.0007230043411255e-01" nType="0">
        <Node pos="l" depth="1" NCoef="0" IVar="2" Cut="3.0166409301757812e+02" cType="1" res="0.0000000000000000e+00" rms="0.0000000000000000e+00" purity="4.9800091981887817e-01" nType="0">
          <Node pos="l" depth="2" NCoef="0" IVar="9" Cut="5.9038429687500000e+04" cType="1" res="-3.7036451976746321e-03" rms="4.6084120869636536e-01" purity="4.9781119823455811e-01" nType="0">
            <Node pos="l" depth="3" NCoef="0" IVar="-1" Cut="0.0000000000000000e+00" cType="1" res="-1.6163829423021525e-04" rms="4.6604040265083313e-01" purity="4.4924178719520569e-01" nType="-99"/>
            <Node pos="r" depth="3" NCoef="0" IVar="-1" Cut="0.0000000000000000e+00" cType="1" res="-2.1002411842346191e-02" rms="4.4237950444221497e-01" purity="6.6396152973175049e-01" nType="-99"/>
          </Node>
          <Node pos="r" depth="2" NCoef="0" IVar="-1" Cut="0.0000000000000000e+00" cType="1" res="2.7469424530863762e-02" rms="4.6329554915428162e-01" purity="5.0084477663040161e-01" nType="-99"/>
        </Node>
        <Node pos="r" depth="1" NCoef="0" IVar="5" Cut="-1.9440348148345947e+00" cType="1" res="-2.1046336740255356e-02" rms="4.6516010165214539e-01" purity="5.1474237442016602e-01" nType="0">
          <Node pos="l" depth="2" NCoef="0" IVar="-1" Cut="0.0000000000000000e+00" cType="1" res="-2.5124501436948776e-02" rms="4.7110095620155334e-01" purity="5.0245893001556396e-01" nType="-99"/>
          <Node pos="r" depth="2" NCoef="0" IVar="-1" Cut="0.0000000000000000e+00" cType="1" res="-4.4505982659757137e-03" rms="4.6163582801818848e-01" purity="5.2128750085830688e-01" nType="-99"/>
        </Node>
      </Node>
    </BinaryTree>
    <BinaryTree type="DecisionTree" boostWeight="1.0000000000000000e+00" itree="358">
      <Node pos="s" depth="0" NCoef="0" IVar="6" Cut="2.2439024448394775e+00" cType="1" res="-1.5658830525353551e-03" rms="4.6039801836013794e-01" purity="5.0045478343963623e-01" nType="0">
        <Node pos="l" depth="1" NCoef="0" IVar="4" Cut="8.7597668170928955e-01" cType="1" res="2.8110165148973465e-03" rms="4.5841303467750549e-01" purity="5.1609033346176147e-01" nType="0">
          <Node pos="l" depth="2" NCoef="0" IVar="9" Cut="4.0670972656250000e+04" cType="1" res="-1.2507687322795391e-02" rms="4.6178013086318970e-01" purity="4.5229664444923401e-01" nType="0">
            <Node pos="l" depth="3" NCoef="0" IVar="-1" Cut="0.0000000000000000e+00" cType="1" res="-4.5312363654375076e-02" rms="4.4110441207885742e-01" purity="3.0200389027595520e-01" nType="-99"/>
            <Node pos="r" depth="3" NCoef="0" IVar="-1" Cut="0.0000000000000000e+00" cType="1" res="4.1179251857101917e-03" rms="4.7607737779617310e-01" purity="5.6500154733657837e-01" nType="-99"/>
          </Node>
          <Node pos="r" depth="2" NCoef="0" IVar="6" Cut="-3.2063332200050354e-01" cType="1" res="5.8647277764976025e-03" rms="4.5767757296562195e-01" purity="5.2880722284317017e-01" nType="0">
            <Node pos="l" depth="3" NCoef="0" IVar="-1" Cut="0.0000000000000000e+00" cType="1" res="-6.2856539443600923e-05" rms="4.6467700600624084e-01" purity="5.1192641258239746e-01" nType="-99"/>
            <Node pos="r" depth="3" NCoef="0" IVar="-1" Cut="0.0000000000000000e+00" cType="1" res="1.1329377070069313e-02" rms="4.4470590353012085e-01" purity="5.5895811319351196e-01" nType="-99"/>
          </Node>
        </Node>
        <Node pos="r" depth="1" NCoef="0" IVar="6" Cut="2.6286325454711914e+00" cType="1" res="0.0000000000000000e+00" rms="0.0000000000000000e+00" purity="4.5550882816314697e-01" nType="0">
          <Node pos="l" depth="2" NCoef="0" IVar="2" Cut="1.9521444702148438e+02" cType="1" res="-4.9656767398118973e-02" rms="4.5568817853927612e-01" purity="4.1548982262611389e-01" nType="0">
            <Node pos="l" depth="3" NCoef="0" IVar="-1" Cut="0.0000000000000000e+00" cType="1" res="-6.5453196875751019e-03" rms="4.4178581237792969e-01" purity="3.6261525750160217e-01" nType="-99"/>
            <Node pos="r" depth="3" NCoef="0" IVar="-1" Cut="0.0000000000000000e+00" cType="1" res="-2.2705573588609695e-02" rms="4.7078740596771240e-01" purity="4.8101952672004700e-01" nType="-99"/>
          </Node>
          <Node pos="r" depth="2" NCoef="0" IVar="2" Cut="2.0790040588378906e+02" cType="1" res="6.3666519708931446e-03" rms="4.7036656737327576e-01" purity="4.7862881422042847e-01" nType="0">
            <Node pos="l" depth="3" NCoef="0" IVar="-1" Cut="0.0000000000000000e+00" cType="1" res="-4.7705639153718948e-03" rms="4.7031232714653015e-01" purity="4.3646895885467529e-01" nType="-99"/>
            <Node pos="r" depth="3" NCoef="0" IVar="-1" Cut="0.0000000000000000e+00" cType="1" res="1.0905343107879162e-02" rms="4.7009640932083130e-01" purity="5.3245013952255249e-01" nType="-99"/>
          </Node>
        </Node>
      </Node>
    </BinaryTree>
    <BinaryTree type="DecisionTree" boostWeight="1.0000000000000000e+00" itree="359">
      <Node pos="s" depth="0" NCoef="0" IVar="4" Cut="2.9684450626373291e+00" cType="1" res="-2.7296477928757668e-03" rms="4.6192649006843567e-01" purity="4.9986690282821655e-01" nType="0">
        <Node pos="l" depth="1" NCoef="0" IVar="6" Cut="2.5430886745452881e+00" cType="1" res="5.3788669174537063e-04" rms="4.6402072906494141e-01" purity="5.0571864843368530e-01" nType="0">
          <Node pos="l" depth="2" NCoef="0" IVar="6" Cut="2.2723572254180908e+00" cType="1" res="0.0000000000000000e+00" rms="0.0000000000000000e+00" purity="5.1498055458068848e-01" nType="0">
            <Node pos="l" depth="3" NCoef="0" IVar="-1" Cut="0.0000000000000000e+00" cType="1" res="2.2826739586889744e-03" rms="4.6070796251296997e-01" purity="5.1489400863647461e-01" nType="-99"/>
            <Node pos="r" depth="3" NCoef="0" IVar="-1" Cut="0.0000000000000000e+00" cType="1" res="2.5844981893897057e-02" rms="4.7261878848075867e-01" purity="5.1599699258804321e-01" nType="-99"/>
          </Node>
          <Node pos="r" depth="2" NCoef="0" IVar="8" Cut="5.9437453125000000e+04" cType="1" res="-1.7475079745054245e-02" rms="4.7409927845001221e-01" purity="4.6287047863006592e-01" nType="0">
            <Node pos="l" depth="3" NCoef="0" IVar="-1" Cut="0.0000000000000000e+00" cType="1" res="-3.1978767365217209e-02" rms="4.7458106279373169e-01" purity="3.8161396980285645e-01" nType="-99"/>
            <Node pos="r" depth="3" NCoef="0" IVar="-1" Cut="0.0000000000000000e+00" cType="1" res="-6.8176109343767166e-03" rms="4.7316819429397583e-01" purity="5.7623875141143799e-01" nType="-99"/>
          </Node>
        </Node>
        <Node pos="r" depth="1" NCoef="0" IVar="5" Cut="1.3459870815277100e+00" cType="1" res="-1.9895788282155991e-02" rms="4.5037513971328735e-01" purity="4.6912464499473572e-01" nType="0">
          <Node pos="l" depth="2" NCoef="0" IVar="6" Cut="-1.6456362009048462e+00" cType="1" res="-3.4515369683504105e-02" rms="4.4899642467498779e-01" purity="4.5793047547340393e-01" nType="0">
            <Node pos="l" depth="3" NCoef="0" IVar="-1" Cut="0.0000000000000000e+00" cType="1" res="-4.2278910987079144e-03" rms="4.6953961253166199e-01" purity="4.6009656786918640e-01" nType="-99"/>
            <Node pos="r" depth="3" NCoef="0" IVar="-1" Cut="0.0000000000000000e+00" cType="1" res="-2.4156419094651937e-03" rms="4.3230947852134705e-01" purity="4.5637410879135132e-01" nType="-99"/>
          </Node>
          <Node pos="r" depth="2" NCoef="0" IVar="-1" Cut="0.0000000000000000e+00" cType="1" res="6.6887307912111282e-03" rms="4.5167371630668640e-01" purity="4.9004161357879639e-01" nType="-99"/>
        </Node>
      </Node>
    </BinaryTree>
    <BinaryTree type="DecisionTree" boostWeight="1.0000000000000000e+00" itree="360">
      <Node pos="s" depth="0" NCoef="0" IVar="6" Cut="2.8423008918762207e+00" cType="1" res="-3.6498103290796280e-03" rms="4.6079355478286743e-01" purity="4.9718487262725830e-01" nType="0">
        <Node pos="l" depth="1" NCoef="0" IVar="3" Cut="-1.2332633733749390e+00" cType="1" res="-1.5680062351748347e-03" rms="4.6144154667854309e-01" purity="5.0459635257720947e-01" nType="0">
          <Node pos="l" depth="2" NCoef="0" IVar="-1" Cut="0.0000000000000000e+00" cType="1" res="-2.0662451162934303e-02" rms="4.6291601657867432e-01" purity="4.1508230566978455e-01" nType="-99"/>
          <Node pos="r" depth="2" NCoef="0" IVar="4" Cut="5.5157548189163208e-01" cType="1" res="-1.7209110956173390e-04" rms="4.6129873394966125e-01" purity="5.1145029067993164e-01" nType="0">
            <Node pos="l" depth="3" NCoef="0" IVar="-1" Cut="0.0000000000000000e+00" cType="1" res="-2.8542062267661095e-02" rms="4.7057399153709412e-01" purity="4.5290374755859375e-01" nType="-99"/>
            <Node pos="r" depth="3" NCoef="0" IVar="-1" Cut="0.0000000000000000e+00" cType="1" res="8.4517587674781680e-04" rms="4.6076676249504089e-01" purity="5.1459282636642456e-01" nType="-99"/>
          </Node>
        </Node>
        <Node pos="r" depth="1" NCoef="0" IVar="4" Cut="2.4127631187438965e+00" cType="1" res="0.0000000000000000e+00" rms="0.0000000000000000e+00" purity="4.3660956621170044e-01" nType="0">
          <Node pos="l" depth="2" NCoef="0" IVar="-1" Cut="0.0000000000000000e+00" cType="1" res="7.2304215282201767e-03" rms="4.6883806586265564e-01" purity="4.7301405668258667e-01" nType="-99"/>
          <Node pos="r" depth="2" NCoef="0" IVar="-1" Cut="0.0000000000000000e+00" cType="1" res="-5.8774705976247787e-03" rms="4.3475404381752014e-01" purity="3.9079743623733521e-01" nType="-99"/>
        </Node>
      </Node>
    </BinaryTree>
    <BinaryTree type="DecisionTree" boostWeight="1.0000000000000000e+00" itree="361">
      <Node pos="s" depth="0" NCoef="0" IVar="4" Cut="3.2655649185180664e+00" cType="1" res="1.3299664715304971e-03" rms="4.5749530196189880e-01" purity="5.0160741806030273e-01" nType="0">
        <Node pos="l" depth="1" NCoef="0" IVar="9" Cut="8.9693429687500000e+04" cType="1" res="4.1394820436835289e-03" rms="4.6041190624237061e-01" purity="5.1503115892410278e-01" nType="0">
          <Node pos="l" depth="2" NCoef="0" IVar="6" Cut="2.2438936233520508e+00" cType="1" res="1.5977974981069565e-03" rms="4.6436858177185059e-01" purity="4.9551665782928467e-01" nType="0">
            <Node pos="l" depth="3" NCoef="0" IVar="-1" Cut="0.0000000000000000e+00" cType="1" res="-3.1022122129797935e-03" rms="4.6066245436668396e-01" purity="5.0034689903259277e-01" nType="-99"/>
            <Node pos="r" depth="3" NCoef="0" IVar="-1" Cut="0.0000000000000000e+00" cType="1" res="1.1103258468210697e-02" rms="4.7432523965835571e-01" purity="4.8204138875007629e-01" nType="-99"/>
          </Node>
          <Node pos="r" depth="2" NCoef="0" IVar="-1" Cut="0.0000000000000000e+00" cType="1" res="4.5523885637521744e-02" rms="4.0694990754127502e-01" purity="7.5662857294082642e-01" nType="-99"/>
        </Node>
        <Node pos="r" depth="1" NCoef="0" IVar="-1" Cut="0.0000000000000000e+00" cType="1" res="-2.1768386941403151e-03" rms="4.1272112727165222e-01" purity="3.1448265910148621e-01" nType="-99"/>
      </Node>
    </BinaryTree>
    <BinaryTree type="DecisionTree" boostWeight="1.0000000000000000e+00" itree="362">
      <Node pos="s" depth="0" NCoef="0" IVar="6" Cut="1.0471394062042236e+00" cType="1" res="3.2071487512439489e-03" rms="4.6124213933944702e-01" purity="5.0666046142578125e-01" nType="0">
        <Node pos="l" depth="1" NCoef="0" IVar="7" Cut="6.0000000000000000e+00" cType="1" res="1.0389795526862144e-02" rms="4.6064919233322144e-01" purity="5.3171896934509277e-01" nType="0">
          <Node pos="l" depth="2" NCoef="0" IVar="9" Cut="4.1044835937500000e+04" cType="1" res="1.6115674749016762e-02" rms="4.6463572978973389e-01" purity="4.8837721347808838e-01" nType="0">
            <Node pos="l" depth="3" NCoef="0" IVar="-1" Cut="0.0000000000000000e+00" cType="1" res="7.7295047231018543e-03" rms="4.6717837452888489e-01" purity="3.9516311883926392e-01" nType="-99"/>
            <Node pos="r" depth="3" NCoef="0" IVar="-1" Cut="0.0000000000000000e+00" cType="1" res="3.4109577536582947e-02" rms="4.6049243211746216e-01" purity="6.2424951791763306e-01" nType="-99"/>
          </Node>
          <Node pos="r" depth="2" NCoef="0" IVar="9" Cut="4.6671531250000000e+04" cType="1" res="-3.0847461894154549e-03" rms="4.5084688067436218e-01" purity="6.3368636369705200e-01" nType="0">
            <Node pos="l" depth="3" NCoef="0" IVar="-1" Cut="0.0000000000000000e+00" cType="1" res="2.6355314999818802e-02" rms="4.6996909379959106e-01" purity="5.4340559244155884e-01" nType="-99"/>
            <Node pos="r" depth="3" NCoef="0" IVar="-1" Cut="0.0000000000000000e+00" cType="1" res="-1.5318034216761589e-02" rms="4.4352197647094727e-01" purity="6.6545802354812622e-01" nType="-99"/>
          </Node>
        </Node>
        <Node pos="r" depth="1" NCoef="0" IVar="8" Cut="6.3538023437500000e+04" cType="1" res="-6.9492426700890064e-03" rms="4.6188792586326599e-01" purity="4.7122198343276978e-01" nType="0">
          <Node pos="l" depth="2" NCoef="0" IVar="3" Cut="7.9314589500427246e+00" cType="1" res="4.8719309270381927e-03" rms="4.6341350674629211e-01" purity="4.0508130192756653e-01" nType="0">
            <Node pos="l" depth="3" NCoef="0" IVar="-1" Cut="0.0000000000000000e+00" cType="1" res="8.2929851487278938e-03" rms="4.6813303232192993e-01" purity="4.2057925462722778e-01" nType="-99"/>
            <Node pos="r" depth="3" NCoef="0" IVar="-1" Cut="0.0000000000000000e+00" cType="1" res="-2.7906578034162521e-02" rms="4.4368931651115417e-01" purity="3.4672716259956360e-01" nType="-99"/>
          </Node>
          <Node pos="r" depth="2" NCoef="0" IVar="7" Cut="5.0000000000000000e+00" cType="1" res="-2.3358058184385300e-02" rms="4.5920717716217041e-01" purity="5.6301409006118774e-01" nType="0">
            <Node pos="l" depth="3" NCoef="0" IVar="-1" Cut="0.0000000000000000e+00" cType="1" res="-1.5843234956264496e-02" rms="4.6859821677207947e-01" purity="4.9731317162513733e-01" nType="-99"/>
            <Node pos="r" depth="3" NCoef="0" IVar="-1" Cut="0.0000000000000000e+00" cType="1" res="-1.6437813173979521e-03" rms="4.5371600985527039e-01" purity="5.9651696681976318e-01" nType="-99"/>
          </Node>
        </Node>
      </Node>
    </BinaryTree>
    <BinaryTree type="DecisionTree" boostWeight="1.0000000000000000e+00" itree="363">
      <Node pos="s" depth="0" NCoef="0" IVar="8" Cut="1.0361052343750000e+05" cType="1" res="-6.6692768596112728e-03" rms="4.6331432461738586e-01" purity="4.9909797310829163e-01" nType="0">
        <Node pos="l" depth="1" NCoef="0" IVar="6" Cut="2.8423016071319580e+00" cType="1" res="-2.4452041834592819e-03" rms="4.6609249711036682e-01" purity="4.7132411599159241e-01" nType="0">
          <Node pos="l" depth="2" NCoef="0" IVar="6" Cut="2.2723684310913086e+00" cType="1" res="-5.8033769018948078e-03" rms="4.6454048156738281e-01" purity="4.6954232454299927e-01" nType="0">
            <Node pos="l" depth="3" NCoef="0" IVar="-1" Cut="0.0000000000000000e+00" cType="1" res="-2.4393848143517971e-03" rms="4.6417713165283203e-01" purity="4.8014152050018311e-01" nType="-99"/>
            <Node pos="r" depth="3" NCoef="0" IVar="-1" Cut="0.0000000000000000e+00" cType="1" res="-4.3020173907279968e-03" rms="4.6593275666236877e-01" purity="4.2062762379646301e-01" nType="-99"/>
          </Node>
          <Node pos="r" depth="2" NCoef="0" IVar="5" Cut="7.4729657173156738e-01" cType="1" res="2.5314470753073692e-02" rms="4.7782626748085022e-01" purity="4.8605269193649292e-01" nType="0">
            <Node pos="l" depth="3" NCoef="0" IVar="-1" Cut="0.0000000000000000e+00" cType="1" res="3.1003239564597607e-03" rms="4.6920296549797058e-01" purity="4.2304012179374695e-01" nType="-99"/>
            <Node pos="r" depth="3" NCoef="0" IVar="-1" Cut="0.0000000000000000e+00" cType="1" res="4.5976493507623672e-02" rms="4.8524257540702820e-01" purity="5.4875475168228149e-01" nType="-99"/>
          </Node>
        </Node>
        <Node pos="r" depth="1" NCoef="0" IVar="5" Cut="1.6455353498458862e+00" cType="1" res="0.0000000000000000e+00" rms="0.0000000000000000e+00" purity="6.5161967277526855e-01" nType="0">
          <Node pos="l" depth="2" NCoef="0" IVar="2" Cut="2.2085977172851562e+02" cType="1" res="0.0000000000000000e+00" rms="0.0000000000000000e+00" purity="6.2803876399993896e-01" nType="0">
            <Node pos="l" depth="3" NCoef="0" IVar="-1" Cut="0.0000000000000000e+00" cType="1" res="-7.8703418374061584e-02" rms="4.4317850470542908e-01" purity="6.5261059999465942e-01" nType="-99"/>
            <Node pos="r" depth="3" NCoef="0" IVar="-1" Cut="0.0000000000000000e+00" cType="1" res="-2.6379453018307686e-02" rms="4.6618303656578064e-01" purity="6.0379368066787720e-01" nType="-99"/>
          </Node>
          <Node pos="r" depth="2" NCoef="0" IVar="-1" Cut="0.0000000000000000e+00" cType="1" res="-1.2185567058622837e-02" rms="4.3277919292449951e-01" purity="6.9015133380889893e-01" nType="-99"/>
        </Node>
      </Node>
    </BinaryTree>
    <BinaryTree type="DecisionTree" boostWeight="1.0000000000000000e+00" itree="364">
      <Node pos="s" depth="0" NCoef="0" IVar="0" Cut="2.2667701562500000e+05" cType="1" res="-2.0953009370714426e-03" rms="4.6383664011955261e-01" purity="5.0100409984588623e-01" nType="0">
        <Node pos="l" depth="1" NCoef="0" IVar="2" Cut="1.7760675048828125e+02" cType="1" res="-5.2288942970335484e-03" rms="4.6678626537322998e-01" purity="4.8510700464248657e-01" nType="0">
          <Node pos="l" depth="2" NCoef="0" IVar="4" Cut="1.3894466161727905e+00" cType="1" res="0.0000000000000000e+00" rms="0.0000000000000000e+00" purity="4.8808369040489197e-01" nType="0">
            <Node pos="l" depth="3" NCoef="0" IVar="-1" Cut="0.0000000000000000e+00" cType="1" res="-2.1739345975220203e-03" rms="4.6416795253753662e-01" purity="4.8297777771949768e-01" nType="-99"/>
            <Node pos="r" depth="3" NCoef="0" IVar="-1" Cut="0.0000000000000000e+00" cType="1" res="-2.3381914943456650e-02" rms="4.6234643459320068e-01" purity="4.9054086208343506e-01" nType="-99"/>
          </Node>
          <Node pos="r" depth="2" NCoef="0" IVar="6" Cut="2.8422811031341553e+00" cType="1" res="3.4014782868325710e-03" rms="4.6927955746650696e-01" purity="4.8294895887374878e-01" nType="0">
            <Node pos="l" depth="3" NCoef="0" IVar="-1" Cut="0.0000000000000000e+00" cType="1" res="8.3623584359884262e-03" rms="4.6962904930114746e-01" purity="4.8657962679862976e-01" nType="-99"/>
            <Node pos="r" depth="3" NCoef="0" IVar="-1" Cut="0.0000000000000000e+00" cType="1" res="-1.2528949417173862e-02" rms="4.6473863720893860e-01" purity="4.5216748118400574e-01" nType="-99"/>
          </Node>
        </Node>
        <Node pos="r" depth="1" NCoef="0" IVar="6" Cut="-1.4968416094779968e-01" cType="1" res="2.1663000807166100e-02" rms="4.4010642170906067e-01" purity="6.2153279781341553e-01" nType="0">
          <Node pos="l" depth="2" NCoef="0" IVar="-1" Cut="0.0000000000000000e+00" cType="1" res="2.2971110884100199e-03" rms="4.3428480625152588e-01" purity="6.0940331220626831e-01" nType="-99"/>
          <Node pos="r" depth="2" NCoef="0" IVar="-1" Cut="0.0000000000000000e+00" cType="1" res="5.6231837719678879e-02" rms="4.4448181986808777e-01" purity="6.3244372606277466e-01" nType="-99"/>
        </Node>
      </Node>
    </BinaryTree>
    <BinaryTree type="DecisionTree" boostWeight="1.0000000000000000e+00" itree="365">
      <Node pos="s" depth="0" NCoef="0" IVar="4" Cut="2.9988031387329102e+00" cType="1" res="-1.8733256729319692e-04" rms="4.5977130532264709e-01" purity="5.0276792049407959e-01" nType="0">
        <Node pos="l" depth="1" NCoef="0" IVar="6" Cut="2.8422784805297852e+00" cType="1" res="3.4739384427666664e-03" rms="4.6245467662811279e-01" purity="5.1240843534469604e-01" nType="0">
          <Node pos="l" depth="2" NCoef="0" IVar="5" Cut="-2.8419256210327148e+00" cType="1" res="6.1920816078782082e-03" rms="4.6214881539344788e-01" purity="5.1761132478713989e-01" nType="0">
            <Node pos="l" depth="3" NCoef="0" IVar="-1" Cut="0.0000000000000000e+00" cType="1" res="-2.9433436691761017e-02" rms="4.6421223878860474e-01" purity="5.3406333923339844e-01" nType="-99"/>
            <Node pos="r" depth="3" NCoef="0" IVar="-1" Cut="0.0000000000000000e+00" cType="1" res="9.3176206573843956e-03" rms="4.6190297603607178e-01" purity="5.1629453897476196e-01" nType="-99"/>
          </Node>
          <Node pos="r" depth="2" NCoef="0" IVar="6" Cut="2.9989995956420898e+00" cType="1" res="-2.1478123962879181e-02" rms="4.6451050043106079e-01" purity="4.6464639902114868e-01" nType="0">
            <Node pos="l" depth="3" NCoef="0" IVar="-1" Cut="0.0000000000000000e+00" cType="1" res="-1.2592836283147335e-02" rms="4.6993765234947205e-01" purity="4.8363733291625977e-01" nType="-99"/>
            <Node pos="r" depth="3" NCoef="0" IVar="-1" Cut="0.0000000000000000e+00" cType="1" res="-1.1168010532855988e-02" rms="4.5839223265647888e-01" purity="4.4446906447410583e-01" nType="-99"/>
          </Node>
        </Node>
        <Node pos="r" depth="1" NCoef="0" IVar="5" Cut="7.4800437688827515e-01" cType="1" res="-2.0950375124812126e-02" rms="4.4367635250091553e-01" purity="4.4809696078300476e-01" nType="0">
          <Node pos="l" depth="2" NCoef="0" IVar="-1" Cut="0.0000000000000000e+00" cType="1" res="4.9363082507625222e-04" rms="4.5711839199066162e-01" purity="4.9110242724418640e-01" nType="-99"/>
          <Node pos="r" depth="2" NCoef="0" IVar="-1" Cut="0.0000000000000000e+00" cType="1" res="-3.8107268046587706e-03" rms="4.2743813991546631e-01" purity="4.0154665708541870e-01" nType="-99"/>
        </Node>
      </Node>
    </BinaryTree>
    <BinaryTree type="DecisionTree" boostWeight="1.0000000000000000e+00" itree="366">
      <Node pos="s" depth="0" NCoef="0" IVar="5" Cut="-2.5432066917419434e+00" cType="1" res="-3.0779733788222075e-03" rms="4.5913258194923401e-01" purity="4.9684274196624756e-01" nType="0">
        <Node pos="l" depth="1" NCoef="0" IVar="3" Cut="4.2764577865600586e+00" cType="1" res="2.3612497374415398e-02" rms="4.6275630593299866e-01" purity="5.5767470598220825e-01" nType="0">
          <Node pos="l" depth="2" NCoef="0" IVar="-1" Cut="0.0000000000000000e+00" cType="1" res="3.2550722360610962e-02" rms="4.7273495793342590e-01" purity="5.1783007383346558e-01" nType="-99"/>
          <Node pos="r" depth="2" NCoef="0" IVar="-1" Cut="0.0000000000000000e+00" cType="1" res="1.6077436506748199e-02" rms="4.4806677103042603e-01" purity="6.1364978551864624e-01" nType="-99"/>
        </Node>
        <Node pos="r" depth="1" NCoef="0" IVar="4" Cut="2.9671986103057861e+00" cType="1" res="-7.8242458403110504e-03" rms="4.5832243561744690e-01" purity="4.8602512478828430e-01" nType="0">
          <Node pos="l" depth="2" NCoef="0" IVar="3" Cut="3.6321094036102295e+00" cType="1" res="-2.4927572812885046e-03" rms="4.6266630291938782e-01" purity="5.0039237737655640e-01" nType="0">
            <Node pos="l" depth="3" NCoef="0" IVar="-1" Cut="0.0000000000000000e+00" cType="1" res="2.9062700923532248e-03" rms="4.7301453351974487e-01" purity="4.9291500449180603e-01" nType="-99"/>
            <Node pos="r" depth="3" NCoef="0" IVar="-1" Cut="0.0000000000000000e+00" cType="1" res="-8.3652548491954803e-03" rms="4.5581960678100586e-01" purity="5.0521481037139893e-01" nType="-99"/>
          </Node>
          <Node pos="r" depth="2" NCoef="0" IVar="5" Cut="7.0532679557800293e-01" cType="1" res="0.0000000000000000e+00" rms="0.0000000000000000e+00" purity="4.1239961981773376e-01" nType="0">
            <Node pos="l" depth="3" NCoef="0" IVar="-1" Cut="0.0000000000000000e+00" cType="1" res="-1.1960456147789955e-02" rms="4.6566686034202576e-01" purity="4.8933267593383789e-01" nType="-99"/>
            <Node pos="r" depth="3" NCoef="0" IVar="-1" Cut="0.0000000000000000e+00" cType="1" res="-3.8956182543188334e-03" rms="4.1021320223808289e-01" purity="3.5862377285957336e-01" nType="-99"/>
          </Node>
        </Node>
      </Node>
    </BinaryTree>
    <BinaryTree type="DecisionTree" boostWeight="1.0000000000000000e+00" itree="367">
      <Node pos="s" depth="0" NCoef="0" IVar="2" Cut="5.1470617675781250e+02" cType="1" res="-7.3723180685192347e-04" rms="4.6365663409233093e-01" purity="5.0739842653274536e-01" nType="0">
        <Node pos="l" depth="1" NCoef="0" IVar="5" Cut="-2.5427575111389160e+00" cType="1" res="-2.0646681077778339e-03" rms="4.6350395679473877e-01" purity="5.0292247533798218e-01" nType="0">
          <Node pos="l" depth="2" NCoef="0" IVar="8" Cut="5.9471609375000000e+04" cType="1" res="-1.4983584173023701e-02" rms="4.6105536818504333e-01" purity="5.1464867591857910e-01" nType="0">
            <Node pos="l" depth="3" NCoef="0" IVar="-1" Cut="0.0000000000000000e+00" cType="1" res="-2.7270708233118057e-03" rms="4.6223664283752441e-01" purity="3.7197649478912354e-01" nType="-99"/>
            <Node pos="r" depth="3" NCoef="0" IVar="-1" Cut="0.0000000000000000e+00" cType="1" res="5.1156417466700077e-03" rms="4.5929011702537537e-01" purity="6.0391461849212646e-01" nType="-99"/>
          </Node>
          <Node pos="r" depth="2" NCoef="0" IVar="6" Cut="2.5430736541748047e+00" cType="1" res="2.5070543051697314e-04" rms="4.6390339732170105e-01" purity="5.0082081556320190e-01" nType="0">
            <Node pos="l" depth="3" NCoef="0" IVar="-1" Cut="0.0000000000000000e+00" cType="1" res="4.8159244470298290e-03" rms="4.6108335256576538e-01" purity="5.1541256904602051e-01" nType="-99"/>
            <Node pos="r" depth="3" NCoef="0" IVar="-1" Cut="0.0000000000000000e+00" cType="1" res="-1.9423972815275192e-02" rms="4.7483611106872559e-01" purity="4.4164285063743591e-01" nType="-99"/>
          </Node>
        </Node>
        <Node pos="r" depth="1" NCoef="0" IVar="-1" Cut="0.0000000000000000e+00" cType="1" res="3.3400006592273712e-02" rms="4.6595790982246399e-01" purity="6.0008996725082397e-01" nType="-99"/>
      </Node>
    </BinaryTree>
    <BinaryTree type="DecisionTree" boostWeight="1.0000000000000000e+00" itree="368">
      <Node pos="s" depth="0" NCoef="0" IVar="9" Cut="5.9037468750000000e+04" cType="1" res="0.0000000000000000e+00" rms="0.0000000000000000e+00" purity="4.9715375900268555e-01" nType="0">
        <Node pos="l" depth="1" NCoef="0" IVar="9" Cut="5.0929878906250000e+04" cType="1" res="-3.9375452324748039e-03" rms="4.6531119942665100e-01" purity="4.4579485058784485e-01" nType="0">
          <Node pos="l" depth="2" NCoef="0" IVar="9" Cut="3.2408201171875000e+04" cType="1" res="-5.4865126730874181e-04" rms="4.6431896090507507e-01" purity="4.2816203832626343e-01" nType="0">
            <Node pos="l" depth="3" NCoef="0" IVar="-1" Cut="0.0000000000000000e+00" cType="1" res="-6.0625611804425716e-03" rms="4.4715845584869385e-01" purity="3.2675489783287048e-01" nType="-99"/>
            <Node pos="r" depth="3" NCoef="0" IVar="-1" Cut="0.0000000000000000e+00" cType="1" res="1.1028093285858631e-02" rms="4.7722405195236206e-01" purity="5.0857430696487427e-01" nType="-99"/>
          </Node>
          <Node pos="r" depth="2" NCoef="0" IVar="4" Cut="1.9356930255889893e+00" cType="1" res="-2.9493710026144981e-02" rms="4.7194379568099976e-01" purity="5.7876664400100708e-01" nType="0">
            <Node pos="l" depth="3" NCoef="0" IVar="-1" Cut="0.0000000000000000e+00" cType="1" res="-5.3809247910976410e-02" rms="4.8345091938972473e-01" purity="5.4372471570968628e-01" nType="-99"/>
            <Node pos="r" depth="3" NCoef="0" IVar="-1" Cut="0.0000000000000000e+00" cType="1" res="-8.3845341578125954e-03" rms="4.5805796980857849e-01" purity="6.1660671234130859e-01" nType="-99"/>
          </Node>
        </Node>
        <Node pos="r" depth="1" NCoef="0" IVar="6" Cut="2.2437381744384766e+00" cType="1" res="-1.4171019196510315e-02" rms="4.4452548027038574e-01" purity="6.5168493986129761e-01" nType="0">
          <Node pos="l" depth="2" NCoef="0" IVar="4" Cut="1.1285908222198486e+00" cType="1" res="-4.7830520197749138e-03" rms="4.4184380769729614e-01" purity="6.7848634719848633e-01" nType="0">
            <Node pos="l" depth="3" NCoef="0" IVar="-1" Cut="0.0000000000000000e+00" cType="1" res="-3.2715052366256714e-02" rms="4.6008485555648804e-01" purity="6.2017339468002319e-01" nType="-99"/>
            <Node pos="r" depth="3" NCoef="0" IVar="-1" Cut="0.0000000000000000e+00" cType="1" res="4.7436109744012356e-03" rms="4.3376365303993225e-01" purity="7.0258820056915283e-01" nType="-99"/>
          </Node>
          <Node pos="r" depth="2" NCoef="0" IVar="-1" Cut="0.0000000000000000e+00" cType="1" res="-4.7026621177792549e-03" rms="4.5344731211662292e-01" purity="5.3992742300033569e-01" nType="-99"/>
        </Node>
      </Node>
    </BinaryTree>
    <BinaryTree type="DecisionTree" boostWeight="1.0000000000000000e+00" itree="369">
      <Node pos="s" depth="0" NCoef="0" IVar="2" Cut="2.0411186218261719e+02" cType="1" res="-4.7142868861556053e-03" rms="4.6198615431785583e-01" purity="4.9885013699531555e-01" nType="0">
        <Node pos="l" depth="1" NCoef="0" IVar="2" Cut="1.4396012878417969e+02" cType="1" res="1.9454305293038487e-03" rms="4.6078857779502869e-01" purity="5.1276665925979614e-01" nType="0">
          <Node pos="l" depth="2" NCoef="0" IVar="6" Cut="1.4932772517204285e-01" cType="1" res="3.2411806285381317e-02" rms="4.6206489205360413e-01" purity="4.4504541158676147e-01" nType="0">
            <Node pos="l" depth="3" NCoef="0" IVar="-1" Cut="0.0000000000000000e+00" cType="1" res="7.7442631125450134e-02" rms="4.6965515613555908e-01" purity="4.9104022979736328e-01" nType="-99"/>
            <Node pos="r" depth="3" NCoef="0" IVar="-1" Cut="0.0000000000000000e+00" cType="1" res="1.6992045566439629e-03" rms="4.5358988642692566e-01" purity="4.0279233455657959e-01" nType="-99"/>
          </Node>
          <Node pos="r" depth="2" NCoef="0" IVar="5" Cut="4.4875192642211914e-01" cType="1" res="-3.1902759801596403e-03" rms="4.6037456393241882e-01" purity="5.2418237924575806e-01" nType="0">
            <Node pos="l" depth="3" NCoef="0" IVar="-1" Cut="0.0000000000000000e+00" cType="1" res="6.1064311303198338e-03" rms="4.6310031414031982e-01" purity="5.2873736619949341e-01" nType="-99"/>
            <Node pos="r" depth="3" NCoef="0" IVar="-1" Cut="0.0000000000000000e+00" cType="1" res="-1.3957577757537365e-02" rms="4.5700675249099731e-01" purity="5.1892369985580444e-01" nType="-99"/>
          </Node>
        </Node>
        <Node pos="r" depth="1" NCoef="0" IVar="5" Cut="-2.5429966449737549e+00" cType="1" res="-1.4610727317631245e-02" rms="4.6358335018157959e-01" purity="4.7816997766494751e-01" nType="0">
          <Node pos="l" depth="2" NCoef="0" IVar="-1" Cut="0.0000000000000000e+00" cType="1" res="-9.7226807847619057e-03" rms="4.5489436388015747e-01" purity="4.5924642682075500e-01" nType="-99"/>
          <Node pos="r" depth="2" NCoef="0" IVar="5" Cut="-2.0010256767272949e+00" cType="1" res="-8.2654654979705811e-03" rms="4.6523916721343994e-01" purity="4.8234501481056213e-01" nType="0">
            <Node pos="l" depth="3" NCoef="0" IVar="-1" Cut="0.0000000000000000e+00" cType="1" res="1.6914669424295425e-02" rms="4.7461250424385071e-01" purity="5.1608949899673462e-01" nType="-99"/>
            <Node pos="r" depth="3" NCoef="0" IVar="-1" Cut="0.0000000000000000e+00" cType="1" res="-1.4285775832831860e-02" rms="4.6343725919723511e-01" purity="4.7639667987823486e-01" nType="-99"/>
          </Node>
        </Node>
      </Node>
    </BinaryTree>
    <BinaryTree type="DecisionTree" boostWeight="1.0000000000000000e+00" itree="370">
      <Node pos="s" depth="0" NCoef="0" IVar="5" Cut="-1.4971430599689484e-01" cType="1" res="1.3767150230705738e-03" rms="4.6301713585853577e-01" purity="5.0521087646484375e-01" nType="0">
        <Node pos="l" depth="1" NCoef="0" IVar="5" Cut="-8.6263257265090942e-01" cType="1" res="-7.3442496359348297e-03" rms="4.6291708946228027e-01" purity="5.0024592876434326e-01" nType="0">
          <Node pos="l" depth="2" NCoef="0" IVar="6" Cut="7.4794584512710571e-01" cType="1" res="0.0000000000000000e+00" rms="0.0000000000000000e+00" purity="5.1555693149566650e-01" nType="0">
            <Node pos="l" depth="3" NCoef="0" IVar="-1" Cut="0.0000000000000000e+00" cType="1" res="-1.0428734123706818e-02" rms="4.6939912438392639e-01" purity="4.8472309112548828e-01" nType="-99"/>
            <Node pos="r" depth="3" NCoef="0" IVar="-1" Cut="0.0000000000000000e+00" cType="1" res="2.3108603432774544e-02" rms="4.4204404950141907e-01" purity="6.5401202440261841e-01" nType="-99"/>
          </Node>
          <Node pos="r" depth="2" NCoef="0" IVar="-1" Cut="0.0000000000000000e+00" cType="1" res="-8.7700542062520981e-03" rms="4.5122662186622620e-01" purity="4.0524074435234070e-01" nType="-99"/>
        </Node>
        <Node pos="r" depth="1" NCoef="0" IVar="3" Cut="4.6604638099670410e+00" cType="1" res="9.6008190885186195e-03" rms="4.6296101808547974e-01" purity="5.0989294052124023e-01" nType="0">
          <Node pos="l" depth="2" NCoef="0" IVar="6" Cut="2.5431287288665771e+00" cType="1" res="2.0302193239331245e-02" rms="4.7228863835334778e-01" purity="5.0966805219650269e-01" nType="0">
            <Node pos="l" depth="3" NCoef="0" IVar="-1" Cut="0.0000000000000000e+00" cType="1" res="1.2754200957715511e-02" rms="4.6809273958206177e-01" purity="5.1399868726730347e-01" nType="-99"/>
            <Node pos="r" depth="3" NCoef="0" IVar="-1" Cut="0.0000000000000000e+00" cType="1" res="5.1860321313142776e-02" rms="4.8467922210693359e-01" purity="4.9553459882736206e-01" nType="-99"/>
          </Node>
          <Node pos="r" depth="2" NCoef="0" IVar="4" Cut="1.0628623962402344e+00" cType="1" res="-2.1160775795578957e-03" rms="4.5223745703697205e-01" purity="5.1013922691345215e-01" nType="0">
            <Node pos="l" depth="3" NCoef="0" IVar="-1" Cut="0.0000000000000000e+00" cType="1" res="2.4127218872308731e-02" rms="4.5149379968643188e-01" purity="4.5799997448921204e-01" nType="-99"/>
            <Node pos="r" depth="3" NCoef="0" IVar="-1" Cut="0.0000000000000000e+00" cType="1" res="-9.7397211939096451e-03" rms="4.5230081677436829e-01" purity="5.2758461236953735e-01" nType="-99"/>
          </Node>
        </Node>
      </Node>
    </BinaryTree>
    <BinaryTree type="DecisionTree" boostWeight="1.0000000000000000e+00" itree="371">
      <Node pos="s" depth="0" NCoef="0" IVar="4" Cut="3.2655649185180664e+00" cType="1" res="-5.5956016294658184e-03" rms="4.6192538738250732e-01" purity="4.9659356474876404e-01" nType="0">
        <Node pos="l" depth="1" NCoef="0" IVar="3" Cut="4.7895569801330566e+00" cType="1" res="-6.9259019801393151e-04" rms="4.6493557095527649e-01" purity="5.1225322484970093e-01" nType="0">
          <Node pos="l" depth="2" NCoef="0" IVar="7" Cut="6.0000000000000000e+00" cType="1" res="-9.2788571491837502e-03" rms="4.7242975234985352e-01" purity="4.9506857991218567e-01" nType="0">
            <Node pos="l" depth="3" NCoef="0" IVar="-1" Cut="0.0000000000000000e+00" cType="1" res="-3.6797400098294020e-03" rms="4.7525352239608765e-01" purity="4.7542098164558411e-01" nType="-99"/>
            <Node pos="r" depth="3" NCoef="0" IVar="-1" Cut="0.0000000000000000e+00" cType="1" res="-5.7777287438511848e-03" rms="4.6906557679176331e-01" purity="5.4814565181732178e-01" nType="-99"/>
          </Node>
          <Node pos="r" depth="2" NCoef="0" IVar="5" Cut="-2.5432207584381104e+00" cType="1" res="9.4040809199213982e-03" rms="4.5473897457122803e-01" purity="5.3142082691192627e-01" nType="0">
            <Node pos="l" depth="3" NCoef="0" IVar="-1" Cut="0.0000000000000000e+00" cType="1" res="-9.8404688760638237e-03" rms="4.5031780004501343e-01" purity="5.6623899936676025e-01" nType="-99"/>
            <Node pos="r" depth="3" NCoef="0" IVar="-1" Cut="0.0000000000000000e+00" cType="1" res="1.7776606604456902e-02" rms="4.5502898097038269e-01" purity="5.2665382623672485e-01" nType="-99"/>
          </Node>
        </Node>
        <Node pos="r" depth="1" NCoef="0" IVar="-1" Cut="0.0000000000000000e+00" cType="1" res="-2.3779708426445723e-03" rms="4.1591182351112366e-01" purity="2.9417005181312561e-01" nType="-99"/>
      </Node>
    </BinaryTree>
    <BinaryTree type="DecisionTree" boostWeight="1.0000000000000000e+00" itree="372">
      <Node pos="s" depth="0" NCoef="0" IVar="4" Cut="3.0043828487396240e+00" cType="1" res="-6.4221997745335102e-03" rms="4.5749551057815552e-01" purity="4.9698948860168457e-01" nType="0">
        <Node pos="l" depth="1" NCoef="0" IVar="8" Cut="6.4477210937500000e+04" cType="1" res="5.1202351460233331e-04" rms="4.6094277501106262e-01" purity="5.1206314563751221e-01" nType="0">
          <Node pos="l" depth="2" NCoef="0" IVar="4" Cut="7.9035645723342896e-01" cType="1" res="-5.9048244729638100e-03" rms="4.6448314189910889e-01" purity="4.1417783498764038e-01" nType="0">
            <Node pos="l" depth="3" NCoef="0" IVar="-1" Cut="0.0000000000000000e+00" cType="1" res="3.0568590387701988e-02" rms="4.6094217896461487e-01" purity="3.6462965607643127e-01" nType="-99"/>
            <Node pos="r" depth="3" NCoef="0" IVar="-1" Cut="0.0000000000000000e+00" cType="1" res="-7.7266874723136425e-03" rms="4.6483039855957031e-01" purity="4.2070412635803223e-01" nType="-99"/>
          </Node>
          <Node pos="r" depth="2" NCoef="0" IVar="5" Cut="2.2436490058898926e+00" cType="1" res="8.2706669345498085e-03" rms="4.5650500059127808e-01" purity="6.3041675090789795e-01" nType="0">
            <Node pos="l" depth="3" NCoef="0" IVar="-1" Cut="0.0000000000000000e+00" cType="1" res="1.4891131781041622e-02" rms="4.5712321996688843e-01" purity="6.2674355506896973e-01" nType="-99"/>
            <Node pos="r" depth="3" NCoef="0" IVar="-1" Cut="0.0000000000000000e+00" cType="1" res="-5.6976308114826679e-03" rms="4.5459318161010742e-01" purity="6.4026302099227905e-01" nType="-99"/>
          </Node>
        </Node>
        <Node pos="r" depth="1" NCoef="0" IVar="8" Cut="7.4508601562500000e+04" cType="1" res="-4.4645819813013077e-02" rms="4.3603166937828064e-01" purity="4.1389885544776917e-01" nType="0">
          <Node pos="l" depth="2" NCoef="0" IVar="8" Cut="5.1159023437500000e+04" cType="1" res="-6.4811214804649353e-02" rms="4.2878970503807068e-01" purity="3.2543972134590149e-01" nType="0">
            <Node pos="l" depth="3" NCoef="0" IVar="-1" Cut="0.0000000000000000e+00" cType="1" res="-2.5568457785993814e-03" rms="4.0998491644859314e-01" purity="2.8737202286720276e-01" nType="-99"/>
            <Node pos="r" depth="3" NCoef="0" IVar="-1" Cut="0.0000000000000000e+00" cType="1" res="-3.9728670381009579e-03" rms="4.4306373596191406e-01" purity="3.6570051312446594e-01" nType="-99"/>
          </Node>
          <Node pos="r" depth="2" NCoef="0" IVar="-1" Cut="0.0000000000000000e+00" cType="1" res="-1.5400344273075461e-03" rms="4.4805982708930969e-01" purity="6.0242027044296265e-01" nType="-99"/>
        </Node>
      </Node>
    </BinaryTree>
    <BinaryTree type="DecisionTree" boostWeight="1.0000000000000000e+00" itree="373">
      <Node pos="s" depth="0" NCoef="0" IVar="7" Cut="6.0000000000000000e+00" cType="1" res="-5.9972140006721020e-03" rms="4.5821309089660645e-01" purity="4.9996721744537354e-01" nType="0">
        <Node pos="l" depth="1" NCoef="0" IVar="4" Cut="2.7320413589477539e+00" cType="1" res="-1.1241028085350990e-02" rms="4.5973351597785950e-01" purity="4.5689013600349426e-01" nType="0">
          <Node pos="l" depth="2" NCoef="0" IVar="2" Cut="3.4896102905273438e+02" cType="1" res="-1.7566025257110596e-02" rms="4.6091639995574951e-01" purity="4.5106345415115356e-01" nType="0">
            <Node pos="l" depth="3" NCoef="0" IVar="-1" Cut="0.0000000000000000e+00" cType="1" res="-1.6103928908705711e-02" rms="4.5813325047492981e-01" purity="4.3146380782127380e-01" nType="-99"/>
            <Node pos="r" depth="3" NCoef="0" IVar="-1" Cut="0.0000000000000000e+00" cType="1" res="6.9409054704010487e-03" rms="4.7470712661743164e-01" purity="5.5515640974044800e-01" nType="-99"/>
          </Node>
          <Node pos="r" depth="2" NCoef="0" IVar="5" Cut="-4.4830065965652466e-01" cType="1" res="9.4237858429551125e-03" rms="4.5523518323898315e-01" purity="4.7592684626579285e-01" nType="0">
            <Node pos="l" depth="3" NCoef="0" IVar="-1" Cut="0.0000000000000000e+00" cType="1" res="3.0198404565453529e-02" rms="4.6325159072875977e-01" purity="4.9842697381973267e-01" nType="-99"/>
            <Node pos="r" depth="3" NCoef="0" IVar="-1" Cut="0.0000000000000000e+00" cType="1" res="-1.3763298047706485e-03" rms="4.4805622100830078e-01" purity="4.5736780762672424e-01" nType="-99"/>
          </Node>
        </Node>
        <Node pos="r" depth="1" NCoef="0" IVar="4" Cut="2.1531164646148682e+00" cType="1" res="8.7001081556081772e-03" rms="4.5367419719696045e-01" purity="6.1995375156402588e-01" nType="0">
          <Node pos="l" depth="2" NCoef="0" IVar="6" Cut="7.4677038192749023e-01" cType="1" res="0.0000000000000000e+00" rms="0.0000000000000000e+00" purity="6.1442577838897705e-01" nType="0">
            <Node pos="l" depth="3" NCoef="0" IVar="-1" Cut="0.0000000000000000e+00" cType="1" res="3.7067241966724396e-02" rms="4.5172962546348572e-01" purity="6.4224934577941895e-01" nType="-99"/>
            <Node pos="r" depth="3" NCoef="0" IVar="-1" Cut="0.0000000000000000e+00" cType="1" res="-1.2499998323619366e-02" rms="4.6732446551322937e-01" purity="5.6844931840896606e-01" nType="-99"/>
          </Node>
          <Node pos="r" depth="2" NCoef="0" IVar="5" Cut="-1.0474029779434204e+00" cType="1" res="-1.4587123878300190e-03" rms="4.4787323474884033e-01" purity="6.2678647041320801e-01" nType="0">
            <Node pos="l" depth="3" NCoef="0" IVar="-1" Cut="0.0000000000000000e+00" cType="1" res="-3.6058899015188217e-02" rms="4.4749736785888672e-01" purity="6.1636972427368164e-01" nType="-99"/>
            <Node pos="r" depth="3" NCoef="0" IVar="-1" Cut="0.0000000000000000e+00" cType="1" res="1.6958134248852730e-02" rms="4.4726219773292542e-01" purity="6.3387364149093628e-01" nType="-99"/>
          </Node>
        </Node>
      </Node>
    </BinaryTree>
    <BinaryTree type="DecisionTree" boostWeight="1.0000000000000000e+00" itree="374">
      <Node pos="s" depth="0" NCoef="0" IVar="6" Cut="-1.3464159965515137e+00" cType="1" res="0.0000000000000000e+00" rms="0.0000000000000000e+00" purity="5.0053113698959351e-01" nType="0">
        <Node pos="l" depth="1" NCoef="0" IVar="2" Cut="2.0387562561035156e+02" cType="1" res="-1.4757926575839520e-02" rms="4.6869367361068726e-01" purity="4.6943634748458862e-01" nType="0">
          <Node pos="l" depth="2" NCoef="0" IVar="5" Cut="-1.4957682788372040e-01" cType="1" res="-2.8279479593038559e-03" rms="4.7330692410469055e-01" purity="4.7740072011947632e-01" nType="0">
            <Node pos="l" depth="3" NCoef="0" IVar="-1" Cut="0.0000000000000000e+00" cType="1" res="7.4192928150296211e-03" rms="4.7670933604240417e-01" purity="4.5852994918823242e-01" nType="-99"/>
            <Node pos="r" depth="3" NCoef="0" IVar="-1" Cut="0.0000000000000000e+00" cType="1" res="-3.5075619816780090e-02" rms="4.6234843134880066e-01" purity="5.3157854080200195e-01" nType="-99"/>
          </Node>
          <Node pos="r" depth="2" NCoef="0" IVar="7" Cut="5.0000000000000000e+00" cType="1" res="-2.9449990019202232e-02" rms="4.6252644062042236e-01" purity="4.5962789654731750e-01" nType="0">
            <Node pos="l" depth="3" NCoef="0" IVar="-1" Cut="0.0000000000000000e+00" cType="1" res="-1.7062250524759293e-02" rms="4.6583259105682373e-01" purity="4.5278388261795044e-01" nType="-99"/>
            <Node pos="r" depth="3" NCoef="0" IVar="-1" Cut="0.0000000000000000e+00" cType="1" res="-1.8615322187542915e-02" rms="4.5575430989265442e-01" purity="4.7202733159065247e-01" nType="-99"/>
          </Node>
        </Node>
        <Node pos="r" depth="1" NCoef="0" IVar="4" Cut="2.7043750286102295e+00" cType="1" res="0.0000000000000000e+00" rms="0.0000000000000000e+00" purity="5.1876962184906006e-01" nType="0">
          <Node pos="l" depth="2" NCoef="0" IVar="6" Cut="-7.0528060197830200e-01" cType="1" res="-4.8495871014893055e-03" rms="4.6096059679985046e-01" purity="5.1240324974060059e-01" nType="0">
            <Node pos="l" depth="3" NCoef="0" IVar="-1" Cut="0.0000000000000000e+00" cType="1" res="1.6495911404490471e-02" rms="4.4329664111137390e-01" purity="6.0339713096618652e-01" nType="-99"/>
            <Node pos="r" depth="3" NCoef="0" IVar="-1" Cut="0.0000000000000000e+00" cType="1" res="-8.1882122904062271e-03" rms="4.6311911940574646e-01" purity="5.0077039003372192e-01" nType="-99"/>
          </Node>
          <Node pos="r" depth="2" NCoef="0" IVar="4" Cut="3.1173894405364990e+00" cType="1" res="1.3699829578399658e-02" rms="4.4838747382164001e-01" purity="5.3839462995529175e-01" nType="0">
            <Node pos="l" depth="3" NCoef="0" IVar="-1" Cut="0.0000000000000000e+00" cType="1" res="1.5146836638450623e-02" rms="4.4510519504547119e-01" purity="5.8858692646026611e-01" nType="-99"/>
            <Node pos="r" depth="3" NCoef="0" IVar="-1" Cut="0.0000000000000000e+00" cType="1" res="-7.0155388675630093e-03" rms="4.5343261957168579e-01" purity="4.4877997040748596e-01" nType="-99"/>
          </Node>
        </Node>
      </Node>
    </BinaryTree>
    <BinaryTree type="DecisionTree" boostWeight="1.0000000000000000e+00" itree="375">
      <Node pos="s" depth="0" NCoef="0" IVar="4" Cut="2.9684450626373291e+00" cType="1" res="-7.4977478943765163e-03" rms="4.6111664175987244e-01" purity="4.9695622920989990e-01" nType="0">
        <Node pos="l" depth="1" NCoef="0" IVar="9" Cut="4.5811207031250000e+04" cType="1" res="-3.4411782398819923e-03" rms="4.6299016475677490e-01" purity="5.0505751371383667e-01" nType="0">
          <Node pos="l" depth="2" NCoef="0" IVar="6" Cut="1.9446190595626831e+00" cType="1" res="2.7459005359560251e-03" rms="4.6652290225028992e-01" purity="4.1657269001007080e-01" nType="0">
            <Node pos="l" depth="3" NCoef="0" IVar="-1" Cut="0.0000000000000000e+00" cType="1" res="-4.7867237590253353e-03" rms="4.6355611085891724e-01" purity="4.0997871756553650e-01" nType="-99"/>
            <Node pos="r" depth="3" NCoef="0" IVar="-1" Cut="0.0000000000000000e+00" cType="1" res="1.8751194700598717e-02" rms="4.7186478972434998e-01" purity="4.2943552136421204e-01" nType="-99"/>
          </Node>
          <Node pos="r" depth="2" NCoef="0" IVar="7" Cut="5.0000000000000000e+00" cType="1" res="-1.2217052280902863e-02" rms="4.5777735114097595e-01" purity="6.3070762157440186e-01" nType="0">
            <Node pos="l" depth="3" NCoef="0" IVar="-1" Cut="0.0000000000000000e+00" cType="1" res="-3.7300851196050644e-02" rms="4.7787949442863464e-01" purity="5.6507939100265503e-01" nType="-99"/>
            <Node pos="r" depth="3" NCoef="0" IVar="-1" Cut="0.0000000000000000e+00" cType="1" res="-7.0320987142622471e-03" rms="4.5238390564918518e-01" purity="6.4714574813842773e-01" nType="-99"/>
          </Node>
        </Node>
        <Node pos="r" depth="1" NCoef="0" IVar="6" Cut="-1.6455245018005371e+00" cType="1" res="0.0000000000000000e+00" rms="0.0000000000000000e+00" purity="4.5458364486694336e-01" nType="0">
          <Node pos="l" depth="2" NCoef="0" IVar="-1" Cut="0.0000000000000000e+00" cType="1" res="1.3858217280358076e-03" rms="4.6676737070083618e-01" purity="4.8854222893714905e-01" nType="-99"/>
          <Node pos="r" depth="2" NCoef="0" IVar="5" Cut="1.0459417104721069e+00" cType="1" res="0.0000000000000000e+00" rms="0.0000000000000000e+00" purity="4.3678754568099976e-01" nType="0">
            <Node pos="l" depth="3" NCoef="0" IVar="-1" Cut="0.0000000000000000e+00" cType="1" res="-3.2821628265082836e-03" rms="4.4471195340156555e-01" purity="4.3103590607643127e-01" nType="-99"/>
            <Node pos="r" depth="3" NCoef="0" IVar="-1" Cut="0.0000000000000000e+00" cType="1" res="-6.4695770561229438e-05" rms="4.3290275335311890e-01" purity="4.4246387481689453e-01" nType="-99"/>
          </Node>
        </Node>
      </Node>
    </BinaryTree>
    <BinaryTree type="DecisionTree" boostWeight="1.0000000000000000e+00" itree="376">
      <Node pos="s" depth="0" NCoef="0" IVar="4" Cut="3.2705864906311035e+00" cType="1" res="-1.0129217989742756e-02" rms="4.6178841590881348e-01" purity="4.9434018135070801e-01" nType="0">
        <Node pos="l" depth="1" NCoef="0" IVar="6" Cut="-7.4800717830657959e-01" cType="1" res="-6.0795368626713753e-03" rms="4.6320816874504089e-01" purity="5.0703859329223633e-01" nType="0">
          <Node pos="l" depth="2" NCoef="0" IVar="2" Cut="3.6456652832031250e+02" cType="1" res="-1.2962371110916138e-02" rms="4.6573841571807861e-01" purity="4.9192079901695251e-01" nType="0">
            <Node pos="l" depth="3" NCoef="0" IVar="-1" Cut="0.0000000000000000e+00" cType="1" res="-1.7502974718809128e-02" rms="4.6369317173957825e-01" purity="4.8056441545486450e-01" nType="-99"/>
            <Node pos="r" depth="3" NCoef="0" IVar="-1" Cut="0.0000000000000000e+00" cType="1" res="1.8168779090046883e-02" rms="4.7891849279403687e-01" purity="5.7184624671936035e-01" nType="-99"/>
          </Node>
          <Node pos="r" depth="2" NCoef="0" IVar="5" Cut="1.6455153226852417e+00" cType="1" res="0.0000000000000000e+00" rms="0.0000000000000000e+00" purity="5.1854813098907471e-01" nType="0">
            <Node pos="l" depth="3" NCoef="0" IVar="-1" Cut="0.0000000000000000e+00" cType="1" res="9.6502648666501045e-03" rms="4.5726218819618225e-01" purity="5.4083430767059326e-01" nType="-99"/>
            <Node pos="r" depth="3" NCoef="0" IVar="-1" Cut="0.0000000000000000e+00" cType="1" res="-1.4344972558319569e-02" rms="4.6560427546501160e-01" purity="4.9208712577819824e-01" nType="-99"/>
          </Node>
        </Node>
        <Node pos="r" depth="1" NCoef="0" IVar="-1" Cut="0.0000000000000000e+00" cType="1" res="-2.4149229284375906e-03" rms="4.3588876724243164e-01" purity="3.0655705928802490e-01" nType="-99"/>
      </Node>
    </BinaryTree>
    <BinaryTree type="DecisionTree" boostWeight="1.0000000000000000e+00" itree="377">
      <Node pos="s" depth="0" NCoef="0" IVar="4" Cut="3.0050628185272217e+00" cType="1" res="-4.0629152208566666e-03" rms="4.6235677599906921e-01" purity="4.9693369865417480e-01" nType="0">
        <Node pos="l" depth="1" NCoef="0" IVar="7" Cut="5.0000000000000000e+00" cType="1" res="0.0000000000000000e+00" rms="0.0000000000000000e+00" purity="5.0551271438598633e-01" nType="0">
          <Node pos="l" depth="2" NCoef="0" IVar="4" Cut="9.2543458938598633e-01" cType="1" res="9.2726275324821472e-03" rms="4.6821102499961853e-01" purity="4.3426975607872009e-01" nType="0">
            <Node pos="l" depth="3" NCoef="0" IVar="-1" Cut="0.0000000000000000e+00" cType="1" res="-8.5611073300242424e-03" rms="4.5508623123168945e-01" purity="3.7568244338035583e-01" nType="-99"/>
            <Node pos="r" depth="3" NCoef="0" IVar="-1" Cut="0.0000000000000000e+00" cType="1" res="1.6461269930005074e-02" rms="4.7126910090446472e-01" purity="4.4853943586349487e-01" nType="-99"/>
          </Node>
          <Node pos="r" depth="2" NCoef="0" IVar="4" Cut="1.1927993297576904e+00" cType="1" res="-7.0404349826276302e-03" rms="4.5991703867912292e-01" purity="5.6073403358459473e-01" nType="0">
            <Node pos="l" depth="3" NCoef="0" IVar="-1" Cut="0.0000000000000000e+00" cType="1" res="-3.1961813569068909e-02" rms="4.6784731745719910e-01" purity="4.9173659086227417e-01" nType="-99"/>
            <Node pos="r" depth="3" NCoef="0" IVar="-1" Cut="0.0000000000000000e+00" cType="1" res="1.2828500475734472e-03" rms="4.5620235800743103e-01" purity="5.9051066637039185e-01" nType="-99"/>
          </Node>
        </Node>
        <Node pos="r" depth="1" NCoef="0" IVar="2" Cut="1.8732751464843750e+02" cType="1" res="-2.8062928467988968e-02" rms="4.5418751239776611e-01" purity="4.4726768136024475e-01" nType="0">
          <Node pos="l" depth="2" NCoef="0" IVar="-1" Cut="0.0000000000000000e+00" cType="1" res="1.5247808769345284e-02" rms="4.5392513275146484e-01" purity="5.1279979944229126e-01" nType="-99"/>
          <Node pos="r" depth="2" NCoef="0" IVar="-1" Cut="0.0000000000000000e+00" cType="1" res="-3.2849195413291454e-03" rms="4.5152756571769714e-01" purity="3.9530590176582336e-01" nType="-99"/>
        </Node>
      </Node>
    </BinaryTree>
    <BinaryTree type="DecisionTree" boostWeight="1.0000000000000000e+00" itree="378">
      <Node pos="s" depth="0" NCoef="0" IVar="4" Cut="2.7320413589477539e+00" cType="1" res="4.3631315929815173e-04" rms="4.6131554245948792e-01" purity="5.0054407119750977e-01" nType="0">
        <Node pos="l" depth="1" NCoef="0" IVar="7" Cut="5.0000000000000000e+00" cType="1" res="4.5116445980966091e-03" rms="4.6260473132133484e-01" purity="5.0256383419036865e-01" nType="0">
          <Node pos="l" depth="2" NCoef="0" IVar="1" Cut="2.2831773437500000e+05" cType="1" res="-4.4182948768138885e-03" rms="4.6315151453018188e-01" purity="4.1671878099441528e-01" nType="0">
            <Node pos="l" depth="3" NCoef="0" IVar="-1" Cut="0.0000000000000000e+00" cType="1" res="-8.0447029322385788e-03" rms="4.6872660517692566e-01" purity="4.4167730212211609e-01" nType="-99"/>
            <Node pos="r" depth="3" NCoef="0" IVar="-1" Cut="0.0000000000000000e+00" cType="1" res="1.7742333933711052e-02" rms="4.2954325675964355e-01" purity="2.7598854899406433e-01" nType="-99"/>
          </Node>
          <Node pos="r" depth="2" NCoef="0" IVar="6" Cut="-1.6454758644104004e+00" cType="1" res="1.1711728759109974e-02" rms="4.6208372712135315e-01" purity="5.7131505012512207e-01" nType="0">
            <Node pos="l" depth="3" NCoef="0" IVar="-1" Cut="0.0000000000000000e+00" cType="1" res="-9.5168029656633735e-04" rms="4.7485062479972839e-01" purity="5.0859272480010986e-01" nType="-99"/>
            <Node pos="r" depth="3" NCoef="0" IVar="-1" Cut="0.0000000000000000e+00" cType="1" res="1.8660781905055046e-02" rms="4.5708292722702026e-01" purity="5.9498441219329834e-01" nType="-99"/>
          </Node>
        </Node>
        <Node pos="r" depth="1" NCoef="0" IVar="6" Cut="2.5431234836578369e+00" cType="1" res="-1.2358540669083595e-02" rms="4.5696020126342773e-01" purity="4.9424427747726440e-01" nType="0">
          <Node pos="l" depth="2" NCoef="0" IVar="6" Cut="1.1896836757659912e+00" cType="1" res="-2.1256597712635994e-02" rms="4.5448833703994751e-01" purity="4.9498882889747620e-01" nType="0">
            <Node pos="l" depth="3" NCoef="0" IVar="-1" Cut="0.0000000000000000e+00" cType="1" res="-9.6678510308265686e-03" rms="4.6249955892562866e-01" purity="5.3321862220764160e-01" nType="-99"/>
            <Node pos="r" depth="3" NCoef="0" IVar="-1" Cut="0.0000000000000000e+00" cType="1" res="-4.4244071468710899e-03" rms="4.3117901682853699e-01" purity="3.9638581871986389e-01" nType="-99"/>
          </Node>
          <Node pos="r" depth="2" NCoef="0" IVar="-1" Cut="0.0000000000000000e+00" cType="1" res="8.0240955576300621e-03" rms="4.6460697054862976e-01" purity="4.9144807457923889e-01" nType="-99"/>
        </Node>
      </Node>
    </BinaryTree>
    <BinaryTree type="DecisionTree" boostWeight="1.0000000000000000e+00" itree="379">
      <Node pos="s" depth="0" NCoef="0" IVar="4" Cut="1.1179494857788086e+00" cType="1" res="-5.3469585254788399e-03" rms="4.6095967292785645e-01" purity="4.9394375085830688e-01" nType="0">
        <Node pos="l" depth="1" NCoef="0" IVar="4" Cut="7.1659505367279053e-01" cType="1" res="8.2550756633281708e-03" rms="4.6169456839561462e-01" purity="4.6060401201248169e-01" nType="0">
          <Node pos="l" depth="2" NCoef="0" IVar="7" Cut="5.0000000000000000e+00" cType="1" res="2.0214015617966652e-02" rms="4.6455338597297668e-01" purity="4.7486039996147156e-01" nType="0">
            <Node pos="l" depth="3" NCoef="0" IVar="-1" Cut="0.0000000000000000e+00" cType="1" res="3.8495015352964401e-02" rms="4.6951043605804443e-01" purity="4.1074797511100769e-01" nType="-99"/>
            <Node pos="r" depth="3" NCoef="0" IVar="-1" Cut="0.0000000000000000e+00" cType="1" res="1.2194661423563957e-02" rms="4.6053752303123474e-01" purity="5.2296239137649536e-01" nType="-99"/>
          </Node>
          <Node pos="r" depth="2" NCoef="0" IVar="5" Cut="1.3465889692306519e+00" cType="1" res="0.0000000000000000e+00" rms="0.0000000000000000e+00" purity="4.5044764876365662e-01" nType="0">
            <Node pos="l" depth="3" NCoef="0" IVar="-1" Cut="0.0000000000000000e+00" cType="1" res="-8.1766583025455475e-03" rms="4.6184659004211426e-01" purity="4.2809376120567322e-01" nType="-99"/>
            <Node pos="r" depth="3" NCoef="0" IVar="-1" Cut="0.0000000000000000e+00" cType="1" res="1.0803971439599991e-02" rms="4.5512229204177856e-01" purity="4.8919141292572021e-01" nType="-99"/>
          </Node>
        </Node>
        <Node pos="r" depth="1" NCoef="0" IVar="5" Cut="-1.3464503288269043e+00" cType="1" res="-9.6371015533804893e-03" rms="4.6064433455467224e-01" purity="5.0445926189422607e-01" nType="0">
          <Node pos="l" depth="2" NCoef="0" IVar="6" Cut="-2.5431387424468994e+00" cType="1" res="0.0000000000000000e+00" rms="0.0000000000000000e+00" purity="5.1005423069000244e-01" nType="0">
            <Node pos="l" depth="3" NCoef="0" IVar="-1" Cut="0.0000000000000000e+00" cType="1" res="1.5571744181215763e-02" rms="4.8056375980377197e-01" purity="5.3611421585083008e-01" nType="-99"/>
            <Node pos="r" depth="3" NCoef="0" IVar="-1" Cut="0.0000000000000000e+00" cType="1" res="-6.0489899478852749e-03" rms="4.5717203617095947e-01" purity="5.0132060050964355e-01" nType="-99"/>
          </Node>
          <Node pos="r" depth="2" NCoef="0" IVar="4" Cut="3.2139389514923096e+00" cType="1" res="-3.0540965963155031e-03" rms="4.5882910490036011e-01" purity="5.0123840570449829e-01" nType="0">
            <Node pos="l" depth="3" NCoef="0" IVar="-1" Cut="0.0000000000000000e+00" cType="1" res="-4.8144599422812462e-03" rms="4.6150234341621399e-01" purity="5.1026487350463867e-01" nType="-99"/>
            <Node pos="r" depth="3" NCoef="0" IVar="-1" Cut="0.0000000000000000e+00" cType="1" res="5.5304509587585926e-03" rms="4.3046519160270691e-01" purity="4.1104802489280701e-01" nType="-99"/>
          </Node>
        </Node>
      </Node>
    </BinaryTree>
    <BinaryTree type="DecisionTree" boostWeight="1.0000000000000000e+00" itree="380">
      <Node pos="s" depth="0" NCoef="0" IVar="4" Cut="3.2705864906311035e+00" cType="1" res="-3.9725191891193390e-03" rms="4.5875304937362671e-01" purity="4.9679756164550781e-01" nType="0">
        <Node pos="l" depth="1" NCoef="0" IVar="4" Cut="6.8460595607757568e-01" cType="1" res="-1.4024211559444666e-03" rms="4.6056362986564636e-01" purity="5.0822210311889648e-01" nType="0">
          <Node pos="l" depth="2" NCoef="0" IVar="5" Cut="4.4834899902343750e-01" cType="1" res="-2.0624518394470215e-02" rms="4.5948463678359985e-01" purity="4.4611415266990662e-01" nType="0">
            <Node pos="l" depth="3" NCoef="0" IVar="-1" Cut="0.0000000000000000e+00" cType="1" res="-4.7426815144717693e-03" rms="4.6144145727157593e-01" purity="4.4667339324951172e-01" nType="-99"/>
            <Node pos="r" depth="3" NCoef="0" IVar="-1" Cut="0.0000000000000000e+00" cType="1" res="-4.1415050625801086e-02" rms="4.5644170045852661e-01" purity="4.4546848535537720e-01" nType="-99"/>
          </Node>
          <Node pos="r" depth="2" NCoef="0" IVar="4" Cut="2.1623110771179199e+00" cType="1" res="6.1248592101037502e-04" rms="4.6063011884689331e-01" purity="5.1473242044448853e-01" nType="0">
            <Node pos="l" depth="3" NCoef="0" IVar="-1" Cut="0.0000000000000000e+00" cType="1" res="8.7527856230735779e-03" rms="4.6288523077964783e-01" purity="4.9867081642150879e-01" nType="-99"/>
            <Node pos="r" depth="3" NCoef="0" IVar="-1" Cut="0.0000000000000000e+00" cType="1" res="-7.1336580440402031e-03" rms="4.5748084783554077e-01" purity="5.3583419322967529e-01" nType="-99"/>
          </Node>
        </Node>
        <Node pos="r" depth="1" NCoef="0" IVar="-1" Cut="0.0000000000000000e+00" cType="1" res="-2.5241458788514137e-03" rms="4.2768591642379761e-01" purity="3.1941154599189758e-01" nType="-99"/>
      </Node>
    </BinaryTree>
    <BinaryTree type="DecisionTree" boostWeight="1.0000000000000000e+00" itree="381">
      <Node pos="s" depth="0" NCoef="0" IVar="3" Cut="1.3711759567260742e+01" cType="1" res="-7.8659324208274484e-04" rms="4.6313223242759705e-01" purity="5.0371325016021729e-01" nType="0">
        <Node pos="l" depth="1" NCoef="0" IVar="3" Cut="1.0943207740783691e+01" cType="1" res="2.3874414910096675e-04" rms="4.6418312191963196e-01" purity="5.0701236724853516e-01" nType="0">
          <Node pos="l" depth="2" NCoef="0" IVar="3" Cut="2.1774682998657227e+00" cType="1" res="-1.0191226610913873e-03" rms="4.6495565772056580e-01" purity="5.0696808099746704e-01" nType="0">
            <Node pos="l" depth="3" NCoef="0" IVar="-1" Cut="0.0000000000000000e+00" cType="1" res="8.7509257718920708e-03" rms="4.7343567013740540e-01" purity="4.6392583847045898e-01" nType="-99"/>
            <Node pos="r" depth="3" NCoef="0" IVar="-1" Cut="0.0000000000000000e+00" cType="1" res="-5.0216601230204105e-03" rms="4.6156829595565796e-01" purity="5.2369540929794312e-01" nType="-99"/>
          </Node>
          <Node pos="r" depth="2" NCoef="0" IVar="-1" Cut="0.0000000000000000e+00" cType="1" res="2.8663931414484978e-02" rms="4.5046475529670715e-01" purity="5.0775694847106934e-01" nType="-99"/>
        </Node>
        <Node pos="r" depth="1" NCoef="0" IVar="-1" Cut="0.0000000000000000e+00" cType="1" res="-2.9878260567784309e-02" rms="4.3952798843383789e-01" purity="4.3327975273132324e-01" nType="-99"/>
      </Node>
    </BinaryTree>
    <BinaryTree type="DecisionTree" boostWeight="1.0000000000000000e+00" itree="382">
      <Node pos="s" depth="0" NCoef="0" IVar="9" Cut="4.8522515625000000e+04" cType="1" res="-2.4682113435119390e-03" rms="4.5966184139251709e-01" purity="4.9675667285919189e-01" nType="0">
        <Node pos="l" depth="1" NCoef="0" IVar="4" Cut="3.1815693378448486e+00" cType="1" res="-9.6059376373887062e-03" rms="4.6312808990478516e-01" purity="4.0756723284721375e-01" nType="0">
          <Node pos="l" depth="2" NCoef="0" IVar="5" Cut="-1.4941483736038208e-01" cType="1" res="-6.6340882331132889e-03" rms="4.6801042556762695e-01" purity="4.1996321082115173e-01" nType="0">
            <Node pos="l" depth="3" NCoef="0" IVar="-1" Cut="0.0000000000000000e+00" cType="1" res="-8.1019159406423569e-03" rms="4.6804612874984741e-01" purity="4.1178542375564575e-01" nType="-99"/>
            <Node pos="r" depth="3" NCoef="0" IVar="-1" Cut="0.0000000000000000e+00" cType="1" res="2.0163080189377069e-03" rms="4.6782255172729492e-01" purity="4.2770886421203613e-01" nType="-99"/>
          </Node>
          <Node pos="r" depth="2" NCoef="0" IVar="-1" Cut="0.0000000000000000e+00" cType="1" res="-7.1442574262619019e-03" rms="4.0187084674835205e-01" purity="2.6647990942001343e-01" nType="-99"/>
        </Node>
        <Node pos="r" depth="1" NCoef="0" IVar="2" Cut="3.9759201049804688e+02" cType="1" res="9.6810236573219299e-03" rms="4.5344266295433044e-01" purity="6.4856749773025513e-01" nType="0">
          <Node pos="l" depth="2" NCoef="0" IVar="2" Cut="1.5732096862792969e+02" cType="1" res="1.4883048832416534e-02" rms="4.5104107260704041e-01" purity="6.5324306488037109e-01" nType="0">
            <Node pos="l" depth="3" NCoef="0" IVar="-1" Cut="0.0000000000000000e+00" cType="1" res="-1.8640466034412384e-02" rms="4.3638855218887329e-01" purity="6.5211766958236694e-01" nType="-99"/>
            <Node pos="r" depth="3" NCoef="0" IVar="-1" Cut="0.0000000000000000e+00" cType="1" res="2.3615596815943718e-02" rms="4.5326590538024902e-01" purity="6.5343540906906128e-01" nType="-99"/>
          </Node>
          <Node pos="r" depth="2" NCoef="0" IVar="-1" Cut="0.0000000000000000e+00" cType="1" res="-3.2873857766389847e-02" rms="4.6991580724716187e-01" purity="6.1175954341888428e-01" nType="-99"/>
        </Node>
      </Node>
    </BinaryTree>
    <BinaryTree type="DecisionTree" boostWeight="1.0000000000000000e+00" itree="383">
      <Node pos="s" depth="0" NCoef="0" IVar="6" Cut="-1.3464154005050659e+00" cType="1" res="0.0000000000000000e+00" rms="0.0000000000000000e+00" purity="5.0438195466995239e-01" nType="0">
        <Node pos="l" depth="1" NCoef="0" IVar="4" Cut="2.1829762458801270e+00" cType="1" res="1.1565704829990864e-02" rms="4.6905544400215149e-01" purity="4.9141934514045715e-01" nType="0">
          <Node pos="l" depth="2" NCoef="0" IVar="6" Cut="-2.0303080081939697e+00" cType="1" res="4.0722810663282871e-03" rms="4.6839424967765808e-01" purity="4.6896621584892273e-01" nType="0">
            <Node pos="l" depth="3" NCoef="0" IVar="-1" Cut="0.0000000000000000e+00" cType="1" res="-4.4959378428757191e-03" rms="4.7091200947761536e-01" purity="4.5398902893066406e-01" nType="-99"/>
            <Node pos="r" depth="3" NCoef="0" IVar="-1" Cut="0.0000000000000000e+00" cType="1" res="2.7058051899075508e-02" rms="4.6011200547218323e-01" purity="5.1323515176773071e-01" nType="-99"/>
          </Node>
          <Node pos="r" depth="2" NCoef="0" IVar="6" Cut="-2.4578096866607666e+00" cType="1" res="2.1316850557923317e-02" rms="4.6973544359207153e-01" purity="5.2063745260238647e-01" nType="0">
            <Node pos="l" depth="3" NCoef="0" IVar="-1" Cut="0.0000000000000000e+00" cType="1" res="3.6051012575626373e-02" rms="4.7634387016296387e-01" purity="5.1951807737350464e-01" nType="-99"/>
            <Node pos="r" depth="3" NCoef="0" IVar="-1" Cut="0.0000000000000000e+00" cType="1" res="5.6325728073716164e-03" rms="4.5968112349510193e-01" purity="5.2224040031433105e-01" nType="-99"/>
          </Node>
        </Node>
        <Node pos="r" depth="1" NCoef="0" IVar="3" Cut="4.7038969993591309e+00" cType="1" res="-9.0585732832551003e-03" rms="4.5664548873901367e-01" purity="5.1184237003326416e-01" nType="0">
          <Node pos="l" depth="2" NCoef="0" IVar="4" Cut="2.9499309062957764e+00" cType="1" res="-2.1056450903415680e-02" rms="4.6651729941368103e-01" purity="4.8318779468536377e-01" nType="0">
            <Node pos="l" depth="3" NCoef="0" IVar="-1" Cut="0.0000000000000000e+00" cType="1" res="-1.6806188970804214e-02" rms="4.7122111916542053e-01" purity="5.0143855810165405e-01" nType="-99"/>
            <Node pos="r" depth="3" NCoef="0" IVar="-1" Cut="0.0000000000000000e+00" cType="1" res="-4.9491389654576778e-03" rms="4.4437712430953979e-01" purity="4.0319392085075378e-01" nType="-99"/>
          </Node>
          <Node pos="r" depth="2" NCoef="0" IVar="4" Cut="8.8746601343154907e-01" cType="1" res="4.7470326535403728e-03" rms="4.4461494684219360e-01" purity="5.4481446743011475e-01" nType="0">
            <Node pos="l" depth="3" NCoef="0" IVar="-1" Cut="0.0000000000000000e+00" cType="1" res="-2.7165161445736885e-02" rms="4.3502801656723022e-01" purity="4.4296252727508545e-01" nType="-99"/>
            <Node pos="r" depth="3" NCoef="0" IVar="-1" Cut="0.0000000000000000e+00" cType="1" res="9.5871845260262489e-03" rms="4.4661492109298706e-01" purity="5.6852364540100098e-01" nType="-99"/>
          </Node>
        </Node>
      </Node>
    </BinaryTree>
    <BinaryTree type="DecisionTree" boostWeight="1.0000000000000000e+00" itree="384">
      <Node pos="s" depth="0" NCoef="0" IVar="5" Cut="1.6454885005950928e+00" cType="1" res="-4.9025905318558216e-03" rms="4.5964971184730530e-01" purity="4.9773713946342468e-01" nType="0">
        <Node pos="l" depth="1" NCoef="0" IVar="6" Cut="-1.3463991880416870e+00" cType="1" res="-9.3720890581607819e-03" rms="4.6010038256645203e-01" purity="4.8194712400436401e-01" nType="0">
          <Node pos="l" depth="2" NCoef="0" IVar="4" Cut="1.9009423255920410e+00" cType="1" res="2.3971516638994217e-03" rms="4.7025060653686523e-01" purity="4.6035939455032349e-01" nType="0">
            <Node pos="l" depth="3" NCoef="0" IVar="-1" Cut="0.0000000000000000e+00" cType="1" res="-1.3120775111019611e-02" rms="4.6764865517616272e-01" purity="4.2288053035736084e-01" nType="-99"/>
            <Node pos="r" depth="3" NCoef="0" IVar="-1" Cut="0.0000000000000000e+00" cType="1" res="1.1455450206995010e-02" rms="4.7243109345436096e-01" purity="4.9692586064338684e-01" nType="-99"/>
          </Node>
          <Node pos="r" depth="2" NCoef="0" IVar="8" Cut="6.3538023437500000e+04" cType="1" res="-1.9963359460234642e-02" rms="4.5050796866416931e-01" purity="5.0137418508529663e-01" nType="0">
            <Node pos="l" depth="3" NCoef="0" IVar="-1" Cut="0.0000000000000000e+00" cType="1" res="-2.5250215549021959e-03" rms="4.5551368594169617e-01" purity="4.0633916854858398e-01" nType="-99"/>
            <Node pos="r" depth="3" NCoef="0" IVar="-1" Cut="0.0000000000000000e+00" cType="1" res="-8.4362300112843513e-03" rms="4.4475951790809631e-01" purity="5.9932696819305420e-01" nType="-99"/>
          </Node>
        </Node>
        <Node pos="r" depth="1" NCoef="0" IVar="2" Cut="3.6192538452148438e+02" cType="1" res="4.5812609605491161e-03" rms="4.5854768157005310e-01" purity="5.3124195337295532e-01" nType="0">
          <Node pos="l" depth="2" NCoef="0" IVar="2" Cut="1.6339131164550781e+02" cType="1" res="8.0657675862312317e-03" rms="4.5880830287933350e-01" purity="5.2610665559768677e-01" nType="0">
            <Node pos="l" depth="3" NCoef="0" IVar="-1" Cut="0.0000000000000000e+00" cType="1" res="-1.4589542523026466e-02" rms="4.5702022314071655e-01" purity="5.0402486324310303e-01" nType="-99"/>
            <Node pos="r" depth="3" NCoef="0" IVar="-1" Cut="0.0000000000000000e+00" cType="1" res="1.9088506698608398e-02" rms="4.5919507741928101e-01" purity="5.3379201889038086e-01" nType="-99"/>
          </Node>
          <Node pos="r" depth="2" NCoef="0" IVar="-1" Cut="0.0000000000000000e+00" cType="1" res="-2.3532811552286148e-02" rms="4.5618772506713867e-01" purity="5.6478154659271240e-01" nType="-99"/>
        </Node>
      </Node>
    </BinaryTree>
    <BinaryTree type="DecisionTree" boostWeight="1.0000000000000000e+00" itree="385">
      <Node pos="s" depth="0" NCoef="0" IVar="6" Cut="1.4957010746002197e-01" cType="1" res="1.3519645435735583e-03" rms="4.6428337693214417e-01" purity="5.0232422351837158e-01" nType="0">
        <Node pos="l" depth="1" NCoef="0" IVar="7" Cut="5.0000000000000000e+00" cType="1" res="-7.1699330583214760e-03" rms="4.6586060523986816e-01" purity="5.0164783000946045e-01" nType="0">
          <Node pos="l" depth="2" NCoef="0" IVar="6" Cut="-2.2014324665069580e+00" cType="1" res="6.5694684162735939e-03" rms="4.6877819299697876e-01" purity="4.2789128422737122e-01" nType="0">
            <Node pos="l" depth="3" NCoef="0" IVar="-1" Cut="0.0000000000000000e+00" cType="1" res="-6.6358009353280067e-03" rms="4.6590828895568848e-01" purity="4.3718969821929932e-01" nType="-99"/>
            <Node pos="r" depth="3" NCoef="0" IVar="-1" Cut="0.0000000000000000e+00" cType="1" res="3.4437127411365509e-02" rms="4.7319644689559937e-01" purity="4.1036182641983032e-01" nType="-99"/>
          </Node>
          <Node pos="r" depth="2" NCoef="0" IVar="5" Cut="1.6453263759613037e+00" cType="1" res="-1.7995737493038177e-02" rms="4.6326604485511780e-01" purity="5.5972379446029663e-01" nType="0">
            <Node pos="l" depth="3" NCoef="0" IVar="-1" Cut="0.0000000000000000e+00" cType="1" res="-1.3483040966093540e-02" rms="4.7077891230583191e-01" purity="5.2437990903854370e-01" nType="-99"/>
            <Node pos="r" depth="3" NCoef="0" IVar="-1" Cut="0.0000000000000000e+00" cType="1" res="-4.5623511075973511e-02" rms="4.4020318984985352e-01" purity="6.6224378347396851e-01" nType="-99"/>
          </Node>
        </Node>
        <Node pos="r" depth="1" NCoef="0" IVar="2" Cut="3.6215097045898438e+02" cType="1" res="1.0174803435802460e-02" rms="4.6247866749763489e-01" purity="5.0302410125732422e-01" nType="0">
          <Node pos="l" depth="2" NCoef="0" IVar="2" Cut="2.3452252197265625e+02" cType="1" res="1.4678522013127804e-02" rms="4.6475580334663391e-01" purity="5.0096333026885986e-01" nType="0">
            <Node pos="l" depth="3" NCoef="0" IVar="-1" Cut="0.0000000000000000e+00" cType="1" res="2.2201441228389740e-02" rms="4.6502706408500671e-01" purity="5.1042085886001587e-01" nType="-99"/>
            <Node pos="r" depth="3" NCoef="0" IVar="-1" Cut="0.0000000000000000e+00" cType="1" res="-4.2099929414689541e-03" rms="4.6328571438789368e-01" purity="4.6566057205200195e-01" nType="-99"/>
          </Node>
          <Node pos="r" depth="2" NCoef="0" IVar="-1" Cut="0.0000000000000000e+00" cType="1" res="-7.4770436622202396e-03" rms="4.4414553046226501e-01" purity="5.1804947853088379e-01" nType="-99"/>
        </Node>
      </Node>
    </BinaryTree>
    <BinaryTree type="DecisionTree" boostWeight="1.0000000000000000e+00" itree="386">
      <Node pos="s" depth="0" NCoef="0" IVar="2" Cut="2.0940417480468750e+02" cType="1" res="-8.4218347910791636e-04" rms="4.6105498075485229e-01" purity="5.0311434268951416e-01" nType="0">
        <Node pos="l" depth="1" NCoef="0" IVar="1" Cut="2.1886248437500000e+05" cType="1" res="-5.8428714983165264e-03" rms="4.5993196964263916e-01" purity="5.0352323055267334e-01" nType="0">
          <Node pos="l" depth="2" NCoef="0" IVar="7" Cut="5.0000000000000000e+00" cType="1" res="-1.7201064620167017e-03" rms="4.6584630012512207e-01" purity="5.3276699781417847e-01" nType="0">
            <Node pos="l" depth="3" NCoef="0" IVar="-1" Cut="0.0000000000000000e+00" cType="1" res="-1.2399651110172272e-02" rms="4.7426059842109680e-01" purity="4.0771651268005371e-01" nType="-99"/>
            <Node pos="r" depth="3" NCoef="0" IVar="-1" Cut="0.0000000000000000e+00" cType="1" res="3.5586433950811625e-03" rms="4.6162256598472595e-01" purity="5.9389036893844604e-01" nType="-99"/>
          </Node>
          <Node pos="r" depth="2" NCoef="0" IVar="6" Cut="1.4966969192028046e-01" cType="1" res="-3.1807456165552139e-02" rms="4.1996875405311584e-01" purity="3.2032167911529541e-01" nType="0">
            <Node pos="l" depth="3" NCoef="0" IVar="-1" Cut="0.0000000000000000e+00" cType="1" res="-8.2296729087829590e-03" rms="4.2658233642578125e-01" purity="3.4991192817687988e-01" nType="-99"/>
            <Node pos="r" depth="3" NCoef="0" IVar="-1" Cut="0.0000000000000000e+00" cType="1" res="-4.6438179910182953e-02" rms="4.1159409284591675e-01" purity="2.8996458649635315e-01" nType="-99"/>
          </Node>
        </Node>
        <Node pos="r" depth="1" NCoef="0" IVar="5" Cut="-4.4847247004508972e-01" cType="1" res="7.2541362605988979e-03" rms="4.6275287866592407e-01" purity="5.0245225429534912e-01" nType="0">
          <Node pos="l" depth="2" NCoef="0" IVar="4" Cut="2.1796071529388428e+00" cType="1" res="1.4326085336506367e-02" rms="4.6317967772483826e-01" purity="5.1080310344696045e-01" nType="0">
            <Node pos="l" depth="3" NCoef="0" IVar="-1" Cut="0.0000000000000000e+00" cType="1" res="2.5206748396158218e-02" rms="4.6614319086074829e-01" purity="5.0150060653686523e-01" nType="-99"/>
            <Node pos="r" depth="3" NCoef="0" IVar="-1" Cut="0.0000000000000000e+00" cType="1" res="2.5912018027156591e-03" rms="4.5903694629669189e-01" purity="5.2309298515319824e-01" nType="-99"/>
          </Node>
          <Node pos="r" depth="2" NCoef="0" IVar="4" Cut="1.6733639240264893e+00" cType="1" res="8.9014426339417696e-04" rms="4.6227601170539856e-01" purity="4.9493747949600220e-01" nType="0">
            <Node pos="l" depth="3" NCoef="0" IVar="-1" Cut="0.0000000000000000e+00" cType="1" res="-1.3752565719187260e-02" rms="4.5752000808715820e-01" purity="4.4125086069107056e-01" nType="-99"/>
            <Node pos="r" depth="3" NCoef="0" IVar="-1" Cut="0.0000000000000000e+00" cType="1" res="9.6514290198683739e-03" rms="4.6571469306945801e-01" purity="5.3604298830032349e-01" nType="-99"/>
          </Node>
        </Node>
      </Node>
    </BinaryTree>
    <BinaryTree type="DecisionTree" boostWeight="1.0000000000000000e+00" itree="387">
      <Node pos="s" depth="0" NCoef="0" IVar="4" Cut="2.7465670108795166e+00" cType="1" res="-1.4846675330772996e-03" rms="4.6027836203575134e-01" purity="5.0530213117599487e-01" nType="0">
        <Node pos="l" depth="1" NCoef="0" IVar="6" Cut="-1.9447770118713379e+00" cType="1" res="3.9493096992373466e-03" rms="4.6123802661895752e-01" purity="5.0789684057235718e-01" nType="0">
          <Node pos="l" depth="2" NCoef="0" IVar="7" Cut="5.0000000000000000e+00" cType="1" res="0.0000000000000000e+00" rms="0.0000000000000000e+00" purity="4.8699772357940674e-01" nType="0">
            <Node pos="l" depth="3" NCoef="0" IVar="-1" Cut="0.0000000000000000e+00" cType="1" res="4.9458672292530537e-03" rms="4.6969395875930786e-01" purity="4.4650509953498840e-01" nType="-99"/>
            <Node pos="r" depth="3" NCoef="0" IVar="-1" Cut="0.0000000000000000e+00" cType="1" res="3.3213317394256592e-02" rms="4.7680836915969849e-01" purity="5.3578412532806396e-01" nType="-99"/>
          </Node>
          <Node pos="r" depth="2" NCoef="0" IVar="4" Cut="7.2415608167648315e-01" cType="1" res="-1.0373132536187768e-03" rms="4.5620876550674438e-01" purity="5.1642876863479614e-01" nType="0">
            <Node pos="l" depth="3" NCoef="0" IVar="-1" Cut="0.0000000000000000e+00" cType="1" res="3.3978216350078583e-02" rms="4.6764397621154785e-01" purity="4.7901386022567749e-01" nType="-99"/>
            <Node pos="r" depth="3" NCoef="0" IVar="-1" Cut="0.0000000000000000e+00" cType="1" res="-5.5458019487559795e-03" rms="4.5411497354507446e-01" purity="5.2269667387008667e-01" nType="-99"/>
          </Node>
        </Node>
        <Node pos="r" depth="1" NCoef="0" IVar="3" Cut="4.1834483146667480e+00" cType="1" res="-1.9284334033727646e-02" rms="4.5666819810867310e-01" purity="4.9680295586585999e-01" nType="0">
          <Node pos="l" depth="2" NCoef="0" IVar="5" Cut="1.3464032411575317e+00" cType="1" res="-3.4255672246217728e-02" rms="4.6011206507682800e-01" purity="4.3369820713996887e-01" nType="0">
            <Node pos="l" depth="3" NCoef="0" IVar="-1" Cut="0.0000000000000000e+00" cType="1" res="-6.8407650105655193e-03" rms="4.5507588982582092e-01" purity="4.1187122464179993e-01" nType="-99"/>
            <Node pos="r" depth="3" NCoef="0" IVar="-1" Cut="0.0000000000000000e+00" cType="1" res="8.3960144547745585e-04" rms="4.6585407853126526e-01" purity="4.6829709410667419e-01" nType="-99"/>
          </Node>
          <Node pos="r" depth="2" NCoef="0" IVar="6" Cut="-1.3463383913040161e+00" cType="1" res="0.0000000000000000e+00" rms="0.0000000000000000e+00" purity="5.6340003013610840e-01" nType="0">
            <Node pos="l" depth="3" NCoef="0" IVar="-1" Cut="0.0000000000000000e+00" cType="1" res="-2.8815250843763351e-02" rms="4.6466702222824097e-01" purity="5.2494412660598755e-01" nType="-99"/>
            <Node pos="r" depth="3" NCoef="0" IVar="-1" Cut="0.0000000000000000e+00" cType="1" res="1.3322356157004833e-02" rms="4.4410571455955505e-01" purity="5.8740645647048950e-01" nType="-99"/>
          </Node>
        </Node>
      </Node>
    </BinaryTree>
    <BinaryTree type="DecisionTree" boostWeight="1.0000000000000000e+00" itree="388">
      <Node pos="s" depth="0" NCoef="0" IVar="4" Cut="2.9747047424316406e+00" cType="1" res="-2.9490706510841846e-03" rms="4.6191710233688354e-01" purity="5.0250238180160522e-01" nType="0">
        <Node pos="l" depth="1" NCoef="0" IVar="8" Cut="1.0378240625000000e+05" cType="1" res="-5.7786051183938980e-04" rms="4.6266192197799683e-01" purity="5.0914716720581055e-01" nType="0">
          <Node pos="l" depth="2" NCoef="0" IVar="5" Cut="-1.3463963270187378e+00" cType="1" res="-3.6209211684763432e-03" rms="4.6676659584045410e-01" purity="4.7504305839538574e-01" nType="0">
            <Node pos="l" depth="3" NCoef="0" IVar="-1" Cut="0.0000000000000000e+00" cType="1" res="-1.3561488129198551e-02" rms="4.6787908673286438e-01" purity="4.9439162015914917e-01" nType="-99"/>
            <Node pos="r" depth="3" NCoef="0" IVar="-1" Cut="0.0000000000000000e+00" cType="1" res="6.6064001293852925e-04" rms="4.6611014008522034e-01" purity="4.6459475159645081e-01" nType="-99"/>
          </Node>
          <Node pos="r" depth="2" NCoef="0" IVar="9" Cut="6.8162828125000000e+04" cType="1" res="1.5335988253355026e-02" rms="4.4023135304450989e-01" purity="6.8749612569808960e-01" nType="0">
            <Node pos="l" depth="3" NCoef="0" IVar="-1" Cut="0.0000000000000000e+00" cType="1" res="5.3987488150596619e-02" rms="4.4921642541885376e-01" purity="6.7235845327377319e-01" nType="-99"/>
            <Node pos="r" depth="3" NCoef="0" IVar="-1" Cut="0.0000000000000000e+00" cType="1" res="-5.8760261163115501e-03" rms="4.3389102816581726e-01" purity="6.9565677642822266e-01" nType="-99"/>
          </Node>
        </Node>
        <Node pos="r" depth="1" NCoef="0" IVar="4" Cut="3.2255656719207764e+00" cType="1" res="-1.6724925488233566e-02" rms="4.5732295513153076e-01" purity="4.6389874815940857e-01" nType="0">
          <Node pos="l" depth="2" NCoef="0" IVar="5" Cut="-1.4989726245403290e-01" cType="1" res="-2.9620384797453880e-02" rms="4.6700927615165710e-01" purity="5.2957946062088013e-01" nType="0">
            <Node pos="l" depth="3" NCoef="0" IVar="-1" Cut="0.0000000000000000e+00" cType="1" res="-4.7053728252649307e-02" rms="4.6816289424896240e-01" purity="5.1420170068740845e-01" nType="-99"/>
            <Node pos="r" depth="3" NCoef="0" IVar="-1" Cut="0.0000000000000000e+00" cType="1" res="-1.7350902780890465e-02" rms="4.6516299247741699e-01" purity="5.4518949985504150e-01" nType="-99"/>
          </Node>
          <Node pos="r" depth="2" NCoef="0" IVar="-1" Cut="0.0000000000000000e+00" cType="1" res="1.5806146620889194e-05" rms="4.4384825229644775e-01" purity="3.7846961617469788e-01" nType="-99"/>
        </Node>
      </Node>
    </BinaryTree>
    <BinaryTree type="DecisionTree" boostWeight="1.0000000000000000e+00" itree="389">
      <Node pos="s" depth="0" NCoef="0" IVar="5" Cut="-2.5432066917419434e+00" cType="1" res="6.8669609026983380e-04" rms="4.5956024527549744e-01" purity="5.0069677829742432e-01" nType="0">
        <Node pos="l" depth="1" NCoef="0" IVar="6" Cut="-1.4960908889770508e-01" cType="1" res="0.0000000000000000e+00" rms="0.0000000000000000e+00" purity="5.0935268402099609e-01" nType="0">
          <Node pos="l" depth="2" NCoef="0" IVar="6" Cut="-2.1448349952697754e+00" cType="1" res="-7.3828161694109440e-03" rms="4.7063365578651428e-01" purity="4.9564063549041748e-01" nType="0">
            <Node pos="l" depth="3" NCoef="0" IVar="-1" Cut="0.0000000000000000e+00" cType="1" res="-4.7240499407052994e-02" rms="4.7606945037841797e-01" purity="5.0632256269454956e-01" nType="-99"/>
            <Node pos="r" depth="3" NCoef="0" IVar="-1" Cut="0.0000000000000000e+00" cType="1" res="2.4766523391008377e-02" rms="4.6400240063667297e-01" purity="4.8615631461143494e-01" nType="-99"/>
          </Node>
          <Node pos="r" depth="2" NCoef="0" IVar="-1" Cut="0.0000000000000000e+00" cType="1" res="-3.2622970174998045e-03" rms="4.4006749987602234e-01" purity="5.3657639026641846e-01" nType="-99"/>
        </Node>
        <Node pos="r" depth="1" NCoef="0" IVar="6" Cut="1.6455143690109253e+00" cType="1" res="5.5212653242051601e-03" rms="4.5907059311866760e-01" purity="4.9909248948097229e-01" nType="0">
          <Node pos="l" depth="2" NCoef="0" IVar="6" Cut="2.7704983949661255e-01" cType="1" res="-1.7664791084825993e-04" rms="4.5183154940605164e-01" purity="5.0872611999511719e-01" nType="0">
            <Node pos="l" depth="3" NCoef="0" IVar="-1" Cut="0.0000000000000000e+00" cType="1" res="7.9555530101060867e-03" rms="4.5959636569023132e-01" purity="5.1823395490646362e-01" nType="-99"/>
            <Node pos="r" depth="3" NCoef="0" IVar="-1" Cut="0.0000000000000000e+00" cType="1" res="-6.0945455916225910e-03" rms="4.2552271485328674e-01" purity="4.7863146662712097e-01" nType="-99"/>
          </Node>
          <Node pos="r" depth="2" NCoef="0" IVar="7" Cut="6.0000000000000000e+00" cType="1" res="1.4915594831109047e-02" rms="4.7061207890510559e-01" purity="4.8320916295051575e-01" nType="0">
            <Node pos="l" depth="3" NCoef="0" IVar="-1" Cut="0.0000000000000000e+00" cType="1" res="1.3178137131035328e-02" rms="4.6953272819519043e-01" purity="4.7159448266029358e-01" nType="-99"/>
            <Node pos="r" depth="3" NCoef="0" IVar="-1" Cut="0.0000000000000000e+00" cType="1" res="3.0036980751901865e-03" rms="4.7517153620719910e-01" purity="5.3454107046127319e-01" nType="-99"/>
          </Node>
        </Node>
      </Node>
    </BinaryTree>
    <BinaryTree type="DecisionTree" boostWeight="1.0000000000000000e+00" itree="390">
      <Node pos="s" depth="0" NCoef="0" IVar="5" Cut="2.2438614368438721e+00" cType="1" res="-1.7866005655378103e-03" rms="4.6287101507186890e-01" purity="5.0386732816696167e-01" nType="0">
        <Node pos="l" depth="1" NCoef="0" IVar="4" Cut="2.9810876846313477e+00" cType="1" res="1.3625106075778604e-03" rms="4.6397265791893005e-01" purity="4.9551203846931458e-01" nType="0">
          <Node pos="l" depth="2" NCoef="0" IVar="4" Cut="1.8799422979354858e+00" cType="1" res="-1.0169825982302427e-03" rms="4.6612519025802612e-01" purity="4.9791744351387024e-01" nType="0">
            <Node pos="l" depth="3" NCoef="0" IVar="-1" Cut="0.0000000000000000e+00" cType="1" res="5.4448428563773632e-03" rms="4.6596062183380127e-01" purity="4.7717559337615967e-01" nType="-99"/>
            <Node pos="r" depth="3" NCoef="0" IVar="-1" Cut="0.0000000000000000e+00" cType="1" res="-7.8481156378984451e-03" rms="4.6624401211738586e-01" purity="5.2592784166336060e-01" nType="-99"/>
          </Node>
          <Node pos="r" depth="2" NCoef="0" IVar="6" Cut="1.0467859506607056e+00" cType="1" res="0.0000000000000000e+00" rms="0.0000000000000000e+00" purity="4.8140496015548706e-01" nType="0">
            <Node pos="l" depth="3" NCoef="0" IVar="-1" Cut="0.0000000000000000e+00" cType="1" res="3.1501678749918938e-03" rms="4.6027609705924988e-01" purity="5.0500816106796265e-01" nType="-99"/>
            <Node pos="r" depth="3" NCoef="0" IVar="-1" Cut="0.0000000000000000e+00" cType="1" res="6.4806980080902576e-03" rms="4.3516162037849426e-01" purity="4.4462919235229492e-01" nType="-99"/>
          </Node>
        </Node>
        <Node pos="r" depth="1" NCoef="0" IVar="8" Cut="5.2146062500000000e+04" cType="1" res="-1.3037747703492641e-02" rms="4.5873686671257019e-01" purity="5.3371930122375488e-01" nType="0">
          <Node pos="l" depth="2" NCoef="0" IVar="-1" Cut="0.0000000000000000e+00" cType="1" res="-3.1549073755741119e-02" rms="4.4620352983474731e-01" purity="3.6133509874343872e-01" nType="-99"/>
          <Node pos="r" depth="2" NCoef="0" IVar="6" Cut="2.2439708709716797e+00" cType="1" res="0.0000000000000000e+00" rms="0.0000000000000000e+00" purity="5.9296387434005737e-01" nType="0">
            <Node pos="l" depth="3" NCoef="0" IVar="-1" Cut="0.0000000000000000e+00" cType="1" res="7.2277215076610446e-04" rms="4.5644462108612061e-01" purity="6.0155975818634033e-01" nType="-99"/>
            <Node pos="r" depth="3" NCoef="0" IVar="-1" Cut="0.0000000000000000e+00" cType="1" res="-2.0923497155308723e-02" rms="4.7641155123710632e-01" purity="5.7354235649108887e-01" nType="-99"/>
          </Node>
        </Node>
      </Node>
    </BinaryTree>
    <BinaryTree type="DecisionTree" boostWeight="1.0000000000000000e+00" itree="391">
      <Node pos="s" depth="0" NCoef="0" IVar="4" Cut="8.7597668170928955e-01" cType="1" res="3.3777749631553888e-03" rms="4.6385982632637024e-01" purity="5.0884580612182617e-01" nType="0">
        <Node pos="l" depth="1" NCoef="0" IVar="6" Cut="1.6454721689224243e+00" cType="1" res="-1.9669834524393082e-02" rms="4.6044358611106873e-01" purity="4.4344371557235718e-01" nType="0">
          <Node pos="l" depth="2" NCoef="0" IVar="5" Cut="-1.6451840400695801e+00" cType="1" res="-8.4992824122309685e-03" rms="4.5866212248802185e-01" purity="4.5232442021369934e-01" nType="0">
            <Node pos="l" depth="3" NCoef="0" IVar="-1" Cut="0.0000000000000000e+00" cType="1" res="-4.4526077806949615e-02" rms="4.6031600236892700e-01" purity="4.3638706207275391e-01" nType="-99"/>
            <Node pos="r" depth="3" NCoef="0" IVar="-1" Cut="0.0000000000000000e+00" cType="1" res="1.6427638009190559e-02" rms="4.5632296800613403e-01" purity="4.6459862589836121e-01" nType="-99"/>
          </Node>
          <Node pos="r" depth="2" NCoef="0" IVar="-1" Cut="0.0000000000000000e+00" cType="1" res="-5.2549190819263458e-02" rms="4.6373018622398376e-01" purity="4.2088195681571960e-01" nType="-99"/>
        </Node>
        <Node pos="r" depth="1" NCoef="0" IVar="9" Cut="6.6623562500000000e+04" cType="1" res="0.0000000000000000e+00" rms="0.0000000000000000e+00" purity="5.2069413661956787e-01" nType="0">
          <Node pos="l" depth="2" NCoef="0" IVar="3" Cut="2.2954990863800049e+00" cType="1" res="0.0000000000000000e+00" rms="0.0000000000000000e+00" purity="4.8611849546432495e-01" nType="0">
            <Node pos="l" depth="3" NCoef="0" IVar="-1" Cut="0.0000000000000000e+00" cType="1" res="5.2229751599952579e-04" rms="4.7422850131988525e-01" purity="4.3374985456466675e-01" nType="-99"/>
            <Node pos="r" depth="3" NCoef="0" IVar="-1" Cut="0.0000000000000000e+00" cType="1" res="1.7001267522573471e-02" rms="4.6707737445831299e-01" purity="5.0773853063583374e-01" nType="-99"/>
          </Node>
          <Node pos="r" depth="2" NCoef="0" IVar="5" Cut="1.6453706026077271e+00" cType="1" res="-5.8049745857715607e-03" rms="4.3989211320877075e-01" purity="6.8746942281723022e-01" nType="0">
            <Node pos="l" depth="3" NCoef="0" IVar="-1" Cut="0.0000000000000000e+00" cType="1" res="7.6695433817803860e-03" rms="4.3942198157310486e-01" purity="6.8706172704696655e-01" nType="-99"/>
            <Node pos="r" depth="3" NCoef="0" IVar="-1" Cut="0.0000000000000000e+00" cType="1" res="-3.7204653024673462e-02" rms="4.3982508778572083e-01" purity="6.8819463253021240e-01" nType="-99"/>
          </Node>
        </Node>
      </Node>
    </BinaryTree>
    <BinaryTree type="DecisionTree" boostWeight="1.0000000000000000e+00" itree="392">
      <Node pos="s" depth="0" NCoef="0" IVar="4" Cut="3.2711985111236572e+00" cType="1" res="-6.1831311322748661e-03" rms="4.5962601900100708e-01" purity="4.9837693572044373e-01" nType="0">
        <Node pos="l" depth="1" NCoef="0" IVar="2" Cut="5.1425781250000000e+02" cType="1" res="-2.6332503184676170e-03" rms="4.6224367618560791e-01" purity="5.1233875751495361e-01" nType="0">
          <Node pos="l" depth="2" NCoef="0" IVar="7" Cut="6.0000000000000000e+00" cType="1" res="-1.4389979187399149e-03" rms="4.6202665567398071e-01" purity="5.0971162319183350e-01" nType="0">
            <Node pos="l" depth="3" NCoef="0" IVar="-1" Cut="0.0000000000000000e+00" cType="1" res="2.5513917207717896e-03" rms="4.6524873375892639e-01" purity="4.7234520316123962e-01" nType="-99"/>
            <Node pos="r" depth="3" NCoef="0" IVar="-1" Cut="0.0000000000000000e+00" cType="1" res="-3.7956584710627794e-03" rms="4.5358574390411377e-01" purity="6.0521143674850464e-01" nType="-99"/>
          </Node>
          <Node pos="r" depth="2" NCoef="0" IVar="-1" Cut="0.0000000000000000e+00" cType="1" res="-3.0200533568859100e-02" rms="4.6581757068634033e-01" purity="5.6702119112014771e-01" nType="-99"/>
        </Node>
        <Node pos="r" depth="1" NCoef="0" IVar="-1" Cut="0.0000000000000000e+00" cType="1" res="-1.8202424980700016e-03" rms="4.1920441389083862e-01" purity="3.0747333168983459e-01" nType="-99"/>
      </Node>
    </BinaryTree>
    <BinaryTree type="DecisionTree" boostWeight="1.0000000000000000e+00" itree="393">
      <Node pos="s" depth="0" NCoef="0" IVar="7" Cut="5.0000000000000000e+00" cType="1" res="-2.4509702343493700e-03" rms="4.6410349011421204e-01" purity="5.0394690036773682e-01" nType="0">
        <Node pos="l" depth="1" NCoef="0" IVar="4" Cut="2.4341807365417480e+00" cType="1" res="6.9029713049530983e-03" rms="4.6734693646430969e-01" purity="4.3649443984031677e-01" nType="0">
          <Node pos="l" depth="2" NCoef="0" IVar="2" Cut="2.0003630065917969e+02" cType="1" res="-1.0372981196269393e-03" rms="4.6669262647628784e-01" purity="4.1816124320030212e-01" nType="0">
            <Node pos="l" depth="3" NCoef="0" IVar="-1" Cut="0.0000000000000000e+00" cType="1" res="-1.5265666879713535e-02" rms="4.6614685654640198e-01" purity="3.7810418009757996e-01" nType="-99"/>
            <Node pos="r" depth="3" NCoef="0" IVar="-1" Cut="0.0000000000000000e+00" cType="1" res="1.0801054537296295e-02" rms="4.6685114502906799e-01" purity="4.5076361298561096e-01" nType="-99"/>
          </Node>
          <Node pos="r" depth="2" NCoef="0" IVar="3" Cut="3.8154652118682861e+00" cType="1" res="2.3895956575870514e-02" rms="4.6829196810722351e-01" purity="4.7572934627532959e-01" nType="0">
            <Node pos="l" depth="3" NCoef="0" IVar="-1" Cut="0.0000000000000000e+00" cType="1" res="3.2737743109464645e-02" rms="4.6900755167007446e-01" purity="4.4323474168777466e-01" nType="-99"/>
            <Node pos="r" depth="3" NCoef="0" IVar="-1" Cut="0.0000000000000000e+00" cType="1" res="1.8698578700423241e-02" rms="4.6751257777214050e-01" purity="5.0546604394912720e-01" nType="-99"/>
          </Node>
        </Node>
        <Node pos="r" depth="1" NCoef="0" IVar="6" Cut="4.4882604479789734e-01" cType="1" res="-9.7155710682272911e-03" rms="4.6144327521324158e-01" purity="5.5641293525695801e-01" nType="0">
          <Node pos="l" depth="2" NCoef="0" IVar="4" Cut="1.9405196905136108e+00" cType="1" res="0.0000000000000000e+00" rms="0.0000000000000000e+00" purity="5.8343362808227539e-01" nType="0">
            <Node pos="l" depth="3" NCoef="0" IVar="-1" Cut="0.0000000000000000e+00" cType="1" res="-2.1348362788558006e-02" rms="4.6543672680854797e-01" purity="5.4372268915176392e-01" nType="-99"/>
            <Node pos="r" depth="3" NCoef="0" IVar="-1" Cut="0.0000000000000000e+00" cType="1" res="1.6606839373707771e-02" rms="4.5426553487777710e-01" purity="6.2161564826965332e-01" nType="-99"/>
          </Node>
          <Node pos="r" depth="2" NCoef="0" IVar="6" Cut="9.6197569370269775e-01" cType="1" res="-2.0407801494002342e-02" rms="4.6282294392585754e-01" purity="5.2489703893661499e-01" nType="0">
            <Node pos="l" depth="3" NCoef="0" IVar="-1" Cut="0.0000000000000000e+00" cType="1" res="-3.8108332082629204e-03" rms="4.3996667861938477e-01" purity="5.2313745021820068e-01" nType="-99"/>
            <Node pos="r" depth="3" NCoef="0" IVar="-1" Cut="0.0000000000000000e+00" cType="1" res="-6.7608240060508251e-03" rms="4.6698492765426636e-01" purity="5.2529382705688477e-01" nType="-99"/>
          </Node>
        </Node>
      </Node>
    </BinaryTree>
    <BinaryTree type="DecisionTree" boostWeight="1.0000000000000000e+00" itree="394">
      <Node pos="s" depth="0" NCoef="0" IVar="2" Cut="2.1069126892089844e+02" cType="1" res="-4.1025225073099136e-03" rms="4.6016737818717957e-01" purity="4.9992108345031738e-01" nType="0">
        <Node pos="l" depth="1" NCoef="0" IVar="6" Cut="-7.4792313575744629e-01" cType="1" res="3.6983906757086515e-03" rms="4.5889863371849060e-01" purity="5.1188182830810547e-01" nType="0">
          <Node pos="l" depth="2" NCoef="0" IVar="4" Cut="1.0916961431503296e+00" cType="1" res="-7.8888917341828346e-03" rms="4.6394520998001099e-01" purity="4.8617079854011536e-01" nType="0">
            <Node pos="l" depth="3" NCoef="0" IVar="-1" Cut="0.0000000000000000e+00" cType="1" res="1.9385771825909615e-02" rms="4.5684808492660522e-01" purity="4.6909800171852112e-01" nType="-99"/>
            <Node pos="r" depth="3" NCoef="0" IVar="-1" Cut="0.0000000000000000e+00" cType="1" res="-1.3859852217137814e-02" rms="4.6558827161788940e-01" purity="4.9061903357505798e-01" nType="-99"/>
          </Node>
          <Node pos="r" depth="2" NCoef="0" IVar="2" Cut="1.6774038696289062e+02" cType="1" res="1.2058809399604797e-02" rms="4.5503947138786316e-01" purity="5.3043276071548462e-01" nType="0">
            <Node pos="l" depth="3" NCoef="0" IVar="-1" Cut="0.0000000000000000e+00" cType="1" res="2.2923598065972328e-02" rms="4.5230689644813538e-01" purity="5.2547580003738403e-01" nType="-99"/>
            <Node pos="r" depth="3" NCoef="0" IVar="-1" Cut="0.0000000000000000e+00" cType="1" res="3.6159404553472996e-03" rms="4.5736232399940491e-01" purity="5.3502309322357178e-01" nType="-99"/>
          </Node>
        </Node>
        <Node pos="r" depth="1" NCoef="0" IVar="4" Cut="1.1314710378646851e+00" cType="1" res="-1.6722068190574646e-02" rms="4.6193364262580872e-01" purity="4.8057228326797485e-01" nType="0">
          <Node pos="l" depth="2" NCoef="0" IVar="4" Cut="7.7578490972518921e-01" cType="1" res="6.4202188514173031e-03" rms="4.6109855175018311e-01" purity="4.4244301319122314e-01" nType="0">
            <Node pos="l" depth="3" NCoef="0" IVar="-1" Cut="0.0000000000000000e+00" cType="1" res="-3.5403552465140820e-03" rms="4.6003064513206482e-01" purity="4.3422123789787292e-01" nType="-99"/>
            <Node pos="r" depth="3" NCoef="0" IVar="-1" Cut="0.0000000000000000e+00" cType="1" res="1.6245774924755096e-02" rms="4.6197766065597534e-01" purity="4.5043551921844482e-01" nType="-99"/>
          </Node>
          <Node pos="r" depth="2" NCoef="0" IVar="6" Cut="-2.2439632415771484e+00" cType="1" res="-2.4821704253554344e-02" rms="4.6195176243782043e-01" purity="4.9391725659370422e-01" nType="0">
            <Node pos="l" depth="3" NCoef="0" IVar="-1" Cut="0.0000000000000000e+00" cType="1" res="-5.1340232603251934e-03" rms="4.7199550271034241e-01" purity="5.2209651470184326e-01" nType="-99"/>
            <Node pos="r" depth="3" NCoef="0" IVar="-1" Cut="0.0000000000000000e+00" cType="1" res="-1.2455536983907223e-02" rms="4.5716747641563416e-01" purity="4.8145762085914612e-01" nType="-99"/>
          </Node>
        </Node>
      </Node>
    </BinaryTree>
    <BinaryTree type="DecisionTree" boostWeight="1.0000000000000000e+00" itree="395">
      <Node pos="s" depth="0" NCoef="0" IVar="7" Cut="8.0000000000000000e+00" cType="1" res="-8.8057573884725571e-03" rms="4.5936098694801331e-01" purity="4.9463808536529541e-01" nType="0">
        <Node pos="l" depth="1" NCoef="0" IVar="4" Cut="1.8827588558197021e+00" cType="1" res="-1.0560695081949234e-02" rms="4.5977762341499329e-01" purity="4.8831579089164734e-01" nType="0">
          <Node pos="l" depth="2" NCoef="0" IVar="9" Cut="6.3586230468750000e+04" cType="1" res="1.4912808546796441e-03" rms="4.6531048417091370e-01" purity="4.7931158542633057e-01" nType="0">
            <Node pos="l" depth="3" NCoef="0" IVar="-1" Cut="0.0000000000000000e+00" cType="1" res="-3.4341579303145409e-03" rms="4.6915534138679504e-01" purity="4.3232998251914978e-01" nType="-99"/>
            <Node pos="r" depth="3" NCoef="0" IVar="-1" Cut="0.0000000000000000e+00" cType="1" res="2.5181859731674194e-02" rms="4.4824340939521790e-01" purity="6.7793750762939453e-01" nType="-99"/>
          </Node>
          <Node pos="r" depth="2" NCoef="0" IVar="6" Cut="1.0471290349960327e+00" cType="1" res="-2.1865338087081909e-02" rms="4.5423606038093567e-01" purity="4.9676170945167542e-01" nType="0">
            <Node pos="l" depth="3" NCoef="0" IVar="-1" Cut="0.0000000000000000e+00" cType="1" res="-9.6449237316846848e-03" rms="4.5692786574363708e-01" purity="5.3160601854324341e-01" nType="-99"/>
            <Node pos="r" depth="3" NCoef="0" IVar="-1" Cut="0.0000000000000000e+00" cType="1" res="-7.1712001226842403e-03" rms="4.5028835535049438e-01" purity="4.5087757706642151e-01" nType="-99"/>
          </Node>
        </Node>
        <Node pos="r" depth="1" NCoef="0" IVar="-1" Cut="0.0000000000000000e+00" cType="1" res="3.3721178770065308e-02" rms="4.4769948720932007e-01" purity="6.4372074604034424e-01" nType="-99"/>
      </Node>
    </BinaryTree>
    <BinaryTree type="DecisionTree" boostWeight="1.0000000000000000e+00" itree="396">
      <Node pos="s" depth="0" NCoef="0" IVar="5" Cut="1.0470507144927979e+00" cType="1" res="1.7978650284931064e-03" rms="4.5986571907997131e-01" purity="5.0846451520919800e-01" nType="0">
        <Node pos="l" depth="1" NCoef="0" IVar="6" Cut="1.4958748221397400e-01" cType="1" res="-4.2856000363826752e-03" rms="4.6098616719245911e-01" purity="4.9017697572708130e-01" nType="0">
          <Node pos="l" depth="2" NCoef="0" IVar="8" Cut="7.3769148437500000e+04" cType="1" res="2.6618037372827530e-03" rms="4.6474182605743408e-01" purity="4.7442647814750671e-01" nType="0">
            <Node pos="l" depth="3" NCoef="0" IVar="-1" Cut="0.0000000000000000e+00" cType="1" res="-4.0435986593365669e-03" rms="4.6500432491302490e-01" purity="4.1852468252182007e-01" nType="-99"/>
            <Node pos="r" depth="3" NCoef="0" IVar="-1" Cut="0.0000000000000000e+00" cType="1" res="1.8971478566527367e-02" rms="4.6378636360168457e-01" purity="6.0636389255523682e-01" nType="-99"/>
          </Node>
          <Node pos="r" depth="2" NCoef="0" IVar="8" Cut="5.9088433593750000e+04" cType="1" res="0.0000000000000000e+00" rms="0.0000000000000000e+00" purity="5.2351897954940796e-01" nType="0">
            <Node pos="l" depth="3" NCoef="0" IVar="-1" Cut="0.0000000000000000e+00" cType="1" res="-3.5409834235906601e-03" rms="4.6054965257644653e-01" purity="4.0186619758605957e-01" nType="-99"/>
            <Node pos="r" depth="3" NCoef="0" IVar="-1" Cut="0.0000000000000000e+00" cType="1" res="-1.9497599452733994e-02" rms="4.4580510258674622e-01" purity="6.2157058715820312e-01" nType="-99"/>
          </Node>
        </Node>
        <Node pos="r" depth="1" NCoef="0" IVar="5" Cut="1.5460994243621826e+00" cType="1" res="0.0000000000000000e+00" rms="0.0000000000000000e+00" purity="5.3550386428833008e-01" nType="0">
          <Node pos="l" depth="2" NCoef="0" IVar="-1" Cut="0.0000000000000000e+00" cType="1" res="3.8832005113363266e-02" rms="4.6052217483520508e-01" purity="5.2233254909515381e-01" nType="-99"/>
          <Node pos="r" depth="2" NCoef="0" IVar="6" Cut="-4.4906237721443176e-01" cType="1" res="5.9376736171543598e-03" rms="4.5743501186370850e-01" purity="5.3792738914489746e-01" nType="0">
            <Node pos="l" depth="3" NCoef="0" IVar="-1" Cut="0.0000000000000000e+00" cType="1" res="2.3601839318871498e-02" rms="4.3120819330215454e-01" purity="7.0147901773452759e-01" nType="-99"/>
            <Node pos="r" depth="3" NCoef="0" IVar="-1" Cut="0.0000000000000000e+00" cType="1" res="1.1697561712935567e-03" rms="4.6464985609054565e-01" purity="4.9050277471542358e-01" nType="-99"/>
          </Node>
        </Node>
      </Node>
    </BinaryTree>
    <BinaryTree type="DecisionTree" boostWeight="1.0000000000000000e+00" itree="397">
      <Node pos="s" depth="0" NCoef="0" IVar="5" Cut="-2.2440359592437744e+00" cType="1" res="-5.7155117392539978e-03" rms="4.6034324169158936e-01" purity="4.9696275591850281e-01" nType="0">
        <Node pos="l" depth="1" NCoef="0" IVar="7" Cut="6.0000000000000000e+00" cType="1" res="1.8300179392099380e-02" rms="4.6311458945274353e-01" purity="5.4711449146270752e-01" nType="0">
          <Node pos="l" depth="2" NCoef="0" IVar="6" Cut="-2.2429730892181396e+00" cType="1" res="1.0538604110479355e-02" rms="4.6743527054786682e-01" purity="5.0145542621612549e-01" nType="0">
            <Node pos="l" depth="3" NCoef="0" IVar="-1" Cut="0.0000000000000000e+00" cType="1" res="3.9296958595514297e-02" rms="4.7946918010711670e-01" purity="5.5074721574783325e-01" nType="-99"/>
            <Node pos="r" depth="3" NCoef="0" IVar="-1" Cut="0.0000000000000000e+00" cType="1" res="-4.8896030057221651e-04" rms="4.6005463600158691e-01" purity="4.7342061996459961e-01" nType="-99"/>
          </Node>
          <Node pos="r" depth="2" NCoef="0" IVar="-1" Cut="0.0000000000000000e+00" cType="1" res="5.0076000392436981e-02" rms="4.5086082816123962e-01" purity="6.6776090860366821e-01" nType="-99"/>
        </Node>
        <Node pos="r" depth="1" NCoef="0" IVar="7" Cut="6.0000000000000000e+00" cType="1" res="-1.2568716891109943e-02" rms="4.5931106805801392e-01" purity="4.8266065120697021e-01" nType="0">
          <Node pos="l" depth="2" NCoef="0" IVar="1" Cut="2.6666387500000000e+05" cType="1" res="-4.8164241015911102e-03" rms="4.6145871281623840e-01" purity="4.5370629429817200e-01" nType="0">
            <Node pos="l" depth="3" NCoef="0" IVar="-1" Cut="0.0000000000000000e+00" cType="1" res="-7.2160349227488041e-03" rms="4.6273383498191833e-01" purity="4.6462690830230713e-01" nType="-99"/>
            <Node pos="r" depth="3" NCoef="0" IVar="-1" Cut="0.0000000000000000e+00" cType="1" res="4.8895880579948425e-02" rms="4.4384646415710449e-01" purity="3.2309937477111816e-01" nType="-99"/>
          </Node>
          <Node pos="r" depth="2" NCoef="0" IVar="5" Cut="1.0896750688552856e+00" cType="1" res="-3.3760759979486465e-02" rms="4.5273789763450623e-01" purity="5.6188321113586426e-01" nType="0">
            <Node pos="l" depth="3" NCoef="0" IVar="-1" Cut="0.0000000000000000e+00" cType="1" res="-4.8619508743286133e-03" rms="4.5273843407630920e-01" purity="5.2341926097869873e-01" nType="-99"/>
            <Node pos="r" depth="3" NCoef="0" IVar="-1" Cut="0.0000000000000000e+00" cType="1" res="-1.5828469768166542e-02" rms="4.5212292671203613e-01" purity="6.0167574882507324e-01" nType="-99"/>
          </Node>
        </Node>
      </Node>
    </BinaryTree>
    <BinaryTree type="DecisionTree" boostWeight="1.0000000000000000e+00" itree="398">
      <Node pos="s" depth="0" NCoef="0" IVar="5" Cut="-1.0472184419631958e+00" cType="1" res="-9.5599573105573654e-03" rms="4.6029600501060486e-01" purity="4.9277943372726440e-01" nType="0">
        <Node pos="l" depth="1" NCoef="0" IVar="2" Cut="2.1453059387207031e+02" cType="1" res="0.0000000000000000e+00" rms="0.0000000000000000e+00" purity="5.1910555362701416e-01" nType="0">
          <Node pos="l" depth="2" NCoef="0" IVar="4" Cut="2.2717761993408203e+00" cType="1" res="9.5970556139945984e-03" rms="4.6229714155197144e-01" purity="5.3426414728164673e-01" nType="0">
            <Node pos="l" depth="3" NCoef="0" IVar="-1" Cut="0.0000000000000000e+00" cType="1" res="-3.9935967652127147e-04" rms="4.6554142236709595e-01" purity="5.1531314849853516e-01" nType="-99"/>
            <Node pos="r" depth="3" NCoef="0" IVar="-1" Cut="0.0000000000000000e+00" cType="1" res="3.1004598364233971e-02" rms="4.5672932267189026e-01" purity="5.6396973133087158e-01" nType="-99"/>
          </Node>
          <Node pos="r" depth="2" NCoef="0" IVar="5" Cut="-2.5440671443939209e+00" cType="1" res="-1.2200409546494484e-02" rms="4.6346119046211243e-01" purity="4.9428218603134155e-01" nType="0">
            <Node pos="l" depth="3" NCoef="0" IVar="-1" Cut="0.0000000000000000e+00" cType="1" res="-8.5128210484981537e-03" rms="4.5421433448791504e-01" purity="4.7635820508003235e-01" nType="-99"/>
            <Node pos="r" depth="3" NCoef="0" IVar="-1" Cut="0.0000000000000000e+00" cType="1" res="3.8707058411091566e-04" rms="4.6955287456512451e-01" purity="5.0708228349685669e-01" nType="-99"/>
          </Node>
        </Node>
        <Node pos="r" depth="1" NCoef="0" IVar="3" Cut="5.7495226860046387e+00" cType="1" res="-1.6816660761833191e-02" rms="4.5843654870986938e-01" purity="4.7524115443229675e-01" nType="0">
          <Node pos="l" depth="2" NCoef="0" IVar="3" Cut="7.2485238313674927e-01" cType="1" res="-2.2960962727665901e-02" rms="4.6354675292968750e-01" purity="4.6004572510719299e-01" nType="0">
            <Node pos="l" depth="3" NCoef="0" IVar="-1" Cut="0.0000000000000000e+00" cType="1" res="3.0616112053394318e-03" rms="4.6470510959625244e-01" purity="4.2263942956924438e-01" nType="-99"/>
            <Node pos="r" depth="3" NCoef="0" IVar="-1" Cut="0.0000000000000000e+00" cType="1" res="-1.0415246710181236e-02" rms="4.6278896927833557e-01" purity="4.7118705511093140e-01" nType="-99"/>
          </Node>
          <Node pos="r" depth="2" NCoef="0" IVar="6" Cut="2.2438969612121582e+00" cType="1" res="-7.2453827597200871e-03" rms="4.5019361376762390e-01" purity="4.9891185760498047e-01" nType="0">
            <Node pos="l" depth="3" NCoef="0" IVar="-1" Cut="0.0000000000000000e+00" cType="1" res="-2.2674031555652618e-02" rms="4.4270822405815125e-01" purity="5.1469898223876953e-01" nType="-99"/>
            <Node pos="r" depth="3" NCoef="0" IVar="-1" Cut="0.0000000000000000e+00" cType="1" res="5.4446929134428501e-03" rms="4.6062952280044556e-01" purity="4.7575777769088745e-01" nType="-99"/>
          </Node>
        </Node>
      </Node>
    </BinaryTree>
    <BinaryTree type="DecisionTree" boostWeight="1.0000000000000000e+00" itree="399">
      <Node pos="s" depth="0" NCoef="0" IVar="3" Cut="6.5681114196777344e+00" cType="1" res="0.0000000000000000e+00" rms="0.0000000000000000e+00" purity="4.9370431900024414e-01" nType="0">
        <Node pos="l" depth="1" NCoef="0" IVar="5" Cut="-1.9445358514785767e+00" cType="1" res="-3.3543843310326338e-03" rms="4.6441215276718140e-01" purity="4.9025145173072815e-01" nType="0">
          <Node pos="l" depth="2" NCoef="0" IVar="6" Cut="-1.4971593022346497e-01" cType="1" res="-1.8632840365171432e-02" rms="4.6759325265884399e-01" purity="4.9726900458335876e-01" nType="0">
            <Node pos="l" depth="3" NCoef="0" IVar="-1" Cut="0.0000000000000000e+00" cType="1" res="-2.0419046282768250e-02" rms="4.7437497973442078e-01" purity="4.5325404405593872e-01" nType="-99"/>
            <Node pos="r" depth="3" NCoef="0" IVar="-1" Cut="0.0000000000000000e+00" cType="1" res="1.3681625714525580e-03" rms="4.4721129536628723e-01" purity="6.2202316522598267e-01" nType="-99"/>
          </Node>
          <Node pos="r" depth="2" NCoef="0" IVar="3" Cut="-5.1397198438644409e-01" cType="1" res="2.8946527745574713e-03" rms="4.6295949816703796e-01" purity="4.8738116025924683e-01" nType="0">
            <Node pos="l" depth="3" NCoef="0" IVar="-1" Cut="0.0000000000000000e+00" cType="1" res="-4.3087280355393887e-03" rms="4.3406775593757629e-01" purity="3.5299319028854370e-01" nType="-99"/>
            <Node pos="r" depth="3" NCoef="0" IVar="-1" Cut="0.0000000000000000e+00" cType="1" res="6.1074062250554562e-03" rms="4.6720388531684875e-01" purity="5.0888293981552124e-01" nType="-99"/>
          </Node>
        </Node>
        <Node pos="r" depth="1" NCoef="0" IVar="5" Cut="1.9442030191421509e+00" cType="1" res="-1.7622524872422218e-02" rms="4.4965654611587524e-01" purity="5.0173306465148926e-01" nType="0">
          <Node pos="l" depth="2" NCoef="0" IVar="6" Cut="2.5429012775421143e+00" cType="1" res="-2.3647950962185860e-02" rms="4.5030859112739563e-01" purity="4.7987380623817444e-01" nType="0">
            <Node pos="l" depth="3" NCoef="0" IVar="-1" Cut="0.0000000000000000e+00" cType="1" res="-3.4397263079881668e-02" rms="4.4787400960922241e-01" purity="4.9308827519416809e-01" nType="-99"/>
            <Node pos="r" depth="3" NCoef="0" IVar="-1" Cut="0.0000000000000000e+00" cType="1" res="-9.7756395116448402e-03" rms="4.5865133404731750e-01" purity="4.3216750025749207e-01" nType="-99"/>
          </Node>
          <Node pos="r" depth="2" NCoef="0" IVar="-1" Cut="0.0000000000000000e+00" cType="1" res="3.1498258467763662e-03" rms="4.4689217209815979e-01" purity="5.7454341650009155e-01" nType="-99"/>
        </Node>
      </Node>
    </BinaryTree>
  </Weights>
</MethodSetup>
